<unk>	0
<s>	0
</s>	0
▁,	-0
то	-1
▁п	-2
▁в	-3
▁с	-4
▁н	-5
▁.	-6
▁и	-7
но	-8
ст	-9
ра	-10
▁о	-11
ен	-12
▁м	-13
▁к	-14
ро	-15
ли	-16
▁д	-17
▁по	-18
▁на	-19
ет	-20
го	-21
▁ч	-22
ть	-23
ни	-24
ре	-25
▁б	-26
ль	-27
ва	-28
те	-29
та	-30
ри	-31
ко	-32
ло	-33
▁э	-34
ны	-35
ла	-36
на	-37
▁не	-38
за	-39
во	-40
▁что	-41
ем	-42
да	-43
▁ко	-44
ся	-45
ка	-46
▁у	-47
ер	-48
ти	-49
ени	-50
ле	-51
ди	-52
▁это	-53
де	-54
▁про	-55
▁ра	-56
ки	-57
ми	-58
ру	-59
▁мо	-60
▁за	-61
▁ка	-62
ви	-63
▁я	-64
▁бы	-65
мо	-66
▁то	-67
ля	-68
▁е	-69
ма	-70
▁со	-71
▁вы	-72
хо	-73
бо	-74
ры	-75
не	-76
▁во	-77
▁мы	-78
ча	-79
▁до	-80
чи	-81
▁В	-82
ци	-83
▁И	-84
до	-85
же	-86
сь	-87
▁из	-88
▁при	-89
ей	-90
▁об	-91
▁а	-92
▁та	-93
▁Н	-94
▁от	-95
лю	-96
▁з	-97
ве	-98
ме	-99
▁вс	-100
по	-101
сть	-102
ду	-103
жи	-104
▁С	-105
сто	-106
▁кото	-107
че	-108
сти	-109
▁г	-110
▁М	-111
ши	-112
ста	-113
▁го	-114
ют	-115
▁&	-116
▁как	-117
▁т	-118
му	-119
▁П	-120
ги	-121
лу	-122
▁те	-123
▁:	-124
▁—	-125
со	-126
▁О	-127
ну	-128
▁бо	-129
▁Э	-130
ot	-131
льно	-132
qu	-133
quot	-134
щи	-135
мен	-136
жно	-137
▁К	-138
си	-139
ше	-140
ения	-141
▁но	-142
▁раз	-143
га	-144
▁ва	-145
▁Я	-146
▁?	-147
гда	-148
ку	-149
па	-150
ты	-151
ные	-152
▁ре	-153
▁А	-154
ных	-155
вы	-156
ере	-157
▁пре	-158
ня	-159
▁лю	-160
ень	-161
ско	-162
бы	-163
▁которы	-164
ение	-165
ту	-166
▁Т	-167
▁Это	-168
▁де	-169
▁все	-170
▁да	-171
ще	-172
▁ми	-173
вать	-174
ной	-175
зо	-176
▁ф	-177
▁«	-178
▁»	-179
ется	-180
▁Д	-181
▁для	-182
ств	-183
▁хо	-184
▁са	-185
ного	-186
▁ма	-187
ски	-188
▁так	-189
▁ни	-190
сли	-191
▁ме	-192
ство	-193
▁ис	-194
▁ве	-195
са	-196
ный	-197
▁)	-198
▁(	-199
▁они	-200
жа	-201
ете	-202
каза	-203
ды	-204
ря	-205
▁жи	-206
▁ин	-207
▁бу	-208
▁ви	-209
лько	-210
це	-211
▁се	-212
ак	-213
▁ста	-214
▁сво	-215
▁По	-216
▁зна	-217
би	-218
мы	-219
ша	-220
▁си	-221
зы	-222
▁боль	-223
вер	-224
▁Но	-225
▁дру	-226
ться	-227
лет	-228
▁ст	-229
▁ли	-230
▁Мы	-231
▁эти	-232
пи	-233
▁па	-234
вани	-235
▁мож	-236
сле	-237
▁чтобы	-238
▁под	-239
▁же	-240
про	-241
▁1	-242
зи	-243
тому	-244
▁рабо	-245
▁нас	-246
об	-247
▁их	-248
ров	-249
▁Б	-250
ным	-251
▁рас	-252
▁когда	-253
▁воз	-254
чно	-255
мер	-256
ная	-257
пе	-258
ему	-259
ке	-260
▁он	-261
вля	-262
▁мен	-263
▁или	-264
▁пере	-265
тся	-266
ходи	-267
гу	-268
▁бе	-269
▁было	-270
ор	-271
тель	-272
чень	-273
тельно	-274
▁од	-275
лы	-276
нима	-277
зу	-278
▁если	-279
▁есть	-280
дела	-281
гра	-282
▁На	-283
▁че	-284
чески	-285
▁меня	-286
▁пра	-287
ющи	-288
▁Е	-289
▁дол	-290
▁ча	-291
▁которые	-292
▁очень	-293
▁пред	-294
ства	-295
енно	-296
ции	-297
бе	-298
ву	-299
▁вре	-300
▁его	-301
дет	-302
се	-303
ба	-304
су	-305
▁су	-306
пра	-307
дей	-308
нов	-309
ят	-310
▁ш	-311
жен	-312
ща	-313
зна	-314
▁кон	-315
▁сдела	-316
▁-	-317
лове	-318
▁Во	-319
стви	-320
▁ро	-321
▁З	-322
▁ду	-323
вет	-324
мех	-325
ран	-326
▁дела	-327
▁лет	-328
▁само	-329
зда	-330
▁гово	-331
▁прои	-332
кой	-333
пу	-334
▁всё	-335
▁мне	-336
▁врем	-337
ца	-338
ние	-339
тов	-340
▁нам	-341
▁сто	-342
▁Смех	-343
▁жиз	-344
лись	-345
▁обра	-346
▁2	-347
▁челове	-348
ния	-349
▁У	-350
ную	-351
лось	-352
▁был	-353
ются	-354
зыва	-355
▁только	-356
ска	-357
ное	-358
▁созда	-359
логи	-360
▁ну	-361
ром	-362
лем	-363
ек	-364
пер	-365
ью	-366
▁испо	-367
сту	-368
мот	-369
▁ком	-370
▁Ко	-371
▁том	-372
▁сказа	-373
▁сло	-374
▁Ч	-375
лее	-376
ха	-377
▁стра	-378
ём	-379
▁дума	-380
▁Г	-381
лся	-382
дин	-383
можно	-384
▁каж	-385
▁работа	-386
ству	-387
▁исполь	-388
▁полу	-389
▁чем	-390
▁потому	-391
▁того	-392
00	-393
▁людей	-394
лен	-395
фи	-396
сно	-397
▁быть	-398
▁просто	-399
▁ле	-400
ком	-401
▁вам	-402
▁она	-403
стро	-404
▁Р	-405
рет	-406
он	-407
чу	-408
ствен	-409
пло	-410
▁тех	-411
тив	-412
▁после	-413
щё	-414
▁больше	-415
ными	-416
том	-417
шо	-418
▁этого	-419
дь	-420
▁может	-421
▁наш	-422
пы	-423
▁му	-424
▁слу	-425
▁Они	-426
▁помо	-427
бу	-428
ёт	-429
цен	-430
ков	-431
▁этом	-432
стоя	-433
вя	-434
ном	-435
▁пер	-436
менты	-437
зво	-438
▁нача	-439
▁ку	-440
▁Л	-441
▁спо	-442
▁который	-443
▁были	-444
шь	-445
ён	-446
при	-447
соб	-448
▁им	-449
▁пла	-450
ан	-451
сте	-452
▁была	-453
ар	-454
▁где	-455
▁ди	-456
▁Вы	-457
▁х	-458
▁могу	-459
▁которо	-460
ческо	-461
ход	-462
▁можно	-463
▁вот	-464
▁пу	-465
▁проб	-466
▁говори	-467
▁Так	-468
▁Он	-469
▁дет	-470
▁время	-471
час	-472
▁вас	-473
сы	-474
вания	-475
▁исто	-476
жу	-477
▁возможно	-478
лли	-479
ция	-480
▁ты	-481
▁таки	-482
▁люди	-483
бя	-484
вали	-485
▁инте	-486
ейчас	-487
▁более	-488
ность	-489
кры	-490
десь	-491
ении	-492
▁ещё	-493
▁буду	-494
луч	-495
ления	-496
фор	-497
пре	-498
▁Если	-499
▁Не	-500
дите	-501
вой	-502
▁други	-503
год	-504
▁много	-505
нь	-506
▁этот	-507
спе	-508
▁будет	-509
▁них	-510
лась	-511
дис	-512
▁оста	-513
плодис	-514
▁её	-515
плодисменты	-516
рии	-517
▁пи	-518
▁сле	-519
жны	-520
кра	-521
▁вер	-522
▁–	-523
дер	-524
▁дей	-525
вые	-526
▁Да	-527
▁фи	-528
▁вз	-529
▁проблем	-530
▁Вот	-531
смот	-532
нии	-533
жда	-534
▁Мо	-535
йте	-536
▁♫	-537
гля	-538
▁этой	-539
▁наши	-540
▁Аплодисменты	-541
рая	-542
ван	-543
▁вопро	-544
цы	-545
ности	-546
▁уже	-547
▁име	-548
ць	-549
▁даже	-550
▁нужно	-551
жд	-552
▁сделать	-553
▁мог	-554
▁свои	-555
▁нет	-556
ней	-557
клю	-558
ально	-559
дели	-560
вить	-561
▁кто	-562
▁сист	-563
▁поч	-564
торы	-565
ление	-566
сколько	-567
▁чу	-568
ений	-569
▁жизни	-570
▁Что	-571
▁тем	-572
она	-573
▁Х	-574
▁предста	-575
▁сре	-576
▁можем	-577
ети	-578
▁Как	-579
▁здесь	-580
▁милли	-581
спо	-582
▁мно	-583
▁действи	-584
вание	-585
▁це	-586
▁образо	-587
▁Ка	-588
▁иде	-589
вая	-590
ровать	-591
▁поня	-592
кт	-593
▁пока	-594
▁всего	-595
▁жен	-596
аль	-597
лей	-598
▁себя	-599
▁использо	-600
вых	-601
▁луч	-602
▁друго	-603
чита	-604
▁смо	-605
ходит	-606
годня	-607
▁сейчас	-608
▁объ	-609
бра	-610
чина	-611
▁пе	-612
перь	-613
нет	-614
▁хоро	-615
лі	-616
▁дан	-617
мени	-618
нологи	-619
▁ру	-620
▁также	-621
йти	-622
▁этих	-623
следо	-624
▁ту	-625
▁ор	-626
▁би	-627
обра	-628
дов	-629
▁один	-630
▁і	-631
нее	-632
цию	-633
этому	-634
▁день	-635
сло	-636
вый	-637
▁3	-638
дума	-639
▁!	-640
▁суще	-641
▁которая	-642
▁То	-643
ять	-644
нут	-645
жду	-646
вал	-647
ден	-648
▁могут	-649
▁За	-650
▁кра	-651
чь	-652
паси	-653
хи	-654
ению	-655
руп	-656
ника	-657
менно	-658
▁ско	-659
▁проис	-660
▁свя	-661
▁Когда	-662
пасибо	-663
чение	-664
тер	-665
кто	-666
▁самом	-667
▁случа	-668
▁уви	-669
▁всех	-670
дно	-671
гани	-672
тра	-673
стра	-674
▁должны	-675
▁самы	-676
▁способ	-677
▁систем	-678
ний	-679
▁хоте	-680
▁технологи	-681
тя	-682
так	-683
деть	-684
▁явля	-685
▁пол	-686
▁кар	-687
бира	-688
▁прави	-689
▁получи	-690
▁Бо	-691
▁женщи	-692
форма	-693
щей	-694
▁чи	-695
▁там	-696
▁Та	-697
▁деле	-698
лом	-699
ступ	-700
ерез	-701
род	-702
кое	-703
▁вос	-704
▁нау	-705
▁гла	-706
▁ц	-707
ющих	-708
▁эко	-709
кру	-710
вно	-711
дя	-712
зад	-713
▁эта	-714
жения	-715
▁вме	-716
▁эк	-717
#9	-718
▁&#9	-719
ге	-720
▁гра	-721
▁хочу	-722
▁обще	-723
▁назад	-724
▁называ	-725
▁исследо	-726
вто	-727
▁..	-728
▁эту	-729
▁показа	-730
▁моз	-731
ением	-732
которы	-733
▁ответ	-734
гла	-735
нечно	-736
▁понима	-737
▁Она	-738
нер	-739
▁...	-740
▁думаю	-741
ена	-742
сов	-743
жение	-744
▁откры	-745
▁послед	-746
▁дви	-747
тери	-748
▁Ф	-749
▁разви	-750
вед	-751
вает	-752
дел	-753
ены	-754
сси	-755
▁интере	-756
▁можете	-757
дый	-758
▁фо	-759
стью	-760
кти	-761
▁сов	-762
ую	-763
▁Итак	-764
▁позво	-765
кла	-766
кую	-767
кан	-768
рую	-769
▁через	-770
дом	-771
▁действительно	-772
▁%	-773
▁между	-774
▁информа	-775
ющие	-776
▁зада	-777
▁га	-778
▁пот	-779
▁пример	-780
▁сказал	-781
кие	-782
ья	-783
▁сем	-784
емся	-785
сты	-786
▁сегодня	-787
▁5	-788
▁над	-789
▁года	-790
▁больши	-791
▁себе	-792
▁использу	-793
▁без	-794
мери	-795
▁ба	-796
▁многи	-797
юсь	-798
▁пы	-799
▁чув	-800
стве	-801
сс	-802
вра	-803
▁голо	-804
▁счита	-805
▁истори	-806
▁несколько	-807
▁следу	-808
▁поли	-809
▁жизнь	-810
лаго	-811
мент	-812
ит	-813
щее	-814
тия	-815
▁органи	-816
грам	-817
ственно	-818
▁Те	-819
▁одна	-820
▁реш	-821
▁подо	-822
▁делать	-823
▁ос	-824
емо	-825
▁мире	-826
тем	-827
номи	-828
▁4	-829
▁ў	-830
▁мои	-831
▁ки	-832
его	-833
стя	-834
бли	-835
рав	-836
▁проек	-837
▁человек	-838
▁ла	-839
льта	-840
▁которых	-841
бой	-842
вши	-843
▁Спасибо	-844
▁20	-845
▁фор	-846
▁Ин	-847
▁этим	-848
пример	-849
кого	-850
▁отно	-851
▁мир	-852
▁году	-853
тно	-854
▁опре	-855
пол	-856
▁19	-857
нить	-858
▁Со	-859
вают	-860
графи	-861
шего	-862
▁поло	-863
рабо	-864
вле	-865
писа	-866
▁цен	-867
ких	-868
▁поя	-869
▁времени	-870
нова	-871
▁измени	-872
▁реши	-873
ман	-874
нови	-875
лле	-876
▁комп	-877
▁расс	-878
кая	-879
ким	-880
▁сер	-881
кон	-882
чество	-883
чения	-884
▁пло	-885
зе	-886
вое	-887
лень	-888
зульта	-889
дол	-890
лия	-891
дит	-892
▁пар	-893
▁некоторы	-894
▁шко	-895
▁пыта	-896
▁значи	-897
роят	-898
блю	-899
кту	-900
▁фото	-901
ник	-902
ёл	-903
▁измен	-904
реть	-905
▁необ	-906
ческие	-907
▁посмот	-908
▁сторо	-909
стре	-910
000	-911
▁проце	-912
дар	-913
гово	-914
прав	-915
ской	-916
стру	-917
ета	-918
▁два	-919
▁ней	-920
▁компа	-921
▁образом	-922
▁Про	-923
▁ры	-924
▁ри	-925
ющий	-926
▁обе	-927
▁результа	-928
▁10	-929
дить	-930
▁происходит	-931
▁получа	-932
▁каждый	-933
▁энер	-934
дна	-935
личи	-936
▁теле	-937
тро	-938
▁нем	-939
▁малень	-940
▁буд	-941
▁вопрос	-942
еть	-943
▁важно	-944
лё	-945
▁нико	-946
▁начина	-947
▁лучше	-948
▁смот	-949
▁тру	-950
▁экономи	-951
▁которой	-952
▁ша	-953
ствует	-954
▁осно	-955
▁обла	-956
лез	-957
▁три	-958
рода	-959
▁необходи	-960
ене	-961
чего	-962
▁сказать	-963
что	-964
▁уча	-965
стран	-966
ваться	-967
ружи	-968
вайте	-969
▁ог	-970
шло	-971
нг	-972
▁почему	-973
ческих	-974
кі	-975
фек	-976
▁авто	-977
шей	-978
▁помощ	-979
▁маши	-980
▁именно	-981
▁уров	-982
зя	-983
дим	-984
ним	-985
▁доста	-986
▁Ш	-987
▁Все	-988
▁является	-989
еты	-990
щая	-991
▁Ра	-992
▁человека	-993
▁которую	-994
▁груп	-995
ках	-996
рой	-997
верх	-998
▁других	-999
яс	-1000
▁Ма	-1001
цев	-1002
▁могли	-1003
▁теперь	-1004
ками	-1005
чки	-1006
▁находи	-1007
пла	-1008
▁детей	-1009
▁спра	-1010
▁учи	-1011
рен	-1012
▁всегда	-1013
▁компью	-1014
▁соб	-1015
▁высо	-1016
▁занима	-1017
▁продол	-1018
лич	-1019
фри	-1020
рите	-1021
▁Поэтому	-1022
рить	-1023
▁нашей	-1024
▁совер	-1025
▁благо	-1026
рь	-1027
▁ци	-1028
▁тра	-1029
▁никогда	-1030
вого	-1031
▁большо	-1032
емы	-1033
▁Хо	-1034
цион	-1035
▁вместе	-1036
▁обо	-1037
шая	-1038
▁пос	-1039
ключа	-1040
▁мой	-1041
▁тыся	-1042
проси	-1043
▁часть	-1044
лект	-1045
▁ска	-1046
имо	-1047
ческой	-1048
▁;	-1049
▁которое	-1050
ходя	-1051
нуть	-1052
▁изу	-1053
▁него	-1054
жет	-1055
дель	-1056
▁будут	-1057
ёр	-1058
▁коли	-1059
▁програм	-1060
ин	-1061
ская	-1062
▁своей	-1063
▁видите	-1064
▁сред	-1065
цу	-1066
▁тре	-1067
▁При	-1068
жна	-1069
▁обы	-1070
▁перед	-1071
лага	-1072
▁огром	-1073
▁конечно	-1074
цо	-1075
▁такой	-1076
▁тогда	-1077
▁дву	-1078
▁Мне	-1079
ских	-1080
мента	-1081
щего	-1082
вести	-1083
▁произво	-1084
диви	-1085
▁фак	-1086
▁свою	-1087
вала	-1088
▁собира	-1089
фе	-1090
▁узна	-1091
▁выгля	-1092
▁наз	-1093
ред	-1094
▁уч	-1095
раз	-1096
▁такие	-1097
щем	-1098
коло	-1099
▁использовать	-1100
▁всем	-1101
точно	-1102
ні	-1103
▁муж	-1104
▁ге	-1105
вест	-1106
▁кни	-1107
▁подума	-1108
▁элект	-1109
став	-1110
▁вещи	-1111
чы	-1112
тить	-1113
рован	-1114
▁год	-1115
обще	-1116
▁што	-1117
ффек	-1118
▁ти	-1119
▁другой	-1120
▁сот	-1121
ню	-1122
чной	-1123
▁лишь	-1124
сит	-1125
▁говоря	-1126
роде	-1127
ставля	-1128
▁обна	-1129
▁долла	-1130
▁Одна	-1131
▁потом	-1132
▁полити	-1133
▁расска	-1134
стей	-1135
ческий	-1136
▁ж	-1137
нем	-1138
▁тот	-1139
▁внут	-1140
сом	-1141
▁ар	-1142
сем	-1143
▁уда	-1144
▁наде	-1145
▁моей	-1146
▁Ва	-1147
▁матери	-1148
▁энерги	-1149
нд	-1150
рю	-1151
кий	-1152
ского	-1153
▁хоти	-1154
фо	-1155
▁наших	-1156
▁T	-1157
▁пря	-1158
вается	-1159
▁иг	-1160
▁виде	-1161
кус	-1162
▁свет	-1163
▁слова	-1164
ях	-1165
▁ло	-1166
▁6	-1167
ники	-1168
▁живо	-1169
ША	-1170
еди	-1171
лыша	-1172
▁проблема	-1173
▁немного	-1174
▁ничего	-1175
▁мира	-1176
▁мас	-1177
▁выра	-1178
кро	-1179
мя	-1180
▁место	-1181
▁био	-1182
телей	-1183
▁США	-1184
▁затем	-1185
али	-1186
ников	-1187
три	-1188
льные	-1189
льной	-1190
ун	-1191
▁произо	-1192
▁Ве	-1193
▁внима	-1194
чить	-1195
вым	-1196
▁дости	-1197
▁одно	-1198
▁момент	-1199
дой	-1200
▁Теперь	-1201
ций	-1202
теля	-1203
▁знаю	-1204
▁случае	-1205
▁хорошо	-1206
▁Се	-1207
▁истории	-1208
шу	-1209
▁тоже	-1210
▁миллио	-1211
▁например	-1212
▁меся	-1213
▁друг	-1214
▁части	-1215
рэ	-1216
ческого	-1217
▁уг	-1218
▁понять	-1219
циона	-1220
жать	-1221
ваю	-1222
▁таких	-1223
вод	-1224
вор	-1225
▁гэ	-1226
мет	-1227
▁кли	-1228
▁приш	-1229
▁кро	-1230
ешь	-1231
▁зву	-1232
мина	-1233
рави	-1234
▁около	-1235
▁Ну	-1236
▁пор	-1237
▁глу	-1238
▁особ	-1239
▁ад	-1240
мати	-1241
▁заме	-1242
▁прав	-1243
▁сту	-1244
▁окру	-1245
бор	-1246
ностью	-1247
▁похо	-1248
мой	-1249
▁соци	-1250
▁знаете	-1251
▁фотографи	-1252
▁эффек	-1253
▁оно	-1254
строй	-1255
▁любо	-1256
▁знаем	-1257
воз	-1258
зай	-1259
ток	-1260
ский	-1261
▁одной	-1262
вую	-1263
▁важ	-1264
▁зем	-1265
▁такое	-1266
▁рассказа	-1267
лов	-1268
правля	-1269
ших	-1270
▁нео	-1271
▁подоб	-1272
тие	-1273
жем	-1274
▁другие	-1275
▁еще	-1276
▁здо	-1277
ствовать	-1278
сё	-1279
▁живот	-1280
▁прекра	-1281
▁наблю	-1282
▁Ни	-1283
▁свой	-1284
▁поэтому	-1285
▁До	-1286
▁Поч	-1287
сла	-1288
▁чего	-1289
▁осо	-1290
▁поль	-1291
нах	-1292
боль	-1293
скую	-1294
ск	-1295
1;	-1296
▁кла	-1297
знача	-1298
ством	-1299
▁&#91;	-1300
▁игра	-1301
3;	-1302
▁&#93;	-1303
▁кри	-1304
▁отнош	-1305
нец	-1306
щу	-1307
бора	-1308
▁тер	-1309
шие	-1310
▁реально	-1311
▁долларов	-1312
▁стро	-1313
▁000	-1314
▁Для	-1315
▁реб	-1316
▁помощью	-1317
ктив	-1318
▁снова	-1319
волю	-1320
▁найти	-1321
▁ему	-1322
▁стал	-1323
работа	-1324
сса	-1325
рим	-1326
▁Афри	-1327
▁спа	-1328
дёт	-1329
▁доро	-1330
▁мест	-1331
▁дере	-1332
▁тому	-1333
ить	-1334
▁Са	-1335
▁создать	-1336
▁людя	-1337
▁проблемы	-1338
ита	-1339
дать	-1340
сколь	-1341
тели	-1342
▁200	-1343
▁самое	-1344
▁спе	-1345
▁уни	-1346
будь	-1347
туа	-1348
▁некоторые	-1349
нять	-1350
▁места	-1351
нно	-1352
▁Боль	-1353
▁идея	-1354
▁моло	-1355
▁хотел	-1356
▁вза	-1357
рия	-1358
▁Го	-1359
▁вне	-1360
▁мень	-1361
ские	-1362
▁Потому	-1363
чный	-1364
▁миллиар	-1365
дра	-1366
▁соверш	-1367
льных	-1368
▁насе	-1369
▁9	-1370
▁дизай	-1371
нок	-1372
нали	-1373
рения	-1374
▁успе	-1375
▁стать	-1376
▁спу	-1377
ждения	-1378
нен	-1379
льный	-1380
▁возможность	-1381
▁8	-1382
▁потре	-1383
ётся	-1384
▁работы	-1385
льту	-1386
поло	-1387
▁обнаружи	-1388
ез	-1389
▁вели	-1390
▁колле	-1391
▁необходимо	-1392
щения	-1393
▁защи	-1394
чества	-1395
▁смы	-1396
чен	-1397
▁люби	-1398
0-	-1399
▁ус	-1400
▁бли	-1401
▁Эти	-1402
жды	-1403
деля	-1404
пера	-1405
дии	-1406
▁Нам	-1407
▁интер	-1408
▁язы	-1409
▁ги	-1410
▁моя	-1411
▁данные	-1412
▁Зем	-1413
▁настоя	-1414
▁сча	-1415
▁Почему	-1416
жить	-1417
держи	-1418
▁извест	-1419
▁забо	-1420
▁Сейчас	-1421
нибудь	-1422
▁связа	-1423
▁взгля	-1424
▁кор	-1425
▁интерес	-1426
▁часто	-1427
ствие	-1428
ступа	-1429
▁Лю	-1430
казыва	-1431
чные	-1432
▁ее	-1433
▁дома	-1434
▁музы	-1435
прави	-1436
▁конце	-1437
▁меди	-1438
тор	-1439
▁пов	-1440
▁7	-1441
▁сами	-1442
▁зда	-1443
▁Ви	-1444
▁надо	-1445
▁своих	-1446
▁позволя	-1447
▁стран	-1448
мерикан	-1449
▁работать	-1450
рова	-1451
▁смер	-1452
▁какой	-1453
▁обу	-1454
▁сли	-1455
▁взаимо	-1456
пыта	-1457
нию	-1458
▁почти	-1459
тки	-1460
▁увидеть	-1461
▁должен	-1462
▁технологии	-1463
ваем	-1464
тере	-1465
▁Му	-1466
▁вой	-1467
▁клет	-1468
▁безо	-1469
▁мозга	-1470
▁станови	-1471
▁говорит	-1472
щих	-1473
▁филь	-1474
▁двух	-1475
шим	-1476
ствия	-1477
лан	-1478
пасно	-1479
▁дово	-1480
▁искус	-1481
гли	-1482
из	-1483
▁Дж	-1484
▁неве	-1485
▁работает	-1486
▁собствен	-1487
рон	-1488
фер	-1489
▁количество	-1490
▁От	-1491
▁вра	-1492
▁большин	-1493
▁достаточно	-1494
жении	-1495
шком	-1496
▁течение	-1497
той	-1498
▁работу	-1499
ющей	-1500
▁Пер	-1501
▁стали	-1502
▁сложно	-1503
▁значит	-1504
▁изобра	-1505
▁аб	-1506
▁видео	-1507
▁прямо	-1508
▁основ	-1509
▁таким	-1510
▁оказа	-1511
▁культу	-1512
▁многие	-1513
▁миллионов	-1514
вом	-1515
▁Па	-1516
▁две	-1517
▁причи	-1518
▁кажется	-1519
ил	-1520
нами	-1521
зации	-1522
▁постро	-1523
▁состоя	-1524
▁вла	-1525
▁уве	-1526
▁семь	-1527
стой	-1528
ьте	-1529
▁этому	-1530
▁весь	-1531
▁дело	-1532
▁особенно	-1533
ут	-1534
▁Давайте	-1535
▁означа	-1536
ряд	-1537
▁ше	-1538
▁удиви	-1539
либо	-1540
▁ум	-1541
▁представ	-1542
▁людям	-1543
▁своего	-1544
▁деся	-1545
▁экспе	-1546
▁спроси	-1547
▁доступ	-1548
▁написа	-1549
кам	-1550
ногда	-1551
▁ха	-1552
▁распро	-1553
▁система	-1554
тами	-1555
▁убе	-1556
▁ситуа	-1557
▁физи	-1558
циен	-1559
▁вид	-1560
бро	-1561
▁каждо	-1562
▁прово	-1563
еха	-1564
▁сек	-1565
щение	-1566
зне	-1567
мся	-1568
чных	-1569
▁уста	-1570
▁быстро	-1571
▁Воз	-1572
▁недо	-1573
▁появи	-1574
▁друга	-1575
ший	-1576
▁тут	-1577
▁города	-1578
▁всему	-1579
щие	-1580
льного	-1581
▁представля	-1582
▁болез	-1583
ствуют	-1584
▁прош	-1585
▁хи	-1586
▁сти	-1587
рами	-1588
▁показыва	-1589
▁правитель	-1590
нан	-1591
ванием	-1592
цца	-1593
▁карти	-1594
▁оче	-1595
▁15	-1596
▁согла	-1597
▁Нет	-1598
круг	-1599
▁простран	-1600
▁коро	-1601
▁слож	-1602
▁замеча	-1603
▁планет	-1604
▁инстру	-1605
вро	-1606
рази	-1607
▁спосо	-1608
роятно	-1609
▁проду	-1610
▁оп	-1611
▁фун	-1612
▁совершенно	-1613
▁слишком	-1614
ском	-1615
▁имеет	-1616
▁увер	-1617
▁Есть	-1618
▁объяс	-1619
▁кру	-1620
пыт	-1621
▁ху	-1622
▁ведь	-1623
▁ради	-1624
▁четы	-1625
▁влия	-1626
▁говорить	-1627
▁вол	-1628
▁закон	-1629
▁контро	-1630
▁одного	-1631
▁совсем	-1632
тельные	-1633
▁неболь	-1634
▁Ми	-1635
▁оке	-1636
▁начали	-1637
щую	-1638
мі	-1639
них	-1640
▁сте	-1641
▁чер	-1642
▁постоя	-1643
жде	-1644
мети	-1645
▁собой	-1646
ёз	-1647
▁миру	-1648
▁системы	-1649
зм	-1650
▁наше	-1651
▁страны	-1652
▁микро	-1653
▁примерно	-1654
тах	-1655
▁гэта	-1656
вили	-1657
▁диа	-1658
▁зо	-1659
▁видеть	-1660
рит	-1661
ните	-1662
▁пациен	-1663
▁экспери	-1664
кар	-1665
ёте	-1666
▁бед	-1667
льное	-1668
▁изменить	-1669
ці	-1670
▁довольно	-1671
▁пои	-1672
▁Этот	-1673
вид	-1674
даря	-1675
▁точно	-1676
▁сделали	-1677
тят	-1678
▁предо	-1679
▁ю	-1680
▁ск	-1681
цией	-1682
▁многих	-1683
▁материа	-1684
▁бра	-1685
▁наи	-1686
▁ожи	-1687
▁вокруг	-1688
▁жа	-1689
▁котором	-1690
▁глав	-1691
▁лег	-1692
▁Здесь	-1693
▁верну	-1694
▁Эта	-1695
ходят	-1696
▁женщин	-1697
▁G	-1698
▁меньше	-1699
щий	-1700
пита	-1701
▁стре	-1702
разу	-1703
▁скоро	-1704
шую	-1705
▁сол	-1706
рё	-1707
▁Ж	-1708
шта	-1709
▁показать	-1710
▁C	-1711
него	-1712
▁бес	-1713
ремен	-1714
▁процен	-1715
▁говорят	-1716
▁прин	-1717
нача	-1718
▁стру	-1719
▁усло	-1720
▁сы	-1721
льше	-1722
▁насто	-1723
▁новые	-1724
▁различ	-1725
▁свобо	-1726
▁спи	-1727
▁Всё	-1728
▁множе	-1729
▁информации	-1730
▁должно	-1731
▁практи	-1732
▁внимание	-1733
мов	-1734
▁тран	-1735
▁жу	-1736
зі	-1737
▁S	-1738
▁100	-1739
▁видим	-1740
вании	-1741
ленно	-1742
▁сме	-1743
▁разме	-1744
▁внутри	-1745
▁вами	-1746
er	-1747
хва	-1748
сут	-1749
ваются	-1750
▁самых	-1751
▁существует	-1752
им	-1753
▁Нью	-1754
▁пара	-1755
▁нашего	-1756
нения	-1757
▁коман	-1758
пусти	-1759
▁принима	-1760
гре	-1761
нете	-1762
судар	-1763
▁стороны	-1764
ум	-1765
▁ново	-1766
▁хотим	-1767
сили	-1768
▁попа	-1769
▁возра	-1770
▁вто	-1771
виси	-1772
▁сама	-1773
▁наша	-1774
ED	-1775
▁окружа	-1776
▁един	-1777
▁вроде	-1778
▁Однако	-1779
▁первый	-1780
▁исследования	-1781
слу	-1782
эн	-1783
▁специ	-1784
ваний	-1785
▁делают	-1786
▁Ц	-1787
дут	-1788
▁помога	-1789
▁впер	-1790
▁Амери	-1791
дви	-1792
▁робо	-1793
▁взя	-1794
от	-1795
дьми	-1796
ющее	-1797
▁всю	-1798
▁мозг	-1799
▁слыша	-1800
ума	-1801
лоба	-1802
▁история	-1803
▁настолько	-1804
тории	-1805
▁друз	-1806
▁данных	-1807
▁ваш	-1808
▁пом	-1809
▁людьми	-1810
▁превра	-1811
▁приходи	-1812
чат	-1813
▁заня	-1814
▁медици	-1815
рует	-1816
▁бизне	-1817
▁энергии	-1818
мыш	-1819
▁30	-1820
▁мене	-1821
▁насколько	-1822
▁студен	-1823
▁нрави	-1824
▁зако	-1825
▁двига	-1826
▁дерев	-1827
▁собра	-1828
▁ши	-1829
▁нами	-1830
▁встре	-1831
лин	-1832
руд	-1833
▁учё	-1834
▁отве	-1835
▁раст	-1836
▁получить	-1837
▁рассказать	-1838
ерт	-1839
▁дети	-1840
▁решения	-1841
▁продолжа	-1842
чка	-1843
▁американ	-1844
▁означает	-1845
▁историю	-1846
ница	-1847
грани	-1848
един	-1849
▁сни	-1850
ческое	-1851
рт	-1852
▁осозна	-1853
▁Из	-1854
мена	-1855
▁случи	-1856
▁ним	-1857
льным	-1858
▁сла	-1859
▁поме	-1860
▁делает	-1861
ям	-1862
▁50	-1863
▁TED	-1864
▁Сегодня	-1865
чать	-1866
▁циф	-1867
▁жела	-1868
▁стоит	-1869
os	-1870
▁тысяч	-1871
▁уби	-1872
▁разных	-1873
▁компьютер	-1874
▁Мар	-1875
▁сам	-1876
баты	-1877
▁гото	-1878
▁мужчи	-1879
стов	-1880
▁процесс	-1881
▁ника	-1882
▁Хоро	-1883
▁долго	-1884
чай	-1885
▁живу	-1886
▁эффектив	-1887
▁хотя	-1888
▁услови	-1889
▁ужа	-1890
▁поко	-1891
ческая	-1892
там	-1893
ган	-1894
▁одну	-1895
зма	-1896
▁глаза	-1897
▁кос	-1898
▁демо	-1899
▁ощу	-1900
▁После	-1901
▁которым	-1902
le	-1903
чет	-1904
▁жив	-1905
▁цент	-1906
▁чём	-1907
▁миро	-1908
▁срав	-1909
▁предло	-1910
▁против	-1911
▁кре	-1912
▁неё	-1913
▁серь	-1914
▁позволи	-1915
▁призна	-1916
▁государ	-1917
лены	-1918
▁изоб	-1919
▁объек	-1920
бри	-1921
▁мет	-1922
▁всей	-1923
рования	-1924
▁устрой	-1925
on	-1926
▁мето	-1927
▁компании	-1928
▁Пред	-1929
кси	-1930
делён	-1931
▁Бу	-1932
▁Ро	-1933
▁социаль	-1934
▁становится	-1935
▁A	-1936
гие	-1937
▁кого	-1938
пом	-1939
рети	-1940
▁город	-1941
вар	-1942
выми	-1943
▁моего	-1944
▁сказала	-1945
дру	-1946
рёх	-1947
нение	-1948
▁Си	-1949
▁нако	-1950
▁наблюда	-1951
▁полностью	-1952
▁вдо	-1953
▁отли	-1954
▁изменения	-1955
▁поте	-1956
▁глоба	-1957
шать	-1958
▁производ	-1959
бер	-1960
▁большой	-1961
▁компьюте	-1962
твер	-1963
▁мате	-1964
▁обеспе	-1965
▁последние	-1966
▁ды	-1967
▁моих	-1968
▁прода	-1969
тельный	-1970
хра	-1971
▁находится	-1972
▁путе	-1973
▁помочь	-1974
йд	-1975
▁возду	-1976
▁деньги	-1977
лению	-1978
▁начала	-1979
▁поверх	-1980
▁которого	-1981
стри	-1982
▁благодаря	-1983
▁возможности	-1984
ap	-1985
▁воспри	-1986
▁представить	-1987
▁воды	-1988
рак	-1989
▁менее	-1990
мом	-1991
▁Су	-1992
▁гру	-1993
▁сооб	-1994
▁Ре	-1995
▁ей	-1996
▁запа	-1997
помина	-1998
▁сделал	-1999
▁структу	-2000
пли	-2001
ющая	-2002
▁зрения	-2003
▁опу	-2004
ссе	-2005
▁чита	-2006
нные	-2007
▁неза	-2008
раздо	-2009
▁Конечно	-2010
▁пры	-2011
лении	-2012
▁мере	-2013
▁оши	-2014
▁той	-2015
▁точки	-2016
▁M	-2017
▁ря	-2018
▁Кита	-2019
▁прове	-2020
▁финан	-2021
чёт	-2022
▁ули	-2023
▁твор	-2024
▁родите	-2025
▁мя	-2026
▁проект	-2027
▁универ	-2028
▁Зна	-2029
▁стало	-2030
йн	-2031
▁женщины	-2032
тиво	-2033
кс	-2034
▁Люди	-2035
▁говорю	-2036
гов	-2037
▁Каж	-2038
▁будем	-2039
▁иметь	-2040
▁такого	-2041
▁сим	-2042
▁прекрас	-2043
моби	-2044
▁чувство	-2045
хран	-2046
▁направ	-2047
лон	-2048
сур	-2049
▁Ю	-2050
▁мной	-2051
▁цвет	-2052
▁начать	-2053
▁тя	-2054
▁приме	-2055
▁современ	-2056
▁переда	-2057
▁называется	-2058
▁неу	-2059
держа	-2060
▁гораздо	-2061
▁Например	-2062
▁информацию	-2063
▁меч	-2064
тельных	-2065
чку	-2066
крати	-2067
▁никто	-2068
ставить	-2069
▁♪	-2070
тен	-2071
ющим	-2072
▁сможем	-2073
еры	-2074
цов	-2075
▁самый	-2076
▁начал	-2077
▁Де	-2078
▁научи	-2079
▁должна	-2080
▁заболе	-2081
▁обычно	-2082
ев	-2083
▁ген	-2084
ступи	-2085
▁улуч	-2086
▁Таким	-2087
▁пове	-2088
▁вещей	-2089
▁принци	-2090
▁край	-2091
етесь	-2092
▁сколько	-2093
вались	-2094
нам	-2095
▁океа	-2096
▁гражда	-2097
шли	-2098
▁круп	-2099
▁безопасно	-2100
▁ними	-2101
ровали	-2102
▁лекар	-2103
▁гор	-2104
шения	-2105
▁цель	-2106
▁большинство	-2107
ями	-2108
▁иногда	-2109
▁биологи	-2110
шки	-2111
льная	-2112
▁идеи	-2113
▁бук	-2114
▁туда	-2115
рей	-2116
стли	-2117
фа	-2118
лети	-2119
влека	-2120
доб	-2121
раб	-2122
шить	-2123
▁Или	-2124
▁пси	-2125
▁жить	-2126
ленной	-2127
▁масшта	-2128
ссо	-2129
ческую	-2130
▁систему	-2131
▁увеличи	-2132
in	-2133
▁стране	-2134
▁четыре	-2135
рио	-2136
▁нор	-2137
▁противо	-2138
гна	-2139
▁ан	-2140
▁приро	-2141
▁спасибо	-2142
рах	-2143
▁дене	-2144
▁приня	-2145
▁путеше	-2146
Йор	-2147
няя	-2148
шен	-2149
▁Ты	-2150
ньше	-2151
▁Можно	-2152
▁писа	-2153
▁нечто	-2154
▁стала	-2155
▁архи	-2156
▁беспо	-2157
▁находя	-2158
▁сильно	-2159
▁говорил	-2160
НК	-2161
чного	-2162
▁погово	-2163
▁намного	-2164
▁странах	-2165
▁выбра	-2166
рее	-2167
чная	-2168
▁повед	-2169
▁помощи	-2170
▁раньше	-2171
яза	-2172
▁нравится	-2173
▁посмотреть	-2174
▁относи	-2175
▁случай	-2176
леко	-2177
▁другом	-2178
▁ограни	-2179
▁выглядит	-2180
▁эволю	-2181
▁сотруд	-2182
шение	-2183
▁куда	-2184
шка	-2185
▁вообще	-2186
▁клетки	-2187
зь	-2188
солю	-2189
▁автомоби	-2190
пас	-2191
честве	-2192
▁лабора	-2193
▁пользо	-2194
щему	-2195
▁бога	-2196
▁серд	-2197
▁потреб	-2198
руют	-2199
▁дать	-2200
▁думать	-2201
юда	-2202
▁нашу	-2203
▁вместо	-2204
▁делаем	-2205
дж	-2206
стоит	-2207
ждение	-2208
▁минут	-2209
▁хотят	-2210
▁заключа	-2211
нки	-2212
▁Га	-2213
▁неда	-2214
тельность	-2215
▁математи	-2216
▁множество	-2217
ницы	-2218
▁дево	-2219
▁пути	-2220
▁взаимодей	-2221
▁постоянно	-2222
oo	-2223
▁Хорошо	-2224
▁мало	-2225
▁какие	-2226
▁являются	-2227
ляр	-2228
▁замети	-2229
мых	-2230
ктор	-2231
или	-2232
вари	-2233
▁тебя	-2234
▁ресур	-2235
▁решение	-2236
▁произошло	-2237
ясь	-2238
▁новый	-2239
▁считаю	-2240
▁хотели	-2241
чную	-2242
▁шта	-2243
▁единствен	-2244
лый	-2245
▁жур	-2246
▁взять	-2247
▁месте	-2248
дает	-2249
▁дня	-2250
тан	-2251
▁фа	-2252
▁стол	-2253
▁равно	-2254
▁доба	-2255
▁составля	-2256
ху	-2257
рос	-2258
▁ау	-2259
▁профе	-2260
▁полови	-2261
лемен	-2262
рование	-2263
▁каждого	-2264
▁выпол	-2265
тельной	-2266
▁вопросы	-2267
▁организа	-2268
▁мед	-2269
ститу	-2270
▁пару	-2271
▁Кто	-2272
▁своё	-2273
▁включа	-2274
▁управля	-2275
▁тео	-2276
стави	-2277
нием	-2278
▁Евро	-2279
тически	-2280
сить	-2281
▁оди	-2282
стно	-2283
▁месяцев	-2284
висимо	-2285
скольку	-2286
▁вся	-2287
лых	-2288
стер	-2289
▁ито	-2290
▁источ	-2291
▁причина	-2292
шла	-2293
▁рай	-2294
▁непо	-2295
▁видели	-2296
▁зале	-2297
▁сообще	-2298
дем	-2299
▁секу	-2300
▁Затем	-2301
▁возвра	-2302
▁здоров	-2303
▁модель	-2304
▁области	-2305
▁своим	-2306
▁спустя	-2307
мень	-2308
▁ребён	-2309
пуска	-2310
▁сцен	-2311
▁правда	-2312
▁Возможно	-2313
ой	-2314
чным	-2315
▁Дру	-2316
▁примен	-2317
рию	-2318
▁ак	-2319
▁существо	-2320
▁18	-2321
▁здоро	-2322
▁невоз	-2323
▁потря	-2324
▁абсолю	-2325
▁перио	-2326
▁уровень	-2327
гру	-2328
▁любой	-2329
▁разре	-2330
▁предпо	-2331
тельное	-2332
тар	-2333
чек	-2334
чит	-2335
ску	-2336
▁требу	-2337
щь	-2338
ющего	-2339
▁глубо	-2340
▁среди	-2341
нём	-2342
лиги	-2343
пара	-2344
клады	-2345
▁приве	-2346
or	-2347
▁бро	-2348
▁плохо	-2349
▁появля	-2350
ятся	-2351
▁собы	-2352
▁дальше	-2353
кну	-2354
▁мыс	-2355
▁тро	-2356
▁комна	-2357
▁слово	-2358
ar	-2359
▁пода	-2360
▁нейро	-2361
▁животных	-2362
▁ДНК	-2363
мира	-2364
хода	-2365
▁Интер	-2366
▁интересно	-2367
шее	-2368
▁12	-2369
▁потеря	-2370
тых	-2371
▁вст	-2372
▁знать	-2373
▁повто	-2374
▁предпри	-2375
▁счастли	-2376
лён	-2377
▁Ла	-2378
▁кры	-2379
ющихся	-2380
▁прошло	-2381
лии	-2382
фици	-2383
▁Его	-2384
▁рода	-2385
▁имеют	-2386
▁населения	-2387
▁большое	-2388
▁P	-2389
дят	-2390
чув	-2391
▁изобрет	-2392
▁сказали	-2393
дили	-2394
вление	-2395
▁выше	-2396
▁тела	-2397
▁Тогда	-2398
▁новых	-2399
вших	-2400
жете	-2401
ража	-2402
▁запи	-2403
зывать	-2404
▁навер	-2405
кли	-2406
▁Бы	-2407
ково	-2408
ному	-2409
▁краси	-2410
▁пять	-2411
▁протя	-2412
▁Именно	-2413
▁хотите	-2414
▁40	-2415
ским	-2416
▁кое	-2417
▁выступ	-2418
▁ат	-2419
▁нач	-2420
▁актив	-2421
▁попро	-2422
▁определён	-2423
ген	-2424
apos	-2425
▁дер	-2426
▁здра	-2427
▁говорили	-2428
▁кам	-2429
▁ценно	-2430
▁денег	-2431
воо	-2432
нных	-2433
▁обсу	-2434
▁продук	-2435
матри	-2436
▁легко	-2437
▁бан	-2438
▁меха	-2439
▁участ	-2440
▁общества	-2441
▁создания	-2442
кре	-2443
▁поз	-2444
▁архите	-2445
▁восста	-2446
▁решили	-2447
воль	-2448
▁пес	-2449
▁тор	-2450
▁обяза	-2451
▁F	-2452
▁эмо	-2453
▁вдох	-2454
▁религи	-2455
▁смогли	-2456
лые	-2457
▁част	-2458
кими	-2459
образи	-2460
чем	-2461
льзя	-2462
более	-2463
▁Может	-2464
тельности	-2465
▁гу	-2466
▁либо	-2467
▁другу	-2468
фон	-2469
дают	-2470
▁расши	-2471
рам	-2472
▁степ	-2473
▁опера	-2474
▁каса	-2475
▁нашем	-2476
▁произ	-2477
льте	-2478
▁серьёз	-2479
▁пой	-2480
тельства	-2481
смотря	-2482
▁впервые	-2483
шы	-2484
▁проте	-2485
▁развития	-2486
риан	-2487
▁такая	-2488
▁наконец	-2489
чей	-2490
альной	-2491
▁тради	-2492
ставьте	-2493
▁Африке	-2494
▁элемен	-2495
вли	-2496
▁мета	-2497
▁одним	-2498
ві	-2499
▁Вто	-2500
▁лично	-2501
леку	-2502
▁неф	-2503
▁анали	-2504
▁разные	-2505
рабаты	-2506
▁число	-2507
▁будущем	-2508
лок	-2509
▁25	-2510
▁Индии	-2511
▁N	-2512
▁Один	-2513
▁функ	-2514
▁будто	-2515
▁Большо	-2516
▁давайте	-2517
рок	-2518
▁Чтобы	-2519
▁Мно	-2520
▁све	-2521
▁виру	-2522
▁путь	-2523
▁разру	-2524
▁недоста	-2525
новить	-2526
▁нужны	-2527
▁связи	-2528
стях	-2529
▁бер	-2530
ческим	-2531
▁смогу	-2532
▁электро	-2533
▁несколь	-2534
▁поддержи	-2535
▁разработа	-2536
тый	-2537
▁кле	-2538
▁мар	-2539
▁фер	-2540
▁реак	-2541
▁работают	-2542
льном	-2543
▁другим	-2544
▁частью	-2545
▁отношения	-2546
мые	-2547
▁I	-2548
лена	-2549
▁вещь	-2550
▁виду	-2551
▁прошлом	-2552
▁некоторых	-2553
▁университ	-2554
▁миллиардов	-2555
▁итоге	-2556
▁которыми	-2557
▁работе	-2558
▁узнать	-2559
▁будущее	-2560
▁Ли	-2561
лой	-2562
мож	-2563
цио	-2564
лений	-2565
▁тво	-2566
▁поку	-2567
▁роди	-2568
▁рассказыва	-2569
жит	-2570
жений	-2571
стить	-2572
вления	-2573
начала	-2574
▁Некоторы	-2575
рели	-2576
▁201	-2577
▁Музы	-2578
▁пожа	-2579
▁Ме	-2580
нили	-2581
льную	-2582
▁трёх	-2583
▁спраши	-2584
▁встреча	-2585
▁Представьте	-2586
an	-2587
▁B	-2588
гом	-2589
ема	-2590
ское	-2591
▁Раз	-2592
▁хими	-2593
▁ожида	-2594
▁доказа	-2595
ственное	-2596
мос	-2597
стати	-2598
▁побе	-2599
▁руки	-2600
▁трудно	-2601
▁иска	-2602
▁сети	-2603
лением	-2604
▁разно	-2605
▁наиболее	-2606
ье	-2607
бов	-2608
жей	-2609
сона	-2610
ключи	-2611
▁смысле	-2612
лки	-2613
▁купи	-2614
▁модели	-2615
клад	-2616
ответ	-2617
стойчи	-2618
▁изуча	-2619
▁решил	-2620
▁созна	-2621
дия	-2622
▁дней	-2623
▁знают	-2624
▁одном	-2625
▁Их	-2626
▁разгово	-2627
гами	-2628
дова	-2629
▁тол	-2630
▁знали	-2631
▁этими	-2632
▁отвеча	-2633
▁потряса	-2634
▁электри	-2635
▁распростран	-2636
тий	-2637
▁рядом	-2638
▁обществен	-2639
сон	-2640
▁Там	-2641
▁есте	-2642
▁группа	-2643
▁объеди	-2644
тые	-2645
▁могла	-2646
▁образ	-2647
▁демократи	-2648
▁бак	-2649
▁самым	-2650
▁часов	-2651
делить	-2652
▁просты	-2653
▁другими	-2654
низ	-2655
пере	-2656
тельным	-2657
щен	-2658
▁вет	-2659
▁права	-2660
▁Музыка	-2661
▁процентов	-2662
▁друзья	-2663
жим	-2664
пад	-2665
лему	-2666
▁еди	-2667
▁мыш	-2668
▁борь	-2669
▁Каждый	-2670
▁создали	-2671
вай	-2672
сок	-2673
▁пя	-2674
▁сразу	-2675
вшие	-2676
ключ	-2677
тера	-2678
▁ал	-2679
ющую	-2680
▁распо	-2681
▁револю	-2682
▁пришлось	-2683
▁стан	-2684
▁знает	-2685
▁самой	-2686
▁Некоторые	-2687
лла	-2688
рту	-2689
▁позволяет	-2690
▁Ри	-2691
рение	-2692
▁оказыва	-2693
▁состоит	-2694
▁невозможно	-2695
хе	-2696
▁Бе	-2697
держ	-2698
▁Кри	-2699
▁понял	-2700
▁пользу	-2701
▁тысячи	-2702
рий	-2703
▁угле	-2704
▁машины	-2705
лий	-2706
пря	-2707
▁Мой	-2708
▁идёт	-2709
▁самые	-2710
тельная	-2711
▁граждан	-2712
▁попроси	-2713
цени	-2714
▁І	-2715
▁як	-2716
▁управ	-2717
воохран	-2718
зов	-2719
▁Оно	-2720
▁медицин	-2721
▁отправи	-2722
шёл	-2723
▁захо	-2724
▁пита	-2725
▁невероят	-2726
▁абсолютно	-2727
чное	-2728
▁исче	-2729
▁неде	-2730
▁видов	-2731
дро	-2732
рот	-2733
▁опыт	-2734
▁молоды	-2735
▁создавать	-2736
▁фотографии	-2737
куда	-2738
▁экс	-2739
▁иннова	-2740
▁неиз	-2741
▁сигна	-2742
▁скорее	-2743
▁результате	-2744
луй	-2745
рко	-2746
тым	-2747
▁проблему	-2748
▁небольшо	-2749
еня	-2750
▁школу	-2751
▁покажу	-2752
цей	-2753
▁Об	-2754
ждать	-2755
▁угро	-2756
▁худо	-2757
▁буква	-2758
▁зе	-2759
▁зави	-2760
▁типа	-2761
▁харак	-2762
▁молеку	-2763
нка	-2764
▁нес	-2765
▁выяс	-2766
▁тебе	-2767
▁совме	-2768
щать	-2769
енци	-2770
▁осу	-2771
▁домой	-2772
▁услыша	-2773
над	-2774
▁клима	-2775
▁сохра	-2776
▁нельзя	-2777
▁подумал	-2778
рта	-2779
▁тю	-2780
▁семьи	-2781
▁здравоохран	-2782
▁мор	-2783
вался	-2784
народ	-2785
работ	-2786
▁отлича	-2787
▁заключается	-2788
ником	-2789
сць	-2790
▁фе	-2791
ссии	-2792
тесь	-2793
▁графи	-2794
▁задума	-2795
▁большая	-2796
▁движения	-2797
▁моби	-2798
▁десяти	-2799
зей	-2800
▁выбор	-2801
▁публи	-2802
ологи	-2803
▁утвер	-2804
▁экологи	-2805
годно	-2806
ющими	-2807
▁группы	-2808
▁решить	-2809
▁компания	-2810
▁протяжении	-2811
▁нём	-2812
▁имею	-2813
эй	-2814
▁приво	-2815
▁технологий	-2816
чо	-2817
чер	-2818
▁11	-2819
стан	-2820
чё	-2821
▁W	-2822
рел	-2823
▁аль	-2824
▁норма	-2825
▁вариан	-2826
▁Ди	-2827
▁лё	-2828
▁шо	-2829
▁мою	-2830
▁рав	-2831
▁факт	-2832
▁право	-2833
▁капита	-2834
▁уровне	-2835
▁результат	-2836
жил	-2837
нев	-2838
▁цели	-2839
▁Многие	-2840
▁следует	-2841
▁соответ	-2842
ванию	-2843
▁каким	-2844
ницу	-2845
▁близ	-2846
▁широ	-2847
ческом	-2848
▁бизнес	-2849
▁распростра	-2850
al	-2851
▁D	-2852
▁”	-2853
▁уж	-2854
▁Моя	-2855
▁хва	-2856
▁чему	-2857
▁мысли	-2858
▁участи	-2859
▁Ба	-2860
▁Меня	-2861
▁хотела	-2862
лог	-2863
ваны	-2864
стом	-2865
▁люб	-2866
печат	-2867
▁ваши	-2868
▁прид	-2869
▁планеты	-2870
▁качестве	-2871
▁используя	-2872
сці	-2873
▁низ	-2874
▁сет	-2875
▁войны	-2876
▁однажды	-2877
▁названием	-2878
рез	-2879
хов	-2880
▁попу	-2881
док	-2882
▁Вам	-2883
▁неко	-2884
ментов	-2885
▁L	-2886
▁доби	-2887
▁ску	-2888
▁говорим	-2889
▁зая	-2890
▁ран	-2891
▁умер	-2892
▁станов	-2893
▁посмотрим	-2894
ac	-2895
ровал	-2896
▁полез	-2897
▁поскольку	-2898
▁бума	-2899
▁роль	-2900
▁станет	-2901
▁уровня	-2902
▁определя	-2903
гно	-2904
▁чувству	-2905
рое	-2906
▁сих	-2907
▁уго	-2908
▁ужас	-2909
нный	-2910
▁199	-2911
▁Даже	-2912
▁подро	-2913
▁похоже	-2914
▁увидите	-2915
ённых	-2916
▁воду	-2917
рыв	-2918
емых	-2919
силия	-2920
того	-2921
▁Пре	-2922
▁кем	-2923
▁коло	-2924
▁сель	-2925
▁измер	-2926
▁строи	-2927
тировать	-2928
гло	-2929
нце	-2930
▁мощ	-2931
▁прежде	-2932
▁горо	-2933
▁стоя	-2934
▁света	-2935
▁рак	-2936
▁упо	-2937
▁инжен	-2938
▁далеко	-2939
▁придума	-2940
en	-2941
зить	-2942
нению	-2943
▁надеюсь	-2944
▁планете	-2945
▁интернет	-2946
щаться	-2947
▁солне	-2948
▁обнаружили	-2949
▁ль	-2950
▁знал	-2951
▁работ	-2952
▁форма	-2953
▁интелле	-2954
▁Интернет	-2955
сед	-2956
▁бере	-2957
▁мину	-2958
▁книги	-2959
▁уверен	-2960
ллю	-2961
▁Ан	-2962
наче	-2963
▁оте	-2964
▁калі	-2965
▁реги	-2966
▁речь	-2967
▁воспо	-2968
▁времен	-2969
▁безопасности	-2970
сл	-2971
▁крас	-2972
▁генети	-2973
▁потенци	-2974
мое	-2975
▁дом	-2976
▁идею	-2977
▁разум	-2978
▁умень	-2979
▁миллиона	-2980
▁случилось	-2981
рев	-2982
▁моё	-2983
▁забы	-2984
▁психо	-2985
▁Посмот	-2986
▁музыка	-2987
▁ид	-2988
руем	-2989
видно	-2990
щается	-2991
вший	-2992
▁які	-2993
▁сюда	-2994
первых	-2995
▁привы	-2996
▁связь	-2997
▁образование	-2998
гой	-2999
шин	-3000
▁Ле	-3001
▁съ	-3002
тили	-3003
▁Ещё	-3004
▁клю	-3005
▁сути	-3006
▁поряд	-3007
▁контроли	-3008
нит	-3009
▁каза	-3010
▁живут	-3011
ос	-3012
щим	-3013
нной	-3014
▁Дума	-3015
▁пись	-3016
▁хочет	-3017
▁удалось	-3018
кло	-3019
▁дея	-3020
▁труд	-3021
▁инвести	-3022
кта	-3023
чик	-3024
ливо	-3025
▁слы	-3026
▁нару	-3027
▁раза	-3028
▁опреде	-3029
▁думаете	-3030
▁движение	-3031
▁невероятно	-3032
▁практически	-3033
▁дли	-3034
▁повы	-3035
▁проя	-3036
▁часа	-3037
▁весьма	-3038
▁нескольких	-3039
нул	-3040
жной	-3041
▁сожа	-3042
▁попыта	-3043
▁присут	-3044
▁шту	-3045
ломет	-3046
▁успеш	-3047
▁местах	-3048
▁поговорить	-3049
▁годы	-3050
▁отда	-3051
▁самая	-3052
доволь	-3053
▁концов	-3054
▁несмотря	-3055
▁существу	-3056
▁используют	-3057
лка	-3058
чены	-3059
▁чёр	-3060
▁далее	-3061
▁самого	-3062
лах	-3063
▁кур	-3064
▁пти	-3065
▁новое	-3066
▁полага	-3067
▁сегодняш	-3068
▁различных	-3069
крет	-3070
▁женщина	-3071
▁закончи	-3072
▁КА	-3073
няет	-3074
▁поро	-3075
▁возника	-3076
▁столько	-3077
ic	-3078
цами	-3079
▁выс	-3080
▁уме	-3081
▁Вели	-3082
▁Пере	-3083
▁рост	-3084
▁большие	-3085
дил	-3086
чис	-3087
▁газ	-3088
▁шан	-3089
енное	-3090
альные	-3091
▁сотни	-3092
тии	-3093
▁Сле	-3094
▁вашей	-3095
▁здания	-3096
▁результаты	-3097
рд	-3098
▁даёт	-3099
▁пово	-3100
▁тело	-3101
▁люблю	-3102
▁описа	-3103
▁содержа	-3104
▁сотрудни	-3105
лл	-3106
гази	-3107
меры	-3108
стрее	-3109
▁Ведь	-3110
▁стар	-3111
ьми	-3112
▁веще	-3113
интере	-3114
▁переста	-3115
тей	-3116
▁анг	-3117
▁конф	-3118
▁нена	-3119
▁нашим	-3120
▁сверх	-3121
жай	-3122
вало	-3123
тора	-3124
перату	-3125
▁километ	-3126
▁используем	-3127
at	-3128
▁ап	-3129
▁помощь	-3130
▁национа	-3131
мую	-3132
писы	-3133
▁пози	-3134
▁взгляд	-3135
▁значение	-3136
жили	-3137
▁ошиб	-3138
▁исследований	-3139
▁R	-3140
вез	-3141
друг	-3142
кова	-3143
▁цифро	-3144
зяй	-3145
ходить	-3146
▁думал	-3147
▁Вме	-3148
▁вижу	-3149
▁вероятно	-3150
▁хотелось	-3151
готов	-3152
▁нужна	-3153
▁смерти	-3154
▁расскажу	-3155
▁Би	-3156
▁сум	-3157
▁тон	-3158
▁видел	-3159
▁такую	-3160
▁другое	-3161
▁подели	-3162
шед	-3163
▁выз	-3164
▁рабочи	-3165
▁своими	-3166
▁другого	-3167
▁находятся	-3168
▁организации	-3169
нта	-3170
▁маг	-3171
▁най	-3172
▁тка	-3173
▁века	-3174
▁опти	-3175
▁реша	-3176
▁делали	-3177
▁основном	-3178
▁правильно	-3179
▁Ско	-3180
зиден	-3181
▁Очень	-3182
▁испыта	-3183
▁преступ	-3184
бере	-3185
лета	-3186
▁род	-3187
▁необы	-3188
▁образования	-3189
их	-3190
сят	-3191
ваете	-3192
лями	-3193
виться	-3194
▁Позво	-3195
▁закры	-3196
▁скажу	-3197
ременно	-3198
▁магази	-3199
▁некото	-3200
▁пригла	-3201
▁быстрее	-3202
гать	-3203
стры	-3204
▁чет	-3205
ферен	-3206
▁скры	-3207
▁Земле	-3208
▁иначе	-3209
емые	-3210
▁реа	-3211
навли	-3212
▁вида	-3213
▁холо	-3214
▁умира	-3215
▁школе	-3216
▁вызыва	-3217
▁маль	-3218
ющиеся	-3219
▁стара	-3220
▁прибли	-3221
▁поддерж	-3222
▁исследова	-3223
мас	-3224
тон	-3225
▁сокра	-3226
▁техни	-3227
▁Знаете	-3228
▁слышали	-3229
▁устойчи	-3230
▁смотреть	-3231
эта	-3232
▁инф	-3233
▁пад	-3234
▁веща	-3235
▁отец	-3236
тельство	-3237
дзі	-3238
нил	-3239
▁атмос	-3240
▁кризи	-3241
▁поста	-3242
▁форму	-3243
▁второй	-3244
▁начале	-3245
▁Большое	-3246
▁следующий	-3247
▁водо	-3248
▁мечта	-3249
▁площа	-3250
▁тюрь	-3251
▁обрати	-3252
▁переме	-3253
▁встрети	-3254
▁60	-3255
▁Лу	-3256
▁изо	-3257
циони	-3258
▁паль	-3259
валось	-3260
▁подход	-3261
▁конкрет	-3262
▁программы	-3263
сах	-3264
▁супер	-3265
▁институ	-3266
▁недавно	-3267
▁телефон	-3268
▁температу	-3269
дая	-3270
оне	-3271
▁ими	-3272
▁ауди	-3273
▁международ	-3274
▁поверхности	-3275
лакти	-3276
▁Потом	-3277
▁знако	-3278
▁соеди	-3279
ческими	-3280
▁Только	-3281
▁представи	-3282
лях	-3283
жены	-3284
▁Сол	-3285
▁анти	-3286
▁клеток	-3287
ственные	-3288
▁работал	-3289
▁исследование	-3290
нное	-3291
щает	-3292
▁силы	-3293
▁Просто	-3294
▁задача	-3295
▁словами	-3296
▁общество	-3297
форми	-3298
нес	-3299
теги	-3300
▁всеми	-3301
▁форми	-3302
▁основе	-3303
▁сталки	-3304
▁неправи	-3305
▁обратно	-3306
▁посмотрите	-3307
мый	-3308
▁Але	-3309
▁момента	-3310
▁огромное	-3311
▁предполо	-3312
▁архитекту	-3313
тка	-3314
шем	-3315
▁уро	-3316
▁спро	-3317
▁поняли	-3318
es	-3319
бі	-3320
бом	-3321
зии	-3322
альный	-3323
▁похожи	-3324
▁степени	-3325
▁финансо	-3326
лам	-3327
тре	-3328
▁Ха	-3329
▁Че	-3330
▁упа	-3331
никами	-3332
▁худож	-3333
▁школы	-3334
▁спросил	-3335
▁сен	-3336
личие	-3337
▁безу	-3338
▁нашли	-3339
▁механи	-3340
▁промыш	-3341
▁заставля	-3342
▁показывает	-3343
▁становятся	-3344
gle	-3345
▁Шта	-3346
▁акти	-3347
▁испы	-3348
▁язык	-3349
▁мини	-3350
телями	-3351
▁сможет	-3352
▁внутрен	-3353
▁системе	-3354
▁професси	-3355
▁технология	-3356
ныя	-3357
▁Аль	-3358
▁нужда	-3359
▁метров	-3360
▁порази	-3361
▁сторону	-3362
▁пространство	-3363
вин	-3364
▁Ку	-3365
▁жерт	-3366
▁лицо	-3367
▁продви	-3368
▁природы	-3369
▁Позвольте	-3370
▁правительство	-3371
зер	-3372
дания	-3373
▁игры	-3374
▁орга	-3375
▁терри	-3376
тельного	-3377
тая	-3378
▁Сан	-3379
▁секун	-3380
▁смысл	-3381
▁покупа	-3382
▁получили	-3383
▁специали	-3384
▁буквально	-3385
думы	-3386
▁внеш	-3387
▁моим	-3388
настоя	-3389
новременно	-3390
йт	-3391
лами	-3392
▁вода	-3393
валась	-3394
▁знания	-3395
интересо	-3396
ственной	-3397
▁ребёнка	-3398
жешь	-3399
▁поиска	-3400
▁организо	-3401
вёр	-3402
▁мысль	-3403
▁лаборатории	-3404
сі	-3405
ян	-3406
джа	-3407
мым	-3408
▁гри	-3409
чении	-3410
▁выда	-3411
▁вдруг	-3412
▁испол	-3413
▁терро	-3414
▁возмож	-3415
▁понимать	-3416
лая	-3417
▁Goo	-3418
▁хра	-3419
тации	-3420
говари	-3421
▁Также	-3422
▁среды	-3423
▁будете	-3424
▁рассматри	-3425
вок	-3426
▁видно	-3427
▁стати	-3428
▁транс	-3429
▁шесть	-3430
ал	-3431
сю	-3432
ряз	-3433
тай	-3434
стями	-3435
▁опять	-3436
▁отлич	-3437
▁подвер	-3438
▁мужчины	-3439
▁перемен	-3440
it	-3441
дки	-3442
▁верю	-3443
▁тяже	-3444
жением	-3445
▁оцени	-3446
▁Google	-3447
▁ситуации	-3448
▁стратеги	-3449
настоящему	-3450
▁традицион	-3451
▁человеком	-3452
нью	-3453
▁лу	-3454
сами	-3455
▁ори	-3456
▁эпи	-3457
▁очере	-3458
▁выступа	-3459
▁мужчина	-3460
▁транспо	-3461
▁подумать	-3462
зем	-3463
▁Ча	-3464
циях	-3465
вычай	-3466
фрикан	-3467
▁оружи	-3468
▁слуша	-3469
▁вероят	-3470
▁проста	-3471
▁миллиарда	-3472
▁десятилети	-3473
▁приходится	-3474
вобо	-3475
▁рака	-3476
▁Думаю	-3477
▁треть	-3478
▁предлага	-3479
▁средства	-3480
ёд	-3481
▁Ис	-3482
ходы	-3483
▁любов	-3484
▁своём	-3485
▁Америке	-3486
▁окружающей	-3487
дко	-3488
▁фон	-3489
▁Земли	-3490
▁семей	-3491
▁формы	-3492
▁конфли	-3493
▁уничто	-3494
▁известно	-3495
оти	-3496
▁син	-3497
▁звук	-3498
▁руку	-3499
▁экра	-3500
▁журна	-3501
▁имени	-3502
▁фильм	-3503
зировать	-3504
▁называем	-3505
▁начинает	-3506
део	-3507
▁16	-3508
▁ана	-3509
▁еже	-3510
▁кому	-3511
▁пришли	-3512
▁электрон	-3513
▁одновременно	-3514
▁лёг	-3515
▁Африки	-3516
▁останови	-3517
om	-3518
нца	-3519
шек	-3520
▁мама	-3521
▁чрез	-3522
▁располо	-3523
▁способность	-3524
вит	-3525
▁захва	-3526
▁непри	-3527
▁вашего	-3528
▁каждой	-3529
▁провер	-3530
▁увидел	-3531
▁маленькие	-3532
▁14	-3533
▁Вер	-3534
▁идей	-3535
▁впечат	-3536
▁думают	-3537
▁период	-3538
▁центра	-3539
▁болезни	-3540
эт	-3541
нке	-3542
▁разо	-3543
▁стары	-3544
▁вернуться	-3545
▁построить	-3546
▁состоянии	-3547
пан	-3548
тной	-3549
ёнок	-3550
телем	-3551
▁выжи	-3552
▁дове	-3553
▁допол	-3554
▁касается	-3555
▁заинтересо	-3556
иму	-3557
▁нужен	-3558
▁семья	-3559
▁думаем	-3560
▁стоимо	-3561
ственный	-3562
▁климата	-3563
▁крайней	-3564
▁поднима	-3565
▁получил	-3566
лым	-3567
лькі	-3568
▁кроме	-3569
▁новую	-3570
▁другая	-3571
▁поведение	-3572
мах	-3573
▁Ар	-3574
ствии	-3575
▁смех	-3576
▁вверх	-3577
▁общем	-3578
править	-3579
▁мужчин	-3580
▁собираюсь	-3581
▁всём	-3582
▁опас	-3583
▁силу	-3584
▁остро	-3585
▁плани	-3586
▁рекла	-3587
ственность	-3588
ат	-3589
лого	-3590
▁точ	-3591
енных	-3592
новля	-3593
▁пяти	-3594
ленная	-3595
▁осуще	-3596
ктора	-3597
менить	-3598
способ	-3599
▁позна	-3600
▁пласти	-3601
▁прогре	-3602
▁рассмот	-3603
▁H	-3604
рои	-3605
▁80	-3606
▁ВИ	-3607
нести	-3608
▁Видео	-3609
▁корот	-3610
▁высоко	-3611
▁такими	-3612
нюю	-3613
ваць	-3614
▁уди	-3615
▁отде	-3616
ального	-3617
▁ответил	-3618
▁начинают	-3619
йдёт	-3620
▁ВИЧ	-3621
▁Север	-3622
ственных	-3623
эр	-3624
▁деву	-3625
ниц	-3626
кции	-3627
мини	-3628
нице	-3629
▁смог	-3630
▁пережи	-3631
▁восприя	-3632
▁принять	-3633
емой	-3634
влечь	-3635
▁чуть	-3636
▁какое	-3637
▁таком	-3638
▁Иногда	-3639
▁индиви	-3640
▁воспринима	-3641
▁поделиться	-3642
▁прибы	-3643
▁опасно	-3644
▁центре	-3645
дий	-3646
йтесь	-3647
▁оцен	-3648
▁Китай	-3649
▁времена	-3650
▁действия	-3651
▁сом	-3652
зация	-3653
▁ката	-3654
▁план	-3655
▁одина	-3656
ьм	-3657
все	-3658
пов	-3659
▁Ки	-3660
таки	-3661
торов	-3662
▁Джон	-3663
ленные	-3664
▁земле	-3665
▁почув	-3666
▁начало	-3667
▁террори	-3668
▁конферен	-3669
▁Кон	-3670
▁виды	-3671
▁длин	-3672
▁инду	-3673
▁лиде	-3674
▁больших	-3675
▁проекта	-3676
ця	-3677
сер	-3678
вета	-3679
рени	-3680
▁Май	-3681
▁сви	-3682
чными	-3683
▁вече	-3684
▁разу	-3685
▁затра	-3686
▁подня	-3687
▁друзей	-3688
▁телефо	-3689
▁предела	-3690
▁сожалению	-3691
сор	-3692
▁ін	-3693
блем	-3694
жите	-3695
▁Суще	-3696
▁лица	-3697
▁большую	-3698
▁отправля	-3699
▁процессе	-3700
▁существуют	-3701
нё	-3702
▁́	-3703
мера	-3704
▁сеть	-3705
альных	-3706
онстри	-3707
▁фунда	-3708
▁дизайн	-3709
▁сердце	-3710
▁счасть	-3711
емый	-3712
▁дем	-3713
▁нер	-3714
▁рам	-3715
▁игру	-3716
▁думали	-3717
▁Посмотрите	-3718
▁17	-3719
▁каб	-3720
полне	-3721
▁Благо	-3722
▁кажды	-3723
▁новой	-3724
▁персона	-3725
гры	-3726
вяза	-3727
▁голову	-3728
▁смогут	-3729
▁сначала	-3730
шку	-3731
▁посе	-3732
луйста	-3733
льными	-3734
▁последний	-3735
▁правительства	-3736
▁Кро	-3737
▁шаг	-3738
▁Кали	-3739
▁компо	-3740
шинство	-3741
вил	-3742
деми	-3743
сыла	-3744
▁Кар	-3745
▁час	-3746
надле	-3747
нного	-3748
▁исчез	-3749
▁нарко	-3750
▁стиму	-3751
▁недель	-3752
▁угодно	-3753
▁наверное	-3754
▁напомина	-3755
▁развитие	-3756
дую	-3757
рил	-3758
рачи	-3759
▁инфра	-3760
▁ранее	-3761
▁испыты	-3762
▁написал	-3763
вёл	-3764
ходов	-3765
рованы	-3766
руется	-3767
▁глуби	-3768
▁аппара	-3769
▁свобод	-3770
▁пытаемся	-3771
▁разговари	-3772
▁изображение	-3773
▁предпринима	-3774
нная	-3775
ереди	-3776
▁обез	-3777
▁поле	-3778
структу	-3779
▁воздей	-3780
▁африкан	-3781
▁маленький	-3782
ou	-3783
хом	-3784
▁Им	-3785
▁сна	-3786
образ	-3787
▁препо	-3788
▁власти	-3789
▁первой	-3790
▁экспер	-3791
▁принадле	-3792
▁работали	-3793
▁родители	-3794
▁искусства	-3795
▁объяснить	-3796
зор	-3797
▁вста	-3798
▁покры	-3799
▁здание	-3800
▁президен	-3801
▁проблемой	-3802
рас	-3803
стую	-3804
▁Дже	-3805
▁выи	-3806
▁имя	-3807
▁доку	-3808
▁парт	-3809
▁топли	-3810
▁англий	-3811
▁СМ	-3812
▁восто	-3813
▁отсут	-3814
▁основа	-3815
▁устройство	-3816
дея	-3817
рин	-3818
ске	-3819
▁13	-3820
жида	-3821
ними	-3822
шает	-3823
▁сва	-3824
▁визу	-3825
▁вниз	-3826
ведливо	-3827
▁статисти	-3828
▁заниматься	-3829
▁фактически	-3830
▁эксперимент	-3831
жён	-3832
▁Где	-3833
▁зап	-3834
▁навы	-3835
▁голос	-3836
▁книгу	-3837
ведения	-3838
▁каждом	-3839
▁лечения	-3840
▁получается	-3841
▁использовали	-3842
▁Пи	-3843
тный	-3844
тных	-3845
▁обита	-3846
▁выбира	-3847
▁готовы	-3848
▁организ	-3849
▁пользова	-3850
▁возможностей	-3851
▁Y	-3852
▁Ру	-3853
лять	-3854
▁офи	-3855
▁выбора	-3856
▁месяца	-3857
▁перево	-3858
▁различи	-3859
▁условиях	-3860
▁Большинство	-3861
леп	-3862
прос	-3863
▁пусты	-3864
▁культур	-3865
▁согласи	-3866
▁вопросом	-3867
▁индивиду	-3868
▁использования	-3869
анта	-3870
вшись	-3871
▁ядер	-3872
▁делаю	-3873
▁незна	-3874
▁преду	-3875
▁вообра	-3876
▁неделю	-3877
▁Калифор	-3878
▁стандар	-3879
▁чувства	-3880
оз	-3881
мая	-3882
тит	-3883
▁ото	-3884
▁боро	-3885
▁километров	-3886
вей	-3887
▁тек	-3888
▁выбо	-3889
▁осве	-3890
енность	-3891
▁процес	-3892
▁лекарства	-3893
бло	-3894
▁км	-3895
рили	-3896
енные	-3897
▁рису	-3898
ленных	-3899
▁конку	-3900
▁прино	-3901
▁сможете	-3902
▁представление	-3903
,5	-3904
лосо	-3905
тные	-3906
▁гео	-3907
▁ваша	-3908
▁изба	-3909
▁поез	-3910
▁живём	-3911
▁считают	-3912
▁установ	-3913
▁способны	-3914
▁заставить	-3915
▁экономики	-3916
▁недостаточно	-3917
▁здравоохранения	-3918
пии	-3919
шел	-3920
▁пора	-3921
▁позже	-3922
▁уника	-3923
▁поступа	-3924
тек	-3925
цем	-3926
▁500	-3927
▁детям	-3928
▁потра	-3929
▁Соедин	-3930
▁другую	-3931
▁многое	-3932
▁включая	-3933
▁пациентов	-3934
жется	-3935
▁галакти	-3936
▁придётся	-3937
рур	-3938
ьер	-3939
нему	-3940
▁неви	-3941
▁земли	-3942
▁радио	-3943
▁целом	-3944
▁расстоя	-3945
▁информация	-3946
жо	-3947
фере	-3948
▁198	-3949
▁исти	-3950
▁выбро	-3951
▁симво	-3952
▁Первый	-3953
▁внимания	-3954
▁/	-3955
лад	-3956
пуск	-3957
▁Лон	-3958
▁опы	-3959
▁теря	-3960
▁косми	-3961
▁примеру	-3962
▁простой	-3963
▁ува	-3964
соеди	-3965
▁вело	-3966
▁услу	-3967
▁расти	-3968
▁Вместо	-3969
▁первую	-3970
▁зависимо	-3971
вут	-3972
▁зво	-3973
▁сос	-3974
имуще	-3975
▁Фран	-3976
▁больш	-3977
▁реали	-3978
▁передви	-3979
▁привлека	-3980
▁прекрасно	-3981
дали	-3982
жные	-3983
▁спут	-3984
диться	-3985
▁какая	-3986
▁городе	-3987
▁парень	-3988
▁причин	-3989
▁большим	-3990
▁обучения	-3991
▁оказалось	-3992
▁начинается	-3993
бовать	-3994
▁хозяй	-3995
▁оптими	-3996
▁распре	-3997
▁преобра	-3998
▁возраста	-3999
▁реальность	-4000
▁E	-4001
▁бю	-4002
льна	-4003
▁заг	-4004
▁ваше	-4005
▁древ	-4006
▁непре	-4007
▁играть	-4008
▁машину	-4009
▁океана	-4010
▁зависит	-4011
▁помогает	-4012
▁последова	-4013
▁различные	-4014
▁дели	-4015
▁кана	-4016
▁сним	-4017
▁Нужно	-4018
▁добра	-4019
▁прило	-4020
▁целью	-4021
▁запусти	-4022
▁приводит	-4023
▁небольшой	-4024
▁фундамента	-4025
ила	-4026
▁Пу	-4027
доби	-4028
читы	-4029
▁квар	-4030
▁радо	-4031
▁здорово	-4032
▁удивительно	-4033
мби	-4034
суль	-4035
▁Под	-4036
▁выво	-4037
▁жили	-4038
▁активи	-4039
▁велико	-4040
▁развива	-4041
▁ребёнок	-4042
▁энергию	-4043
горит	-4044
видете	-4045
▁вполне	-4046
▁бактери	-4047
▁влияние	-4048
▁достичь	-4049
▁студентов	-4050
▁сообщества	-4051
дам	-4052
два	-4053
▁суб	-4054
▁зелё	-4055
▁прос	-4056
▁слов	-4057
▁страш	-4058
▁вперёд	-4059
▁приеха	-4060
▁журнали	-4061
▁констру	-4062
ственного	-4063
▁называют	-4064
▁появляется	-4065
зде	-4066
чая	-4067
▁Аф	-4068
жает	-4069
▁бло	-4070
страи	-4071
▁Пока	-4072
▁избе	-4073
▁окон	-4074
▁помню	-4075
▁данный	-4076
▁откуда	-4077
▁очевидно	-4078
▁количества	-4079
▁фотография	-4080
▁ок	-4081
редо	-4082
щают	-4083
дится	-4084
▁завер	-4085
▁форме	-4086
зирован	-4087
▁страна	-4088
▁понимаете	-4089
▁профессиона	-4090
сам	-4091
тво	-4092
▁ока	-4093
няется	-4094
▁работаю	-4095
зом	-4096
▁жы	-4097
гает	-4098
▁уче	-4099
▁Крис	-4100
▁иллю	-4101
▁печа	-4102
▁взрос	-4103
▁делал	-4104
▁массо	-4105
▁беспла	-4106
▁опубли	-4107
▁первые	-4108
▁стреми	-4109
▁преимуще	-4110
▁устройства	-4111
чна	-4112
шими	-4113
Йорке	-4114
друго	-4115
▁идти	-4116
▁суть	-4117
▁имеем	-4118
▁кисло	-4119
▁красо	-4120
▁снима	-4121
хнологи	-4122
▁машина	-4123
▁беспоко	-4124
▁миллионы	-4125
ссив	-4126
твра	-4127
▁пото	-4128
▁чаще	-4129
щаются	-4130
▁мальчи	-4131
▁инфраструкту	-4132
▁Ти	-4133
меня	-4134
сист	-4135
тите	-4136
▁пера	-4137
▁кампа	-4138
▁одино	-4139
▁пойти	-4140
▁размыш	-4141
одо	-4142
ецца	-4143
▁яны	-4144
▁поги	-4145
▁верси	-4146
▁повер	-4147
▁разработ	-4148
▁определить	-4149
кци	-4150
рят	-4151
сил	-4152
▁рэ	-4153
▁іх	-4154
▁лета	-4155
▁ясно	-4156
▁готов	-4157
▁любом	-4158
▁купить	-4159
▁понимаю	-4160
▁увидели	-4161
▁последствия	-4162
цеп	-4163
▁СМИ	-4164
▁роли	-4165
читать	-4166
▁конца	-4167
▁науки	-4168
▁новая	-4169
▁секрет	-4170
▁производства	-4171
ноза	-4172
▁аспе	-4173
▁беско	-4174
▁недели	-4175
▁раскры	-4176
бре	-4177
▁бабу	-4178
страда	-4179
▁будущего	-4180
▁программ	-4181
▁человечества	-4182
нку	-4183
ново	-4184
▁посвя	-4185
▁выращи	-4186
▁первое	-4187
▁подтвер	-4188
▁которому	-4189
▁„	-4190
гер	-4191
▁зв	-4192
ждён	-4193
другому	-4194
▁ближай	-4195
▁удоволь	-4196
ственности	-4197
▁чрезвычай	-4198
▁ква	-4199
▁Гэта	-4200
▁мать	-4201
▁чуде	-4202
▁хвата	-4203
▁называю	-4204
▁правила	-4205
▁финанси	-4206
▁предотвра	-4207
▁продолжать	-4208
re	-4209
▁Рас	-4210
▁доб	-4211
▁мурав	-4212
▁наблюд	-4213
▁справа	-4214
▁эффект	-4215
▁временем	-4216
▁обществе	-4217
▁провести	-4218
▁создание	-4219
▁утвержда	-4220
▁90	-4221
▁звез	-4222
▁силь	-4223
▁возник	-4224
▁алгорит	-4225
▁предполага	-4226
гах	-4227
▁оде	-4228
блема	-4229
ваясь	-4230
чется	-4231
▁будь	-4232
▁важны	-4233
▁двумя	-4234
▁роста	-4235
▁рынок	-4236
▁достиг	-4237
▁дизайне	-4238
▁очередь	-4239
▁пространства	-4240
гая	-4241
▁ут	-4242
сипе	-4243
ющем	-4244
▁отдель	-4245
▁изображения	-4246
▁ці	-4247
▁хуже	-4248
▁добро	-4249
▁клини	-4250
▁крити	-4251
▁цвета	-4252
▁создал	-4253
▁условия	-4254
▁материал	-4255
▁работаем	-4256
▁эволюции	-4257
▁происходи	-4258
вов	-4259
▁яр	-4260
тании	-4261
▁пона	-4262
▁Кроме	-4263
▁вакци	-4264
▁реаги	-4265
▁Америки	-4266
▁дизайна	-4267
▁свидете	-4268
▁разнообрази	-4269
туи	-4270
дной	-4271
▁голу	-4272
▁риск	-4273
▁Восто	-4274
▁посте	-4275
▁усили	-4276
▁важное	-4277
▁нового	-4278
▁перспе	-4279
ственным	-4280
▁большей	-4281
▁процесса	-4282
▁поколения	-4283
▁программу	-4284
▁реальности	-4285
тое	-4286
сюду	-4287
чета	-4288
▁общи	-4289
альная	-4290
▁вспом	-4291
▁приоб	-4292
тельную	-4293
▁добиться	-4294
▁ситуация	-4295
▁позволить	-4296
▁человеческого	-4297
возь	-4298
реди	-4299
▁глаз	-4300
▁това	-4301
▁пересе	-4302
▁решений	-4303
▁двигаться	-4304
▁искусство	-4305
▁понимание	-4306
дка	-4307
мок	-4308
тию	-4309
чью	-4310
кнов	-4311
рудо	-4312
▁гено	-4313
▁кусо	-4314
▁проз	-4315
▁удоб	-4316
▁космо	-4317
▁напря	-4318
▁сопро	-4319
▁Второй	-4320
▁популяр	-4321
▁велосипе	-4322
▁компаний	-4323
▁примеров	-4324
▁инструменты	-4325
жё	-4326
лит	-4327
▁сх	-4328
отно	-4329
▁свое	-4330
▁ключе	-4331
▁опухо	-4332
▁возрасте	-4333
▁независимо	-4334
▁i	-4335
пят	-4336
нули	-4337
▁зер	-4338
▁леса	-4339
▁вести	-4340
▁восхи	-4341
▁конти	-4342
▁казалось	-4343
пто	-4344
▁21	-4345
▁насеко	-4346
▁первая	-4347
▁пришёл	-4348
▁телеви	-4349
▁состояние	-4350
▁X	-4351
пля	-4352
▁зу	-4353
делы	-4354
няют	-4355
ляции	-4356
▁Было	-4357
▁Наша	-4358
▁кино	-4359
▁любы	-4360
▁фанта	-4361
▁желание	-4362
▁атмосфер	-4363
▁подобные	-4364
50	-4365
ис	-4366
твор	-4367
▁добы	-4368
▁логи	-4369
▁мора	-4370
▁регу	-4371
▁лидер	-4372
▁Европе	-4373
▁главное	-4374
▁новости	-4375
▁природе	-4376
▁хорошие	-4377
▁растения	-4378
▁ситуацию	-4379
▁вселенной	-4380
▁программи	-4381
нос	-4382
тил	-4383
▁пам	-4384
▁сня	-4385
▁эпо	-4386
служи	-4387
▁отра	-4388
▁утра	-4389
▁брать	-4390
ередине	-4391
▁Велико	-4392
▁безопас	-4393
▁получают	-4394
▁аку	-4395
▁фра	-4396
▁сила	-4397
▁океан	-4398
▁энерг	-4399
тельными	-4400
▁понятия	-4401
▁культуры	-4402
бря	-4403
▁Мак	-4404
▁Тут	-4405
торию	-4406
▁праз	-4407
▁соба	-4408
▁Следу	-4409
▁Через	-4410
▁живёт	-4411
▁искать	-4412
▁сердца	-4413
▁теории	-4414
▁собрать	-4415
▁сосредо	-4416
▁представьте	-4417
яз	-4418
ору	-4419
пой	-4420
тин	-4421
▁Гу	-4422
пора	-4423
▁тан	-4424
ковых	-4425
▁кора	-4426
▁нему	-4427
альное	-4428
▁повре	-4429
▁размер	-4430
▁успеха	-4431
▁правило	-4432
▁препода	-4433
▁создают	-4434
▁участие	-4435
▁психологи	-4436
дами	-4437
▁Ста	-4438
▁зад	-4439
▁перво	-4440
▁изучать	-4441
▁ресурсов	-4442
▁заболевания	-4443
няка	-4444
▁Ира	-4445
▁поза	-4446
▁служ	-4447
нуться	-4448
▁любовь	-4449
▁отказа	-4450
▁неожида	-4451
▁распозна	-4452
▁значительно	-4453
мар	-4454
ссия	-4455
▁лес	-4456
циями	-4457
▁ноги	-4458
▁судь	-4459
▁ваших	-4460
▁секунд	-4461
▁научиться	-4462
he	-4463
ену	-4464
юще	-4465
▁Её	-4466
жают	-4467
▁дра	-4468
вторы	-4469
▁уско	-4470
▁любви	-4471
▁прото	-4472
▁расту	-4473
▁жизнью	-4474
▁взаимос	-4475
▁глубоко	-4476
▁оставля	-4477
▁появилась	-4478
тём	-4479
жных	-4480
▁Джо	-4481
▁сущ	-4482
канчи	-4483
▁конец	-4484
▁линии	-4485
▁голове	-4486
▁читать	-4487
▁события	-4488
▁способа	-4489
▁способом	-4490
▁программа	-4491
ace	-4492
вен	-4493
пей	-4494
учи	-4495
тура	-4496
ненно	-4497
▁коле	-4498
▁руко	-4499
▁везде	-4500
▁жесто	-4501
▁каком	-4502
▁самих	-4503
▁центр	-4504
▁изменя	-4505
▁музыку	-4506
▁повторя	-4507
▁совмест	-4508
▁здоровья	-4509
казывается	-4510
▁выглядеть	-4511
▁л	-4512
плы	-4513
рик	-4514
жали	-4515
лайн	-4516
льзо	-4517
▁Тем	-4518
▁воло	-4519
▁выну	-4520
▁нано	-4521
▁Лондо	-4522
▁китай	-4523
▁крайне	-4524
▁порядке	-4525
▁вопросов	-4526
▁подобное	-4527
▁подобных	-4528
▁разрабаты	-4529
▁социальных	-4530
▁единственный	-4531
бую	-4532
▁Ст	-4533
▁ву	-4534
тием	-4535
шему	-4536
▁выя	-4537
тория	-4538
▁записа	-4539
▁можешь	-4540
▁цивили	-4541
▁команда	-4542
▁изобрета	-4543
вос	-4544
▁ся	-4545
гант	-4546
▁Бер	-4547
▁люд	-4548
▁ство	-4549
▁Никто	-4550
▁вирту	-4551
▁давно	-4552
▁плохи	-4553
▁Афгани	-4554
▁будучи	-4555
▁кстати	-4556
▁первых	-4557
▁посред	-4558
▁связаны	-4559
▁изменение	-4560
▁управления	-4561
▁тём	-4562
енера	-4563
▁Наши	-4564
▁чере	-4565
титься	-4566
▁неуда	-4567
▁трети	-4568
▁прогно	-4569
ствовали	-4570
▁конечном	-4571
▁смотрите	-4572
▁эмоциона	-4573
▁появились	-4574
▁принимать	-4575
гам	-4576
дина	-4577
жный	-4578
нным	-4579
тива	-4580
▁счёт	-4581
▁концеп	-4582
▁отража	-4583
▁писать	-4584
▁преодо	-4585
▁управлять	-4586
били	-4587
шите	-4588
▁Гар	-4589
щении	-4590
▁депре	-4591
▁среду	-4592
▁хороший	-4593
▁здоровье	-4594
▁качества	-4595
▁присоеди	-4596
▁наблюдать	-4597
▁относительно	-4598
зап	-4599
кле	-4600
сро	-4601
гото	-4602
ковы	-4603
чном	-4604
▁197	-4605
▁объя	-4606
▁хоть	-4607
чением	-4608
▁верно	-4609
▁полно	-4610
▁психи	-4611
▁слева	-4612
▁влияет	-4613
▁столкну	-4614
▁человеку	-4615
ент	-4616
обо	-4617
лить	-4618
▁тай	-4619
телям	-4620
▁выро	-4621
▁иско	-4622
▁рисо	-4623
▁голов	-4624
▁поеха	-4625
▁среде	-4626
▁детьми	-4627
▁городов	-4628
▁случаев	-4629
▁животные	-4630
▁обеспечи	-4631
▁выступления	-4632
фу	-4633
дзе	-4634
руя	-4635
▁дни	-4636
▁рез	-4637
▁Ваши	-4638
▁верх	-4639
▁дире	-4640
ваемся	-4641
▁могло	-4642
▁смерт	-4643
▁каждую	-4644
▁обезья	-4645
▁первого	-4646
▁поступи	-4647
▁потреби	-4648
▁разобра	-4649
дё	-4650
ват	-4651
▁Гер	-4652
▁цве	-4653
▁ночь	-4654
альным	-4655
▁попыт	-4656
▁путём	-4657
▁хирур	-4658
▁учёные	-4659
▁Однажды	-4660
▁повсюду	-4661
▁показал	-4662
▁сделала	-4663
▁сделано	-4664
▁учиться	-4665
▁получаем	-4666
▁привести	-4667
▁следующее	-4668
▁способности	-4669
дже	-4670
онах	-4671
▁300	-4672
▁Сто	-4673
▁вес	-4674
сказа	-4675
▁веда	-4676
▁зака	-4677
▁поки	-4678
▁взяли	-4679
▁описы	-4680
▁способы	-4681
▁подумали	-4682
▁направлении	-4683
эро	-4684
▁24	-4685
Йорк	-4686
втра	-4687
коми	-4688
▁гро	-4689
жению	-4690
▁режи	-4691
▁намер	-4692
▁улице	-4693
▁числа	-4694
▁каждая	-4695
▁интересу	-4696
▁поколение	-4697
▁последних	-4698
лое	-4699
мат	-4700
▁70	-4701
▁эн	-4702
▁Жен	-4703
емого	-4704
скими	-4705
▁зара	-4706
▁нерв	-4707
▁короб	-4708
▁сексу	-4709
ключить	-4710
▁сработа	-4711
▁продолжи	-4712
▁Великобри	-4713
▁родителей	-4714
▁представляет	-4715
▁“	-4716
иль	-4717
тую	-4718
▁Эй	-4719
ента	-4720
▁але	-4721
▁охо	-4722
ковые	-4723
▁комму	-4724
▁непро	-4725
▁погру	-4726
▁ребен	-4727
▁насили	-4728
▁дополни	-4729
▁оборудо	-4730
▁подрост	-4731
▁провели	-4732
▁маленьких	-4733
▁настоящее	-4734
▁отношение	-4735
▁шу	-4736
▁Ком	-4737
терна	-4738
▁веке	-4739
▁запу	-4740
▁класс	-4741
▁учени	-4742
▁учиты	-4743
▁диноза	-4744
▁поводу	-4745
▁положи	-4746
▁узнали	-4747
▁Проблема	-4748
▁континен	-4749
▁ощущение	-4750
▁использует	-4751
дах	-4752
▁Вз	-4753
вана	-4754
фика	-4755
▁бом	-4756
▁кров	-4757
▁трех	-4758
▁сквозь	-4759
▁основан	-4760
▁ресурсы	-4761
is	-4762
пор	-4763
цам	-4764
чению	-4765
▁ребя	-4766
▁моему	-4767
▁целый	-4768
▁Послед	-4769
▁динами	-4770
▁обрабо	-4771
▁сосредото	-4772
дию	-4773
лев	-4774
тим	-4775
вете	-4776
реза	-4777
тика	-4778
▁дали	-4779
▁кост	-4780
ствием	-4781
▁домаш	-4782
▁Челове	-4783
▁деревья	-4784
▁случаях	-4785
▁компьютеры	-4786
тур	-4787
тыми	-4788
▁Япо	-4789
▁мяне	-4790
▁запол	-4791
▁устро	-4792
▁освобо	-4793
▁филосо	-4794
▁счастью	-4795
▁считаем	-4796
лую	-4797
мно	-4798
▁ны	-4799
▁Ман	-4800
▁Пар	-4801
▁ада	-4802
▁пон	-4803
▁Хотя	-4804
▁заба	-4805
▁паро	-4806
довлет	-4807
разуме	-4808
▁водой	-4809
▁предм	-4810
▁прият	-4811
▁контек	-4812
▁Оказывается	-4813
▁Ту	-4814
енти	-4815
▁Чем	-4816
▁види	-4817
▁найд	-4818
▁тему	-4819
▁плане	-4820
▁языке	-4821
▁лучший	-4822
▁поняла	-4823
▁усилия	-4824
▁опублико	-4825
ейс	-4826
шеб	-4827
▁СП	-4828
ноко	-4829
рета	-4830
тное	-4831
▁зло	-4832
встра	-4833
стами	-4834
▁взял	-4835
▁впере	-4836
▁знала	-4837
▁прожи	-4838
▁Первая	-4839
▁загряз	-4840
▁первым	-4841
▁соедин	-4842
▁болезнь	-4843
▁использование	-4844
▁ез	-4845
▁уз	-4846
жели	-4847
▁Бог	-4848
▁кан	-4849
▁Более	-4850
▁макси	-4851
▁машин	-4852
▁руках	-4853
▁насчёт	-4854
▁природ	-4855
▁список	-4856
▁содержи	-4857
▁получилось	-4858
хожу	-4859
▁пун	-4860
▁ряд	-4861
вшего	-4862
▁плат	-4863
▁какую	-4864
▁месяц	-4865
▁миром	-4866
▁нефти	-4867
▁торго	-4868
▁квадра	-4869
▁мировой	-4870
▁считать	-4871
▁воспомина	-4872
▁предоставля	-4873
пры	-4874
▁вашу	-4875
▁теми	-4876
вторых	-4877
тельны	-4878
▁важна	-4879
▁руково	-4880
▁исключи	-4881
▁создаёт	-4882
▁остаётся	-4883
▁приходит	-4884
▁восстанов	-4885
▁чрезвычайно	-4886
▁эксперимента	-4887
et	-4888
мс	-4889
виа	-4890
циа	-4891
▁Дэ	-4892
вятся	-4893
ствий	-4894
▁небе	-4895
▁неле	-4896
▁инжене	-4897
▁заканчи	-4898
▁применя	-4899
▁секунду	-4900
цах	-4901
ўна	-4902
жена	-4903
▁горя	-4904
▁зовут	-4905
▁карту	-4906
▁семье	-4907
▁лучших	-4908
▁мнение	-4909
▁никаких	-4910
▁четырёх	-4911
▁показывают	-4912
▁зависимости	-4913
жал	-4914
мин	-4915
▁Пе	-4916
▁вя	-4917
рика	-4918
▁обма	-4919
руются	-4920
▁Женщи	-4921
▁думала	-4922
▁скажем	-4923
▁качество	-4924
▁показали	-4925
▁настоящий	-4926
▁перспекти	-4927
вью	-4928
кса	-4929
пен	-4930
лася	-4931
щими	-4932
▁Обы	-4933
▁сил	-4934
▁коми	-4935
▁море	-4936
▁спас	-4937
▁послу	-4938
▁шести	-4939
▁основы	-4940
▁захваты	-4941
▁получится	-4942
▁происходя	-4943
ёй	-4944
гии	-4945
ель	-4946
онов	-4947
ризо	-4948
рица	-4949
терии	-4950
▁убий	-4951
▁кораб	-4952
▁кроше	-4953
▁пришла	-4954
▁корпора	-4955
▁понимаем	-4956
▁энергети	-4957
▁Несколько	-4958
▁великолеп	-4959
▁возникает	-4960
▁обнаружил	-4961
▁скоростью	-4962
еми	-4963
▁пят	-4964
▁доме	-4965
▁пале	-4966
▁верши	-4967
▁довер	-4968
▁звучит	-4969
▁спасти	-4970
▁увидим	-4971
▁обсужда	-4972
▁разница	-4973
▁строить	-4974
▁инструмент	-4975
▁составляет	-4976
▁государства	-4977
▁оказывается	-4978
енси	-4979
▁Зву	-4980
▁Мои	-4981
▁гре	-4982
▁ино	-4983
▁пле	-4984
▁тен	-4985
▁астро	-4986
▁ближе	-4987
▁набор	-4988
▁Видите	-4989
▁продукт	-4990
▁сделаем	-4991
▁говорила	-4992
▁меняется	-4993
▁взглянуть	-4994
▁выступление	-4995
кты	-4996
лёт	-4997
пле	-4998
чили	-4999
▁196	-5000
▁дво	-5001
▁поэ	-5002
чиная	-5003
▁копи	-5004
▁моём	-5005
чности	-5006
▁пропа	-5007
держать	-5008
енности	-5009
▁масштаб	-5010
▁поможет	-5011
▁политики	-5012
▁справедливо	-5013
пки	-5014
▁Гла	-5015
▁Пом	-5016
нёмся	-5017
▁можа	-5018
▁таму	-5019
чность	-5020
▁воздух	-5021
ственная	-5022
▁молодых	-5023
▁произойдёт	-5024
бая	-5025
пти	-5026
▁Ло	-5027
сюда	-5028
чено	-5029
▁яго	-5030
водят	-5031
следу	-5032
▁звёз	-5033
▁круг	-5034
ленный	-5035
▁совет	-5036
▁законо	-5037
▁наркоти	-5038
▁начинаем	-5039
▁ответить	-5040
йдет	-5041
лыми	-5042
нией	-5043
▁заво	-5044
▁игро	-5045
▁пожи	-5046
▁преу	-5047
▁тяжё	-5048
▁шанс	-5049
органи	-5050
▁заключ	-5051
▁серьез	-5052
▁страда	-5053
▁границы	-5054
▁застави	-5055
▁насилия	-5056
▁область	-5057
▁структуры	-5058
▁пользоваться	-5059
кл	-5060
чны	-5061
▁ні	-5062
жено	-5063
нную	-5064
▁2000	-5065
▁Джей	-5066
▁золо	-5067
▁ниже	-5068
▁якія	-5069
ющийся	-5070
▁Брази	-5071
▁страх	-5072
▁требо	-5073
нях	-5074
▁ОО	-5075
▁чы	-5076
тего	-5077
▁Бра	-5078
▁Лос	-5079
▁Дело	-5080
▁газа	-5081
▁вашем	-5082
▁прочи	-5083
▁лучшее	-5084
▁Сначала	-5085
▁лечение	-5086
▁причины	-5087
▁альтерна	-5088
▁масштаба	-5089
▁работала	-5090
▁способов	-5091
▁последнее	-5092
▁обязательно	-5093
ім	-5094
жка	-5095
оте	-5096
бера	-5097
след	-5098
ьмём	-5099
▁кад	-5100
▁памя	-5101
тивные	-5102
▁посла	-5103
▁сосед	-5104
▁трени	-5105
▁дороги	-5106
▁однако	-5107
▁страну	-5108
▁понрави	-5109
▁удовлет	-5110
▁энергия	-5111
▁изменений	-5112
▁материалы	-5113
ир	-5114
кор	-5115
риа	-5116
дила	-5117
мыми	-5118
сток	-5119
▁Бан	-5120
▁нее	-5121
▁идут	-5122
▁крат	-5123
▁Китае	-5124
▁бежен	-5125
▁наука	-5126
▁указа	-5127
▁посети	-5128
▁пройти	-5129
▁ходить	-5130
▁неизвест	-5131
▁понадоби	-5132
▁существа	-5133
▁улучшить	-5134
▁наверняка	-5135
▁остальные	-5136
▁преобразо	-5137
▁Существует	-5138
▁задуматься	-5139
▁технологию	-5140
мыс	-5141
нят	-5142
▁Чи	-5143
луча	-5144
тать	-5145
▁волну	-5146
▁нерав	-5147
▁столь	-5148
▁Кстати	-5149
▁радика	-5150
▁комнате	-5151
▁религиоз	-5152
фы	-5153
ндже	-5154
чена	-5155
▁ООН	-5156
▁бри	-5157
▁выход	-5158
▁досто	-5159
▁данном	-5160
▁настро	-5161
▁городах	-5162
▁планета	-5163
▁пытался	-5164
▁эпидеми	-5165
▁никакого	-5166
▁самостоя	-5167
▁коллектив	-5168
▁чувствовать	-5169
ook	-5170
лло	-5171
дных	-5172
носи	-5173
чера	-5174
▁дав	-5175
▁еду	-5176
▁лед	-5177
▁подс	-5178
▁спор	-5179
ностей	-5180
▁сцена	-5181
ствовал	-5182
▁внутрь	-5183
▁обнару	-5184
▁сравни	-5185
▁назвать	-5186
▁выглядят	-5187
▁скорость	-5188
▁поведения	-5189
▁социальные	-5190
▁конференции	-5191
▁попробовать	-5192
льны	-5193
печа	-5194
стин	-5195
тори	-5196
▁дзе	-5197
▁съе	-5198
▁Всем	-5199
▁ежед	-5200
▁книг	-5201
ждений	-5202
оборот	-5203
▁каких	-5204
▁ошибо	-5205
▁узнал	-5206
▁делаете	-5207
▁препара	-5208
▁размера	-5209
▁чувствую	-5210
▁пределами	-5211
▁пространстве	-5212
▁ответственность	-5213
гі	-5214
емь	-5215
рие	-5216
юць	-5217
ктов	-5218
▁дис	-5219
нений	-5220
▁геро	-5221
▁дают	-5222
▁опыта	-5223
▁сфере	-5224
▁экспо	-5225
▁катего	-5226
▁невиди	-5227
▁ненави	-5228
▁сторон	-5229
▁дизайнер	-5230
▁огромные	-5231
▁появился	-5232
▁размером	-5233
▁человеческой	-5234
▁контролировать	-5235
ch	-5236
дца	-5237
еце	-5238
доро	-5239
запно	-5240
ровки	-5241
▁маля	-5242
▁полю	-5243
▁сосе	-5244
честву	-5245
▁вирус	-5246
льности	-5247
▁методы	-5248
▁крупней	-5249
▁отлично	-5250
▁связано	-5251
▁хочется	-5252
▁говорите	-5253
▁обучение	-5254
▁аудитории	-5255
мии	-5256
ўля	-5257
нику	-5258
пись	-5259
▁400	-5260
▁еды	-5261
▁юри	-5262
брать	-5263
▁аути	-5264
▁приз	-5265
ровала	-5266
▁запла	-5267
▁метод	-5268
▁нашёл	-5269
▁ночью	-5270
▁утром	-5271
▁Первое	-5272
▁онлайн	-5273
▁сигнал	-5274
▁пытаюсь	-5275
▁выяснить	-5276
▁компонен	-5277
▁направля	-5278
▁пытались	-5279
▁интеллекту	-5280
▁поверхность	-5281
▁Й	-5282
▁бар	-5283
▁боя	-5284
▁внед	-5285
▁рыбы	-5286
▁Запад	-5287
▁Такие	-5288
▁госпо	-5289
▁отсле	-5290
▁гигант	-5291
▁решать	-5292
▁огромный	-5293
▁прошлого	-5294
▁обеспечить	-5295
▁происходят	-5296
ol	-5297
пі	-5298
жат	-5299
ждает	-5300
▁Джор	-5301
▁веду	-5302
▁воде	-5303
▁девя	-5304
▁рыба	-5305
▁Прави	-5306
▁загля	-5307
▁замед	-5308
▁отвер	-5309
▁серде	-5310
▁препят	-5311
▁самолё	-5312
▁стороне	-5313
▁заметить	-5314
▁сравнению	-5315
▁демократии	-5316
▁путешествие	-5317
жы	-5318
зой	-5319
дный	-5320
рыва	-5321
▁Анг	-5322
▁фут	-5323
▁хро	-5324
скому	-5325
цвета	-5326
▁вопло	-5327
▁защиты	-5328
▁любого	-5329
▁обраща	-5330
▁своему	-5331
▁Национа	-5332
▁роботов	-5333
▁действий	-5334
▁пытаются	-5335
▁рождения	-5336
▁Вселенной	-5337
▁позволяют	-5338
дку	-5339
жки	-5340
емое	-5341
▁вну	-5342
▁опро	-5343
▁углу	-5344
▁учре	-5345
няются	-5346
▁Земля	-5347
▁броса	-5348
▁особо	-5349
▁каждое	-5350
▁мусуль	-5351
▁пытаясь	-5352
▁сильнее	-5353
▁сложные	-5354
▁экосист	-5355
▁вернулся	-5356
▁нейронов	-5357
▁пытается	-5358
▁пожалуйста	-5359
грать	-5360
▁объё	-5361
гности	-5362
кономи	-5363
▁богат	-5364
▁выйти	-5365
▁волшеб	-5366
▁вынужд	-5367
рованных	-5368
▁жителей	-5369
▁миллион	-5370
▁требует	-5371
▁автомати	-5372
▁понимают	-5373
▁профессо	-5374
▁положение	-5375
▁Великобритании	-5376
el	-5377
дио	-5378
▁ще	-5379
вшей	-5380
дные	-5381
кому	-5382
леть	-5383
стям	-5384
▁вось	-5385
▁зага	-5386
▁охра	-5387
▁людях	-5388
▁голосо	-5389
▁оконча	-5390
▁очевид	-5391
▁решила	-5392
▁справля	-5393
▁интервью	-5394
▁открытия	-5395
▁ценности	-5396
▁предсказа	-5397
▁особенности	-5398
▁используется	-5399
фро	-5400
▁ниж	-5401
енный	-5402
▁двер	-5403
ниться	-5404
▁ресто	-5405
▁бедных	-5406
▁завтра	-5407
▁словно	-5408
роваться	-5409
▁привело	-5410
▁проявля	-5411
▁помогают	-5412
▁собственные	-5413
▁ВВ	-5414
▁чь	-5415
▁ума	-5416
ённые	-5417
▁север	-5418
▁Вопрос	-5419
▁власть	-5420
▁законы	-5421
▁нашими	-5422
▁общего	-5423
▁хорошая	-5424
▁революции	-5425
ляет	-5426
нике	-5427
чики	-5428
▁Бри	-5429
▁пау	-5430
▁чёт	-5431
ешься	-5432
▁Идея	-5433
▁учеб	-5434
▁напол	-5435
▁парни	-5436
▁спект	-5437
▁Подума	-5438
▁знаешь	-5439
▁знаний	-5440
▁лучшие	-5441
▁смерть	-5442
▁тяжело	-5443
▁ужасно	-5444
▁фильма	-5445
▁согласно	-5446
▁вдохновля	-5447
▁территории	-5448
спи	-5449
нями	-5450
рела	-5451
сред	-5452
треб	-5453
▁Тай	-5454
лично	-5455
▁доли	-5456
▁имели	-5457
▁карты	-5458
▁компле	-5459
▁экране	-5460
▁картину	-5461
▁бороться	-5462
▁возвраща	-5463
▁сохранить	-5464
▁развивающихся	-5465
am	-5466
гип	-5467
новь	-5468
▁Три	-5469
▁улы	-5470
мерно	-5471
панзе	-5472
▁горы	-5473
▁землю	-5474
▁сумас	-5475
▁воспро	-5476
▁голоса	-5477
▁образу	-5478
▁понимания	-5479
▁требуется	-5480
▁собираемся	-5481
▁происходило	-5482
гут	-5483
цыя	-5484
пада	-5485
▁аэро	-5486
▁зача	-5487
довать	-5488
▁класси	-5489
▁знамени	-5490
▁отличие	-5491
▁получает	-5492
▁преврати	-5493
▁достижения	-5494
▁заставляет	-5495
▁университета	-5496
вки	-5497
мон	-5498
▁мг	-5499
изво	-5500
рого	-5501
лиять	-5502
▁наро	-5503
▁подроб	-5504
▁зарабаты	-5505
▁получать	-5506
▁познакоми	-5507
▁рассказал	-5508
▁следующем	-5509
▁представления	-5510
ИД	-5511
▁c	-5512
лку	-5513
мпи	-5514
▁iP	-5515
лизо	-5516
▁Ска	-5517
▁дро	-5518
▁плю	-5519
мости	-5520
▁имел	-5521
▁слай	-5522
▁тера	-5523
▁Южной	-5524
▁любят	-5525
▁науке	-5526
▁новым	-5527
▁погло	-5528
▁увели	-5529
новения	-5530
▁провед	-5531
▁теория	-5532
▁воздуха	-5533
▁попасть	-5534
▁руковод	-5535
▁событий	-5536
▁средств	-5537
▁биологии	-5538
▁вещества	-5539
▁пациента	-5540
▁приходят	-5541
▁производи	-5542
▁заболеваний	-5543
▁промышленно	-5544
дан	-5545
book	-5546
туры	-5547
▁веб	-5548
▁гиб	-5549
▁код	-5550
▁ног	-5551
блиоте	-5552
▁видят	-5553
▁упомя	-5554
▁важный	-5555
▁доктор	-5556
▁соглас	-5557
▁четвер	-5558
работать	-5559
▁открыто	-5560
▁открыть	-5561
▁вызывает	-5562
▁оказался	-5563
▁фотографию	-5564
зло	-5565
жным	-5566
лете	-5567
рисо	-5568
▁Джу	-5569
твори	-5570
тором	-5571
▁Face	-5572
▁граду	-5573
▁звуки	-5574
▁лежит	-5575
▁насла	-5576
▁учены	-5577
▁важнее	-5578
▁класса	-5579
▁контра	-5580
▁мнению	-5581
ключения	-5582
▁начиная	-5583
▁подходя	-5584
▁рабочих	-5585
▁фантасти	-5586
▁характер	-5587
▁находимся	-5588
▁характери	-5589
меру	-5590
тона	-5591
фона	-5592
▁сфо	-5593
логов	-5594
▁Кана	-5595
▁гэты	-5596
▁отца	-5597
меется	-5598
провод	-5599
▁вновь	-5600
▁вычис	-5601
▁интуи	-5602
▁преды	-5603
▁чудес	-5604
▁группу	-5605
▁отмети	-5606
▁повлия	-5607
▁слышал	-5608
американ	-5609
ключение	-5610
▁помести	-5611
▁упомина	-5612
▁учителя	-5613
▁друзьями	-5614
▁осталось	-5615
▁вероятность	-5616
▁действовать	-5617
▁информацион	-5618
▁исследовать	-5619
▁деятельности	-5620
лья	-5621
лям	-5622
шают	-5623
жнему	-5624
ковой	-5625
стане	-5626
числи	-5627
▁СПИД	-5628
▁трав	-5629
▁Герма	-5630
▁солда	-5631
▁успех	-5632
▁коммер	-5633
▁объект	-5634
▁запуска	-5635
▁началось	-5636
▁осуществ	-5637
▁растений	-5638
▁маленькая	-5639
▁половиной	-5640
▁представляют	-5641
ter	-5642
ъек	-5643
гают	-5644
▁Фак	-5645
▁мел	-5646
▁ске	-5647
мысли	-5648
▁аген	-5649
центри	-5650
▁клиен	-5651
▁крови	-5652
▁сентя	-5653
▁встрет	-5654
▁задать	-5655
▁рамках	-5656
▁тенден	-5657
лировать	-5658
▁выбрать	-5659
▁команды	-5660
▁помните	-5661
▁Facebook	-5662
▁лекарство	-5663
ion	-5664
шке	-5665
▁лі	-5666
▁мл	-5667
екси	-5668
куси	-5669
част	-5670
▁Дар	-5671
▁Уни	-5672
нилось	-5673
▁подоз	-5674
▁верить	-5675
▁одному	-5676
▁определ	-5677
▁прошлое	-5678
▁контроля	-5679
▁название	-5680
▁разговор	-5681
▁демонстри	-5682
▁отношении	-5683
▁замечательно	-5684
▁взаимодействия	-5685
гри	-5686
чке	-5687
▁сю	-5688
льмі	-5689
никам	-5690
▁буты	-5691
▁весе	-5692
▁гены	-5693
▁мимо	-5694
▁след	-5695
▁рецеп	-5696
▁силой	-5697
▁склон	-5698
▁минуту	-5699
▁письмо	-5700
▁сверху	-5701
▁трилли	-5702
▁бизнеса	-5703
▁стоимость	-5704
▁Калифорнии	-5705
▁американцев	-5706
жая	-5707
мум	-5708
▁хло	-5709
▁муль	-5710
▁плем	-5711
ченные	-5712
▁книга	-5713
деление	-5714
▁анализ	-5715
▁бумаги	-5716
▁заново	-5717
▁вариант	-5718
▁вопроса	-5719
▁предмет	-5720
▁смотрит	-5721
▁среднем	-5722
▁катастро	-5723
▁элементы	-5724
▁остальных	-5725
▁разобраться	-5726
низу	-5727
▁оба	-5728
▁фено	-5729
▁штат	-5730
жность	-5731
▁вовсе	-5732
▁инфек	-5733
▁Вашинг	-5734
▁Обычно	-5735
▁какого	-5736
▁толькі	-5737
▁причине	-5738
▁хватает	-5739
▁источник	-5740
▁передать	-5741
▁подготов	-5742
▁реальном	-5743
▁структуру	-5744
▁большинства	-5745
▁поддерживать	-5746
ed	-5747
неш	-5748
▁тэ	-5749
нила	-5750
циям	-5751
▁зай	-5752
▁лам	-5753
зацию	-5754
нется	-5755
▁вовле	-5756
▁генов	-5757
▁разби	-5758
▁ткани	-5759
▁измери	-5760
▁музыки	-5761
▁сформи	-5762
▁учёных	-5763
▁неравен	-5764
▁проекты	-5765
▁бактерии	-5766
▁медленно	-5767
▁непосред	-5768
▁оставить	-5769
▁противоре	-5770
▁собственной	-5771
ёв	-5772
оны	-5773
вшая	-5774
стся	-5775
▁Ему	-5776
▁дат	-5777
▁цер	-5778
▁шим	-5779
▁Пожа	-5780
▁музе	-5781
▁свер	-5782
▁сосу	-5783
вающие	-5784
шается	-5785
▁вещах	-5786
▁зачем	-5787
▁невер	-5788
▁недав	-5789
▁сцене	-5790
▁тепло	-5791
новение	-5792
▁важных	-5793
▁растёт	-5794
ственном	-5795
▁Сколько	-5796
▁общения	-5797
▁сложнее	-5798
▁конкурен	-5799
▁мышления	-5800
▁наоборот	-5801
▁причиной	-5802
▁проблеме	-5803
▁случайно	-5804
▁шимпанзе	-5805
▁противополо	-5806
жь	-5807
▁Од	-5808
▁фу	-5809
змом	-5810
пуль	-5811
▁вло	-5812
▁дал	-5813
▁хле	-5814
▁Калі	-5815
▁зрите	-5816
▁языка	-5817
работки	-5818
ческому	-5819
▁группе	-5820
▁обстоя	-5821
▁ребята	-5822
▁спроек	-5823
▁станут	-5824
▁девочка	-5825
▁десятки	-5826
▁историй	-5827
▁счастье	-5828
▁благодар	-5829
▁спросить	-5830
▁попытаться	-5831
▁появляются	-5832
▁посредством	-5833
as	-5834
бур	-5835
най	-5836
▁ён	-5837
вели	-5838
мены	-5839
▁жыц	-5840
▁сын	-5841
щихся	-5842
вшиеся	-5843
▁Между	-5844
тографи	-5845
▁Универ	-5846
▁борьбе	-5847
▁важным	-5848
▁восемь	-5849
▁кризис	-5850
▁прозра	-5851
▁добавить	-5852
▁защитить	-5853
▁проектов	-5854
▁процвета	-5855
▁сострада	-5856
▁диагности	-5857
▁построили	-5858
доў	-5859
цом	-5860
ьев	-5861
нула	-5862
чыць	-5863
▁очи	-5864
▁тип	-5865
биоти	-5866
благо	-5867
денти	-5868
▁Гово	-5869
▁бата	-5870
▁заго	-5871
▁сайт	-5872
▁утро	-5873
ванных	-5874
тивных	-5875
▁мозге	-5876
▁нефть	-5877
▁исчеза	-5878
▁память	-5879
▁провёл	-5880
▁вернуть	-5881
▁проходи	-5882
▁половина	-5883
▁продукты	-5884
▁Подумайте	-5885
▁население	-5886
▁увеличить	-5887
▁социальной	-5888
▁неправильно	-5889
▁Фи	-5890
▁чле	-5891
мость	-5892
части	-5893
▁дога	-5894
▁поля	-5895
▁угол	-5896
▁концу	-5897
▁ферме	-5898
▁Австра	-5899
▁выделя	-5900
▁выстав	-5901
▁дорого	-5902
▁задачи	-5903
▁памяти	-5904
▁партнё	-5905
▁эмоции	-5906
▁рассказ	-5907
▁компанию	-5908
▁приблизи	-5909
▁проходит	-5910
▁расстрой	-5911
▁скорости	-5912
▁студенты	-5913
▁установи	-5914
▁информацией	-5915
▁приходилось	-5916
▁сегодняшний	-5917
рэн	-5918
гина	-5919
жима	-5920
жная	-5921
чешь	-5922
▁150	-5923
▁ВВП	-5924
▁Сло	-5925
▁пак	-5926
▁рыб	-5927
▁тое	-5928
▁семи	-5929
ментом	-5930
▁скуль	-5931
▁талан	-5932
▁отрица	-5933
▁постав	-5934
▁девочек	-5935
▁середине	-5936
▁коммуника	-5937
▁применить	-5938
▁проводить	-5939
▁проблемами	-5940
ліся	-5941
няли	-5942
шили	-5943
▁ого	-5944
енной	-5945
▁заро	-5946
▁вклад	-5947
▁вырос	-5948
▁разве	-5949
▁спаса	-5950
▁важные	-5951
▁жизнен	-5952
▁мастер	-5953
▁прийти	-5954
▁спокой	-5955
▁добавля	-5956
▁поисках	-5957
▁большого	-5958
▁инновации	-5959
▁транспорт	-5960
вре	-5961
стр	-5962
поте	-5963
▁Дей	-5964
▁Наш	-5965
▁Нико	-5966
▁моря	-5967
▁Зачем	-5968
▁синте	-5969
▁задумы	-5970
▁стволо	-5971
▁страха	-5972
▁предыду	-5973
▁продуктов	-5974
▁материалов	-5975
▁сообщество	-5976
▁производство	-5977
ad	-5978
ссу	-5979
щер	-5980
мене	-5981
мого	-5982
▁Два	-5983
▁Пра	-5984
▁Чар	-5985
пенно	-5986
▁пищи	-5987
▁фигу	-5988
▁наста	-5989
▁цифры	-5990
▁автобу	-5991
▁вельмі	-5992
▁дольше	-5993
▁записы	-5994
▁другому	-5995
▁каждому	-5996
▁процент	-5997
▁телеско	-5998
▁изучения	-5999
▁услышать	-6000
▁справиться	-6001
▁результатов	-6002
▁O	-6003
бби	-6004
жин	-6005
кви	-6006
▁Хи	-6007
мимо	-6008
▁Дол	-6009
▁сро	-6010
▁грип	-6011
▁сидя	-6012
▁типи	-6013
▁фран	-6014
вающих	-6015
ждении	-6016
▁номер	-6017
▁редко	-6018
▁Интере	-6019
▁играет	-6020
▁инвали	-6021
▁многим	-6022
рованные	-6023
▁проекти	-6024
▁убедить	-6025
▁долгосро	-6026
▁подумала	-6027
▁спросили	-6028
▁ценность	-6029
▁останавли	-6030
▁свидетель	-6031
▁благотвори	-6032
▁восприятие	-6033
шё	-6034
▁ё	-6035
кин	-6036
пар	-6037
▁35	-6038
емая	-6039
▁гля	-6040
▁шоу	-6041
логии	-6042
▁поса	-6043
▁укра	-6044
▁Ответ	-6045
▁балан	-6046
▁груди	-6047
▁линия	-6048
▁риско	-6049
▁фабри	-6050
▁Значит	-6051
▁график	-6052
▁привле	-6053
▁районе	-6054
▁углеки	-6055
▁глазами	-6056
▁динозав	-6057
▁механизм	-6058
▁спросила	-6059
ету	-6060
▁Ор	-6061
чали	-6062
▁Без	-6063
▁Муж	-6064
▁акт	-6065
▁мол	-6066
▁шка	-6067
▁даль	-6068
▁надё	-6069
▁речи	-6070
▁скон	-6071
нджеле	-6072
нокожи	-6073
▁свето	-6074
▁стаби	-6075
▁футбо	-6076
▁близко	-6077
▁корруп	-6078
▁океане	-6079
▁передо	-6080
▁причинам	-6081
▁сумасшед	-6082
▁Поскольку	-6083
▁маленькой	-6084
▁попросили	-6085
▁интересное	-6086
▁остановить	-6087
▁исследователь	-6088
▁Ге	-6089
▁Ше	-6090
лаве	-6091
стая	-6092
ристи	-6093
▁Стив	-6094
▁кожи	-6095
▁севе	-6096
▁самоу	-6097
льность	-6098
▁Вообще	-6099
▁новость	-6100
▁природа	-6101
▁просмот	-6102
▁отличается	-6103
▁рассказывать	-6104
дэ	-6105
риф	-6106
бран	-6107
вина	-6108
дера	-6109
лучи	-6110
▁бор	-6111
слуша	-6112
▁изда	-6113
▁нема	-6114
альную	-6115
▁идеей	-6116
▁робот	-6117
ровании	-6118
▁каждые	-6119
▁машине	-6120
▁ответа	-6121
▁превос	-6122
▁заметил	-6123
▁любопыт	-6124
▁Северной	-6125
▁перегово	-6126
▁наблюдаем	-6127
▁специально	-6128
жную	-6129
тным	-6130
▁бле	-6131
▁кно	-6132
сторо	-6133
▁желе	-6134
▁идее	-6135
▁небо	-6136
▁сфер	-6137
ленную	-6138
▁Мекси	-6139
▁Перед	-6140
▁иденти	-6141
▁третий	-6142
▁большее	-6143
▁понятие	-6144
▁принцип	-6145
▁свободы	-6146
▁произвед	-6147
▁различия	-6148
▁серьёзно	-6149
▁смотрели	-6150
▁позвольте	-6151
▁сообщение	-6152
гка	-6153
▁Мэ	-6154
мить	-6155
▁иск	-6156
▁туа	-6157
▁худ	-6158
▁запо	-6159
▁пойм	-6160
▁урок	-6161
▁видит	-6162
▁муравь	-6163
▁нашему	-6164
▁смотрю	-6165
▁величай	-6166
▁объекты	-6167
▁последу	-6168
▁удастся	-6169
▁Университ	-6170
▁измерения	-6171
▁потенциал	-6172
▁обнаружить	-6173
ew	-6174
ub	-6175
пя	-6176
▁0	-6177
ing	-6178
лер	-6179
▁Ги	-6180
▁ця	-6181
кров	-6182
тная	-6183
▁20-	-6184
▁трэ	-6185
чиков	-6186
шении	-6187
▁Испо	-6188
▁бесе	-6189
▁дыха	-6190
▁одни	-6191
▁през	-6192
▁теку	-6193
▁увле	-6194
ванные	-6195
вшихся	-6196
словно	-6197
▁загру	-6198
▁никак	-6199
▁прине	-6200
▁проще	-6201
▁играют	-6202
▁индуст	-6203
▁неделе	-6204
▁посыла	-6205
▁скульп	-6206
▁сочета	-6207
▁картина	-6208
▁родился	-6209
технологи	-6210
▁внезапно	-6211
▁позволит	-6212
▁предупре	-6213
▁сознание	-6214
▁воспользо	-6215
▁необходимости	-6216
▁22	-6217
▁сда	-6218
▁сне	-6219
▁Рича	-6220
▁евро	-6221
▁маги	-6222
▁нова	-6223
▁побо	-6224
▁пого	-6225
▁чест	-6226
▁Други	-6227
▁Индия	-6228
▁Китая	-6229
▁зерка	-6230
▁риска	-6231
ционные	-6232
▁Вторая	-6233
хождения	-6234
▁беремен	-6235
▁полицей	-6236
▁религии	-6237
▁указыва	-6238
▁действие	-6239
▁случится	-6240
▁создании	-6241
▁экономика	-6242
▁университете	-6243
тэ	-6244
обе	-6245
арма	-6246
рабі	-6247
▁Оба	-6248
▁дзя	-6249
▁сты	-6250
конец	-6251
споко	-6252
чений	-6253
▁Обра	-6254
▁опла	-6255
▁костю	-6256
▁награ	-6257
▁самую	-6258
▁сотен	-6259
▁точка	-6260
▁назвал	-6261
▁моменты	-6262
▁библиоте	-6263
▁болезней	-6264
▁огромная	-6265
-1	-6266
нти	-6267
сив	-6268
чок	-6269
▁Ке	-6270
сыпа	-6271
▁Бил	-6272
▁аре	-6273
▁жан	-6274
▁мер	-6275
▁сай	-6276
тного	-6277
▁вско	-6278
▁тест	-6279
риться	-6280
▁внизу	-6281
▁вчера	-6282
▁книге	-6283
▁непло	-6284
▁точку	-6285
▁абстра	-6286
▁достой	-6287
прежнему	-6288
▁никакой	-6289
▁микроско	-6290
▁подходит	-6291
▁ребёнком	-6292
▁осуществи	-6293
▁относится	-6294
▁занимаются	-6295
▁разработали	-6296
▁собственный	-6297
кер	-6298
мор	-6299
чён	-6300
▁75	-6301
▁Нор	-6302
▁дел	-6303
▁фир	-6304
нулся	-6305
нутри	-6306
серва	-6307
▁Рабо	-6308
▁гума	-6309
▁деше	-6310
▁попы	-6311
▁порт	-6312
▁духов	-6313
▁замет	-6314
▁легче	-6315
▁тропи	-6316
пустить	-6317
▁десять	-6318
▁широко	-6319
▁вычисли	-6320
▁отслежи	-6321
▁примеры	-6322
▁продела	-6323
▁смотрят	-6324
▁деревьев	-6325
▁лекарств	-6326
▁операции	-6327
▁закончить	-6328
▁президент	-6329
▁организаций	-6330
▁самостоятельно	-6331
▁ПМ	-6332
ждая	-6333
зови	-6334
щены	-6335
язви	-6336
ёмся	-6337
жного	-6338
сятся	-6339
▁Бога	-6340
▁Смот	-6341
▁малы	-6342
▁охва	-6343
▁пишу	-6344
▁тема	-6345
кторов	-6346
▁Андер	-6347
▁Ладно	-6348
▁гаран	-6349
▁обуча	-6350
▁стрем	-6351
▁труда	-6352
▁Африка	-6353
▁вклады	-6354
▁меняет	-6355
▁поступ	-6356
▁робота	-6357
▁сообщи	-6358
▁Наконец	-6359
▁платфор	-6360
▁значения	-6361
▁организм	-6362
▁интернете	-6363
▁сообщения	-6364
▁функциони	-6365
▁автомобиль	-6366
▁безопасность	-6367
▁45	-6368
▁ня	-6369
▁сэ	-6370
ходе	-6371
▁Кан	-6372
▁Сер	-6373
▁ата	-6374
▁век	-6375
давно	-6376
▁Голо	-6377
▁Ниге	-6378
▁кофе	-6379
▁реко	-6380
▁рука	-6381
▁движу	-6382
▁надея	-6383
▁немно	-6384
▁дохода	-6385
▁сохран	-6386
▁возраст	-6387
▁разделя	-6388
▁слушать	-6389
▁капитали	-6390
▁ответила	-6391
▁взаимосвя	-6392
▁установить	-6393
▁университет	-6394
ёрт	-6395
льзу	-6396
нера	-6397
рные	-6398
▁Оче	-6399
енном	-6400
тация	-6401
▁Боже	-6402
▁вкус	-6403
▁неме	-6404
▁любим	-6405
▁мозгу	-6406
▁пошли	-6407
▁Понима	-6408
▁видела	-6409
▁выходит	-6410
▁проекте	-6411
▁рациона	-6412
▁написать	-6413
▁системой	-6414
▁отношению	-6415
▁экономику	-6416
▁изменилось	-6417
▁человеческих	-6418
ir	-6419
зия	-6420
кос	-6421
рно	-6422
▁Ат	-6423
▁Зе	-6424
жела	-6425
льфи	-6426
люсь	-6427
▁Еще	-6428
▁Мон	-6429
▁Цен	-6430
▁лиш	-6431
▁оза	-6432
▁рук	-6433
летия	-6434
совер	-6435
стров	-6436
▁Конг	-6437
▁Наде	-6438
▁едва	-6439
▁запро	-6440
▁честь	-6441
▁ответы	-6442
▁комнату	-6443
▁назвали	-6444
▁странно	-6445
▁топлива	-6446
▁общаться	-6447
▁ощущения	-6448
▁Благодаря	-6449
▁использовал	-6450
бий	-6451
гну	-6452
пить	-6453
тяги	-6454
▁бит	-6455
▁опо	-6456
▁пат	-6457
▁ўсё	-6458
береж	-6459
дятся	-6460
▁Глав	-6461
▁быць	-6462
▁дешё	-6463
▁жена	-6464
▁пузы	-6465
▁урав	-6466
жается	-6467
льному	-6468
▁Самое	-6469
▁вызов	-6470
▁похож	-6471
▁равен	-6472
▁Конгре	-6473
▁записи	-6474
ствующих	-6475
▁достоин	-6476
▁хорошее	-6477
▁Благодар	-6478
▁зачастую	-6479
▁родствен	-6480
▁сущности	-6481
▁возможным	-6482
▁поставить	-6483
▁проверить	-6484
▁экономике	-6485
пью	-6486
ряс	-6487
цуз	-6488
▁Изра	-6489
▁Марс	-6490
▁Прав	-6491
▁вспы	-6492
▁дочь	-6493
▁пище	-6494
▁Много	-6495
▁задач	-6496
▁Другой	-6497
▁людзей	-6498
▁метафо	-6499
▁смысла	-6500
▁старше	-6501
▁воздухе	-6502
▁молодые	-6503
▁простые	-6504
▁простых	-6505
▁сторона	-6506
▁заметили	-6507
▁избежать	-6508
▁проектом	-6509
▁производить	-6510
йнш	-6511
▁Уо	-6512
лина	-6513
никах	-6514
▁ассо	-6515
▁бесс	-6516
▁гром	-6517
▁мело	-6518
▁орби	-6519
▁смеш	-6520
▁удив	-6521
рована	-6522
тивной	-6523
▁Землю	-6524
▁потеп	-6525
▁уязви	-6526
▁детали	-6527
▁импуль	-6528
▁симпто	-6529
▁честно	-6530
▁демокра	-6531
▁помнить	-6532
▁предпоч	-6533
▁разными	-6534
▁совершен	-6535
▁сознания	-6536
▁поместить	-6537
▁сложности	-6538
▁частности	-6539
▁эксперимен	-6540
▁большинстве	-6541
▁предложение	-6542
▁U	-6543
пку	-6544
уго	-6545
▁яв	-6546
бить	-6547
рпла	-6548
▁Кор	-6549
вость	-6550
ницей	-6551
щений	-6552
▁Азии	-6553
▁Эйнш	-6554
▁зали	-6555
▁зоны	-6556
▁полё	-6557
▁автор	-6558
▁зрабі	-6559
▁мечты	-6560
▁назна	-6561
▁обеща	-6562
▁самим	-6563
▁числе	-6564
▁Штатах	-6565
▁думает	-6566
▁каждым	-6567
▁ошибки	-6568
▁полной	-6569
▁прошли	-6570
ственную	-6571
▁данными	-6572
▁детстве	-6573
▁открытие	-6574
▁получила	-6575
▁предприя	-6576
▁компьютера	-6577
▁фотографий	-6578
лот	-6579
вила	-6580
дным	-6581
таль	-6582
▁игр	-6583
▁выго	-6584
▁идет	-6585
▁суде	-6586
▁поток	-6587
▁рожда	-6588
▁сочув	-6589
▁трево	-6590
▁бывает	-6591
▁дерево	-6592
▁зарпла	-6593
▁оружие	-6594
▁отобра	-6595
▁слегка	-6596
ствовала	-6597
▁питания	-6598
▁повезло	-6599
▁свободу	-6600
▁добраться	-6601
▁занимаюсь	-6602
▁поговорим	-6603
▁получения	-6604
▁инструментов	-6605
▁V	-6606
зоб	-6607
пон	-6608
чам	-6609
рной	-6610
шкой	-6611
▁вру	-6612
кнуть	-6613
▁Твит	-6614
▁ведёт	-6615
▁война	-6616
▁всеоб	-6617
▁держа	-6618
▁индий	-6619
▁ничто	-6620
▁парня	-6621
▁улицы	-6622
ленного	-6623
▁важная	-6624
▁вскоре	-6625
▁кварти	-6626
▁соотно	-6627
▁частей	-6628
▁инженер	-6629
▁максима	-6630
▁природу	-6631
▁степень	-6632
▁занимает	-6633
▁попросил	-6634
▁оказались	-6635
▁собственного	-6636
ab	-6637
люб	-6638
хая	-6639
▁195	-6640
▁Бру	-6641
▁Пол	-6642
▁зри	-6643
▁поо	-6644
кость	-6645
льник	-6646
нении	-6647
нитар	-6648
циско	-6649
ктором	-6650
▁вечер	-6651
▁годов	-6652
▁ждать	-6653
▁свете	-6654
▁тести	-6655
Анджеле	-6656
▁горизо	-6657
▁менять	-6658
▁повсед	-6659
▁разоча	-6660
▁группой	-6661
▁изучить	-6662
▁местных	-6663
▁надежды	-6664
▁простое	-6665
▁разбира	-6666
▁иностран	-6667
▁культура	-6668
▁некоторое	-6669
▁следующие	-6670
▁постепенно	-6671
ro	-6672
йо	-6673
▁J	-6674
▁K	-6675
▁s	-6676
гран	-6677
▁194	-6678
▁ищу	-6679
▁нра	-6680
▁сма	-6681
▁хол	-6682
▁яна	-6683
▁Един	-6684
▁нега	-6685
тивный	-6686
▁вашим	-6687
▁медве	-6688
▁прими	-6689
▁рынка	-6690
▁своем	-6691
▁перене	-6692
▁симмет	-6693
рировать	-6694
▁вечером	-6695
▁побереж	-6696
▁создаём	-6697
▁Очевидно	-6698
▁мирового	-6699
▁молекулы	-6700
▁ограничи	-6701
▁местности	-6702
▁передвига	-6703
▁компьютеров	-6704
ec	-6705
one	-6706
оба	-6707
под	-6708
кцию	-6709
мана	-6710
фера	-6711
▁иду	-6712
кости	-6713
▁Дети	-6714
▁таго	-6715
▁Такое	-6716
▁доход	-6717
▁масса	-6718
▁плака	-6719
▁семью	-6720
▁борьбы	-6721
▁выигра	-6722
▁литера	-6723
▁пришло	-6724
▁физики	-6725
▁доступа	-6726
▁объедин	-6727
▁примени	-6728
▁расширя	-6729
▁связыва	-6730
▁универса	-6731
▁располага	-6732
▁рассмотреть	-6733
il	-6734
щик	-6735
▁ию	-6736
▁шум	-6737
▁нака	-6738
▁ночи	-6739
▁цена	-6740
няться	-6741
ставил	-6742
▁вдоль	-6743
▁гости	-6744
▁грави	-6745
▁рассу	-6746
▁рынке	-6747
▁Японии	-6748
▁камеры	-6749
▁неизбе	-6750
▁оружия	-6751
▁отличи	-6752
▁склады	-6753
▁тюрьме	-6754
министра	-6755
▁Исследо	-6756
▁лидеров	-6757
▁полагаю	-6758
▁прототи	-6759
▁работой	-6760
▁считает	-6761
▁контроль	-6762
▁ответили	-6763
▁перемены	-6764
▁атмосферу	-6765
▁посмотрел	-6766
▁прекрасный	-6767
▁аплодисменты	-6768
▁разнообразие	-6769
▁t	-6770
ваў	-6771
хла	-6772
валі	-6773
тиви	-6774
тивы	-6775
▁жил	-6776
▁опи	-6777
▁рад	-6778
▁хак	-6779
ляция	-6780
слого	-6781
летний	-6782
ченных	-6783
▁дипло	-6784
▁любую	-6785
▁народ	-6786
▁Всемир	-6787
▁изнача	-6788
▁исключ	-6789
▁насилие	-6790
▁переход	-6791
▁бактерий	-6792
▁вспомина	-6793
▁основных	-6794
▁отвечает	-6795
▁сентября	-6796
▁повседнев	-6797
▁занимается	-6798
▁распространения	-6799
▁Ё	-6800
зон	-6801
▁23	-6802
чкой	-6803
щаем	-6804
▁араб	-6805
▁зало	-6806
▁кило	-6807
▁птиц	-6808
жности	-6809
▁исход	-6810
▁поиск	-6811
▁потер	-6812
▁стату	-6813
▁темно	-6814
▁Правда	-6815
▁быстры	-6816
▁облада	-6817
▁снимок	-6818
▁стадии	-6819
▁любимых	-6820
▁неприят	-6821
▁прочита	-6822
▁сигналы	-6823
▁слышать	-6824
▁уверены	-6825
▁беспокои	-6826
▁большего	-6827
▁поверить	-6828
▁антибиоти	-6829
▁оказаться	-6830
us	-6831
АС	-6832
дие	-6833
скі	-6834
▁1,	-6835
кция	-6836
▁Нас	-6837
Йорка	-6838
долго	-6839
публи	-6840
▁Оста	-6841
▁засе	-6842
▁имму	-6843
▁кори	-6844
▁лоша	-6845
▁обви	-6846
▁отка	-6847
▁отме	-6848
▁цита	-6849
▁чудо	-6850
ландии	-6851
стерои	-6852
центра	-6853
▁геном	-6854
▁диску	-6855
▁напом	-6856
▁пенси	-6857
▁целей	-6858
ционных	-6859
▁магнит	-6860
▁никому	-6861
▁сидеть	-6862
лекопита	-6863
▁картины	-6864
▁понятно	-6865
▁смотрим	-6866
▁движется	-6867
▁маленькую	-6868
▁Фактически	-6869
▁избавиться	-6870
рем	-6871
шаф	-6872
люби	-6873
рных	-6874
утбу	-6875
▁еха	-6876
▁рын	-6877
рядок	-6878
▁Одно	-6879
▁мудро	-6880
▁стены	-6881
деления	-6882
▁воздуш	-6883
▁выпуск	-6884
▁продем	-6885
▁состав	-6886
▁Другими	-6887
▁Отлично	-6888
▁предска	-6889
▁счастья	-6890
▁бедности	-6891
▁доказать	-6892
▁животное	-6893
▁заняться	-6894
▁привыкли	-6895
▁свойства	-6896
▁столкнов	-6897
▁количеством	-6898
▁характеристи	-6899
фио	-6900
шил	-6901
шит	-6902
вами	-6903
поли	-6904
сило	-6905
▁ано	-6906
▁пля	-6907
▁пое	-6908
ваюсь	-6909
▁2008	-6910
▁Стра	-6911
▁мило	-6912
▁моем	-6913
▁реда	-6914
щением	-6915
▁патен	-6916
▁штата	-6917
▁Англии	-6918
▁дельфи	-6919
▁диагно	-6920
▁ископа	-6921
▁чалаве	-6922
▁воспита	-6923
▁команду	-6924
▁оригина	-6925
▁планету	-6926
▁проверя	-6927
▁реакция	-6928
▁телевид	-6929
▁Андерсон	-6930
▁Бразилии	-6931
▁личности	-6932
▁миллиард	-6933
▁способен	-6934
▁Благодарю	-6935
▁занимался	-6936
▁отношений	-6937
▁наблюдения	-6938
▁направления	-6939
▁продемонстри	-6940
▁электричество	-6941
ань	-6942
ити	-6943
нне	-6944
цыі	-6945
ъем	-6946
▁St	-6947
▁чт	-6948
жное	-6949
▁дож	-6950
▁зам	-6951
▁пож	-6952
ехать	-6953
левой	-6954
ндшаф	-6955
▁Буду	-6956
▁адап	-6957
▁былі	-6958
▁заму	-6959
▁кажу	-6960
▁пыль	-6961
▁Согла	-6962
▁гадоў	-6963
▁метро	-6964
▁нынеш	-6965
дителей	-6966
▁интерф	-6967
▁обозна	-6968
▁экстре	-6969
▁выбрасы	-6970
▁постара	-6971
▁медицины	-6972
▁определи	-6973
▁телевизо	-6974
▁предложить	-6975
▁десятилетия	-6976
▁деятельность	-6977
ани	-6978
вим	-6979
гей	-6980
пок	-6981
сия	-6982
ёшь	-6983
▁ім	-6984
дыха	-6985
емым	-6986
▁Сов	-6987
▁Исто	-6988
▁деду	-6989
▁диск	-6990
▁пищу	-6991
▁прио	-6992
▁саха	-6993
ленным	-6994
▁вмеша	-6995
▁годах	-6996
▁лагер	-6997
▁отвра	-6998
▁отчая	-6999
▁чисто	-7000
▁Ничего	-7001
▁востор	-7002
▁дороге	-7003
▁звезды	-7004
▁карьер	-7005
▁нарисо	-7006
▁хочешь	-7007
▁оценить	-7008
▁сложная	-7009
▁Несмотря	-7010
▁изменили	-7011
▁масштабе	-7012
▁надеемся	-7013
▁телефона	-7014
▁небольшие	-7015
▁получаете	-7016
▁придумать	-7017
▁собирается	-7018
▁единственная	-7019
цё	-7020
шч	-7021
іх	-7022
чил	-7023
пять	-7024
чами	-7025
щена	-7026
▁пас	-7027
невно	-7028
тивно	-7029
▁Впер	-7030
▁дета	-7031
▁душу	-7032
▁курс	-7033
▁нашы	-7034
нейших	-7035
ровано	-7036
спубли	-7037
▁воссо	-7038
▁интен	-7039
▁карта	-7040
▁превы	-7041
▁траге	-7042
ционной	-7043
▁Можете	-7044
▁глазах	-7045
▁избира	-7046
▁классе	-7047
▁письма	-7048
▁девочки	-7049
▁механиз	-7050
▁приняли	-7051
▁ребенка	-7052
▁увидела	-7053
▁интересо	-7054
▁культуре	-7055
▁головного	-7056
▁млекопита	-7057
▁нормально	-7058
▁опасности	-7059
▁организма	-7060
▁напоминает	-7061
▁продолжает	-7062
▁естественно	-7063
вах	-7064
гал	-7065
ксу	-7066
куп	-7067
▁99	-7068
▁Бен	-7069
▁Вся	-7070
▁Луч	-7071
▁став	-7072
▁Какой	-7073
▁войне	-7074
▁групп	-7075
▁карте	-7076
▁любое	-7077
▁слышу	-7078
▁среда	-7079
▁Африку	-7080
▁Прежде	-7081
▁давать	-7082
▁правил	-7083
▁сделаю	-7084
совершен	-7085
▁высокой	-7086
▁имеется	-7087
▁минимум	-7088
▁порядка	-7089
▁учитель	-7090
▁достигли	-7091
▁собирать	-7092
▁материала	-7093
▁чувствовал	-7094
▁эффективно	-7095
id	-7096
ера	-7097
зву	-7098
мию	-7099
шет	-7100
▁Ап	-7101
вшим	-7102
кана	-7103
праж	-7104
▁Вас	-7105
▁вед	-7106
гляды	-7107
енным	-7108
▁школ	-7109
▁ёсць	-7110
▁жанчы	-7111
▁жидко	-7112
▁карто	-7113
▁слайд	-7114
▁Расска	-7115
▁знаком	-7116
▁минуты	-7117
▁точнее	-7118
▁выбрали	-7119
▁коллеги	-7120
▁потребу	-7121
▁умирают	-7122
▁предметы	-7123
▁привлечь	-7124
▁процессы	-7125
▁углерода	-7126
дивительно	-7127
▁продоволь	-7128
▁показатели	-7129
▁предпочита	-7130
▁инструмента	-7131
▁удовольствие	-7132
▁исключительно	-7133
ом	-7134
юз	-7135
чий	-7136
тила	-7137
▁гар	-7138
▁мяг	-7139
▁рит	-7140
товой	-7141
▁Хочу	-7142
▁брен	-7143
▁каби	-7144
▁мыши	-7145
▁Марсе	-7146
▁комби	-7147
▁роман	-7148
▁экран	-7149
▁годами	-7150
▁дорогу	-7151
▁зданий	-7152
▁народа	-7153
▁начнём	-7154
▁нежели	-7155
▁отсюда	-7156
▁призем	-7157
▁ландшаф	-7158
▁перейти	-7159
▁нравятся	-7160
▁политике	-7161
▁Интересно	-7162
▁использую	-7163
▁мусульман	-7164
▁насекомых	-7165
▁следующей	-7166
▁следующих	-7167
▁бесконечно	-7168
▁потрясающе	-7169
▁разнообраз	-7170
▁спрашивают	-7171
▁воспоминания	-7172
▁предотвратить	-7173
pp	-7174
дида	-7175
лога	-7176
ссию	-7177
тали	-7178
тную	-7179
▁ред	-7180
нными	-7181
эффек	-7182
▁кома	-7183
▁реки	-7184
вающей	-7185
ющимся	-7186
▁владе	-7187
▁звёзд	-7188
▁остав	-7189
▁офици	-7190
▁подру	-7191
▁приго	-7192
▁чисты	-7193
▁осторо	-7194
▁астерои	-7195
▁вопросу	-7196
▁выпуска	-7197
▁платить	-7198
▁помогли	-7199
▁уверена	-7200
▁беженцев	-7201
▁градусов	-7202
▁давление	-7203
▁политика	-7204
▁признать	-7205
▁некотором	-7206
▁подразуме	-7207
▁продуктив	-7208
▁показаться	-7209
жку	-7210
мие	-7211
мит	-7212
мия	-7213
мане	-7214
сной	-7215
▁Бли	-7216
▁Спу	-7217
▁быў	-7218
созна	-7219
шений	-7220
▁взро	-7221
▁дает	-7222
▁засу	-7223
▁каме	-7224
▁упро	-7225
▁чтоб	-7226
станов	-7227
тельна	-7228
▁дверь	-7229
▁песня	-7230
▁разда	-7231
▁скани	-7232
ступить	-7233
▁предна	-7234
▁привед	-7235
▁Недавно	-7236
▁следова	-7237
▁сложных	-7238
▁молекуляр	-7239
▁принимают	-7240
▁организация	-7241
▁противостоя	-7242
ay	-7243
im	-7244
ейт	-7245
тни	-7246
фов	-7247
▁жд	-7248
▁ато	-7249
гнуть	-7250
▁кван	-7251
▁клас	-7252
▁сына	-7253
▁форм	-7254
менять	-7255
▁Разве	-7256
▁возро	-7257
▁встро	-7258
▁кости	-7259
▁откло	-7260
▁песню	-7261
▁профи	-7262
▁прошу	-7263
▁убеди	-7264
▁выжить	-7265
▁задачу	-7266
▁какими	-7267
▁смогла	-7268
▁фильмы	-7269
▁климати	-7270
▁подгото	-7271
▁подозре	-7272
▁пределы	-7273
▁объектов	-7274
▁основные	-7275
▁спроекти	-7276
▁бесплатно	-7277
▁солнечной	-7278
▁чувствуют	-7279
▁работников	-7280
вее	-7281
кол	-7282
пру	-7283
сел	-7284
▁Ал	-7285
▁Ос	-7286
▁вд	-7287
▁яй	-7288
душе	-7289
жала	-7290
рный	-7291
туда	-7292
▁80-	-7293
▁бое	-7294
▁тым	-7295
▁хво	-7296
вання	-7297
раста	-7298
▁акку	-7299
▁коль	-7300
▁моде	-7301
▁сдви	-7302
▁фраг	-7303
ковать	-7304
▁Взгля	-7305
▁ведут	-7306
▁воору	-7307
▁выска	-7308
▁двери	-7309
▁задей	-7310
▁медиа	-7311
▁прогу	-7312
▁стена	-7313
тельств	-7314
▁Больше	-7315
▁британ	-7316
▁головы	-7317
▁данным	-7318
▁жизней	-7319
▁комфор	-7320
▁либера	-7321
▁наличи	-7322
▁плохие	-7323
▁узнала	-7324
▁знакомы	-7325
▁потребо	-7326
▁простая	-7327
▁простым	-7328
▁смотрел	-7329
▁Германии	-7330
▁делается	-7331
▁поддержа	-7332
▁принципы	-7333
▁среднего	-7334
▁хорошего	-7335
▁оказалась	-7336
▁поддержки	-7337
▁появилось	-7338
▁состояния	-7339
▁структура	-7340
▁интересный	-7341
▁эксперименты	-7342
тку	-7343
▁Эн	-7344
вард	-7345
лено	-7346
слей	-7347
▁Жиз	-7348
▁ини	-7349
▁уль	-7350
▁уто	-7351
▁имея	-7352
▁посо	-7353
▁уйти	-7354
▁ябло	-7355
грамма	-7356
дители	-7357
▁Среди	-7358
▁живых	-7359
▁ноутбу	-7360
▁органы	-7361
▁снимки	-7362
▁Помните	-7363
▁надежда	-7364
▁опухоль	-7365
▁периода	-7366
▁независи	-7367
▁обладают	-7368
▁цифровой	-7369
▁контексте	-7370
▁случается	-7371
▁автомобилей	-7372
▁обстоятельства	-7373
гни	-7374
дке	-7375
▁Ху	-7376
ляют	-7377
ліва	-7378
питы	-7379
рент	-7380
рией	-7381
▁The	-7382
▁Поз	-7383
▁Роб	-7384
▁бен	-7385
▁уте	-7386
влять	-7387
ющему	-7388
▁2010	-7389
▁лест	-7390
▁напи	-7391
альном	-7392
всегда	-7393
▁демон	-7394
▁имена	-7395
▁рейти	-7396
▁сбере	-7397
ставили	-7398
▁солнце	-7399
▁торгов	-7400
▁энерго	-7401
альность	-7402
▁аналоги	-7403
▁научить	-7404
▁инноваций	-7405
▁превратить	-7406
пах	-7407
Фран	-7408
▁New	-7409
▁Фор	-7410
▁гне	-7411
▁пик	-7412
▁ура	-7413
важно	-7414
нётся	-7415
слуши	-7416
▁2009	-7417
▁агре	-7418
▁аргу	-7419
▁дапа	-7420
▁отре	-7421
▁пада	-7422
▁Навер	-7423
▁возоб	-7424
▁оборо	-7425
▁Центра	-7426
▁генера	-7427
▁кварта	-7428
▁образе	-7429
▁подвод	-7430
▁членов	-7431
▁европей	-7432
▁изменит	-7433
▁исследу	-7434
▁музыкан	-7435
▁надежду	-7436
▁феномен	-7437
▁культуру	-7438
▁основной	-7439
▁запустить	-7440
▁Пожалуйста	-7441
▁разработки	-7442
▁Афганистане	-7443
▁единственное	-7444
▁политических	-7445
▁использовании	-7446
рти	-7447
тке	-7448
тна	-7449
чёл	-7450
веду	-7451
гене	-7452
клон	-7453
рила	-7454
тоци	-7455
ьеры	-7456
▁60-	-7457
▁мое	-7458
талки	-7459
▁Коро	-7460
▁игно	-7461
▁пане	-7462
▁запре	-7463
▁конфи	-7464
▁насле	-7465
▁танце	-7466
▁вымира	-7467
▁местом	-7468
▁позади	-7469
▁спуска	-7470
▁старые	-7471
▁Кажется	-7472
▁Лондоне	-7473
▁Надеюсь	-7474
▁вертика	-7475
▁неплохо	-7476
▁рестора	-7477
▁обладает	-7478
▁документа	-7479
▁организмы	-7480
▁остальное	-7481
▁революция	-7482
▁восстановить	-7483
▁используются	-7484
ow	-7485
льт	-7486
рес	-7487
сим	-7488
чал	-7489
▁дз	-7490
гали	-7491
маты	-7492
▁Бар	-7493
▁Моё	-7494
▁Нач	-7495
▁дре	-7496
▁боли	-7497
▁гран	-7498
▁двой	-7499
▁наву	-7500
▁напо	-7501
▁роде	-7502
▁тонн	-7503
▁труб	-7504
графии	-7505
ходили	-7506
▁агент	-7507
▁важен	-7508
▁вышел	-7509
▁делом	-7510
▁добры	-7511
▁лесов	-7512
▁особы	-7513
▁разво	-7514
▁трэба	-7515
▁Европы	-7516
▁жители	-7517
▁захоте	-7518
▁наверх	-7519
▁поменя	-7520
▁головой	-7521
▁кризиса	-7522
▁попробу	-7523
▁собрали	-7524
▁считали	-7525
▁частицы	-7526
▁чувстви	-7527
▁написано	-7528
▁остаются	-7529
▁понимает	-7530
▁убедиться	-7531
▁оставаться	-7532
▁Соединённых	-7533
▁потребления	-7534
▁почувствовать	-7535
▁воспользоваться	-7536
жаю	-7537
зию	-7538
раў	-7539
▁ца	-7540
йдём	-7541
креп	-7542
▁You	-7543
▁Неу	-7544
▁тща	-7545
вляет	-7546
говор	-7547
рести	-7548
▁мани	-7549
▁мёрт	-7550
▁плот	-7551
▁скло	-7552
▁стои	-7553
дитель	-7554
нились	-7555
шением	-7556
▁Почти	-7557
▁долги	-7558
▁кровь	-7559
▁моими	-7560
▁школа	-7561
▁вперед	-7562
▁коллег	-7563
▁регули	-7564
▁усилий	-7565
▁заслужи	-7566
▁магазин	-7567
▁рабочие	-7568
▁передачи	-7569
▁получите	-7570
▁процента	-7571
▁маленьким	-7572
▁источников	-7573
▁собираются	-7574
▁определение	-7575
▁участвовать	-7576
▁человеческий	-7577
▁человечество	-7578
▁Фа	-7579
▁Чу	-7580
пами	-7581
туру	-7582
▁вво	-7583
▁еда	-7584
▁кух	-7585
▁мае	-7586
▁шах	-7587
▁доче	-7588
▁лока	-7589
литься	-7590
▁жизне	-7591
▁общей	-7592
▁объём	-7593
▁писал	-7594
▁прида	-7595
▁мнения	-7596
▁оттуда	-7597
▁руками	-7598
▁священ	-7599
▁скажут	-7600
▁морской	-7601
▁осознал	-7602
▁явление	-7603
▁абстракт	-7604
▁женщинам	-7605
▁историей	-7606
▁придумали	-7607
▁находиться	-7608
▁применения	-7609
▁развивается	-7610
▁исследовании	-7611
джи	-7612
зиа	-7613
сна	-7614
▁Жи	-7615
▁ля	-7616
hone	-7617
виду	-7618
муля	-7619
▁30-	-7620
▁Ган	-7621
▁ава	-7622
▁суд	-7623
анали	-7624
ждают	-7625
лимпи	-7626
ретья	-7627
▁Егип	-7628
▁атом	-7629
▁далё	-7630
▁меры	-7631
▁пала	-7632
▁пача	-7633
▁поощ	-7634
▁пост	-7635
▁герои	-7636
▁оправ	-7637
▁палец	-7638
▁погиб	-7639
▁пошёл	-7640
▁стоят	-7641
▁факты	-7642
▁этапе	-7643
ционный	-7644
▁гипоте	-7645
▁контак	-7646
▁космос	-7647
▁навыки	-7648
рованный	-7649
▁грузови	-7650
▁доктора	-7651
▁описать	-7652
▁сделаны	-7653
▁сложный	-7654
▁функции	-7655
Франциско	-7656
▁наслажда	-7657
▁исправить	-7658
▁подобного	-7659
▁совместно	-7660
▁хозяйства	-7661
▁отличаются	-7662
▁предложения	-7663
▁собственных	-7664
ve	-7665
нга	-7666
тье	-7667
▁27	-7668
леты	-7669
нном	-7670
▁Мир	-7671
▁млн	-7672
ертво	-7673
лливу	-7674
ревно	-7675
ровой	-7676
стные	-7677
▁адзі	-7678
▁удар	-7679
енного	-7680
▁Оказа	-7681
▁пойма	-7682
▁рукой	-7683
рованию	-7684
▁Привет	-7685
▁величи	-7686
▁камеру	-7687
▁основу	-7688
▁размно	-7689
▁растут	-7690
▁увлека	-7691
▁главным	-7692
▁женщину	-7693
▁товаров	-7694
▁углерод	-7695
▁вдохнови	-7696
▁размышля	-7697
▁вернулись	-7698
▁компанией	-7699
▁занимаемся	-7700
▁обратиться	-7701
▁организацию	-7702
▁социального	-7703
▁общественных	-7704
▁существования	-7705
ia	-7706
вяз	-7707
лег	-7708
ллы	-7709
шчэ	-7710
▁Эд	-7711
▁сч	-7712
▁ян	-7713
бель	-7714
граф	-7715
рядо	-7716
сков	-7717
▁меж	-7718
▁пче	-7719
▁роз	-7720
шению	-7721
щиеся	-7722
▁выру	-7723
▁душе	-7724
▁твёр	-7725
вольно	-7726
▁верят	-7727
▁пробу	-7728
▁слабо	-7729
▁токси	-7730
▁Ричард	-7731
▁важную	-7732
▁запись	-7733
▁оценки	-7734
▁статью	-7735
▁субъек	-7736
▁школах	-7737
▁кандида	-7738
▁примере	-7739
▁процеду	-7740
▁событие	-7741
▁страшно	-7742
▁целиком	-7743
▁вернёмся	-7744
▁воссозда	-7745
▁измерить	-7746
▁коммента	-7747
▁навсегда	-7748
▁находить	-7749
▁средство	-7750
▁счастлив	-7751
▁телефоны	-7752
▁изначально	-7753
▁смертности	-7754
▁удивительное	-7755
дная	-7756
тики	-7757
хоже	-7758
▁600	-7759
▁жда	-7760
вости	-7761
емини	-7762
моему	-7763
▁Чика	-7764
▁базо	-7765
▁блок	-7766
▁доно	-7767
▁паві	-7768
▁ходе	-7769
▁часы	-7770
хотвор	-7771
▁Кении	-7772
▁летом	-7773
▁мусор	-7774
▁сыгра	-7775
▁iPhone	-7776
▁вторая	-7777
▁минима	-7778
▁многом	-7779
▁найден	-7780
сомненно	-7781
▁доверие	-7782
▁научных	-7783
▁получим	-7784
▁обитания	-7785
▁гуманитар	-7786
▁женщинами	-7787
▁составляют	-7788
▁исключением	-7789
▁необходимые	-7790
▁политической	-7791
▁технологиями	-7792
▁взаимодействие	-7793
рс	-7794
com	-7795
ube	-7796
худ	-7797
▁Ён	-7798
пании	-7799
щаясь	-7800
▁1000	-7801
▁Паки	-7802
▁врач	-7803
▁гряз	-7804
▁души	-7805
▁невы	-7806
▁сбор	-7807
▁секс	-7808
▁цепо	-7809
грамми	-7810
кового	-7811
рактив	-7812
▁верим	-7813
▁кусок	-7814
▁мгнов	-7815
▁сцену	-7816
альными	-7817
▁идеями	-7818
▁нахожу	-7819
▁похожа	-7820
▁проник	-7821
ствующие	-7822
▁аппарат	-7823
▁главный	-7824
▁желания	-7825
▁примера	-7826
▁участия	-7827
▁взрослых	-7828
▁консерва	-7829
▁областях	-7830
▁отметить	-7831
▁создавая	-7832
▁учителей	-7833
▁частично	-7834
▁Технологи	-7835
▁миллиарды	-7836
▁поддержку	-7837
▁уменьшить	-7838
▁восприятия	-7839
▁интерактив	-7840
▁сострадание	-7841
ent	-7842
ект	-7843
каз	-7844
кля	-7845
▁яе	-7846
вано	-7847
жном	-7848
ходу	-7849
▁90-	-7850
▁Ама	-7851
▁ссы	-7852
▁эго	-7853
ехали	-7854
ровую	-7855
ходим	-7856
ходом	-7857
▁жало	-7858
▁приё	-7859
▁спон	-7860
ванной	-7861
ордина	-7862
состоя	-7863
▁подви	-7864
▁пробе	-7865
▁раком	-7866
▁сайте	-7867
▁стере	-7868
▁табли	-7869
▁Каждая	-7870
▁влияют	-7871
▁инициа	-7872
▁неопре	-7873
▁Впервые	-7874
▁Нигерии	-7875
▁бесконе	-7876
▁местные	-7877
▁органов	-7878
▁фильмов	-7879
▁капитала	-7880
▁началась	-7881
▁образова	-7882
▁развитии	-7883
▁подумайте	-7884
▁прочитать	-7885
▁способами	-7886
▁интересует	-7887
▁математики	-7888
▁определяет	-7889
▁рассказала	-7890
▁участников	-7891
▁оборудование	-7892
эм	-7893
кри	-7894
пия	-7895
ўся	-7896
▁ам	-7897
груз	-7898
▁Кем	-7899
▁Лин	-7900
▁Пла	-7901
▁оча	-7902
▁трю	-7903
клада	-7904
▁игре	-7905
▁цены	-7906
вающий	-7907
против	-7908
▁Солне	-7909
▁крова	-7910
▁приви	-7911
▁сидит	-7912
▁измеря	-7913
▁отправ	-7914
▁ошибок	-7915
▁первом	-7916
▁перено	-7917
▁полный	-7918
▁предме	-7919
▁самому	-7920
▁Возьмём	-7921
▁Человек	-7922
▁молодой	-7923
▁ожидать	-7924
▁открыли	-7925
▁соверша	-7926
▁существ	-7927
▁трёхмер	-7928
▁успешно	-7929
▁француз	-7930
▁появится	-7931
▁Понимаете	-7932
▁ежедневно	-7933
▁индустрии	-7934
▁предложил	-7935
▁стратегии	-7936
▁отсутствие	-7937
▁расположен	-7938
▁следующего	-7939
▁собственно	-7940
▁творчество	-7941
▁эволюциони	-7942
▁направление	-7943
▁существовать	-7944
▁удивительные	-7945
▁доказательства	-7946
бь	-7947
дво	-7948
оло	-7949
▁кі	-7950
▁мі	-7951
боли	-7952
нгви	-7953
тков	-7954
▁Джа	-7955
▁жёл	-7956
▁зве	-7957
▁плы	-7958
енная	-7959
▁2007	-7960
▁Пари	-7961
▁хлеб	-7962
ляется	-7963
нулись	-7964
▁Всего	-7965
▁Джона	-7966
▁Какие	-7967
▁звука	-7968
▁сложи	-7969
▁снизи	-7970
▁упраж	-7971
▁целое	-7972
▁Второе	-7973
▁Другие	-7974
▁восьми	-7975
▁мотива	-7976
▁никого	-7977
▁открыл	-7978
▁помимо	-7979
▁фильме	-7980
▁четвёр	-7981
смотреть	-7982
▁встречи	-7983
▁задание	-7984
▁проводи	-7985
▁сделана	-7986
▁хорошим	-7987
▁выразить	-7988
▁заменить	-7989
▁индустри	-7990
▁потеряли	-7991
▁приносит	-7992
▁вариантов	-7993
▁галактики	-7994
▁отправить	-7995
▁произойти	-7996
▁неожиданно	-7997
▁экспериментов	-7998
▁непосредственно	-7999
30	-8000
PS	-8001
ft	-8002
ус	-8003
▁$	-8004
АСА	-8005
мей	-8006
▁Ай	-8007
▁сі	-8008
Tube	-8009
джет	-8010
ктом	-8011
сора	-8012
туре	-8013
шься	-8014
тится	-8015
▁НАСА	-8016
▁зала	-8017
▁креп	-8018
▁нека	-8019
▁одер	-8020
▁офис	-8021
▁рент	-8022
ватель	-8023
ологии	-8024
читься	-8025
▁забав	-8026
▁нашла	-8027
▁приез	-8028
▁стену	-8029
▁эпоху	-8030
▁возгла	-8031
▁дерева	-8032
▁зрение	-8033
▁скажет	-8034
▁услуги	-8035
▁YouTube	-8036
▁Мужчина	-8037
▁больных	-8038
▁глобали	-8039
▁деревне	-8040
▁держать	-8041
▁команде	-8042
▁мировых	-8043
▁останов	-8044
▁преуспе	-8045
▁расходы	-8046
▁Примерно	-8047
▁включает	-8048
▁делиться	-8049
▁незнаком	-8050
▁пожертво	-8051
▁ближайшие	-8052
▁вселенная	-8053
▁демонстра	-8054
▁небольшое	-8055
▁останется	-8056
▁удовлетвор	-8057
▁температуры	-8058
▁произведения	-8059
▁рассматривать	-8060
фф	-8061
▁р	-8062
луа	-8063
реи	-8064
вшее	-8065
днее	-8066
няем	-8067
сите	-8068
стам	-8069
хожи	-8070
энер	-8071
▁App	-8072
▁клу	-8073
руете	-8074
▁Речь	-8075
▁атры	-8076
▁каче	-8077
▁моду	-8078
▁оско	-8079
▁съём	-8080
▁япон	-8081
пережи	-8082
тивное	-8083
▁Атлан	-8084
▁Созда	-8085
▁банки	-8086
▁уделя	-8087
▁вируса	-8088
▁делала	-8089
▁молодо	-8090
▁натура	-8091
хождение	-8092
▁задачей	-8093
▁занятия	-8094
▁обычные	-8095
▁полиции	-8096
▁порядок	-8097
▁секунды	-8098
▁сложной	-8099
▁больнице	-8100
▁помогать	-8101
▁проводим	-8102
▁интернета	-8103
▁настоящая	-8104
▁чернокожи	-8105
▁интересная	-8106
▁окружающую	-8107
▁развиваться	-8108
▁современных	-8109
▁сотрудников	-8110
▁электричества	-8111
ur	-8112
вае	-8113
дзя	-8114
нял	-8115
чём	-8116
▁Фо	-8117
зами	-8118
тейн	-8119
▁10-	-8120
▁70-	-8121
▁Кен	-8122
▁Кра	-8123
летки	-8124
▁даст	-8125
▁имми	-8126
▁льда	-8127
ющейся	-8128
▁Важно	-8129
▁вдвое	-8130
▁войну	-8131
▁общее	-8132
▁пусть	-8133
▁рассе	-8134
▁границ	-8135
▁молодё	-8136
▁Америка	-8137
▁живущих	-8138
▁обычных	-8139
▁сделает	-8140
▁средний	-8141
▁встретил	-8142
▁высокого	-8143
▁ожидания	-8144
▁повлиять	-8145
▁прогресс	-8146
▁Австралии	-8147
▁Оказалось	-8148
▁депрессии	-8149
▁ограничен	-8150
▁следовать	-8151
▁управление	-8152
▁путешествия	-8153
гко	-8154
тры	-8155
атра	-8156
гром	-8157
мами	-8158
прия	-8159
▁Син	-8160
▁воо	-8161
▁змя	-8162
бенок	-8163
вален	-8164
хозяй	-8165
▁авиа	-8166
▁вред	-8167
▁доля	-8168
▁мега	-8169
▁слой	-8170
▁сове	-8171
▁спря	-8172
▁цени	-8173
емости	-8174
ложить	-8175
рением	-8176
ствуем	-8177
▁взрыв	-8178
▁волны	-8179
▁врачи	-8180
▁вышла	-8181
▁любит	-8182
▁невро	-8183
▁новом	-8184
▁обоих	-8185
▁ошиба	-8186
▁риску	-8187
▁Спустя	-8188
▁выигры	-8189
▁комнаты	-8190
▁наличие	-8191
▁научной	-8192
▁соревно	-8193
▁хороших	-8194
▁законода	-8195
▁обратить	-8196
▁пациенты	-8197
тельностью	-8198
▁беспровод	-8199
▁предназна	-8200
▁убеждения	-8201
▁взаимоотно	-8202
▁отношениях	-8203
▁обеспечение	-8204
▁политические	-8205
▁существование	-8206
выя	-8207
кай	-8208
мея	-8209
рхи	-8210
тли	-8211
▁In	-8212
▁Ша	-8213
вину	-8214
кает	-8215
обла	-8216
семе	-8217
▁GPS	-8218
▁Рай	-8219
▁бла	-8220
▁шар	-8221
аньше	-8222
дание	-8223
прови	-8224
терей	-8225
▁Запа	-8226
▁Надо	-8227
▁Сист	-8228
▁Сред	-8229
▁марш	-8230
▁Госпо	-8231
▁Около	-8232
▁Такой	-8233
▁глупо	-8234
▁лицом	-8235
▁смарт	-8236
▁снять	-8237
▁Раньше	-8238
▁времён	-8239
▁каково	-8240
▁лидеры	-8241
▁развле	-8242
▁смотря	-8243
▁художе	-8244
▁участок	-8245
▁женщиной	-8246
▁интенсив	-8247
▁примером	-8248
▁принципе	-8249
▁родилась	-8250
▁учитывая	-8251
▁небольшая	-8252
▁предостав	-8253
▁стоимости	-8254
▁администра	-8255
▁содержание	-8256
▁увеличение	-8257
▁разработать	-8258
▁современной	-8259
20	-8260
дли	-8261
еру	-8262
каў	-8263
▁мэ	-8264
петь	-8265
чков	-8266
▁Уже	-8267
влено	-8268
плоть	-8269
прият	-8270
тацию	-8271
чками	-8272
щиков	-8273
▁афро	-8274
▁млад	-8275
▁пары	-8276
▁побу	-8277
▁стен	-8278
▁ступ	-8279
▁яшчэ	-8280
сторон	-8281
▁Одним	-8282
▁домов	-8283
▁дорог	-8284
▁запом	-8285
▁людзі	-8286
▁правы	-8287
▁сетей	-8288
▁судеб	-8289
▁девять	-8290
▁кратко	-8291
▁лечить	-8292
▁языком	-8293
▁Действи	-8294
▁Женщины	-8295
▁Причина	-8296
▁веществ	-8297
▁колледж	-8298
▁обслужи	-8299
▁обычной	-8300
▁попытки	-8301
▁проника	-8302
▁публика	-8303
▁хорошей	-8304
▁элемент	-8305
▁Смотрите	-8306
▁заработа	-8307
▁медицине	-8308
▁называть	-8309
▁огромной	-8310
▁подверга	-8311
▁половины	-8312
▁пытаться	-8313
▁содержит	-8314
▁наблюдали	-8315
▁последней	-8316
▁устанавли	-8317
▁показатель	-8318
▁преодолеть	-8319
▁глобального	-8320
▁цивилизации	-8321
▁m	-8322
бже	-8323
чие	-8324
▁Ей	-8325
▁жё	-8326
ремя	-8327
▁Нау	-8328
▁жду	-8329
▁кош	-8330
▁оса	-8331
▁умо	-8332
▁шут	-8333
▁Ника	-8334
▁неот	-8335
▁отры	-8336
нтимет	-8337
сульта	-8338
▁замуж	-8339
▁нераз	-8340
▁песни	-8341
▁проме	-8342
▁снизу	-8343
▁тобой	-8344
пустили	-8345
▁борьба	-8346
▁вещами	-8347
▁запрет	-8348
▁карика	-8349
▁реклам	-8350
▁сообща	-8351
▁частиц	-8352
▁Франции	-8353
▁высоким	-8354
▁деревни	-8355
▁доверия	-8356
▁крупных	-8357
▁моделей	-8358
▁обычный	-8359
▁районах	-8360
▁снизить	-8361
▁техники	-8362
▁уровнем	-8363
▁Американ	-8364
▁большими	-8365
▁огромным	-8366
▁способно	-8367
▁выполнять	-8368
▁появления	-8369
▁считается	-8370
▁активность	-8371
▁производит	-8372
▁впечатление	-8373
▁результатом	-8374
▁собственную	-8375
▁остановиться	-8376
▁предоставить	-8377
▁человеческие	-8378
▁Действительно	-8379
oc	-8380
мма	-8381
роў	-8382
шко	-8383
ехал	-8384
рять	-8385
▁50-	-8386
▁Тот	-8387
▁пей	-8388
▁хто	-8389
▁Весь	-8390
▁Колу	-8391
▁выта	-8392
▁конц	-8393
▁подъ	-8394
ванный	-8395
ющееся	-8396
▁Опять	-8397
▁Сдела	-8398
▁блоки	-8399
▁ветер	-8400
▁рамки	-8401
▁услуг	-8402
разному	-8403
ционная	-8404
▁Чикаго	-8405
▁беспре	-8406
▁падает	-8407
▁подска	-8408
▁роботы	-8409
▁самыми	-8410
▁детства	-8411
▁нейроны	-8412
▁образцы	-8413
▁площади	-8414
▁подписа	-8415
▁прибыль	-8416
▁созданию	-8417
▁сопережи	-8418
▁Интернете	-8419
▁интеллект	-8420
▁коллегами	-8421
▁превосход	-8422
▁предстоит	-8423
▁приспособ	-8424
▁прогресса	-8425
▁демократия	-8426
▁ограничения	-8427
▁углекислого	-8428
ag	-8429
тт	-8430
▁d	-8431
атр	-8432
бет	-8433
▁ов	-8434
стки	-8435
чика	-8436
▁оку	-8437
ation	-8438
класс	-8439
ковый	-8440
новой	-8441
сторы	-8442
тятся	-8443
▁брат	-8444
▁днём	-8445
▁окра	-8446
▁охла	-8447
▁побы	-8448
нимите	-8449
таркти	-8450
ходите	-8451
▁Босто	-8452
▁ввиду	-8453
▁ветра	-8454
▁грани	-8455
▁импла	-8456
▁сража	-8457
▁точек	-8458
▁учить	-8459
тивного	-8460
▁Вместе	-8461
▁высоте	-8462
▁долгое	-8463
▁нейрон	-8464
▁переос	-8465
▁ультра	-8466
▁благопо	-8467
▁визуали	-8468
▁наиболь	-8469
▁подобно	-8470
▁пожалуй	-8471
▁привяза	-8472
▁призыва	-8473
▁разруши	-8474
▁реакции	-8475
▁воспроиз	-8476
▁иллюстра	-8477
▁развитию	-8478
▁Насколько	-8479
▁научились	-8480
▁разговоры	-8481
▁страдания	-8482
▁безусловно	-8483
▁посмотрели	-8484
▁производят	-8485
▁понадобится	-8486
▁пользователей	-8487
ri	-8488
тё	-8489
тру	-8490
▁Эк	-8491
▁дю	-8492
кций	-8493
писи	-8494
порт	-8495
▁Дет	-8496
▁Фон	-8497
▁тур	-8498
вейца	-8499
нится	-8500
▁Руан	-8501
▁моди	-8502
▁фонд	-8503
▁янва	-8504
вающее	-8505
вывать	-8506
жаться	-8507
ленное	-8508
▁Жизнь	-8509
▁Конго	-8510
▁ладно	-8511
▁подчи	-8512
▁пошла	-8513
▁разли	-8514
▁стиле	-8515
▁врачей	-8516
▁гэтага	-8517
▁камера	-8518
▁неспра	-8519
▁поздно	-8520
▁потери	-8521
▁стоять	-8522
▁христи	-8523
▁анализа	-8524
▁владель	-8525
▁донести	-8526
▁извлечь	-8527
▁повсеме	-8528
▁работая	-8529
▁региона	-8530
▁стимули	-8531
▁комплекс	-8532
▁преодоле	-8533
▁приведёт	-8534
▁проходят	-8535
▁животного	-8536
▁настоящие	-8537
▁одинаково	-8538
▁сократить	-8539
▁элементов	-8540
▁занимались	-8541
▁необходимы	-8542
▁расстоянии	-8543
▁обеспечения	-8544
▁справедливости	-8545
▁экономического	-8546
IS	-8547
th	-8548
сей	-8549
хой	-8550
бани	-8551
вига	-8552
емую	-8553
кола	-8554
▁Фло	-8555
▁лиц	-8556
▁нат	-8557
▁сбо	-8558
▁хищ	-8559
▁шла	-8560
брасы	-8561
стили	-8562
стите	-8563
щению	-8564
▁Будь	-8565
▁Разу	-8566
▁взры	-8567
▁гена	-8568
▁носи	-8569
▁пало	-8570
▁плюс	-8571
▁рыбу	-8572
▁силе	-8573
▁тиши	-8574
▁шмат	-8575
▁этап	-8576
вающая	-8577
кадеми	-8578
▁Давай	-8579
▁делая	-8580
▁живой	-8581
▁массы	-8582
▁праца	-8583
▁проче	-8584
▁штука	-8585
тельном	-8586
▁Другая	-8587
▁Получа	-8588
▁данной	-8589
▁доверя	-8590
▁защите	-8591
▁улицах	-8592
▁фемини	-8593
рованием	-8594
▁вызвать	-8595
▁дешевле	-8596
▁научные	-8597
▁ориенти	-8598
▁отходов	-8599
▁приятно	-8600
▁склонны	-8601
▁созданы	-8602
▁угрозой	-8603
▁услышал	-8604
▁больницы	-8605
▁напрямую	-8606
▁обрабаты	-8607
▁спросите	-8608
▁программе	-8609
▁реального	-8610
▁трудности	-8611
▁возобновля	-8612
▁изображений	-8613
▁лабораторию	-8614
▁преимущества	-8615
▁экологически	-8616
▁использованием	-8617
дев	-8618
дум	-8619
йся	-8620
маг	-8621
ючы	-8622
▁2-	-8623
▁4-	-8624
бами	-8625
такт	-8626
▁Доб	-8627
▁Объ	-8628
▁Пря	-8629
▁дух	-8630
милли	-8631
▁Поли	-8632
▁адчу	-8633
▁двое	-8634
▁замо	-8635
▁зато	-8636
▁іншы	-8637
нности	-8638
▁момен	-8639
▁полио	-8640
▁сидел	-8641
▁слабы	-8642
▁слома	-8643
▁трудо	-8644
▁штате	-8645
▁вступа	-8646
▁закона	-8647
▁лучшим	-8648
▁набира	-8649
▁выросла	-8650
▁заранее	-8651
▁снаружи	-8652
▁создала	-8653
▁средней	-8654
ственными	-8655
▁Антаркти	-8656
▁доступны	-8657
▁политику	-8658
▁сопротив	-8659
▁возникают	-8660
▁вынуждены	-8661
▁кислорода	-8662
▁сельского	-8663
▁объединить	-8664
▁восстанавли	-8665
▁государство	-8666
▁осуществить	-8667
▁ответственности	-8668
od	-8669
цэ	-8670
лай	-8671
льд	-8672
▁65	-8673
▁БД	-8674
▁кг	-8675
▁цу	-8676
вому	-8677
ланд	-8678
стья	-8679
тина	-8680
▁вку	-8681
▁жар	-8682
▁лен	-8683
▁шёл	-8684
▁ўсе	-8685
ванне	-8686
очень	-8687
▁Дере	-8688
▁Цель	-8689
▁ства	-8690
▁хлоп	-8691
вшийся	-8692
нулась	-8693
ющаяся	-8694
▁белых	-8695
▁желез	-8696
▁земля	-8697
▁креди	-8698
▁музей	-8699
▁отдел	-8700
▁скром	-8701
▁ткань	-8702
▁вплоть	-8703
▁клетку	-8704
▁привет	-8705
▁просле	-8706
▁термин	-8707
▁тысяче	-8708
▁удержи	-8709
ровались	-8710
▁Женщина	-8711
▁девушка	-8712
▁карьеру	-8713
▁многими	-8714
▁построй	-8715
▁распоря	-8716
▁самолёт	-8717
▁сопрово	-8718
▁специфи	-8719
▁картинку	-8720
▁написала	-8721
▁художник	-8722
▁говорится	-8723
▁развивать	-8724
▁стихотвор	-8725
▁активности	-8726
▁произойдет	-8727
▁трансформа	-8728
▁уверенность	-8729
▁Апплодисменты	-8730
▁промышленности	-8731
▁распространение	-8732
еме	-8733
зли	-8734
зок	-8735
чом	-8736
▁32	-8737
▁ищ	-8738
слов	-8739
▁250	-8740
▁Гра	-8741
▁кло	-8742
▁нищ	-8743
стоят	-8744
▁2005	-8745
▁бара	-8746
▁иной	-8747
▁обща	-8748
▁папа	-8749
▁темы	-8750
▁улыб	-8751
▁безум	-8752
▁волон	-8753
▁звуча	-8754
▁имела	-8755
▁ислам	-8756
▁неком	-8757
▁ребят	-8758
летнего	-8759
ющимися	-8760
▁второе	-8761
▁любить	-8762
▁откров	-8763
▁разума	-8764
▁уходит	-8765
▁учился	-8766
▁активно	-8767
▁образец	-8768
▁опухоли	-8769
▁поднять	-8770
▁прибыли	-8771
▁провела	-8772
▁связана	-8773
▁Согласно	-8774
▁вырабаты	-8775
▁покупать	-8776
▁понимали	-8777
▁попадает	-8778
▁точности	-8779
▁выполнить	-8780
▁заглянуть	-8781
▁случиться	-8782
▁отправился	-8783
▁последнего	-8784
▁внимательно	-8785
▁воображение	-8786
▁американских	-8787
▁воспринимать	-8788
▁единственным	-8789
▁преимущество	-8790
▁продолжается	-8791
▁общественного	-8792
▁увеличивается	-8793
лас	-8794
пси	-8795
▁эм	-8796
дена	-8797
жига	-8798
жила	-8799
лита	-8800
▁Дан	-8801
дного	-8802
дцать	-8803
етыре	-8804
рного	-8805
▁Ближ	-8806
▁Крас	-8807
▁Саха	-8808
▁взво	-8809
▁взор	-8810
▁марк	-8811
▁обши	-8812
▁снаб	-8813
▁срок	-8814
▁услы	-8815
тивным	-8816
▁Голос	-8817
▁Чарль	-8818
▁купил	-8819
▁науку	-8820
▁столи	-8821
▁тремя	-8822
▁целая	-8823
констру	-8824
▁Солнце	-8825
▁банков	-8826
▁блестя	-8827
▁генома	-8828
▁защиту	-8829
▁напеча	-8830
▁связей	-8831
▁столом	-8832
▁Никогда	-8833
▁влияния	-8834
▁впереди	-8835
▁комбина	-8836
▁контакт	-8837
▁кусочек	-8838
▁мальчик	-8839
▁наступи	-8840
▁портрет	-8841
▁ребенок	-8842
▁растение	-8843
▁факторов	-8844
▁связанных	-8845
▁английском	-8846
▁вычисления	-8847
▁интеллекта	-8848
▁пользуются	-8849
▁разрешения	-8850
▁невероятное	-8851
▁определения	-8852
▁реальностью	-8853
▁здравоохранение	-8854
▁Z	-8855
ork	-8856
сет	-8857
тва	-8858
▁ЭМ	-8859
бели	-8860
дешь	-8861
ниях	-8862
тном	-8863
▁Гор	-8864
▁леп	-8865
▁оси	-8866
▁таб	-8867
▁удо	-8868
▁Необ	-8869
▁Стэн	-8870
▁выпа	-8871
▁каль	-8872
▁кучу	-8873
▁репу	-8874
▁трен	-8875
вились	-8876
летряс	-8877
▁Apple	-8878
▁Огром	-8879
▁когни	-8880
▁корре	-8881
▁облег	-8882
▁птицы	-8883
▁серви	-8884
▁Откуда	-8885
▁воскре	-8886
▁голода	-8887
▁правду	-8888
▁приспо	-8889
▁чистой	-8890
▁великих	-8891
▁дальней	-8892
▁журнала	-8893
▁компози	-8894
▁красиво	-8895
▁топливо	-8896
▁явления	-8897
▁доверять	-8898
▁полиомие	-8899
▁половину	-8900
▁придержи	-8901
▁рассчиты	-8902
▁удовлетво	-8903
▁интересные	-8904
▁прекрасная	-8905
▁различными	-8906
▁воздействие	-8907
▁компьютером	-8908
▁температура	-8909
▁современного	-8910
дры	-8911
зму	-8912
нув	-8913
▁36	-8914
▁Ау	-8915
ллов	-8916
силь	-8917
шено	-8918
юцца	-8919
▁Шве	-8920
▁раб	-8921
ствию	-8922
▁Мини	-8923
▁вете	-8924
▁коне	-8925
▁мерт	-8926
▁мона	-8927
▁орке	-8928
▁пато	-8929
▁Амазо	-8930
▁Верно	-8931
▁Далее	-8932
▁Подоб	-8933
▁будзе	-8934
▁гидро	-8935
▁изоли	-8936
▁колон	-8937
▁откро	-8938
▁отста	-8939
▁павін	-8940
▁спать	-8941
▁целую	-8942
▁выводу	-8943
▁глубже	-8944
▁гриппа	-8945
▁интерп	-8946
▁клетка	-8947
▁кредит	-8948
▁мульти	-8949
▁поража	-8950
▁раздра	-8951
▁словом	-8952
▁частях	-8953
▁бабушка	-8954
▁господа	-8955
▁законов	-8956
▁лучшего	-8957
▁подхода	-8958
▁посреди	-8959
▁промежу	-8960
▁скажете	-8961
▁экспеди	-8962
▁выбирать	-8963
▁задавать	-8964
▁закончил	-8965
▁основная	-8966
▁показано	-8967
▁поменять	-8968
▁природой	-8969
▁вспомнить	-8970
▁Международ	-8971
▁динозавров	-8972
▁прекрасные	-8973
▁творчества	-8974
▁потребность	-8975
▁приблизительно	-8976
nd	-8977
нин	-8978
▁лы	-8979
веда	-8980
чках	-8981
шены	-8982
щики	-8983
▁Най	-8984
▁гли	-8985
▁зон	-8986
▁кні	-8987
▁мем	-8988
▁сму	-8989
белев	-8990
ладен	-8991
ляцию	-8992
нился	-8993
орети	-8994
▁беру	-8995
▁зная	-8996
▁насы	-8997
▁нену	-8998
▁окна	-8999
▁прив	-9000
▁синх	-9001
▁трущ	-9002
▁Прямо	-9003
▁нават	-9004
▁пасса	-9005
▁разма	-9006
▁юриди	-9007
▁Солнца	-9008
▁летать	-9009
▁месяцы	-9010
▁наказа	-9011
▁опытом	-9012
▁попада	-9013
▁случаи	-9014
▁Америку	-9015
▁возьмём	-9016
▁высокий	-9017
▁колосса	-9018
▁перевер	-9019
▁отличный	-9020
▁философи	-9021
▁начинаете	-9022
▁поставили	-9023
▁физически	-9024
▁функциона	-9025
▁автомобили	-9026
▁компьютере	-9027
▁необходима	-9028
▁объяснение	-9029
▁пригласили	-9030
▁взаимосвяза	-9031
▁медицинской	-9032
▁рассказывал	-9033
▁поразительно	-9034
▁сталкиваемся	-9035
▁строительство	-9036
▁эффективность	-9037
▁инфраструктуры	-9038
нав	-9039
▁Am	-9040
▁ею	-9041
лиза	-9042
цгей	-9043
▁Дэн	-9044
▁Фер	-9045
▁баш	-9046
▁сми	-9047
лятся	-9048
ницах	-9049
▁2011	-9050
▁Суть	-9051
▁кода	-9052
▁нала	-9053
▁прет	-9054
▁учат	-9055
▁цело	-9056
▁шриф	-9057
возмож	-9058
планет	-9059
▁Дэвид	-9060
▁Марса	-9061
▁Такая	-9062
▁беспи	-9063
▁распа	-9064
▁сцены	-9065
▁траек	-9066
▁убить	-9067
▁аспект	-9068
▁бюджет	-9069
▁включи	-9070
▁разуме	-9071
▁воодуше	-9072
▁любимый	-9073
▁молекул	-9074
▁пациент	-9075
▁приехал	-9076
▁разницу	-9077
▁реализо	-9078
▁тратить	-9079
▁вещество	-9080
▁впечатля	-9081
▁географи	-9082
▁ежегодно	-9083
▁защищать	-9084
▁принятия	-9085
▁симптомы	-9086
▁сравнить	-9087
▁богатства	-9088
▁устройств	-9089
▁чувствует	-9090
▁Существуют	-9091
▁приложение	-9092
▁продолжают	-9093
▁преступления	-9094
гия	-9095
мут	-9096
▁Li	-9097
▁Ду	-9098
дкой	-9099
нена	-9100
нены	-9101
форд	-9102
щали	-9103
▁оби	-9104
жными	-9105
никла	-9106
стана	-9107
тузиа	-9108
ьмите	-9109
▁Мэри	-9110
▁Этим	-9111
▁втор	-9112
▁вызо	-9113
▁выпу	-9114
▁дала	-9115
▁дому	-9116
▁знак	-9117
▁ищем	-9118
▁лист	-9119
▁лице	-9120
▁рано	-9121
▁рыно	-9122
▁Ираке	-9123
▁возбу	-9124
▁заказ	-9125
▁играл	-9126
▁путем	-9127
▁хорош	-9128
▁голова	-9129
▁Институ	-9130
▁восхити	-9131
▁капитал	-9132
▁несчаст	-9133
▁паралле	-9134
▁помогут	-9135
▁участки	-9136
▁Использу	-9137
▁беспокой	-9138
▁картинки	-9139
▁личность	-9140
▁называли	-9141
▁практике	-9142
▁пределах	-9143
▁самоубий	-9144
▁стереоти	-9145
▁Вселенная	-9146
▁Интернета	-9147
▁землетряс	-9148
▁известных	-9149
▁обработки	-9150
▁связанные	-9151
▁следующим	-9152
▁американцы	-9153
▁микрооргани	-9154
▁потребление	-9155
▁организовать	-9156
▁превращается	-9157
▁предположить	-9158
▁специалистов	-9159
▁распространён	-9160
▁соответствует	-9161
лд	-9162
душ	-9163
рку	-9164
щал	-9165
▁Ах	-9166
▁дя	-9167
▁яс	-9168
дете	-9169
мите	-9170
праў	-9171
рони	-9172
стые	-9173
шель	-9174
▁заб	-9175
▁май	-9176
оцени	-9177
рится	-9178
ципли	-9179
▁акту	-9180
▁духе	-9181
▁жила	-9182
▁лесу	-9183
▁миль	-9184
▁напа	-9185
летних	-9186
▁Израи	-9187
▁Каждо	-9188
▁Этого	-9189
▁берут	-9190
▁кибер	-9191
▁линию	-9192
▁нефтя	-9193
▁соору	-9194
▁спорт	-9195
▁стене	-9196
▁стихи	-9197
фикации	-9198
▁наукой	-9199
▁режиме	-9200
▁сестра	-9201
альности	-9202
▁Альцгей	-9203
▁вручную	-9204
▁делаешь	-9205
▁импрови	-9206
▁лучшему	-9207
▁ответов	-9208
▁парамет	-9209
▁помогло	-9210
▁приведу	-9211
▁проходя	-9212
▁слышите	-9213
▁сократи	-9214
▁сфокуси	-9215
▁Эйнштейн	-9216
▁мышление	-9217
▁придется	-9218
▁проводят	-9219
▁согласны	-9220
▁страницы	-9221
▁известный	-9222
▁множества	-9223
▁относятся	-9224
▁позволили	-9225
▁проблемах	-9226
▁проводили	-9227
▁сложность	-9228
▁счастливы	-9229
▁заключение	-9230
▁настоящего	-9231
▁показывать	-9232
▁архитектура	-9233
▁предсказать	-9234
▁замечательный	-9235
▁необходимость	-9236
▁экономической	-9237
сво	-9238
тол	-9239
нымі	-9240
телю	-9241
теры	-9242
▁Ген	-9243
▁бои	-9244
▁дам	-9245
▁зал	-9246
▁мам	-9247
▁веры	-9248
▁выле	-9249
▁жёст	-9250
▁заре	-9251
▁кожу	-9252
▁нрав	-9253
летней	-9254
нением	-9255
роприя	-9256
▁вышли	-9257
▁живем	-9258
▁живет	-9259
▁любая	-9260
▁массу	-9261
▁метра	-9262
▁нагля	-9263
▁прось	-9264
▁район	-9265
▁ритуа	-9266
▁супру	-9267
▁ужаса	-9268
▁хромо	-9269
ведение	-9270
▁Джордж	-9271
▁важной	-9272
▁выбрал	-9273
▁меняют	-9274
▁остров	-9275
▁отходы	-9276
▁парков	-9277
▁спусти	-9278
▁старая	-9279
▁такова	-9280
▁теорию	-9281
▁тысячу	-9282
▁экстра	-9283
тельстве	-9284
▁начался	-9285
▁перевод	-9286
▁понимал	-9287
▁придумы	-9288
▁проигра	-9289
▁радость	-9290
▁регуляр	-9291
▁рекомен	-9292
▁четырех	-9293
▁выбросов	-9294
▁огромную	-9295
▁сантимет	-9296
▁страдают	-9297
▁эволюция	-9298
▁возможное	-9299
▁возможных	-9300
▁концентра	-9301
▁отдельные	-9302
▁расширить	-9303
▁источником	-9304
▁некоторыми	-9305
▁сфотографи	-9306
▁благосостоя	-9307
▁десятилетий	-9308
▁изобретения	-9309
▁представляю	-9310
▁происходить	-9311
▁современные	-9312
▁компьютерной	-9313
нт	-9314
тех	-9315
▁МР	-9316
▁см	-9317
вока	-9318
дело	-9319
дное	-9320
льні	-9321
сама	-9322
чыма	-9323
▁Гре	-9324
▁зат	-9325
▁рос	-9326
▁чай	-9327
▁чьи	-9328
ведли	-9329
ровка	-9330
ходзі	-9331
ходил	-9332
▁День	-9333
▁выка	-9334
▁гене	-9335
▁изле	-9336
▁изна	-9337
▁набо	-9338
▁пояс	-9339
▁пчёл	-9340
▁раку	-9341
▁сово	-9342
▁сябе	-9343
▁удво	-9344
▁экви	-9345
▁якая	-9346
тивная	-9347
▁берём	-9348
▁вечно	-9349
▁возле	-9350
▁живые	-9351
▁зайти	-9352
▁круто	-9353
▁медсе	-9354
▁орган	-9355
▁отчёт	-9356
▁пейза	-9357
▁смело	-9358
▁счёте	-9359
вающего	-9360
ентации	-9361
▁дочери	-9362
▁зарази	-9363
▁исходя	-9364
▁младен	-9365
▁обманы	-9366
▁пришел	-9367
▁чувств	-9368
▁главная	-9369
▁доходов	-9370
▁ежеднев	-9371
▁изготов	-9372
▁изнутри	-9373
▁отчасти	-9374
▁позиции	-9375
▁потерял	-9376
▁прошлой	-9377
▁следить	-9378
▁удаётся	-9379
▁энтузиа	-9380
▁болезнью	-9381
▁непросто	-9382
▁означало	-9383
▁осознать	-9384
▁предпочт	-9385
▁проанали	-9386
▁реальной	-9387
▁всевозмож	-9388
▁настоящим	-9389
▁эквивален	-9390
▁математике	-9391
▁обнаружила	-9392
▁заболевание	-9393
▁рассказываю	-9394
▁исследованиях	-9395
az	-9396
ана	-9397
бан	-9398
ено	-9399
ина	-9400
лке	-9401
саб	-9402
хло	-9403
ьет	-9404
▁Аб	-9405
лома	-9406
рина	-9407
тети	-9408
щено	-9409
▁Кей	-9410
▁лин	-9411
▁шля	-9412
кторы	-9413
сексу	-9414
▁Манх	-9415
▁Наше	-9416
▁бана	-9417
▁веру	-9418
▁изви	-9419
▁напу	-9420
▁окно	-9421
▁прод	-9422
▁ущер	-9423
торами	-9424
▁Позже	-9425
▁возьм	-9426
▁гармо	-9427
▁запах	-9428
▁крово	-9429
▁начну	-9430
▁приём	-9431
▁разга	-9432
▁резко	-9433
▁слепы	-9434
▁шансы	-9435
▁маршру	-9436
▁новыми	-9437
▁раство	-9438
▁расшиф	-9439
▁устраи	-9440
▁цветом	-9441
▁видение	-9442
▁достато	-9443
▁зразуме	-9444
▁изменил	-9445
▁незакон	-9446
▁новатор	-9447
▁пассажи	-9448
▁употреб	-9449
▁Необходи	-9450
▁известны	-9451
▁окажется	-9452
▁потерять	-9453
▁придумал	-9454
▁выражение	-9455
▁подняться	-9456
▁попросить	-9457
▁ценностей	-9458
▁заботиться	-9459
▁организмов	-9460
▁триллионов	-9461
▁потребуется	-9462
IT	-9463
йду	-9464
лёй	-9465
нае	-9466
чим	-9467
ьёз	-9468
ўні	-9469
жаем	-9470
ленд	-9471
рово	-9472
щика	-9473
▁фла	-9474
▁Вики	-9475
▁Особ	-9476
▁аспи	-9477
▁замы	-9478
▁нево	-9479
▁пола	-9480
▁пони	-9481
▁проч	-9482
▁рады	-9483
▁розо	-9484
▁явно	-9485
пьютер	-9486
▁Можем	-9487
▁взвол	-9488
▁выпла	-9489
▁линей	-9490
▁нужды	-9491
▁резер	-9492
▁сомне	-9493
▁тесно	-9494
▁улыба	-9495
▁умные	-9496
▁фарма	-9497
ленными	-9498
▁Похоже	-9499
▁доллар	-9500
▁лучшей	-9501
▁манипу	-9502
▁начнут	-9503
▁переса	-9504
▁плохой	-9505
▁правде	-9506
▁связан	-9507
▁сделан	-9508
▁сенсор	-9509
▁средне	-9510
▁учатся	-9511
▁центов	-9512
▁военных	-9513
▁крупные	-9514
▁отклады	-9515
▁реакцию	-9516
▁галактик	-9517
▁конфликт	-9518
▁остались	-9519
▁отверсти	-9520
▁отказыва	-9521
▁показала	-9522
▁рисовать	-9523
▁горизонта	-9524
▁испытания	-9525
▁предлагаю	-9526
▁просматри	-9527
▁улучшения	-9528
▁Получается	-9529
▁продолжить	-9530
▁родителями	-9531
▁учреждения	-9532
▁изобретение	-9533
▁перспективе	-9534
▁принадлежит	-9535
▁экономический	-9536
гро	-9537
дал	-9538
ссы	-9539
шай	-9540
▁28	-9541
▁95	-9542
▁Як	-9543
дома	-9544
рное	-9545
сьці	-9546
тоне	-9547
▁Слу	-9548
▁Яны	-9549
▁гря	-9550
менти	-9551
стера	-9552
шками	-9553
▁Эфио	-9554
▁амби	-9555
▁арен	-9556
▁гени	-9557
▁испа	-9558
▁оран	-9559
▁парк	-9560
▁пуль	-9561
крепля	-9562
лететь	-9563
▁белые	-9564
▁любые	-9565
▁прису	-9566
▁рефор	-9567
▁стира	-9568
▁устра	-9569
ющегося	-9570
▁Доктор	-9571
▁Работа	-9572
▁версию	-9573
▁забира	-9574
▁наступ	-9575
▁обмени	-9576
▁очеред	-9577
▁прибор	-9578
▁прочим	-9579
▁ранних	-9580
▁службы	-9581
▁тюрьму	-9582
нировать	-9583
▁бизнесе	-9584
▁находим	-9585
▁незначи	-9586
▁сказано	-9587
▁страниц	-9588
▁студент	-9589
▁движений	-9590
▁килограм	-9591
▁мероприя	-9592
▁остаться	-9593
▁отвечают	-9594
▁открытом	-9595
▁получали	-9596
▁приготов	-9597
▁простого	-9598
▁вернулась	-9599
▁масштабах	-9600
▁положении	-9601
▁процессов	-9602
▁автомобиля	-9603
▁глобальной	-9604
▁интересным	-9605
▁отказаться	-9606
▁работающих	-9607
▁общественной	-9608
▁общественные	-9609
▁сотрудничество	-9610
ig	-9611
био	-9612
жах	-9613
зит	-9614
ктя	-9615
ням	-9616
▁3-	-9617
▁ДХ	-9618
сила	-9619
▁Дзя	-9620
▁уга	-9621
вшими	-9622
ждены	-9623
немся	-9624
рении	-9625
ристо	-9626
стным	-9627
▁2012	-9628
▁Брай	-9629
▁Маль	-9630
▁Уров	-9631
▁адно	-9632
▁валю	-9633
▁дале	-9634
▁кары	-9635
▁кафе	-9636
▁мель	-9637
▁мост	-9638
▁начн	-9639
▁нере	-9640
▁обед	-9641
▁обло	-9642
▁раду	-9643
▁рыбо	-9644
▁спло	-9645
▁схва	-9646
▁шоки	-9647
биться	-9648
жество	-9649
потреб	-9650
▁армии	-9651
▁глядя	-9652
▁забра	-9653
▁пишет	-9654
▁подда	-9655
▁помог	-9656
▁родом	-9657
▁текст	-9658
▁железы	-9659
▁колеба	-9660
▁немало	-9661
▁тратим	-9662
▁тюрьмы	-9663
▁карьеры	-9664
▁красный	-9665
▁обязаны	-9666
▁острова	-9667
▁похожие	-9668
▁раздели	-9669
▁странам	-9670
▁больницу	-9671
▁включить	-9672
▁выяснили	-9673
▁размеров	-9674
▁атмосферы	-9675
▁вопросами	-9676
▁дизайнеры	-9677
▁животными	-9678
▁запустили	-9679
▁источники	-9680
▁огромного	-9681
▁поколений	-9682
▁применять	-9683
▁тщательно	-9684
▁хозяйство	-9685
▁количестве	-9686
▁технологиях	-9687
▁представлять	-9688
▁разговаривать	-9689
▁сотрудничества	-9690
дз	-9691
ія	-9692
лко	-9693
рип	-9694
тал	-9695
ффи	-9696
чэн	-9697
▁26	-9698
▁XX	-9699
▁Ок	-9700
,000	-9701
мора	-9702
плуа	-9703
ряет	-9704
слом	-9705
▁Рей	-9706
▁Сек	-9707
▁Том	-9708
▁гос	-9709
▁лёд	-9710
▁сфе	-9711
праши	-9712
▁Моло	-9713
▁возь	-9714
▁нуля	-9715
▁пуга	-9716
▁твой	-9717
▁цикл	-9718
начале	-9719
▁любил	-9720
▁нагре	-9721
▁плана	-9722
▁посту	-9723
▁предв	-9724
▁уроки	-9725
▁выборы	-9726
▁заднем	-9727
▁лёгких	-9728
▁пирами	-9729
▁слайде	-9730
▁солнца	-9731
▁увелич	-9732
▁упаков	-9733
▁церкви	-9734
▁черепа	-9735
▁эмоций	-9736
▁выборов	-9737
▁главных	-9738
▁корабль	-9739
▁неважно	-9740
▁пальцев	-9741
▁станции	-9742
▁кислород	-9743
▁короткий	-9744
▁магазине	-9745
▁обсудить	-9746
▁предмета	-9747
▁республи	-9748
▁Взгляните	-9749
▁инженеров	-9750
▁концентри	-9751
▁оптимисти	-9752
▁переключа	-9753
▁показываю	-9754
▁понимании	-9755
▁соединить	-9756
▁сработало	-9757
▁математика	-9758
▁несомненно	-9759
▁рассмотрим	-9760
▁расстояние	-9761
▁используете	-9762
▁медицинских	-9763
▁чувствовала	-9764
▁замечательные	-9765
СР	-9766
гг	-9767
ёс	-9768
ros	-9769
зах	-9770
куй	-9771
крас	-9772
ыска	-9773
▁Tim	-9774
▁бок	-9775
▁уло	-9776
▁шли	-9777
право	-9778
проми	-9779
цеден	-9780
▁адна	-9781
▁бейс	-9782
▁вялі	-9783
▁голь	-9784
▁двум	-9785
▁сабе	-9786
▁усво	-9787
емость	-9788
▁Майкл	-9789
▁вещам	-9790
▁думая	-9791
▁магни	-9792
▁можна	-9793
▁прибо	-9794
▁радиа	-9795
▁растя	-9796
▁рынки	-9797
▁учили	-9798
ждается	-9799
▁Будучи	-9800
▁Звучит	-9801
▁адвока	-9802
▁видеои	-9803
▁водоро	-9804
▁геомет	-9805
▁догада	-9806
▁слышим	-9807
▁считал	-9808
▁тёмной	-9809
▁Колумби	-9810
▁ассоции	-9811
▁затраги	-9812
▁кусочки	-9813
▁получен	-9814
▁агрессив	-9815
▁обознача	-9816
▁перемена	-9817
▁потенциа	-9818
▁решением	-9819
▁Следующий	-9820
▁принимаем	-9821
▁принимает	-9822
▁воспроизво	-9823
▁разрешение	-9824
▁Альцгеймера	-9825
▁встретиться	-9826
▁технологией	-9827
▁эффективности	-9828
▁восстановления	-9829
ke	-9830
op	-9831
бар	-9832
▁АН	-9833
куру	-9834
стал	-9835
чает	-9836
▁Кла	-9837
▁вно	-9838
▁заў	-9839
▁ово	-9840
▁фай	-9841
генов	-9842
стети	-9843
▁2004	-9844
▁Неве	-9845
▁Пять	-9846
▁Теха	-9847
▁дека	-9848
▁края	-9849
▁мною	-9850
▁мышь	-9851
▁рабі	-9852
▁разъ	-9853
▁видом	-9854
▁возмо	-9855
▁гэтыя	-9856
▁жыццё	-9857
▁напад	-9858
▁некий	-9859
▁огонь	-9860
▁черты	-9861
▁члена	-9862
▁шагом	-9863
▁Штатов	-9864
▁баланс	-9865
▁вашему	-9866
▁версия	-9867
▁внести	-9868
▁инстин	-9869
▁искрен	-9870
▁мусора	-9871
▁полное	-9872
▁прошед	-9873
▁северо	-9874
▁сектор	-9875
рованная	-9876
▁богатых	-9877
▁маркети	-9878
▁морских	-9879
▁научили	-9880
▁просыпа	-9881
▁ребёнку	-9882
▁совокуп	-9883
▁умереть	-9884
▁умирает	-9885
▁условий	-9886
▁эксплуа	-9887
▁Наверное	-9888
▁Результа	-9889
▁алгоритм	-9890
▁возникла	-9891
▁движении	-9892
▁запомина	-9893
▁интересы	-9894
▁приближа	-9895
▁свободно	-9896
▁спокойно	-9897
▁действует	-9898
▁направить	-9899
▁нуждается	-9900
▁обсуждать	-9901
▁объясняет	-9902
▁показывал	-9903
▁пониманию	-9904
▁поступать	-9905
▁разговора	-9906
▁солнечный	-9907
▁правильный	-9908
▁произвести	-9909
▁чувствуете	-9910
▁благополучи	-9911
▁столкнулись	-9912
▁автоматически	-9913
бля	-9914
еро	-9915
жок	-9916
роз	-9917
эль	-9918
гиба	-9919
йдут	-9920
рная	-9921
роли	-9922
тана	-9923
▁700	-9924
▁Учё	-9925
▁опа	-9926
▁фру	-9927
ваешь	-9928
▁2006	-9929
▁Поня	-9930
▁банк	-9931
▁вино	-9932
▁дожд	-9933
▁заве	-9934
▁инве	-9935
▁ищут	-9936
▁кожа	-9937
▁куби	-9938
▁куль	-9939
▁кури	-9940
▁ногу	-9941
дителя	-9942
женные	-9943
▁Пусть	-9944
▁вывод	-9945
▁вышло	-9946
▁гламу	-9947
▁гордо	-9948
▁немец	-9949
▁нехва	-9950
▁обмен	-9951
▁общие	-9952
▁общий	-9953
▁патрэ	-9954
▁пусто	-9955
▁разде	-9956
▁совпа	-9957
▁Западе	-9958
▁догово	-9959
▁домини	-9960
▁знание	-9961
▁какова	-9962
▁образы	-9963
▁полуша	-9964
▁пригод	-9965
▁прошёл	-9966
▁статьи	-9967
▁туалет	-9968
▁учёный	-9969
▁фермер	-9970
зываться	-9971
ленность	-9972
▁Большой	-9973
▁высказа	-9974
▁высокие	-9975
▁извлека	-9976
▁исполни	-9977
▁методов	-9978
▁площадь	-9979
▁полтора	-9980
▁привели	-9981
▁провали	-9982
▁решению	-9983
▁философ	-9984
ствования	-9985
▁доказыва	-9986
▁картинка	-9987
▁клетками	-9988
▁попадают	-9989
▁сомнения	-9990
▁сущность	-9991
▁традиции	-9992
▁человеке	-9993
▁доставить	-9994
▁категории	-9995
▁консульта	-9996
▁отправили	-9997
▁позволило	-9998
▁серьёзные	-9999
▁государств	-10000
▁изменилась	-10001
▁посередине	-10002
▁транспорта	-10003
▁встретились	-10004
▁встречаются	-10005
▁возвращается	-10006
▁определённые	-10007
▁способствует	-10008
бия	-10009
бки	-10010
лёк	-10011
рём	-10012
хам	-10013
вшую	-10014
кать	-10015
пети	-10016
стка	-10017
тара	-10018
▁800	-10019
▁АНБ	-10020
▁Пан	-10021
▁Яна	-10022
▁блю	-10023
▁зас	-10024
▁каз	-10025
▁сид	-10026
вится	-10027
вляют	-10028
рассу	-10029
▁York	-10030
▁Архи	-10031
▁Билл	-10032
▁гало	-10033
▁забу	-10034
▁краю	-10035
▁очки	-10036
▁рада	-10037
▁руке	-10038
▁синд	-10039
▁суме	-10040
ряется	-10041
▁Таймс	-10042
▁анато	-10043
▁изуми	-10044
▁отцом	-10045
▁печат	-10046
▁раско	-10047
▁стоял	-10048
▁сферы	-10049
▁читал	-10050
ваетесь	-10051
▁Нельзя	-10052
▁выхода	-10053
▁настав	-10054
▁парази	-10055
▁федера	-10056
▁вдохнов	-10057
▁выросли	-10058
▁интегри	-10059
▁космосе	-10060
▁материи	-10061
▁плохого	-10062
▁сложное	-10063
▁смертей	-10064
▁страсть	-10065
▁бесполез	-10066
▁жизненно	-10067
▁кампанию	-10068
▁обеспоко	-10069
▁обстанов	-10070
▁потребля	-10071
▁приехали	-10072
▁пыталась	-10073
▁эпидемии	-10074
▁являемся	-10075
▁Посмотрим	-10076
▁коррупции	-10077
▁надеяться	-10078
▁отдельных	-10079
▁последняя	-10080
▁предметов	-10081
▁совершить	-10082
▁телефонов	-10083
▁художников	-10084
▁потребности	-10085
▁существенно	-10086
ver	-10087
лаз	-10088
лед	-10089
сай	-10090
▁Ры	-10091
▁аў	-10092
дови	-10093
кают	-10094
пать	-10095
ражи	-10096
▁Хар	-10097
▁жел	-10098
порта	-10099
стный	-10100
строи	-10101
▁Звук	-10102
▁едят	-10103
▁идеа	-10104
▁сопо	-10105
вилось	-10106
ждению	-10107
пустим	-10108
частли	-10109
▁Гаити	-10110
▁белый	-10111
▁видны	-10112
▁лампо	-10113
▁опере	-10114
▁телом	-10115
▁целые	-10116
мыслить	-10117
▁Алекса	-10118
▁Олимпи	-10119
▁дефици	-10120
▁личной	-10121
▁мозгом	-10122
▁носить	-10123
▁семьёй	-10124
▁диагноз	-10125
▁задания	-10126
▁запечат	-10127
▁религия	-10128
▁сильные	-10129
▁создает	-10130
▁эффекты	-10131
страдания	-10132
▁взглянем	-10133
▁идеологи	-10134
▁необычай	-10135
▁проводил	-10136
▁способна	-10137
▁стараюсь	-10138
▁экспонен	-10139
▁положения	-10140
▁выращивать	-10141
▁находились	-10142
▁поддержать	-10143
▁поработать	-10144
▁расстояния	-10145
▁установили	-10146
▁неравенство	-10147
▁отправились	-10148
▁последствий	-10149
▁американской	-10150
▁несправедливо	-10151
тр	-10152
лят	-10153
цый	-10154
этт	-10155
▁CO	-10156
▁Це	-10157
▁тё	-10158
▁яи	-10159
дено	-10160
жусь	-10161
люми	-10162
чник	-10163
▁MIT	-10164
▁Эбо	-10165
▁озе	-10166
▁оше	-10167
▁чип	-10168
ваюць	-10169
нутся	-10170
скоре	-10171
ствуя	-10172
▁Джен	-10173
▁Таму	-10174
▁Тома	-10175
▁гале	-10176
▁избы	-10177
▁моно	-10178
▁одоб	-10179
▁ухуд	-10180
▁цепи	-10181
бовали	-10182
матери	-10183
шаются	-10184
▁антро	-10185
▁дождь	-10186
▁жертв	-10187
▁офисе	-10188
▁пости	-10189
▁пребы	-10190
▁точке	-10191
▁улицу	-10192
благода	-10193
станции	-10194
▁Вскоре	-10195
▁волосы	-10196
▁выреза	-10197
▁мыслей	-10198
▁неудоб	-10199
▁ногами	-10200
▁облака	-10201
▁полном	-10202
▁распла	-10203
▁рейтин	-10204
▁словам	-10205
▁фунтов	-10206
▁холоди	-10207
статочно	-10208
▁вакцина	-10209
▁вопросе	-10210
▁глубине	-10211
▁доллара	-10212
▁космоса	-10213
▁муравьи	-10214
▁навыков	-10215
▁нелегко	-10216
▁объекта	-10217
▁попытка	-10218
▁свобода	-10219
▁сложную	-10220
▁фермеры	-10221
▁изнасило	-10222
▁муравьёв	-10223
▁названия	-10224
▁начинали	-10225
▁огромных	-10226
▁построил	-10227
▁считаете	-10228
▁чувством	-10229
▁произошла	-10230
▁стволовые	-10231
▁усовершен	-10232
▁чувствуем	-10233
▁демократию	-10234
▁применение	-10235
▁противоречи	-10236
▁замечательная	-10237
▁исследователи	-10238
▁строительства	-10239
ard	-10240
кет	-10241
лив	-10242
наў	-10243
рпи	-10244
щён	-10245
▁ур	-10246
берг	-10247
дную	-10248
исти	-10249
чают	-10250
▁Ага	-10251
▁Гон	-10252
▁Сам	-10253
▁Тур	-10254
▁ужи	-10255
летов	-10256
надца	-10257
товый	-10258
ённый	-10259
▁выпи	-10260
▁пени	-10261
▁ходу	-10262
енными	-10263
зывает	-10264
ториях	-10265
чивать	-10266
▁Время	-10267
▁верху	-10268
▁вулка	-10269
▁грома	-10270
▁извле	-10271
▁оскор	-10272
▁свету	-10273
▁секто	-10274
▁сколь	-10275
▁столе	-10276
▁чётко	-10277
▁Википе	-10278
▁Органи	-10279
▁Проект	-10280
▁влиять	-10281
▁вырази	-10282
▁дважды	-10283
▁опуска	-10284
▁пойдёт	-10285
▁полёта	-10286
▁разным	-10287
▁стоило	-10288
▁страхо	-10289
▁театра	-10290
▁третья	-10291
▁удалён	-10292
▁вершине	-10293
▁волнует	-10294
▁выключа	-10295
▁детской	-10296
▁женщине	-10297
▁молодым	-10298
▁находят	-10299
▁поведен	-10300
▁разнови	-10301
▁регионе	-10302
▁течении	-10303
▁требуют	-10304
▁варианты	-10305
▁выглядел	-10306
▁изучение	-10307
▁меняются	-10308
▁некоммер	-10309
▁основана	-10310
▁отражает	-10311
▁энергией	-10312
▁двигатель	-10313
▁некоторым	-10314
▁нуждаются	-10315
▁опасность	-10316
▁собрались	-10317
▁созданием	-10318
▁наркотиков	-10319
▁находитесь	-10320
▁обсуждения	-10321
▁прекрасное	-10322
▁разумеется	-10323
▁воображения	-10324
▁повреждения	-10325
▁соответству	-10326
▁представители	-10327
▁присутствующих	-10328
рус	-10329
фом	-10330
▁Кэ	-10331
вени	-10332
драв	-10333
▁Ваш	-10334
▁Окс	-10335
▁Сти	-10336
▁кап	-10337
▁уха	-10338
▁ход	-10339
награ	-10340
ссией	-10341
стной	-10342
▁2001	-10343
▁гомо	-10344
▁заст	-10345
▁наме	-10346
▁пило	-10347
▁прем	-10348
▁счет	-10349
▁экзо	-10350
вшейся	-10351
рующих	-10352
▁Томас	-10353
▁буквы	-10354
▁взяла	-10355
▁гипер	-10356
▁годом	-10357
▁комик	-10358
▁курсе	-10359
▁пасля	-10360
▁писто	-10361
▁прием	-10362
▁риски	-10363
▁выстре	-10364
▁длиной	-10365
▁инфици	-10366
▁летучи	-10367
▁научно	-10368
▁неодно	-10369
▁отдать	-10370
▁плохая	-10371
▁предки	-10372
▁сидели	-10373
▁Послуша	-10374
▁вирусов	-10375
▁выбросы	-10376
▁выходят	-10377
▁главной	-10378
▁журнале	-10379
▁меньшей	-10380
▁найдёте	-10381
▁отвечаю	-10382
▁равнове	-10383
▁романти	-10384
▁сильное	-10385
▁хорошую	-10386
▁граждане	-10387
▁кампании	-10388
▁научился	-10389
▁новостей	-10390
▁отвечать	-10391
▁открытий	-10392
▁родитель	-10393
▁Вашингтон	-10394
▁выступать	-10395
▁реконстру	-10396
▁стратегию	-10397
▁экспертов	-10398
▁Необходимо	-10399
▁подростков	-10400
▁Соединенных	-10401
▁неопределён	-10402
▁несколькими	-10403
▁человеческое	-10404
▁возможностями	-10405
▁заканчивается	-10406
la	-10407
un	-10408
юр	-10409
бок	-10410
где	-10411
дри	-10412
мба	-10413
ння	-10414
нні	-10415
ори	-10416
рат	-10417
цыю	-10418
▁ПО	-10419
▁Ці	-10420
▁ві	-10421
емом	-10422
лени	-10423
▁Ван	-10424
▁Две	-10425
▁Шан	-10426
отера	-10427
пытно	-10428
▁Тита	-10429
▁выте	-10430
▁кале	-10431
▁союз	-10432
▁хозя	-10433
▁анима	-10434
▁бензи	-10435
▁врача	-10436
▁диапа	-10437
▁затро	-10438
▁месту	-10439
▁мышей	-10440
▁мышцы	-10441
▁нашел	-10442
▁пишут	-10443
▁попал	-10444
▁преде	-10445
▁стади	-10446
▁фокус	-10447
▁цифра	-10448
▁Начнём	-10449
▁бедные	-10450
▁вечери	-10451
▁давали	-10452
▁забыть	-10453
▁изучал	-10454
▁костюм	-10455
▁ошибка	-10456
▁пингви	-10457
▁решают	-10458
▁сапраў	-10459
▁создан	-10460
▁такому	-10461
▁направи	-10462
▁отдалён	-10463
▁предубе	-10464
▁сделают	-10465
▁символи	-10466
▁доступно	-10467
▁компроми	-10468
▁микробов	-10469
▁моментов	-10470
▁отличная	-10471
▁положить	-10472
▁страницу	-10473
▁мобильный	-10474
▁намерения	-10475
▁открывает	-10476
▁профессор	-10477
▁работники	-10478
▁ситуациях	-10479
▁английский	-10480
▁инвестиции	-10481
▁разработке	-10482
▁физические	-10483
▁заключалась	-10484
▁находящихся	-10485
▁представили	-10486
▁расположены	-10487
▁сострадания	-10488
▁чувствовали	-10489
▁сотрудничать	-10490
▁сталкиваются	-10491
▁традиционных	-10492
▁инфраструктуру	-10493
ep	-10494
um	-10495
вгу	-10496
гих	-10497
жке	-10498
лец	-10499
сім	-10500
▁0,	-10501
▁Фу	-10502
▁ўз	-10503
врей	-10504
камі	-10505
каса	-10506
лили	-10507
рене	-10508
чени	-10509
шаем	-10510
▁120	-10511
▁191	-10512
▁Бит	-10513
▁Кру	-10514
▁Хан	-10515
▁або	-10516
▁дне	-10517
▁жид	-10518
▁мра	-10519
▁нос	-10520
▁пещ	-10521
▁ров	-10522
греди	-10523
ровку	-10524
совой	-10525
стных	-10526
▁Были	-10527
▁Вспо	-10528
▁гара	-10529
▁иное	-10530
▁кало	-10531
▁креа	-10532
▁наря	-10533
▁наце	-10534
▁сете	-10535
▁спер	-10536
▁улич	-10537
▁умно	-10538
▁цене	-10539
▁цере	-10540
граммы	-10541
дились	-10542
культу	-10543
▁Элект	-10544
▁дворе	-10545
▁заблу	-10546
▁колла	-10547
▁крыль	-10548
▁пещер	-10549
▁получ	-10550
▁сидят	-10551
▁убира	-10552
▁Говоря	-10553
▁Джеймс	-10554
▁Малень	-10555
▁высоту	-10556
▁городу	-10557
▁диалог	-10558
▁журнал	-10559
▁здании	-10560
▁зелены	-10561
▁развер	-10562
▁символ	-10563
▁списке	-10564
▁старых	-10565
▁товары	-10566
▁хороши	-10567
скохозяй	-10568
ционного	-10569
▁вернусь	-10570
▁изучали	-10571
▁ингреди	-10572
▁очереди	-10573
▁посчита	-10574
▁терапии	-10575
рованного	-10576
▁Довольно	-10577
▁важность	-10578
▁изменило	-10579
▁изобрели	-10580
▁непрерыв	-10581
▁продвину	-10582
▁пропаган	-10583
▁столетия	-10584
▁сэкономи	-10585
▁экстреми	-10586
▁политиков	-10587
▁продавать	-10588
▁продолжал	-10589
▁управляет	-10590
▁маленького	-10591
▁соединения	-10592
▁социальную	-10593
▁архитектуры	-10594
▁предприятия	-10595
▁коммуникации	-10596
▁микроорганиз	-10597
▁расстройства	-10598
and	-10599
вол	-10600
глу	-10601
дох	-10602
нёр	-10603
рея	-10604
сен	-10605
чне	-10606
▁Ch	-10607
▁Гэ	-10608
▁Эл	-10609
гера	-10610
лико	-10611
секу	-10612
ссей	-10613
чёта	-10614
шена	-10615
▁193	-10616
▁Мор	-10617
▁Пло	-10618
▁пах	-10619
▁сэр	-10620
▁хут	-10621
▁цеп	-10622
говой	-10623
товые	-10624
ётесь	-10625
▁Джим	-10626
▁Золо	-10627
▁Мама	-10628
▁арти	-10629
▁боже	-10630
▁дало	-10631
▁дыры	-10632
▁коры	-10633
▁мяса	-10634
▁рако	-10635
▁фана	-10636
▁хруп	-10637
новому	-10638
тирует	-10639
▁Будет	-10640
▁Совет	-10641
▁адзін	-10642
▁ветря	-10643
▁гэтым	-10644
▁камен	-10645
▁роско	-10646
▁чынам	-10647
▁штуки	-10648
глядеть	-10649
▁аресто	-10650
▁боятся	-10651
▁верите	-10652
▁диамет	-10653
▁дискри	-10654
▁играли	-10655
▁налого	-10656
▁обмена	-10657
▁обойти	-10658
▁пальцы	-10659
▁парней	-10660
▁фактор	-10661
▁эстети	-10662
рованной	-10663
▁Система	-10664
▁второго	-10665
▁высоких	-10666
▁наверху	-10667
▁наступа	-10668
▁неблаго	-10669
▁незнако	-10670
▁поездки	-10671
▁проигры	-10672
▁радости	-10673
▁сделало	-10674
▁слышала	-10675
▁хирурги	-10676
▁выходить	-10677
▁инженеры	-10678
▁колледже	-10679
▁координа	-10680
▁написали	-10681
▁областей	-10682
▁осознали	-10683
▁торговли	-10684
▁фермеров	-10685
▁христиан	-10686
▁алгоритмы	-10687
▁выглядело	-10688
▁демографи	-10689
▁достигает	-10690
▁заставило	-10691
▁конфликта	-10692
▁поблагода	-10693
▁сообщений	-10694
▁дизайнеров	-10695
▁относиться	-10696
▁невероятные	-10697
▁образовании	-10698
▁собираетесь	-10699
▁электронной	-10700
▁передвижения	-10701
▁повседневной	-10702
▁поддерживают	-10703
▁потребителей	-10704
▁присутствует	-10705
▁рассказывает	-10706
▁заинтересован	-10707
▁млекопитающих	-10708
▁заинтересованы	-10709
ob	-10710
oft	-10711
ква	-10712
кте	-10713
лию	-10714
льё	-10715
ноў	-10716
ппи	-10717
рёл	-10718
▁СО	-10719
▁ТВ	-10720
зили	-10721
штаб	-10722
▁15-	-10723
▁21-	-10724
▁Кам	-10725
▁Нем	-10726
▁Тан	-10727
▁Фри	-10728
▁гей	-10729
▁гек	-10730
▁нев	-10731
▁сел	-10732
▁усы	-10733
подоб	-10734
▁Адам	-10735
▁Игра	-10736
▁Меди	-10737
▁заря	-10738
▁ключ	-10739
▁лежа	-10740
▁обли	-10741
▁октя	-10742
▁цену	-10743
женный	-10744
нилась	-10745
рующие	-10746
шенных	-10747
▁СПИДа	-10748
▁безна	-10749
▁берёт	-10750
▁голод	-10751
▁заслу	-10752
▁любых	-10753
▁нетер	-10754
▁парла	-10755
▁праця	-10756
▁притя	-10757
▁слепо	-10758
▁стиль	-10759
▁члены	-10760
ждением	-10761
▁алкого	-10762
▁атрыма	-10763
▁весело	-10764
▁высоты	-10765
▁газета	-10766
▁голово	-10767
▁готова	-10768
▁издели	-10769
▁климат	-10770
▁подчер	-10771
▁прикос	-10772
▁принял	-10773
▁прошла	-10774
▁прямой	-10775
▁района	-10776
▁скучно	-10777
▁солдат	-10778
▁убрать	-10779
▁удосто	-10780
▁урожай	-10781
▁цветов	-10782
енностью	-10783
рованным	-10784
▁История	-10785
▁аспиран	-10786
▁высказы	-10787
▁красоту	-10788
▁малярии	-10789
▁моменту	-10790
▁неэффек	-10791
▁первыми	-10792
▁подарок	-10793
▁решении	-10794
тизирован	-10795
▁командой	-10796
▁напротив	-10797
▁остается	-10798
▁реальные	-10799
▁сознании	-10800
▁выглядела	-10801
▁выживания	-10802
▁нарушения	-10803
▁приходили	-10804
▁участники	-10805
▁Разумеется	-10806
▁множеством	-10807
▁называемый	-10808
▁объединяет	-10809
▁химические	-10810
▁экспоненци	-10811
▁собственное	-10812
▁инфраструктура	-10813
og	-10814
Ка	-10815
▁+	-10816
гле	-10817
дор	-10818
зме	-10819
▁БФ	-10820
декс	-10821
дика	-10822
жнее	-10823
мену	-10824
меча	-10825
пели	-10826
рота	-10827
тило	-10828
чкам	-10829
▁1,5	-10830
▁2,5	-10831
▁Тер	-10832
▁дев	-10833
▁иди	-10834
▁лов	-10835
▁нов	-10836
icros	-10837
альна	-10838
довал	-10839
емыми	-10840
новых	-10841
нятся	-10842
чиком	-10843
ённым	-10844
▁Уган	-10845
▁бюро	-10846
▁пеше	-10847
▁тако	-10848
ванная	-10849
зацией	-10850
льника	-10851
рились	-10852
ровало	-10853
ченным	-10854
▁Каким	-10855
▁Масса	-10856
▁Часто	-10857
▁боюсь	-10858
▁выгод	-10859
▁газов	-10860
▁змяні	-10861
▁излуч	-10862
▁клето	-10863
▁матри	-10864
▁музее	-10865
▁обман	-10866
▁общая	-10867
▁опира	-10868
▁откли	-10869
▁побли	-10870
▁порой	-10871
▁працу	-10872
▁прину	-10873
▁прого	-10874
▁пропо	-10875
▁фикси	-10876
▁Учёные	-10877
▁аноним	-10878
▁звезда	-10879
▁игнори	-10880
▁камень	-10881
▁наилуч	-10882
▁низкой	-10883
▁подряд	-10884
▁полную	-10885
▁принес	-10886
▁случая	-10887
▁старый	-10888
▁тканей	-10889
▁тратят	-10890
▁ученых	-10891
▁ходили	-10892
▁взгляды	-10893
▁вывести	-10894
▁зрабіць	-10895
▁королев	-10896
▁мечтать	-10897
▁мыслить	-10898
▁надпись	-10899
▁научный	-10900
▁началом	-10901
▁подража	-10902
▁полезно	-10903
▁помогла	-10904
▁публику	-10905
▁создана	-10906
▁Александ	-10907
▁бедность	-10908
▁добились	-10909
▁наблюдал	-10910
▁операций	-10911
▁писатель	-10912
▁вырастить	-10913
▁действуют	-10914
▁мужчинами	-10915
▁нравилось	-10916
▁первонача	-10917
▁потратили	-10918
▁сравнении	-10919
▁телевизор	-10920
▁количеству	-10921
▁продолжаем	-10922
▁определённо	-10923
▁понравилось	-10924
▁руководство	-10925
▁единственной	-10926
▁национальной	-10927
▁сельскохозяй	-10928
▁удивительный	-10929
▁инвестировать	-10930
▁противостоять	-10931
▁экономические	-10932
ut	-10933
▁w	-10934
дон	-10935
нте	-10936
пам	-10937
▁Ву	-10938
▁Жу	-10939
крат	-10940
тала	-10941
▁Вой	-10942
▁Над	-10943
▁Спо	-10944
▁апо	-10945
▁рот	-10946
▁чым	-10947
▁эли	-10948
▁ідэ	-10949
вился	-10950
торий	-10951
форде	-10952
▁Обще	-10953
▁Эрик	-10954
▁актё	-10955
▁бюдж	-10956
▁войн	-10957
▁вряд	-10958
▁кише	-10959
▁клей	-10960
▁соли	-10961
▁сход	-10962
▁теме	-10963
▁шаги	-10964
▁яйца	-10965
гистри	-10966
▁Новой	-10967
▁Сатур	-10968
▁Флори	-10969
▁Штаты	-10970
▁блага	-10971
▁верто	-10972
▁вымер	-10973
▁домах	-10974
▁замер	-10975
▁крове	-10976
▁любым	-10977
▁празд	-10978
▁силах	-10979
▁смеши	-10980
▁собак	-10981
▁таков	-10982
вляется	-10983
ствуйте	-10984
▁Micros	-10985
▁адапти	-10986
▁геноци	-10987
▁деталь	-10988
▁дорога	-10989
▁каковы	-10990
▁кнопку	-10991
▁нагруз	-10992
▁нанима	-10993
▁причём	-10994
▁ростом	-10995
▁узнаем	-10996
▁фокуси	-10997
▁церков	-10998
▁читали	-10999
▁Гарвард	-11000
▁академи	-11001
▁вакцины	-11002
▁колонии	-11003
▁коробку	-11004
▁лучшими	-11005
▁сложным	-11006
▁снимать	-11007
▁теорети	-11008
▁ужасные	-11009
▁Предполо	-11010
▁выделить	-11011
▁деньгами	-11012
▁изменять	-11013
▁институт	-11014
▁клиентов	-11015
▁красивые	-11016
▁меняться	-11017
▁начинать	-11018
▁открытый	-11019
▁преследо	-11020
▁странным	-11021
▁астрономи	-11022
▁журналист	-11023
▁заявление	-11024
▁институты	-11025
▁маленьком	-11026
▁повторить	-11027
▁преподава	-11028
▁говорилось	-11029
▁интересных	-11030
▁прекратить	-11031
▁стремление	-11032
▁экосистемы	-11033
▁отправиться	-11034
▁электроэнер	-11035
▁происходящее	-11036
▁рассказывают	-11037
▁соответствии	-11038
▁способностью	-11039
▁распределение	-11040
▁правительством	-11041
вь	-11042
ind	-11043
бил	-11044
бры	-11045
зыв	-11046
лиа	-11047
пев	-11048
рка	-11049
цин	-11050
шно	-11051
▁Ад	-11052
▁Фе	-11053
доне	-11054
зона	-11055
рена	-11056
хора	-11057
цина	-11058
▁Был	-11059
▁Учи	-11060
▁Хай	-11061
▁куп	-11062
▁чис	-11063
восто	-11064
крепи	-11065
неров	-11066
ритет	-11067
стром	-11068
▁2003	-11069
▁Авто	-11070
▁Вене	-11071
▁Прин	-11072
▁блог	-11073
▁долю	-11074
▁ждёт	-11075
▁заку	-11076
▁зоне	-11077
▁меду	-11078
▁смея	-11079
▁телу	-11080
▁томо	-11081
▁умру	-11082
ваемые	-11083
дность	-11084
лливуд	-11085
ченной	-11086
▁Вспом	-11087
▁Основ	-11088
▁веков	-11089
▁домом	-11090
▁искал	-11091
▁китов	-11092
▁корне	-11093
▁леген	-11094
▁мошен	-11095
▁мужчы	-11096
▁планы	-11097
▁сесть	-11098
▁старо	-11099
▁танцу	-11100
▁умеют	-11101
влением	-11102
▁Британ	-11103
▁России	-11104
▁Стивен	-11105
▁аварии	-11106
▁борьбу	-11107
▁версии	-11108
▁встать	-11109
▁вступи	-11110
▁газеты	-11111
▁доклад	-11112
▁лекции	-11113
▁лучшая	-11114
▁мощный	-11115
▁музыке	-11116
▁обосно	-11117
▁охваты	-11118
▁полная	-11119
▁семена	-11120
▁собаки	-11121
▁спутни	-11122
▁суммой	-11123
▁урбани	-11124
▁химика	-11125
▁церемо	-11126
▁Большая	-11127
▁бабушки	-11128
▁деталей	-11129
▁думаешь	-11130
▁заповед	-11131
▁красота	-11132
▁кровати	-11133
▁наличии	-11134
▁общение	-11135
▁обычным	-11136
▁отврати	-11137
▁страной	-11138
▁сыграть	-11139
▁таксама	-11140
▁темноте	-11141
думайтесь	-11142
▁вознагра	-11143
▁интерфей	-11144
▁испытать	-11145
▁открытым	-11146
▁победить	-11147
▁подобным	-11148
▁пострада	-11149
▁презента	-11150
▁развитых	-11151
▁ресторан	-11152
▁фармацев	-11153
▁Microsoft	-11154
▁Солнечной	-11155
▁источника	-11156
▁остальным	-11157
▁приобрета	-11158
▁собирался	-11159
▁стратегия	-11160
▁дискримина	-11161
▁зарегистри	-11162
▁показалось	-11163
▁предлагает	-11164
▁приложения	-11165
▁социальная	-11166
▁уничтожить	-11167
▁физической	-11168
▁воздействия	-11169
▁предпринять	-11170
▁программное	-11171
▁компьютерные	-11172
▁определённых	-11173
▁существующих	-11174
▁передвигаться	-11175
▁происхождения	-11176
▁взаимоотношения	-11177
ul	-11178
лэ	-11179
эл	-11180
зам	-11181
кія	-11182
щаю	-11183
юза	-11184
▁29	-11185
▁ке	-11186
▁щи	-11187
вере	-11188
неры	-11189
нило	-11190
пати	-11191
щить	-11192
▁Поя	-11193
▁джи	-11194
▁дзі	-11195
▁ула	-11196
едино	-11197
жемся	-11198
зерва	-11199
ствую	-11200
стине	-11201
▁Исла	-11202
▁Теле	-11203
▁Фили	-11204
▁едой	-11205
▁наве	-11206
▁обоб	-11207
▁окси	-11208
▁робі	-11209
▁скре	-11210
▁стою	-11211
▁суда	-11212
▁твер	-11213
▁убор	-11214
дленно	-11215
ющуюся	-11216
▁Точно	-11217
▁волно	-11218
▁гормо	-11219
▁звуко	-11220
▁кирпи	-11221
▁коров	-11222
▁несча	-11223
▁опрос	-11224
▁парке	-11225
▁путей	-11226
▁самоо	-11227
▁склад	-11228
▁термо	-11229
▁ходил	-11230
▁целых	-11231
▁целях	-11232
▁важней	-11233
▁кукуру	-11234
▁могуще	-11235
▁общины	-11236
▁отделя	-11237
▁оттого	-11238
▁попали	-11239
▁решает	-11240
▁сексом	-11241
▁собака	-11242
▁языков	-11243
▁Неужели	-11244
▁великие	-11245
▁высвобо	-11246
▁госпита	-11247
▁графика	-11248
▁графике	-11249
▁информи	-11250
▁машиной	-11251
▁основой	-11252
▁партнёр	-11253
▁подойти	-11254
▁подошёл	-11255
▁поехать	-11256
▁термина	-11257
▁частной	-11258
▁Особенно	-11259
▁группами	-11260
▁лестнице	-11261
▁многочис	-11262
▁находясь	-11263
▁поворачи	-11264
▁презерва	-11265
▁протести	-11266
▁расследо	-11267
▁реальный	-11268
▁сообщить	-11269
▁страдает	-11270
▁супермар	-11271
▁услышали	-11272
▁документы	-11273
▁механизмы	-11274
▁мобильные	-11275
▁находился	-11276
▁пациентам	-11277
▁перестали	-11278
▁потратить	-11279
▁произошед	-11280
▁разделить	-11281
▁социально	-11282
▁сработает	-11283
▁наблюдение	-11284
▁отклонения	-11285
▁физических	-11286
▁генетически	-11287
▁максимально	-11288
▁потрясающие	-11289
▁потрясающий	-11290
▁современном	-11291
▁беспокоиться	-11292
▁определённый	-11293
▁производстве	-11294
▁потребовалось	-11295
▁исследователей	-11296
▁f	-11297
вец	-11298
гон	-11299
дям	-11300
чах	-11301
▁гі	-11302
▁сп	-11303
колі	-11304
сная	-11305
циоз	-11306
▁Вен	-11307
▁Обе	-11308
▁Пит	-11309
▁Рио	-11310
▁вен	-11311
▁вжи	-11312
▁нез	-11313
▁нож	-11314
▁уши	-11315
▁эле	-11316
бирая	-11317
водит	-11318
денци	-11319
ивать	-11320
менте	-11321
стное	-11322
тания	-11323
телен	-11324
▁Хигг	-11325
▁днев	-11326
▁импе	-11327
▁корм	-11328
▁лову	-11329
▁мамы	-11330
▁наук	-11331
▁охот	-11332
▁шпри	-11333
делать	-11334
женных	-11335
▁Проис	-11336
▁Слева	-11337
▁глупы	-11338
▁лазер	-11339
▁лицен	-11340
▁нелов	-11341
▁почву	-11342
▁прице	-11343
▁режим	-11344
▁соблю	-11345
вшегося	-11346
строить	-11347
▁бассей	-11348
▁замени	-11349
▁партии	-11350
▁плохое	-11351
▁поиски	-11352
образить	-11353
▁Нобелев	-11354
▁анализи	-11355
▁бросить	-11356
▁выявить	-11357
▁накапли	-11358
▁одинако	-11359
▁столети	-11360
▁факторы	-11361
▁хромосо	-11362
▁десятков	-11363
▁дисципли	-11364
▁известен	-11365
▁исчезает	-11366
▁конструи	-11367
▁кровенос	-11368
▁называет	-11369
▁обезьяны	-11370
▁обратной	-11371
▁обществу	-11372
▁обычного	-11373
▁одиночку	-11374
▁поверхно	-11375
▁услышите	-11376
▁учеников	-11377
▁Последний	-11378
▁движением	-11379
▁искусстве	-11380
▁мгновенно	-11381
▁небольших	-11382
▁небольшую	-11383
▁обществах	-11384
▁обществом	-11385
▁основании	-11386
▁перестать	-11387
▁попробуем	-11388
▁попытался	-11389
▁развитием	-11390
▁справедли	-11391
▁восстанови	-11392
▁переговоры	-11393
▁признаться	-11394
▁спрашивать	-11395
▁наблюдается	-11396
▁поднимается	-11397
▁совместного	-11398
▁произведение	-11399
▁экономических	-11400
▁доказательство	-11401
▁присоединиться	-11402
ra	-11403
фі	-11404
▁e	-11405
ack	-11406
вив	-11407
гим	-11408
деш	-11409
няў	-11410
нія	-11411
▁5-	-11412
▁CA	-11413
▁Ци	-11414
гере	-11415
года	-11416
лево	-11417
мому	-11418
няла	-11419
пель	-11420
теть	-11421
чёты	-11422
▁Сту	-11423
▁Тру	-11424
▁гип	-11425
▁зуб	-11426
▁мая	-11427
▁хит	-11428
▁эры	-11429
▁яко	-11430
▁яро	-11431
берку	-11432
чусет	-11433
▁2015	-11434
▁Гейт	-11435
▁Джеф	-11436
▁Поло	-11437
▁Чего	-11438
▁дири	-11439
▁ждут	-11440
▁займ	-11441
▁злоу	-11442
▁несу	-11443
▁прим	-11444
▁ярко	-11445
ваецца	-11446
генера	-11447
грации	-11448
тились	-11449
▁Какое	-11450
▁Норве	-11451
▁Самый	-11452
▁акцен	-11453
▁близо	-11454
▁волок	-11455
▁женой	-11456
▁пошел	-11457
▁прибе	-11458
▁свеце	-11459
▁спрос	-11460
▁схема	-11461
▁терми	-11462
▁умнее	-11463
▁эпохи	-11464
▁Четыре	-11465
▁любому	-11466
▁мотиви	-11467
▁печень	-11468
▁пожела	-11469
▁правом	-11470
▁разрыв	-11471
▁сидела	-11472
▁служит	-11473
▁списка	-11474
▁старой	-11475
▁угрозу	-11476
▁формой	-11477
▁целого	-11478
тические	-11479
▁Экономи	-11480
▁великий	-11481
▁воедино	-11482
▁деревню	-11483
▁затраты	-11484
▁кажутся	-11485
▁магчыма	-11486
▁пожилых	-11487
▁получаю	-11488
▁служить	-11489
▁убивают	-11490
▁ядерной	-11491
▁Вероятно	-11492
▁Западной	-11493
▁Огромное	-11494
▁неспособ	-11495
▁оставили	-11496
▁пережить	-11497
▁пластика	-11498
▁послание	-11499
▁поступил	-11500
▁раскрыть	-11501
▁странами	-11502
▁заплатить	-11503
▁мобильных	-11504
▁организме	-11505
▁побережья	-11506
▁попросила	-11507
▁студентам	-11508
▁элементар	-11509
▁Массачусет	-11510
▁маленькими	-11511
▁окружающих	-11512
▁определять	-11513
▁осознавать	-11514
▁подготовки	-11515
▁необходимых	-11516
▁инструментом	-11517
▁разнообразия	-11518
▁сегодняшнего	-11519
▁удовольствия	-11520
ip	-11521
йс	-11522
тс	-11523
бах	-11524
мощ	-11525
▁33	-11526
гана	-11527
дены	-11528
джер	-11529
дишь	-11530
киды	-11531
рики	-11532
рным	-11533
тино	-11534
чала	-11535
чуть	-11536
▁Ита	-11537
▁жут	-11538
▁зме	-11539
▁мяч	-11540
▁ору	-11541
енько	-11542
нетом	-11543
раиль	-11544
рению	-11545
треть	-11546
▁адре	-11547
▁боле	-11548
▁вера	-11549
▁идём	-11550
▁карт	-11551
▁мала	-11552
▁мони	-11553
▁опер	-11554
▁преж	-11555
▁твои	-11556
▁шизо	-11557
▁экза	-11558
▁газет	-11559
▁зараз	-11560
▁корен	-11561
▁матер	-11562
▁нации	-11563
▁смеша	-11564
▁сынов	-11565
▁Каждое	-11566
▁Скорее	-11567
▁альтру	-11568
▁выйдет	-11569
▁дышать	-11570
▁заняты	-11571
▁изучаю	-11572
▁лагерь	-11573
▁патрэб	-11574
▁помеша	-11575
▁средой	-11576
зависимо	-11577
▁батарей	-11578
▁большом	-11579
▁великой	-11580
▁достига	-11581
▁заголов	-11582
▁изучаем	-11583
▁импульс	-11584
▁красным	-11585
▁местной	-11586
▁острове	-11587
▁попытке	-11588
▁предвзя	-11589
▁привиле	-11590
▁продать	-11591
▁произно	-11592
▁сильный	-11593
▁согласо	-11594
▁страхов	-11595
▁взрослые	-11596
▁директор	-11597
▁записать	-11598
▁изменила	-11599
▁местного	-11600
▁новостях	-11601
▁подключи	-11602
▁полноцен	-11603
▁правилам	-11604
▁пропуска	-11605
▁проститу	-11606
▁сельское	-11607
▁системах	-11608
▁третьего	-11609
▁интерфейс	-11610
▁настоящем	-11611
▁обсуждали	-11612
▁произошли	-11613
▁профессии	-11614
▁точностью	-11615
▁утверждаю	-11616
▁заработать	-11617
▁правильном	-11618
▁проследить	-11619
▁результата	-11620
▁статистику	-11621
▁Удивительно	-11622
▁взаимосвязи	-11623
▁запрограмми	-11624
▁представлял	-11625
▁глобализации	-11626
▁поддерживает	-11627
▁представляем	-11628
▁предположения	-11629
▁финансирование	-11630
БР	-11631
ъя	-11632
▁=	-11633
amp	-11634
ure	-11635
бла	-11636
вии	-11637
вия	-11638
коў	-11639
рки	-11640
▁Йо	-11641
нков	-11642
опар	-11643
ришь	-11644
сень	-11645
стон	-11646
стый	-11647
▁Ана	-11648
▁Сью	-11649
▁Што	-11650
▁Эту	-11651
▁мес	-11652
колад	-11653
▁Могу	-11654
▁Само	-11655
▁влюб	-11656
▁грам	-11657
▁долг	-11658
▁осла	-11659
▁пиро	-11660
▁связ	-11661
▁сочи	-11662
▁тени	-11663
▁типы	-11664
▁ушло	-11665
▁фоне	-11666
▁хаце	-11667
ерархи	-11668
кологи	-11669
пустил	-11670
торией	-11671
▁Индию	-11672
▁Искус	-11673
▁Какая	-11674
▁Обама	-11675
▁Супер	-11676
▁годам	-11677
▁детях	-11678
▁едино	-11679
▁набро	-11680
▁низко	-11681
▁пообе	-11682
▁раска	-11683
▁сериа	-11684
▁театр	-11685
▁тесто	-11686
▁траги	-11687
▁штуку	-11688
национа	-11689
ровался	-11690
третьих	-11691
▁Запада	-11692
▁Канаде	-11693
▁Кембри	-11694
▁Совсем	-11695
▁Хиггса	-11696
▁бывают	-11697
▁взрыва	-11698
▁выводы	-11699
▁девяти	-11700
▁дистан	-11701
▁зависи	-11702
▁загово	-11703
▁задают	-11704
▁описал	-11705
▁паради	-11706
▁погиба	-11707
▁поиско	-11708
▁премии	-11709
▁ранние	-11710
▁смешно	-11711
▁собрал	-11712
▁треуго	-11713
▁Европей	-11714
▁Эфиопии	-11715
▁автоном	-11716
▁военные	-11717
▁должное	-11718
▁дорогой	-11719
▁друзьям	-11720
▁изучили	-11721
▁коллега	-11722
▁красоты	-11723
▁образов	-11724
▁ожидали	-11725
▁отвлека	-11726
▁покупки	-11727
▁похожее	-11728
▁правосу	-11729
▁премьер	-11730
▁прогноз	-11731
▁секторе	-11732
Анджелесе	-11733
тельством	-11734
▁Британии	-11735
▁давления	-11736
▁метаболи	-11737
▁некалькі	-11738
▁практику	-11739
▁странное	-11740
▁атмосфере	-11741
▁выглядели	-11742
▁закономер	-11743
▁концепции	-11744
▁необыкнов	-11745
▁поддержка	-11746
▁появление	-11747
▁революцию	-11748
▁спрашиваю	-11749
▁указывает	-11750
▁конфликтов	-11751
▁корпорации	-11752
▁собирались	-11753
▁спрашивали	-11754
▁увеличения	-11755
▁финансовой	-11756
▁беспрецеден	-11757
▁гражданской	-11758
▁ограничений	-11759
▁собственным	-11760
▁Университете	-11761
▁оборудования	-11762
▁удивительных	-11763
пэ	-11764
цю	-11765
вку	-11766
вла	-11767
лье	-11768
рма	-11769
хна	-11770
▁Bl	-11771
▁МК	-11772
▁фі	-11773
дьбы	-11774
нета	-11775
ради	-11776
стых	-11777
хими	-11778
чиво	-11779
▁Дви	-11780
▁Джи	-11781
▁Наи	-11782
▁ФБР	-11783
▁Чер	-11784
▁дрэ	-11785
▁опе	-11786
▁сжа	-11787
▁уси	-11788
▁фос	-11789
▁эфи	-11790
доров	-11791
клето	-11792
несли	-11793
стрем	-11794
шенно	-11795
▁Куда	-11796
▁Пару	-11797
▁Холо	-11798
▁бегу	-11799
▁даём	-11800
▁дете	-11801
▁знай	-11802
▁клад	-11803
▁лицу	-11804
▁мясо	-11805
▁несо	-11806
▁нови	-11807
▁обру	-11808
▁попо	-11809
▁рези	-11810
▁ритм	-11811
▁своя	-11812
▁твоя	-11813
▁якую	-11814
дилась	-11815
дитесь	-11816
довали	-11817
челове	-11818
▁Дизай	-11819
▁досту	-11820
▁забро	-11821
▁забыл	-11822
▁имело	-11823
▁кадры	-11824
▁працы	-11825
▁росту	-11826
▁соста	-11827
▁типов	-11828
▁февра	-11829
ственны	-11830
ционным	-11831
▁Дзякуй	-11832
▁гендер	-11833
▁гласит	-11834
▁клавиа	-11835
▁контей	-11836
▁костей	-11837
▁купили	-11838
▁никуда	-11839
▁новому	-11840
▁продав	-11841
▁рынков	-11842
▁сдержи	-11843
▁соблаз	-11844
▁стекля	-11845
▁стремя	-11846
▁угрозы	-11847
▁умерла	-11848
▁фактов	-11849
▁экрана	-11850
▁аутизма	-11851
▁выступи	-11852
▁глубины	-11853
▁длинные	-11854
▁застрой	-11855
▁микробы	-11856
▁находит	-11857
▁парадиг	-11858
▁реабили	-11859
▁вызывают	-11860
▁дизайном	-11861
▁невозмож	-11862
▁островов	-11863
▁подходят	-11864
▁позволят	-11865
▁прослуши	-11866
▁реальных	-11867
▁упомянул	-11868
▁выражения	-11869
▁динозавра	-11870
▁изменится	-11871
▁мальчиков	-11872
▁перевести	-11873
▁побережье	-11874
▁принципов	-11875
▁работаете	-11876
▁буквальном	-11877
▁достижение	-11878
▁заставляют	-11879
▁измениться	-11880
▁немедленно	-11881
▁обратились	-11882
▁радикально	-11883
▁десятилетие	-11884
▁обеспечивает	-11885
▁способностей	-11886
▁столкновения	-11887
▁замечательное	-11888
▁международной	-11889
▁стихотворение	-11890
▁взаимодействуют	-11891
ых	-11892
бот	-11893
ноу	-11894
таў	-11895
тны	-11896
тос	-11897
вной	-11898
гура	-11899
мино	-11900
мога	-11901
рака	-11902
чины	-11903
▁Сау	-11904
▁Смо	-11905
▁Уол	-11906
▁Эми	-11907
▁бой	-11908
▁бол	-11909
▁вда	-11910
▁ков	-11911
▁пчё	-11912
▁сюр	-11913
балан	-11914
бовал	-11915
дился	-11916
добие	-11917
ждена	-11918
щаете	-11919
▁Изви	-11920
▁Маши	-11921
▁Спра	-11922
▁зубы	-11923
▁пору	-11924
▁рыча	-11925
▁скоп	-11926
▁тихо	-11927
▁тупи	-11928
▁ушли	-11929
вающим	-11930
мерика	-11931
полага	-11932
послед	-11933
тальян	-11934
толкну	-11935
▁Попро	-11936
▁Управ	-11937
▁белка	-11938
▁вариа	-11939
▁вторы	-11940
▁выдви	-11941
▁друже	-11942
▁еврей	-11943
▁звали	-11944
▁кампу	-11945
▁кругу	-11946
▁левой	-11947
▁накор	-11948
▁наход	-11949
▁остры	-11950
▁персо	-11951
▁разры	-11952
▁свинь	-11953
▁синий	-11954
▁слуха	-11955
▁сопер	-11956
▁схему	-11957
▁танец	-11958
▁ходят	-11959
▁эпизо	-11960
▁Бангла	-11961
▁Европа	-11962
▁берегу	-11963
▁ветера	-11964
▁винова	-11965
▁грамот	-11966
▁заняло	-11967
▁искали	-11968
▁истины	-11969
▁насчет	-11970
▁неправ	-11971
▁правой	-11972
▁привёл	-11973
▁присла	-11974
▁районы	-11975
▁рекорд	-11976
▁собран	-11977
▁твёрдо	-11978
▁транзи	-11979
▁центры	-11980
▁чёрный	-11981
▁выборах	-11982
▁голосов	-11983
▁дедушка	-11984
▁корабля	-11985
▁нейроби	-11986
▁оставил	-11987
▁перепол	-11988
▁погибли	-11989
▁принято	-11990
▁прочего	-11991
▁состави	-11992
▁творить	-11993
▁фотогра	-11994
▁Вернёмся	-11995
▁Министер	-11996
▁вопросам	-11997
▁иммигран	-11998
▁подключа	-11999
▁принципу	-12000
▁приобрет	-12001
▁продвига	-12002
▁продукта	-12003
▁экологии	-12004
▁доступной	-12005
▁задумался	-12006
▁историями	-12007
▁маленькое	-12008
▁напомнить	-12009
▁основания	-12010
▁поместили	-12011
▁реагирует	-12012
▁стволовых	-12013
▁глобальное	-12014
▁изменились	-12015
▁компаниями	-12016
▁компоненты	-12017
▁конфиденци	-12018
▁объяснения	-12019
▁попытались	-12020
▁распознать	-12021
▁расширение	-12022
▁становимся	-12023
▁неправитель	-12024
▁долгосрочной	-12025
▁естественным	-12026
▁общественное	-12027
▁поблагодарить	-12028
▁предположение	-12029
▁характеристики	-12030
гр	-12031
▁g	-12032
ond	-12033
аги	-12034
кен	-12035
нты	-12036
нёс	-12037
шае	-12038
▁85	-12039
зади	-12040
защи	-12041
мато	-12042
стат	-12043
стил	-12044
шной	-12045
▁Вне	-12046
▁дья	-12047
▁паў	-12048
▁уво	-12049
андер	-12050
фарма	-12051
ённой	-12052
▁Ваша	-12053
▁Марк	-12054
▁Помо	-12055
▁егип	-12056
▁куча	-12057
▁ледя	-12058
▁лягу	-12059
▁машы	-12060
▁руба	-12061
▁сказ	-12062
▁угля	-12063
графия	-12064
дности	-12065
ляться	-12066
▁Библи	-12067
▁Бруно	-12068
▁Генри	-12069
▁Лучше	-12070
▁Трети	-12071
▁альбо	-12072
▁вреда	-12073
▁давай	-12074
▁камни	-12075
▁колен	-12076
▁корни	-12077
▁моман	-12078
▁общих	-12079
▁общую	-12080
▁опыте	-12081
▁отмет	-12082
▁серии	-12083
▁товар	-12084
▁тормо	-12085
▁тюрем	-12086
▁услож	-12087
▁хрони	-12088
▁цикла	-12089
вляются	-12090
тельнее	-12091
тивными	-12092
▁Париже	-12093
▁бежать	-12094
▁жертвы	-12095
▁лихора	-12096
▁месяце	-12097
▁могуць	-12098
▁нервни	-12099
▁низким	-12100
▁ошелом	-12101
▁поехал	-12102
возможно	-12103
тивность	-12104
▁допуска	-12105
▁дыхание	-12106
▁кармане	-12107
▁матерью	-12108
▁обезьян	-12109
▁поехали	-12110
▁посвящё	-12111
▁произне	-12112
▁пролета	-12113
▁пустыне	-12114
▁разреза	-12115
▁снимков	-12116
▁туберку	-12117
▁большому	-12118
▁идеально	-12119
▁моментом	-12120
▁позвонил	-12121
▁процессо	-12122
▁снижение	-12123
▁странице	-12124
▁воплотить	-12125
▁изменении	-12126
▁изменению	-12127
▁компаниям	-12128
▁неврологи	-12129
▁необходим	-12130
▁произошёл	-12131
▁серьёзная	-12132
▁тенденция	-12133
▁Афганистан	-12134
▁называемой	-12135
▁невообрази	-12136
▁пользуемся	-12137
▁правильное	-12138
▁психологии	-12139
▁следующему	-12140
▁смертность	-12141
▁социальный	-12142
▁требования	-12143
▁чернокожих	-12144
▁неравенства	-12145
▁презентации	-12146
▁развиваются	-12147
▁реагировать	-12148
▁технологиям	-12149
▁Университета	-12150
▁определённой	-12151
▁опубликовали	-12152
▁потенциально	-12153
▁политического	-12154
гое	-12155
дож	-12156
кіх	-12157
рэч	-12158
▁42	-12159
▁ИИ	-12160
вные	-12161
мали	-12162
меди	-12163
нина	-12164
роны	-12165
сном	-12166
сный	-12167
спон	-12168
ссом	-12169
цвет	-12170
шени	-12171
▁Хью	-12172
▁азо	-12173
▁еде	-12174
▁миф	-12175
▁рус	-12176
▁хао	-12177
кручи	-12178
стива	-12179
телях	-12180
тость	-12181
щемся	-12182
▁Нель	-12183
▁всер	-12184
▁зону	-12185
▁огра	-12186
▁осво	-12187
▁похи	-12188
▁саму	-12189
▁ушёл	-12190
▁хран	-12191
▁шума	-12192
больше	-12193
вшаяся	-12194
жаются	-12195
рители	-12196
ченный	-12197
▁Любой	-12198
▁войти	-12199
▁выучи	-12200
▁заста	-12201
▁курса	-12202
▁молча	-12203
▁нешта	-12204
▁одних	-12205
▁прока	-12206
▁пункт	-12207
▁сенсо	-12208
▁скопи	-12209
▁такси	-12210
▁ущерб	-12211
▁футов	-12212
масштаб	-12213
смотрим	-12214
ствуете	-12215
ционное	-12216
▁Лондон	-12217
▁Третий	-12218
▁Честно	-12219
▁Швейца	-12220
▁верили	-12221
▁долгий	-12222
▁ездить	-12223
▁звуков	-12224
▁наслед	-12225
▁начнем	-12226
▁непред	-12227
▁ніколі	-12228
▁переез	-12229
▁платят	-12230
▁поиске	-12231
▁пропор	-12232
▁пузырь	-12233
▁строим	-12234
▁съесть	-12235
▁третье	-12236
▁цунами	-12237
ничество	-12238
▁бессмыс	-12239
▁волонтё	-12240
▁воспиты	-12241
▁данного	-12242
▁делятся	-12243
▁имеются	-12244
▁коралло	-12245
▁коричне	-12246
▁коробки	-12247
▁любовью	-12248
▁милосер	-12249
▁неизмен	-12250
▁осведом	-12251
▁поймёте	-12252
▁полиция	-12253
▁полного	-12254
▁постави	-12255
▁привела	-12256
▁сопроти	-12257
▁соседей	-12258
▁Большого	-12259
▁Обратите	-12260
▁Президен	-12261
▁бизнесом	-12262
▁колледжа	-12263
▁недоступ	-12264
▁признаки	-12265
▁принести	-12266
▁прототип	-12267
▁ребенком	-12268
▁северной	-12269
▁согласен	-12270
▁телефону	-12271
▁богатство	-12272
▁доступным	-12273
▁задейство	-12274
▁изменился	-12275
▁интересах	-12276
▁континент	-12277
▁неизбежно	-12278
▁осознание	-12279
▁открытого	-12280
▁поступить	-12281
▁препараты	-12282
▁приходить	-12283
▁регулярно	-12284
▁характера	-12285
▁начинаются	-12286
▁передавать	-12287
▁проявления	-12288
▁сочувствие	-12289
▁территорию	-12290
▁финансовых	-12291
▁зависимость	-12292
▁необходимое	-12293
▁соотношение	-12294
▁утверждение	-12295
▁представлены	-12296
▁человеческую	-12297
▁американского	-12298
▁представляете	-12299
st	-12300
org	-12301
тья	-12302
шал	-12303
▁No	-12304
▁Tw	-12305
▁Бэ	-12306
▁пі	-12307
пали	-12308
сали	-12309
сных	-12310
стёр	-12311
чнее	-12312
▁190	-12313
▁Буд	-12314
▁Энд	-12315
▁неи	-12316
▁сад	-12317
▁сор	-12318
▁ўжо	-12319
гарет	-12320
льныя	-12321
менее	-12322
стина	-12323
фикси	-12324
чатки	-12325
▁Вось	-12326
▁Зада	-12327
▁Коли	-12328
▁Нача	-12329
▁Смит	-12330
▁ладо	-12331
▁мужа	-12332
▁педа	-12333
▁сдел	-12334
▁трое	-12335
▁тури	-12336
▁шара	-12337
▁этни	-12338
▁яўля	-12339
ванное	-12340
рующий	-12341
сматри	-12342
▁1990-	-12343
▁Самая	-12344
▁авари	-12345
▁банка	-12346
▁белки	-12347
▁верил	-12348
▁враща	-12349
▁вслед	-12350
▁зрели	-12351
▁обеих	-12352
▁плодо	-12353
▁прост	-12354
▁серию	-12355
▁следы	-12356
▁фразу	-12357
▁химии	-12358
▁шизоф	-12359
дителем	-12360
▁Внутри	-12361
▁Сахары	-12362
▁бейсбо	-12363
▁будешь	-12364
▁выдели	-12365
▁криста	-12366
▁обходи	-12367
▁ошибку	-12368
▁прости	-12369
▁трудом	-12370
▁умение	-12371
▁часами	-12372
▁шансов	-12373
▁близких	-12374
▁верхней	-12375
▁лечении	-12376
▁начинал	-12377
▁остался	-12378
▁павінны	-12379
▁перепро	-12380
▁перечис	-12381
▁перешли	-12382
▁письмен	-12383
▁получал	-12384
▁причину	-12385
▁следуют	-12386
▁аккумуля	-12387
▁картинке	-12388
▁модифици	-12389
▁окситоци	-12390
▁основным	-12391
▁парализо	-12392
▁побольше	-12393
▁постанов	-12394
▁предвари	-12395
▁прощения	-12396
▁сводится	-12397
▁транспла	-12398
▁выступить	-12399
▁депрессия	-12400
▁закончили	-12401
▁известные	-12402
▁недооцени	-12403
▁описывает	-12404
▁преобразу	-12405
▁следовало	-12406
▁создаётся	-12407
▁сравнения	-12408
▁структуре	-12409
▁тенденции	-12410
▁задумались	-12411
▁предложили	-12412
▁президента	-12413
▁прекрасным	-12414
▁разговоров	-12415
▁творческие	-12416
▁утверждать	-12417
▁вероятности	-12418
▁оказываются	-12419
▁особенность	-12420
▁перспективы	-12421
▁возможностью	-12422
▁собственными	-12423
▁устойчивость	-12424
▁представителей	-12425
▁путешествовать	-12426
лк	-12427
вав	-12428
жер	-12429
мам	-12430
пию	-12431
пка	-12432
рну	-12433
теи	-12434
▁55	-12435
▁Al	-12436
▁Ии	-12437
azon	-12438
дило	-12439
кали	-12440
ссий	-12441
чаем	-12442
шали	-12443
▁192	-12444
▁джу	-12445
▁тры	-12446
альны	-12447
зонан	-12448
прово	-12449
проду	-12450
стика	-12451
стная	-12452
тером	-12453
тными	-12454
тости	-12455
▁Безу	-12456
▁Майк	-12457
▁Чили	-12458
▁букв	-12459
▁выве	-12460
▁гуля	-12461
▁стой	-12462
ваемых	-12463
костью	-12464
летняя	-12465
плескі	-12466
родете	-12467
тивную	-12468
шаться	-12469
▁Times	-12470
▁Проце	-12471
▁герой	-12472
▁глава	-12473
▁ехать	-12474
▁завод	-12475
▁каран	-12476
▁кухне	-12477
▁молит	-12478
▁мотор	-12479
▁проби	-12480
▁серти	-12481
▁сетки	-12482
▁сумма	-12483
▁тарел	-12484
▁терпи	-12485
▁чемпи	-12486
▁Европу	-12487
▁Настоя	-12488
▁белого	-12489
▁видишь	-12490
▁входит	-12491
▁землёй	-12492
▁массив	-12493
▁найдём	-12494
▁облако	-12495
▁одежды	-12496
▁отдыха	-12497
▁подлин	-12498
▁провин	-12499
▁прорыв	-12500
▁развед	-12501
▁светом	-12502
▁статья	-12503
▁стресс	-12504
▁уголов	-12505
▁угроза	-12506
▁успоко	-12507
▁учётом	-12508
▁языках	-12509
половину	-12510
тический	-12511
▁Мировой	-12512
▁высокая	-12513
▁занятий	-12514
▁иерархи	-12515
▁красные	-12516
▁моделью	-12517
▁обучать	-12518
▁отрывок	-12519
▁племени	-12520
▁подверг	-12521
▁получит	-12522
▁рыболов	-12523
▁спектра	-12524
▁уменьши	-12525
▁центром	-12526
▁Воплескі	-12527
▁заметила	-12528
▁захотели	-12529
▁захотите	-12530
▁мудрость	-12531
▁наблюдая	-12532
▁недалеко	-12533
▁открытые	-12534
▁половине	-12535
▁рассказы	-12536
▁телескоп	-12537
▁Используя	-12538
▁встретила	-12539
▁гомосексу	-12540
▁научилась	-12541
▁окончания	-12542
▁предсказу	-12543
▁разрешить	-12544
▁следствие	-12545
последствии	-12546
▁квадратных	-12547
▁ограничены	-12548
▁содержится	-12549
▁английского	-12550
▁переговоров	-12551
▁потребитель	-12552
▁реализовать	-12553
▁зарабатывать	-12554
▁направлениях	-12555
▁поверхностью	-12556
▁существовало	-12557
▁биологических	-12558
▁доказательств	-12559
▁международных	-12560
▁собственности	-12561
▁дополнительные	-12562
▁искусственного	-12563
ne	-12564
▁‐	-12565
вёт	-12566
зий	-12567
мик	-12568
няю	-12569
фей	-12570
шэн	-12571
▁Же	-12572
▁Ир	-12573
▁оз	-12574
дино	-12575
мули	-12576
нага	-12577
филь	-12578
цтва	-12579
▁Мил	-12580
▁Свя	-12581
▁Тор	-12582
▁Шек	-12583
▁пье	-12584
▁свы	-12585
▁сей	-12586
блоки	-12587
время	-12588
движи	-12589
теров	-12590
▁2050	-12591
▁Иису	-12592
▁Луну	-12593
▁Тони	-12594
▁Фрэн	-12595
▁архе	-12596
▁веса	-12597
▁вина	-12598
▁вход	-12599
▁гнез	-12600
▁друж	-12601
▁моги	-12602
▁нара	-12603
▁фона	-12604
вающую	-12605
ъемлем	-12606
▁Милли	-12607
▁Помню	-12608
▁Рожде	-12609
▁брали	-12610
▁весом	-12611
▁дзень	-12612
▁дикой	-12613
▁дикта	-12614
▁кость	-12615
▁набра	-12616
▁назов	-12617
▁нанес	-12618
▁параш	-12619
▁пиани	-12620
▁птица	-12621
▁разло	-12622
▁решёт	-12623
▁тунца	-12624
спонден	-12625
▁Дальше	-12626
▁Египте	-12627
▁дороже	-12628
▁затрат	-12629
▁личные	-12630
▁лучшем	-12631
▁метода	-12632
▁нечего	-12633
▁оранже	-12634
▁панели	-12635
▁перена	-12636
▁писали	-12637
▁провел	-12638
▁ракеты	-12639
▁ресурс	-12640
▁спектр	-12641
▁Востоке	-12642
▁бояться	-12643
▁геологи	-12644
▁графики	-12645
▁девушки	-12646
▁детских	-12647
▁достать	-12648
▁зафикси	-12649
▁израиль	-12650
▁комната	-12651
▁лидером	-12652
▁музыкой	-12653
▁недвижи	-12654
▁незамет	-12655
▁продажи	-12656
▁рисунок	-12657
▁убивает	-12658
▁ужасное	-12659
▁Твиттере	-12660
▁аппарата	-12661
▁беспоряд	-12662
▁восторге	-12663
▁зрителей	-12664
▁искусств	-12665
▁ключевых	-12666
▁образцов	-12667
▁осталась	-12668
▁подобной	-12669
▁практики	-12670
▁приводят	-12671
▁приехала	-12672
▁принесла	-12673
▁реальным	-12674
▁свойство	-12675
▁сделаете	-12676
▁сценарий	-12677
▁беспокоит	-12678
▁велосипед	-12679
▁встретить	-12680
▁краткосро	-12681
▁окружение	-12682
▁популяции	-12683
▁проделать	-12684
▁составить	-12685
▁уравнение	-12686
▁Невозможно	-12687
▁выяснилось	-12688
▁интерпрета	-12689
▁населением	-12690
▁потепление	-12691
▁сообществе	-12692
▁статистика	-12693
▁Задумайтесь	-12694
▁взаимосвязь	-12695
▁невероятной	-12696
▁определению	-12697
▁основываясь	-12698
▁препятствия	-12699
▁согласились	-12700
▁справляться	-12701
▁понадобилось	-12702
▁предпочитают	-12703
▁существовании	-12704
▁обстоятельствах	-12705
-2	-12706
fe	-12707
ix	-12708
ай	-12709
RIS	-12710
жом	-12711
май	-12712
чаю	-12713
шоу	-12714
▁Ar	-12715
▁Wi	-12716
▁сё	-12717
▁ўя	-12718
веро	-12719
гнул	-12720
диоз	-12721
дков	-12722
ждеб	-12723
имой	-12724
кала	-12725
нено	-12726
слой	-12727
сные	-12728
чком	-12729
▁Боб	-12730
▁Вол	-12731
▁Кни	-12732
▁Спе	-12733
▁вон	-12734
▁впа	-12735
▁ели	-12736
▁жон	-12737
▁оли	-12738
▁ось	-12739
▁пли	-12740
▁умр	-12741
▁юге	-12742
лился	-12743
пания	-12744
тками	-12745
▁Деся	-12746
▁Иран	-12747
▁Пара	-12748
▁Увер	-12749
▁авгу	-12750
▁акул	-12751
▁выде	-12752
▁горе	-12753
▁душа	-12754
▁жаль	-12755
▁жены	-12756
▁изби	-12757
▁иску	-12758
▁кара	-12759
▁лого	-12760
▁млрд	-12761
▁неба	-12762
▁петь	-12763
▁поде	-12764
▁река	-12765
▁собе	-12766
нитесь	-12767
нность	-12768
самрэч	-12769
▁Ганди	-12770
▁Одной	-12771
▁Питер	-12772
▁вибра	-12773
▁гэтай	-12774
▁дилем	-12775
▁живое	-12776
▁накоп	-12777
▁осмот	-12778
▁памят	-12779
▁песен	-12780
▁поезд	-12781
▁покон	-12782
▁почвы	-12783
▁преда	-12784
▁проез	-12785
▁сопри	-12786
▁спине	-12787
▁сумму	-12788
▁факта	-12789
▁цензу	-12790
ходятся	-12791
▁Италии	-12792
▁Мартин	-12793
▁Хотите	-12794
▁бездом	-12795
▁больно	-12796
▁ввести	-12797
▁всякий	-12798
▁героев	-12799
▁жертву	-12800
▁заменя	-12801
▁инстал	-12802
▁лучшую	-12803
▁миссии	-12804
▁мотоци	-12805
▁нажима	-12806
▁начнёт	-12807
▁нейтра	-12808
▁нелега	-12809
▁обожаю	-12810
▁ожидал	-12811
▁регион	-12812
▁режисс	-12813
▁совпад	-12814
▁стояли	-12815
▁теряем	-12816
вающейся	-12817
ленности	-12818
▁Информа	-12819
▁Приведу	-12820
▁ассоциа	-12821
▁занятие	-12822
▁итальян	-12823
▁комаров	-12824
▁полезны	-12825
▁предков	-12826
▁притяги	-12827
▁произве	-12828
▁рабочий	-12829
▁размеры	-12830
▁районов	-12831
▁рисунки	-12832
▁сильным	-12833
▁создаем	-12834
▁узнаете	-12835
▁чрезмер	-12836
стической	-12837
▁Возьмите	-12838
▁беспилот	-12839
▁жидкость	-12840
▁повлияло	-12841
▁поистине	-12842
▁принятие	-12843
▁содержат	-12844
▁структур	-12845
▁Компьютер	-12846
▁Последние	-12847
▁возможные	-12848
▁инопланет	-12849
▁интересов	-12850
▁мгновение	-12851
▁наркотики	-12852
▁небольшим	-12853
▁неустойчи	-12854
▁перенести	-12855
▁позволила	-12856
▁последнюю	-12857
▁родителям	-12858
▁следующая	-12859
▁создавали	-12860
▁способные	-12861
▁управляют	-12862
▁воссоздать	-12863
▁доступными	-12864
▁интереснее	-12865
▁наполовину	-12866
▁отправлять	-12867
▁парниковых	-12868
▁полученные	-12869
▁сконцентри	-12870
▁студентами	-12871
▁счастливым	-12872
▁экономикой	-12873
▁исполнилось	-12874
▁собственном	-12875
▁социальными	-12876
▁температуру	-12877
▁пересмотреть	-12878
▁распоряжении	-12879
▁составляющие	-12880
▁разрабатывать	-12881
▁электрический	-12882
ce	-12883
ha	-12884
ец	-12885
фт	-12886
▁p	-12887
рье	-12888
стэ	-12889
▁Ее	-12890
▁Ой	-12891
▁ас	-12892
▁ир	-12893
атри	-12894
ватт	-12895
гули	-12896
ждой	-12897
ктах	-12898
ллер	-12899
мала	-12900
нуты	-12901
піса	-12902
тров	-12903
чаць	-12904
шага	-12905
ёння	-12906
▁Брэ	-12907
▁пан	-12908
дцати	-12909
парта	-12910
ретро	-12911
струи	-12912
▁Клин	-12913
▁Стар	-12914
▁базу	-12915
▁взят	-12916
▁выса	-12917
▁жира	-12918
▁отло	-12919
▁очер	-12920
▁разы	-12921
▁реку	-12922
▁сина	-12923
▁усер	-12924
▁целе	-12925
▁часу	-12926
▁1950-	-12927
▁Джейн	-12928
▁Леона	-12929
▁бренд	-12930
▁винов	-12931
▁добав	-12932
▁задал	-12933
▁камер	-12934
▁новше	-12935
▁поход	-12936
▁разор	-12937
▁сбора	-12938
▁смесь	-12939
▁стану	-12940
▁схемы	-12941
▁твоей	-12942
▁Amazon	-12943
▁Знаешь	-12944
▁атомов	-12945
▁безраз	-12946
▁видами	-12947
▁вирусы	-12948
▁голубы	-12949
▁картин	-12950
▁кванто	-12951
▁лагере	-12952
▁миссия	-12953
▁океаны	-12954
▁оптима	-12955
▁потряс	-12956
▁предше	-12957
▁середи	-12958
▁строят	-12959
▁улучши	-12960
▁уходят	-12961
▁хватит	-12962
▁Немного	-12963
▁Эйнштей	-12964
▁будущих	-12965
▁враждеб	-12966
▁городом	-12967
▁девушек	-12968
▁захотел	-12969
▁инвесто	-12970
▁исходит	-12971
▁карыста	-12972
▁матерей	-12973
▁получат	-12974
▁развить	-12975
▁связать	-12976
▁секвени	-12977
▁синтеза	-12978
▁состоят	-12979
▁техника	-12980
▁убеждён	-12981
▁шоколад	-12982
рованными	-12983
▁готовить	-12984
▁животным	-12985
▁известна	-12986
▁мудрости	-12987
▁операцию	-12988
▁основано	-12989
▁открытых	-12990
▁подумаем	-12991
▁развлека	-12992
▁различий	-12993
▁разногла	-12994
▁странные	-12995
▁талантли	-12996
▁уважение	-12997
▁эволюцию	-12998
▁экстрема	-12999
тироваться	-13000
▁давлением	-13001
▁института	-13002
▁концепция	-13003
▁массового	-13004
▁наподобие	-13005
▁проходить	-13006
▁своеобраз	-13007
▁формируют	-13008
▁Вашингтоне	-13009
▁внутренний	-13010
▁вычислений	-13011
▁достижений	-13012
▁неотъемлем	-13013
▁показывали	-13014
▁посмотрела	-13015
▁проведения	-13016
▁разместить	-13017
▁самооргани	-13018
▁сохранения	-13019
▁социальным	-13020
▁трансформи	-13021
▁химических	-13022
▁исследовали	-13023
▁президентом	-13024
▁современный	-13025
▁беременности	-13026
▁возвращаться	-13027
▁космического	-13028
▁образованием	-13029
▁правительству	-13030
▁использоваться	-13031
ая	-13032
ber	-13033
omo	-13034
жий	-13035
зен	-13036
зил	-13037
зра	-13038
мбу	-13039
▁2,	-13040
▁ЛТ	-13041
▁бь	-13042
▁цы	-13043
беру	-13044
зора	-13045
скай	-13046
чына	-13047
▁Вин	-13048
▁Дон	-13049
▁Ого	-13050
▁Пот	-13051
▁бел	-13052
▁бир	-13053
▁вар	-13054
▁пчо	-13055
▁сно	-13056
дному	-13057
логом	-13058
нному	-13059
тирую	-13060
чному	-13061
щийся	-13062
▁1998	-13063
▁Сноу	-13064
▁Уиль	-13065
▁едим	-13066
▁запя	-13067
▁зона	-13068
▁инсу	-13069
▁ищет	-13070
▁почи	-13071
▁сбро	-13072
▁хаке	-13073
контро	-13074
образо	-13075
▁Латин	-13076
▁Откры	-13077
▁абсур	-13078
▁включ	-13079
▁возму	-13080
▁галлю	-13081
▁кален	-13082
▁квали	-13083
▁маммо	-13084
▁ногах	-13085
▁нормы	-13086
▁объем	-13087
▁росла	-13088
▁схожи	-13089
▁умеет	-13090
▁ухажи	-13091
вляться	-13092
прыклад	-13093
▁Прошло	-13094
▁Руанде	-13095
▁биораз	-13096
▁велика	-13097
▁забыли	-13098
▁кресло	-13099
▁наружу	-13100
▁одержи	-13101
▁оценку	-13102
▁позабо	-13103
▁проплы	-13104
▁службу	-13105
▁статус	-13106
▁учёным	-13107
рованное	-13108
▁Израиль	-13109
▁Твиттер	-13110
▁быстрый	-13111
▁забрать	-13112
▁методом	-13113
▁надежде	-13114
▁начинаю	-13115
▁объясню	-13116
▁отрасли	-13117
▁питание	-13118
▁пластик	-13119
▁получше	-13120
▁прожить	-13121
▁пустыни	-13122
▁трехмер	-13123
▁труднее	-13124
▁эффекта	-13125
▁важности	-13126
▁грандиоз	-13127
▁зарплаты	-13128
▁начались	-13129
▁организу	-13130
▁пересека	-13131
▁повысить	-13132
▁поступки	-13133
▁проверки	-13134
▁проводит	-13135
▁работало	-13136
▁течением	-13137
▁эпидемия	-13138
▁Восточной	-13139
▁Конгресса	-13140
▁механизма	-13141
▁настоящей	-13142
▁последним	-13143
▁поступают	-13144
▁разрушить	-13145
▁сочетание	-13146
▁голосовать	-13147
▁инвестиций	-13148
▁исключения	-13149
▁построения	-13150
▁разработку	-13151
▁стоимостью	-13152
▁стремиться	-13153
▁творческий	-13154
▁утверждает	-13155
▁архитектуре	-13156
▁вдохновение	-13157
▁выступлений	-13158
▁становились	-13159
▁электронные	-13160
▁эффективным	-13161
▁американские	-13162
▁биотехнологи	-13163
▁возвращаются	-13164
▁предполагает	-13165
▁вмешательства	-13166
▁демонстрирует	-13167
▁международные	-13168
▁восстановление	-13169
▁общественности	-13170
▁финансирования	-13171
аа	-13172
пп	-13173
▁b	-13174
ens	-13175
ity	-13176
бии	-13177
бин	-13178
вам	-13179
вич	-13180
жко	-13181
зти	-13182
ксе	-13183
лёз	-13184
рях	-13185
сии	-13186
фли	-13187
цет	-13188
іць	-13189
▁31	-13190
▁Le	-13191
▁RB	-13192
▁ОК	-13193
▁СС	-13194
берт	-13195
ване	-13196
види	-13197
гада	-13198
дном	-13199
енью	-13200
зиат	-13201
зиру	-13202
имчи	-13203
нобо	-13204
рожд	-13205
рыць	-13206
сную	-13207
ткой	-13208
тури	-13209
щала	-13210
▁12-	-13211
▁19-	-13212
▁Med	-13213
▁Бет	-13214
▁Гуг	-13215
▁Дай	-13216
▁Спи	-13217
▁Чет	-13218
▁Юпи	-13219
▁бух	-13220
▁зла	-13221
▁неа	-13222
▁уко	-13223
▁цар	-13224
itter	-13225
дерни	-13226
ехала	-13227
ктору	-13228
плоди	-13229
стики	-13230
▁2002	-13231
▁Ауди	-13232
▁Быть	-13233
▁Демо	-13234
▁Ната	-13235
▁воли	-13236
▁выло	-13237
▁выні	-13238
▁гнев	-13239
▁дамы	-13240
▁исце	-13241
▁обре	-13242
▁огля	-13243
▁рубе	-13244
▁ряду	-13245
▁ужин	-13246
▁хаос	-13247
▁черт	-13248
держки	-13249
доступ	-13250
женной	-13251
зирует	-13252
лились	-13253
нялись	-13254
ствиях	-13255
тивном	-13256
хналог	-13257
ходила	-13258
шенные	-13259
▁Закон	-13260
▁Стоит	-13261
▁верит	-13262
▁взаим	-13263
▁дожде	-13264
▁изоби	-13265
▁испан	-13266
▁лесах	-13267
▁парик	-13268
▁писем	-13269
▁прова	-13270
▁разам	-13271
▁семян	-13272
▁сюжет	-13273
▁энтро	-13274
▁Индоне	-13275
▁Паркин	-13276
▁взлома	-13277
▁вторую	-13278
▁деревя	-13279
▁жанчын	-13280
▁избран	-13281
▁кресла	-13282
▁моделя	-13283
▁непода	-13284
▁одежду	-13285
▁пассив	-13286
▁потока	-13287
▁протез	-13288
▁прямом	-13289
▁пугает	-13290
▁рассла	-13291
▁сахара	-13292
▁сказаў	-13293
▁стекло	-13294
▁сюрпри	-13295
▁упуска	-13296
▁ученые	-13297
▁цитата	-13298
нообрази	-13299
ствовало	-13300
▁Twitter	-13301
▁антропо	-13302
▁безумно	-13303
▁богатые	-13304
▁братьев	-13305
▁властью	-13306
▁встречу	-13307
▁высокое	-13308
▁главные	-13309
▁детские	-13310
▁доходит	-13311
▁захочет	-13312
▁игрушки	-13313
▁любимая	-13314
▁мировом	-13315
▁молодая	-13316
▁необяза	-13317
▁нервной	-13318
▁обследо	-13319
▁основал	-13320
▁отпуска	-13321
▁погрузи	-13322
▁продают	-13323
▁проделы	-13324
▁расстро	-13325
▁синтети	-13326
▁ставить	-13327
▁стресса	-13328
▁хранить	-13329
▁являюсь	-13330
▁водитель	-13331
▁действии	-13332
▁мальчика	-13333
▁микрофон	-13334
▁молекула	-13335
▁операция	-13336
▁отдельно	-13337
▁попросту	-13338
▁прочитал	-13339
▁родились	-13340
▁цифровые	-13341
▁Поднимите	-13342
▁Правильно	-13343
▁возрастом	-13344
▁вспоминаю	-13345
▁добродете	-13346
▁интересны	-13347
▁испытаний	-13348
▁контролем	-13349
▁любопытно	-13350
▁насекомые	-13351
▁оставляет	-13352
▁реагируют	-13353
▁сделанные	-13354
▁сконструи	-13355
▁спутников	-13356
▁гигантский	-13357
▁глобальном	-13358
▁глобальный	-13359
▁достигнуть	-13360
▁изменением	-13361
▁катастрофы	-13362
▁называемая	-13363
▁небольшого	-13364
▁определяют	-13365
▁терроризма	-13366
▁впечатления	-13367
▁заключённых	-13368
▁закончилось	-13369
▁наркотиками	-13370
▁образованию	-13371
▁поддержания	-13372
▁подробности	-13373
▁показателей	-13374
▁проявляется	-13375
▁технические	-13376
▁американский	-13377
▁афроамерикан	-13378
▁организовали	-13379
AR	-13380
▁a	-13381
art	-13382
ами	-13383
вот	-13384
лью	-13385
нда	-13386
нив	-13387
све	-13388
ьем	-13389
▁Sc	-13390
▁Sp	-13391
▁АК	-13392
бого	-13393
вило	-13394
гапу	-13395
дура	-13396
линд	-13397
нута	-13398
слый	-13399
▁МРТ	-13400
▁Реб	-13401
▁гул	-13402
▁ноя	-13403
▁цик	-13404
▁шер	-13405
англи	-13406
берна	-13407
ённое	-13408
▁Брон	-13409
▁Грей	-13410
▁баск	-13411
▁брак	-13412
▁вере	-13413
▁делу	-13414
▁иным	-13415
▁лома	-13416
▁скла	-13417
▁слои	-13418
▁убра	-13419
▁ушла	-13420
▁цифр	-13421
▁штам	-13422
будьте	-13423
ватели	-13424
ковали	-13425
своему	-13426
щенные	-13427
▁Джейм	-13428
▁Иными	-13429
▁Новый	-13430
▁боеви	-13431
▁ведет	-13432
▁венти	-13433
▁волна	-13434
▁волос	-13435
▁звезд	-13436
▁мечту	-13437
▁нефте	-13438
▁оболо	-13439
▁озабо	-13440
▁перео	-13441
▁сжима	-13442
▁спира	-13443
▁татуи	-13444
▁углом	-13445
▁фирмы	-13446
▁цветы	-13447
▁черта	-13448
▁черте	-13449
материа	-13450
▁Помимо	-13451
▁Чарльз	-13452
▁Швеции	-13453
▁верблю	-13454
▁выгоду	-13455
▁выходя	-13456
▁голосу	-13457
▁забуду	-13458
▁загадо	-13459
▁застря	-13460
▁испыту	-13461
▁кривой	-13462
▁мембра	-13463
▁образа	-13464
▁прочих	-13465
▁спиной	-13466
▁ставит	-13467
▁студии	-13468
▁сферах	-13469
▁учится	-13470
▁Дарвина	-13471
▁Уровень	-13472
▁вершины	-13473
▁дизайну	-13474
▁длинный	-13475
▁исчезли	-13476
▁кардина	-13477
▁металла	-13478
▁налогов	-13479
▁неандер	-13480
▁неверно	-13481
▁подбира	-13482
▁позицию	-13483
▁рекламы	-13484
▁свободе	-13485
▁знаниями	-13486
▁искренне	-13487
▁ландшафт	-13488
▁напряжён	-13489
▁наследие	-13490
▁описание	-13491
▁показало	-13492
▁полезным	-13493
▁поражает	-13494
▁поразило	-13495
▁прогнозы	-13496
▁старения	-13497
▁участием	-13498
▁цифровых	-13499
▁эксперты	-13500
▁взгляните	-13501
▁оказывает	-13502
▁окружении	-13503
▁солнечных	-13504
▁стараются	-13505
▁художника	-13506
▁величайших	-13507
▁испытывают	-13508
▁недостаток	-13509
▁представим	-13510
▁рассказали	-13511
▁соединение	-13512
▁социальное	-13513
▁статистике	-13514
▁упражнения	-13515
▁гражданских	-13516
▁загрязнения	-13517
▁счастливыми	-13518
▁технических	-13519
▁определяется	-13520
▁пользовались	-13521
▁почувствовал	-13522
▁продолжаться	-13523
▁преобразовать	-13524
▁разрабатываем	-13525
▁распределения	-13526
▁следовательно	-13527
▁дополнительных	-13528
▁государственных	-13529
AS	-13530
бка	-13531
вка	-13532
жам	-13533
кза	-13534
рда	-13535
▁2.	-13536
▁37	-13537
▁De	-13538
▁II	-13539
▁МТ	-13540
▁Ши	-13541
▁Шо	-13542
▁ню	-13543
вида	-13544
вите	-13545
ганы	-13546
гите	-13547
лера	-13548
орди	-13549
пози	-13550
сайт	-13551
чила	-13552
▁Тим	-13553
▁гон	-13554
▁иро	-13555
▁поп	-13556
▁соу	-13557
▁сра	-13558
берга	-13559
дства	-13560
енную	-13561
етьте	-13562
зобра	-13563
лятор	-13564
ндеми	-13565
преки	-13566
ровке	-13567
ронта	-13568
сказу	-13569
чника	-13570
▁Кому	-13571
▁Музе	-13572
▁базе	-13573
▁видо	-13574
▁визи	-13575
▁диаб	-13576
▁маме	-13577
▁насо	-13578
▁обер	-13579
▁осна	-13580
▁седь	-13581
▁серы	-13582
▁скан	-13583
▁упал	-13584
англий	-13585
ваемый	-13586
кратце	-13587
муника	-13588
ненный	-13589
▁Самые	-13590
▁Скоро	-13591
▁Треть	-13592
▁Эндрю	-13593
▁бомбы	-13594
▁брата	-13595
▁влюби	-13596
▁дочер	-13597
▁защит	-13598
▁канал	-13599
▁конди	-13600
▁крыше	-13601
▁песок	-13602
▁полёт	-13603
▁промы	-13604
▁ролик	-13605
▁старе	-13606
▁строй	-13607
▁счета	-13608
▁фонда	-13609
▁чинов	-13610
произво	-13611
▁Гарвар	-13612
▁автома	-13613
▁близки	-13614
▁богаче	-13615
▁будьте	-13616
▁бумаге	-13617
▁доходы	-13618
▁живого	-13619
▁замкну	-13620
▁застре	-13621
▁контен	-13622
▁методи	-13623
▁нищеты	-13624
▁предви	-13625
▁родной	-13626
▁силами	-13627
▁сказав	-13628
▁съёмки	-13629
▁углево	-13630
▁умерли	-13631
▁чертов	-13632
▁чудови	-13633
▁Государ	-13634
▁Лондона	-13635
▁Хорошая	-13636
▁важными	-13637
▁голубой	-13638
▁границу	-13639
▁долгого	-13640
▁древние	-13641
▁живущие	-13642
▁захотят	-13643
▁зелёный	-13644
▁камерой	-13645
▁металли	-13646
▁отреаги	-13647
▁перенес	-13648
▁поближе	-13649
▁подошла	-13650
▁попрошу	-13651
▁разницы	-13652
▁солдаты	-13653
▁спутник	-13654
▁считала	-13655
▁уровнях	-13656
▁ученики	-13657
▁церковь	-13658
▁Извините	-13659
▁вынужден	-13660
▁глубокие	-13661
▁доступна	-13662
▁красивый	-13663
▁массовой	-13664
▁масштаби	-13665
▁метафора	-13666
▁молодёжи	-13667
▁немногие	-13668
▁поиграть	-13669
▁потратил	-13670
▁появятся	-13671
▁приносят	-13672
▁рабочего	-13673
▁расходов	-13674
▁регионах	-13675
▁сигналов	-13676
▁собирают	-13677
▁трагедии	-13678
▁узнавать	-13679
▁взволнова	-13680
▁заполнить	-13681
▁идеальный	-13682
▁известная	-13683
▁ингредиен	-13684
▁конфликты	-13685
▁накормить	-13686
▁открывать	-13687
▁переработ	-13688
▁платформу	-13689
▁поведении	-13690
▁повернуть	-13691
▁стараемся	-13692
▁удивлению	-13693
▁улучшение	-13694
▁уравнения	-13695
▁Послушайте	-13696
▁внутренней	-13697
▁глобальных	-13698
▁злоупотреб	-13699
▁континента	-13700
▁материалом	-13701
▁назначения	-13702
▁понравится	-13703
▁потепления	-13704
▁появляться	-13705
▁привлекает	-13706
▁размышлять	-13707
▁разрушения	-13708
▁лаборатория	-13709
▁невероятный	-13710
▁открывается	-13711
▁подчеркнуть	-13712
▁становиться	-13713
▁цивилизация	-13714
▁эффективнее	-13715
▁исчезновения	-13716
▁компьютерных	-13717
▁преступности	-13718
▁удивительная	-13719
▁человеческим	-13720
▁воспроизвести	-13721
▁использованию	-13722
▁экономическую	-13723
▁предприниматель	-13724
▁сосредоточиться	-13725
ky	-13726
ld	-13727
др	-13728
зг	-13729
дэн	-13730
мец	-13731
нус	-13732
рец	-13733
тик	-13734
уна	-13735
чую	-13736
шок	-13737
▁Хе	-13738
▁зи	-13739
▁йо	-13740
етра	-13741
кона	-13742
лине	-13743
нуло	-13744
нусь	-13745
стах	-13746
тику	-13747
▁Ден	-13748
▁Дис	-13749
▁Тре	-13750
▁выр	-13751
▁дар	-13752
▁чья	-13753
гнали	-13754
говые	-13755
дение	-13756
метро	-13757
много	-13758
сками	-13759
▁1999	-13760
▁Вьет	-13761
▁Дево	-13762
▁Тыся	-13763
▁адбы	-13764
▁бачы	-13765
▁выно	-13766
▁газо	-13767
▁дура	-13768
▁духа	-13769
▁жест	-13770
▁забе	-13771
▁изго	-13772
▁изли	-13773
▁коже	-13774
▁ложь	-13775
▁мыше	-13776
▁плён	-13777
▁скор	-13778
▁стул	-13779
▁твоё	-13780
▁угла	-13781
▁учит	-13782
▁хачу	-13783
ванную	-13784
вязыва	-13785
рождён	-13786
тности	-13787
ённого	-13788
▁Выгля	-13789
▁Новая	-13790
▁Снова	-13791
▁Специ	-13792
▁Танза	-13793
▁жыцця	-13794
▁лежат	-13795
▁монет	-13796
▁накло	-13797
▁нести	-13798
▁пиксе	-13799
▁питье	-13800
▁пшени	-13801
▁сзади	-13802
▁толщи	-13803
▁фраза	-13804
▁череп	-13805
▁шабло	-13806
экономи	-13807
▁Аристо	-13808
▁Всегда	-13809
▁Какова	-13810
▁Канады	-13811
▁Первые	-13812
▁баскет	-13813
▁беседу	-13814
▁возьми	-13815
▁дзяцей	-13816
▁долине	-13817
▁колони	-13818
▁латино	-13819
▁логоти	-13820
▁минера	-13821
▁нажать	-13822
▁нижней	-13823
▁огляды	-13824
▁оплачи	-13825
▁особое	-13826
▁печати	-13827
▁печени	-13828
▁поезда	-13829
▁полным	-13830
▁потерь	-13831
▁ранней	-13832
▁скепти	-13833
▁создаю	-13834
▁судьба	-13835
▁теряют	-13836
женность	-13837
▁Сингапу	-13838
▁астроно	-13839
▁вирусом	-13840
▁вовремя	-13841
▁добавил	-13842
▁муравья	-13843
▁мыслями	-13844
▁открыла	-13845
▁перелом	-13846
▁размере	-13847
▁страсти	-13848
▁третьем	-13849
английски	-13850
стический	-13851
▁вопросах	-13852
▁выбираем	-13853
▁добавили	-13854
▁замечать	-13855
▁измерять	-13856
▁исчезают	-13857
▁лидерами	-13858
▁медицина	-13859
▁образуют	-13860
▁объяснил	-13861
▁осознала	-13862
▁отличные	-13863
▁подсчита	-13864
▁помогали	-13865
▁приспосо	-13866
▁размаўля	-13867
▁сельской	-13868
▁серьезно	-13869
▁синхрони	-13870
▁собираем	-13871
▁сомнений	-13872
▁страница	-13873
▁финансов	-13874
▁четверть	-13875
▁Бангладеш	-13876
▁вовлечены	-13877
▁выполняют	-13878
▁галлюцина	-13879
▁головолом	-13880
▁концепцию	-13881
▁местополо	-13882
▁плотность	-13883
▁помещения	-13884
▁послушать	-13885
▁поступает	-13886
▁признание	-13887
▁принимали	-13888
▁проблемам	-13889
▁разворачи	-13890
▁рентгенов	-13891
▁сердечный	-13892
▁химиотера	-13893
▁Калифорния	-13894
▁выполнения	-13895
▁изменениям	-13896
▁крупнейших	-13897
▁математику	-13898
▁называются	-13899
▁получаются	-13900
▁продуктами	-13901
▁разглядеть	-13902
▁свободного	-13903
▁спрашивает	-13904
▁столкнулся	-13905
▁территория	-13906
▁африканских	-13907
▁виртуальной	-13908
▁внутреннего	-13909
▁голосования	-13910
▁изображении	-13911
▁отслеживать	-13912
▁сосредоточи	-13913
▁Единственное	-13914
▁естественной	-13915
▁игнорировать	-13916
▁организацией	-13917
▁преступление	-13918
▁человечеству	-13919
▁искусственный	-13920
▁национального	-13921
▁предоставляет	-13922
▁роботизирован	-13923
▁удовольствием	-13924
ET	-13925
Каи	-13926
ака	-13927
вне	-13928
йце	-13929
чеб	-13930
▁48	-13931
▁Gr	-13932
▁МВ	-13933
віта	-13934
гора	-13935
деся	-13936
дией	-13937
днев	-13938
енья	-13939
йдем	-13940
коль	-13941
лежа	-13942
свет	-13943
сеть	-13944
стье	-13945
хого	-13946
▁900	-13947
▁Ник	-13948
▁Рэй	-13949
▁Сво	-13950
▁Сла	-13951
▁Сли	-13952
▁Эль	-13953
▁ане	-13954
▁веж	-13955
▁поу	-13956
▁эру	-13957
ниями	-13958
плика	-13959
рагод	-13960
сится	-13961
▁2014	-13962
▁Грин	-13963
▁Груп	-13964
▁Дамы	-13965
▁Есте	-13966
▁Пале	-13967
▁Цент	-13968
▁гора	-13969
▁жену	-13970
▁лето	-13971
▁метр	-13972
▁миры	-13973
▁пачу	-13974
▁пища	-13975
▁скри	-13976
▁стрэ	-13977
▁ящик	-13978
жённых	-13979
летние	-13980
льники	-13981
ляются	-13982
нейший	-13983
следок	-13984
ёнными	-13985
▁Аркти	-13986
▁Браун	-13987
▁Гавай	-13988
▁гибри	-13989
▁глаго	-13990
▁завое	-13991
▁заклю	-13992
▁малыш	-13993
▁можам	-13994
▁нашых	-13995
▁некая	-13996
▁несёт	-13997
▁нигде	-13998
▁отрас	-13999
▁парка	-14000
▁проры	-14001
▁симфо	-14002
▁стола	-14003
▁танца	-14004
▁хвост	-14005
▁целой	-14006
исследо	-14007
ционную	-14008
▁Силико	-14009
▁Студен	-14010
▁Такого	-14011
▁братья	-14012
▁добира	-14013
▁живёте	-14014
▁запасы	-14015
▁изучая	-14016
▁личное	-14017
▁мечтал	-14018
▁объёма	-14019
▁отпуск	-14020
▁оценка	-14021
▁пенсию	-14022
▁прегра	-14023
▁словах	-14024
▁совета	-14025
▁стоить	-14026
▁тестов	-14027
▁штатов	-14028
зировали	-14029
тоспособ	-14030
▁Манхэтт	-14031
▁Попробу	-14032
▁автобус	-14033
▁встрече	-14034
▁выраста	-14035
▁выстраи	-14036
▁заметно	-14037
▁зеркало	-14038
▁многого	-14039
▁наверно	-14040
▁неподви	-14041
▁океанов	-14042
▁открыты	-14043
▁подходе	-14044
▁поймать	-14045
▁прилага	-14046
▁приступ	-14047
▁проводя	-14048
▁пропове	-14049
▁развали	-14050
▁самолет	-14051
▁средняя	-14052
▁хранили	-14053
▁центров	-14054
▁частные	-14055
▁взглядом	-14056
▁действию	-14057
▁достигла	-14058
▁инфекции	-14059
▁немножко	-14060
▁принципи	-14061
▁совершил	-14062
▁услышала	-14063
▁доброволь	-14064
▁компонент	-14065
▁конкретно	-14066
▁крошечные	-14067
▁недавнего	-14068
▁партнёров	-14069
▁посчитать	-14070
▁пытаетесь	-14071
▁рождаются	-14072
▁случалось	-14073
▁сохранять	-14074
▁учитывать	-14075
▁Калифорний	-14076
▁Паркинсона	-14077
▁библиотеки	-14078
▁благоприят	-14079
▁записывать	-14080
▁институтов	-14081
▁обращаться	-14082
▁правильные	-14083
▁продолжали	-14084
▁профилакти	-14085
▁работающие	-14086
▁распределя	-14087
▁финансовые	-14088
▁экспедиции	-14089
▁изменениями	-14090
▁конкретного	-14091
▁конструкции	-14092
▁многообрази	-14093
▁неандерталь	-14094
▁невероятным	-14095
▁непредсказу	-14096
▁последующие	-14097
▁республикан	-14098
▁террористов	-14099
▁впоследствии	-14100
▁всевозможные	-14101
▁использовала	-14102
▁контролирует	-14103
▁обеспечивают	-14104
▁полиомиелита	-14105
▁удивительным	-14106
▁эксперименте	-14107
▁Правительство	-14108
▁замечательных	-14109
▁государственной	-14110
40	-14111
ау	-14112
бл	-14113
ica	-14114
ine	-14115
ане	-14116
кал	-14117
лём	-14118
моў	-14119
рый	-14120
сцю	-14121
тль	-14122
▁38	-14123
▁ПТ	-14124
▁ер	-14125
▁яд	-14126
авто	-14127
бона	-14128
віць	-14129
куль	-14130
лудо	-14131
низм	-14132
ряют	-14133
сяза	-14134
тину	-14135
фаль	-14136
▁Com	-14137
▁Брю	-14138
▁Вла	-14139
▁Гей	-14140
▁Зак	-14141
▁аба	-14142
▁аду	-14143
▁вый	-14144
▁зов	-14145
▁изя	-14146
▁пья	-14147
▁сби	-14148
▁сце	-14149
▁ток	-14150
▁юно	-14151
дными	-14152
жаете	-14153
иться	-14154
ленде	-14155
товых	-14156
▁2013	-14157
▁Арту	-14158
▁Доро	-14159
▁Любо	-14160
▁Мура	-14161
▁Перу	-14162
▁Уолл	-14163
▁Фила	-14164
▁волю	-14165
▁груд	-14166
▁исте	-14167
▁огня	-14168
▁окре	-14169
▁пери	-14170
▁пеще	-14171
▁сере	-14172
▁спец	-14173
▁фору	-14174
▁ядра	-14175
ванным	-14176
грамму	-14177
женная	-14178
кратно	-14179
рующая	-14180
щались	-14181
▁Арген	-14182
▁Гарри	-14183
▁Глоба	-14184
▁Чарли	-14185
▁антен	-14186
▁врачу	-14187
▁вскры	-14188
▁гольф	-14189
▁горах	-14190
▁ждали	-14191
▁зимой	-14192
▁корзи	-14193
▁непол	-14194
▁отцов	-14195
▁перви	-14196
▁повод	-14197
▁покро	-14198
▁пошло	-14199
▁проли	-14200
▁свыше	-14201
▁серия	-14202
▁струн	-14203
▁сутки	-14204
▁темой	-14205
▁убежи	-14206
▁уметь	-14207
▁шагов	-14208
▁юмора	-14209
ational	-14210
работок	-14211
▁Матери	-14212
▁австра	-14213
▁аутизм	-14214
▁бонобо	-14215
▁военно	-14216
▁втором	-14217
▁выбран	-14218
▁вырашы	-14219
▁заявил	-14220
▁звонок	-14221
▁концер	-14222
▁короле	-14223
▁кошмар	-14224
▁медика	-14225
▁мелких	-14226
▁морали	-14227
▁обдумы	-14228
▁подзем	-14229
▁прочие	-14230
▁слепых	-14231
▁спрята	-14232
▁судьбы	-14233
▁точкой	-14234
▁тратит	-14235
▁фигуры	-14236
▁цилинд	-14237
▁чистая	-14238
▁чёрная	-14239
жительно	-14240
зируется	-14241
▁Ближнем	-14242
▁Понятно	-14243
▁Процесс	-14244
▁аспекты	-14245
▁глубину	-14246
▁голосом	-14247
▁зелёные	-14248
▁изменим	-14249
▁калорий	-14250
▁концерт	-14251
▁личного	-14252
▁мельчай	-14253
▁меньшин	-14254
▁мужчину	-14255
▁пандеми	-14256
▁парадок	-14257
▁полномо	-14258
▁разного	-14259
▁реформы	-14260
▁скажите	-14261
▁старших	-14262
▁Компании	-14263
▁Конгресс	-14264
▁амбициоз	-14265
▁беспомощ	-14266
▁быстрого	-14267
▁влиянием	-14268
▁глубокое	-14269
▁задавали	-14270
▁замечаем	-14271
▁ошеломля	-14272
▁передачу	-14273
▁перехода	-14274
▁поставил	-14275
▁преследу	-14276
▁приступа	-14277
▁простыми	-14278
▁самолёта	-14279
▁сапраўды	-14280
▁ядерного	-14281
▁вспомните	-14282
▁выживание	-14283
▁городских	-14284
▁двигаются	-14285
▁динозавры	-14286
▁директора	-14287
▁известной	-14288
▁квантовой	-14289
▁настоящую	-14290
▁наступает	-14291
▁очевидным	-14292
▁персонали	-14293
▁пингвинов	-14294
▁помещение	-14295
▁посчастли	-14296
▁изобразить	-14297
▁испытывать	-14298
▁называемых	-14299
▁особенного	-14300
▁открытость	-14301
▁сокращения	-14302
▁сопровожда	-14303
▁сотрудники	-14304
▁эффективны	-14305
▁Предположим	-14306
▁великолепно	-14307
▁встречается	-14308
▁любопытство	-14309
▁необходимым	-14310
▁повсеместно	-14311
▁эффективные	-14312
▁гражданского	-14313
▁предпочтения	-14314
▁производству	-14315
▁существующие	-14316
▁традиционные	-14317
▁устойчивости	-14318
▁экономически	-14319
▁биологические	-14320
▁электрические	-14321
▁справедливость	-14322
uc	-14323
іі	-14324
ect	-14325
ick	-14326
ано	-14327
ваи	-14328
сну	-14329
спа	-14330
уре	-14331
хай	-14332
цип	-14333
чин	-14334
шаю	-14335
▁Ge	-14336
▁ЛГ	-14337
▁Ух	-14338
бачы	-14339
бург	-14340
гані	-14341
имба	-14342
лкой	-14343
мага	-14344
риев	-14345
рока	-14346
стым	-14347
торе	-14348
форм	-14349
▁Wal	-14350
▁Wor	-14351
▁Зал	-14352
▁Обо	-14353
▁Пас	-14354
▁Шар	-14355
▁айс	-14356
▁аут	-14357
▁гам	-14358
▁отс	-14359
▁тая	-14360
▁усё	-14361
рений	-14362
споло	-14363
▁Life	-14364
▁Богу	-14365
▁Дела	-14366
▁Сиэт	-14367
▁вслу	-14368
▁выву	-14369
▁джен	-14370
▁зеле	-14371
▁исла	-14372
▁испу	-14373
▁коме	-14374
▁крах	-14375
▁муже	-14376
▁наду	-14377
▁нало	-14378
▁пика	-14379
▁поду	-14380
▁резю	-14381
▁ряда	-14382
▁снял	-14383
▁челю	-14384
▁шире	-14385
вилась	-14386
женное	-14387
несцен	-14388
▁Габби	-14389
▁Город	-14390
▁Дерек	-14391
▁Наука	-14392
▁Публи	-14393
▁адрес	-14394
▁белок	-14395
▁вмеши	-14396
▁второ	-14397
▁героя	-14398
▁главе	-14399
▁держи	-14400
▁джиха	-14401
▁дождя	-14402
▁марки	-14403
▁некое	-14404
▁опыту	-14405
▁особи	-14406
▁подав	-14407
▁полов	-14408
▁полон	-14409
▁столк	-14410
ванными	-14411
▁Абсолю	-14412
▁Возвра	-14413
▁Роберт	-14414
▁Сомали	-14415
▁Способ	-14416
▁бедным	-14417
▁ведаем	-14418
▁заморо	-14419
▁затруд	-14420
▁излуча	-14421
▁мелкие	-14422
▁микроб	-14423
▁настаи	-14424
▁незаме	-14425
▁охраны	-14426
▁правды	-14427
▁премию	-14428
▁придут	-14429
▁проток	-14430
▁севере	-14431
▁синдро	-14432
▁склада	-14433
▁соседи	-14434
▁ходила	-14435
▁числом	-14436
▁январе	-14437
тической	-14438
▁Королев	-14439
▁Природа	-14440
▁великим	-14441
▁вначале	-14442
▁вызвало	-14443
▁высокую	-14444
▁гравита	-14445
▁гісторы	-14446
▁датчики	-14447
▁дорогие	-14448
▁заходит	-14449
▁изучают	-14450
▁имеющих	-14451
▁настрой	-14452
▁обычная	-14453
▁периоди	-14454
▁попыток	-14455
▁похожих	-14456
▁приняла	-14457
▁провожу	-14458
▁рабочей	-14459
▁сектора	-14460
▁страхом	-14461
▁успехом	-14462
▁холодно	-14463
▁частных	-14464
▁биологию	-14465
▁выступал	-14466
▁движутся	-14467
▁деревнях	-14468
▁заметите	-14469
▁заставил	-14470
▁ключевой	-14471
▁основаны	-14472
▁поверьте	-14473
▁позволяя	-14474
▁покинуть	-14475
▁смотрела	-14476
▁снижения	-14477
▁уважения	-14478
▁учителем	-14479
▁Аудитория	-14480
▁аудитория	-14481
▁жизненный	-14482
▁институте	-14483
▁некоторой	-14484
▁отражение	-14485
▁платформы	-14486
▁повторять	-14487
▁поддержке	-14488
▁построена	-14489
▁проникает	-14490
▁процессом	-14491
▁случаются	-14492
▁сообществ	-14493
▁студентом	-14494
▁участвуют	-14495
▁Достаточно	-14496
▁Расскажите	-14497
▁Рассмотрим	-14498
▁захотелось	-14499
▁искусством	-14500
▁конкретной	-14501
▁миллионами	-14502
▁называемые	-14503
▁неизвестно	-14504
▁пользуется	-14505
▁предлагают	-14506
▁приобрести	-14507
▁разработал	-14508
▁согласился	-14509
▁содержания	-14510
▁транспорти	-14511
▁углекислый	-14512
▁художником	-14513
▁энергетики	-14514
▁достоинства	-14515
▁заслуживают	-14516
▁клинических	-14517
▁космический	-14518
▁перемещения	-14519
▁потрясающая	-14520
▁потрясающее	-14521
▁справляются	-14522
▁воспринимаем	-14523
▁воспринимают	-14524
▁естественный	-14525
▁медицинского	-14526
▁национальных	-14527
▁представляли	-14528
▁существовали	-14529
▁необязательно	-14530
▁предоставлять	-14531
PR	-14532
▁°	-14533
ive	-14534
бей	-14535
вис	-14536
гар	-14537
изм	-14538
муд	-14539
тью	-14540
чив	-14541
чих	-14542
шиф	-14543
юся	-14544
▁43	-14545
▁Хэ	-14546
▁пь	-14547
бота	-14548
гена	-14549
жало	-14550
мель	-14551
ндии	-14552
неди	-14553
орес	-14554
риал	-14555
рюсь	-14556
суди	-14557
тины	-14558
уров	-14559
физи	-14560
фоны	-14561
▁For	-14562
▁Sec	-14563
▁Кин	-14564
▁Кли	-14565
▁Клю	-14566
▁Лор	-14567
▁аро	-14568
▁аса	-14569
▁ган	-14570
▁глю	-14571
▁лжи	-14572
▁рем	-14573
▁соз	-14574
▁эра	-14575
▁яму	-14576
димся	-14577
насць	-14578
тился	-14579
▁Силь	-14580
▁Соци	-14581
▁Тебе	-14582
▁бота	-14583
▁волн	-14584
▁жени	-14585
▁зате	-14586
▁имен	-14587
▁кабе	-14588
▁лиши	-14589
▁маму	-14590
▁нера	-14591
▁ноты	-14592
▁поми	-14593
▁поце	-14594
▁расо	-14595
▁реке	-14596
▁саду	-14597
▁сала	-14598
▁снег	-14599
▁сози	-14600
▁стер	-14601
▁упор	-14602
▁факу	-14603
▁шлем	-14604
дельфи	-14605
ерогли	-14606
рующей	-14607
ционно	-14608
▁Здоро	-14609
▁Кевин	-14610
▁Пенси	-14611
▁Сирии	-14612
▁Совер	-14613
▁акулы	-14614
▁возвы	-14615
▁живым	-14616
▁играх	-14617
▁идёте	-14618
▁испор	-14619
▁канад	-14620
▁левом	-14621
▁прима	-14622
▁светя	-14623
▁сезон	-14624
▁сетью	-14625
▁стоим	-14626
▁субси	-14627
▁сферу	-14628
▁хакер	-14629
▁шутка	-14630
▁щедро	-14631
льников	-14632
▁Должен	-14633
▁Порази	-14634
▁Скажем	-14635
▁близне	-14636
▁будучы	-14637
▁вашими	-14638
▁возьму	-14639
▁заказа	-14640
▁количе	-14641
▁листья	-14642
▁литров	-14643
▁лошади	-14644
▁лошадь	-14645
▁любила	-14646
▁наряду	-14647
▁округе	-14648
▁опусто	-14649
▁особый	-14650
▁отреза	-14651
▁пешком	-14652
▁площад	-14653
▁популя	-14654
▁пороге	-14655
▁породы	-14656
▁почита	-14657
▁приста	-14658
▁рецепт	-14659
▁сидите	-14660
▁стекла	-14661
▁стояла	-14662
▁строго	-14663
▁увидев	-14664
▁удобно	-14665
▁устаре	-14666
▁фактом	-14667
▁хирург	-14668
▁чтения	-14669
▁чёрные	-14670
▁яблоко	-14671
простран	-14672
▁Зрители	-14673
▁больший	-14674
▁бюджета	-14675
▁верхнем	-14676
▁заключи	-14677
▁изобрёл	-14678
▁клинику	-14679
▁критери	-14680
▁кроется	-14681
▁материя	-14682
▁племена	-14683
▁поворот	-14684
▁послать	-14685
▁продаже	-14686
▁публике	-14687
▁размеру	-14688
▁раннего	-14689
▁секреты	-14690
▁сильной	-14691
▁убивать	-14692
▁условии	-14693
▁функцию	-14694
▁явлений	-14695
тического	-14696
▁Простите	-14697
▁аппараты	-14698
▁варианта	-14699
▁выставки	-14700
▁казаться	-14701
▁конститу	-14702
▁короткие	-14703
▁короткое	-14704
▁красивое	-14705
▁магистра	-14706
▁миллимет	-14707
▁мысленно	-14708
▁научного	-14709
▁невыноси	-14710
▁обращать	-14711
▁открытой	-14712
▁предстоя	-14713
▁эффектов	-14714
▁Вспомните	-14715
▁атмосфера	-14716
▁водоросли	-14717
▁возглавля	-14718
▁вселенную	-14719
▁встретили	-14720
▁городской	-14721
▁дипломати	-14722
▁доступные	-14723
▁заставили	-14724
▁лаборатор	-14725
▁намеренно	-14726
▁ненулевой	-14727
▁нуждаемся	-14728
▁отделение	-14729
▁понимаешь	-14730
▁последнем	-14731
▁пригласил	-14732
▁проверять	-14733
▁продолжим	-14734
▁солнечные	-14735
▁стандарты	-14736
▁танцевать	-14737
▁установки	-14738
▁философии	-14739
▁художники	-14740
▁оставалось	-14741
▁прекрасную	-14742
[...]
