<unk>	0
<s>	0
</s>	0
▁t	-0
▁th	-1
▁a	-2
in	-3
▁,	-4
▁w	-5
er	-6
▁the	-7
▁o	-8
▁.	-9
▁s	-10
at	-11
nd	-12
re	-13
ou	-14
▁&	-15
▁c	-16
is	-17
it	-18
▁b	-19
os	-20
en	-21
ing	-22
▁m	-23
▁h	-24
on	-25
▁to	-26
ap	-27
▁p	-28
es	-29
▁f	-30
an	-31
▁d	-32
▁of	-33
or	-34
apos	-35
ot	-36
al	-37
▁in	-38
▁I	-39
ed	-40
▁and	-41
▁l	-42
ar	-43
▁that	-44
▁y	-45
om	-46
▁g	-47
as	-48
ic	-49
le	-50
qu	-51
ve	-52
▁n	-53
▁you	-54
ll	-55
us	-56
▁wh	-57
▁A	-58
▁e	-59
ow	-60
ly	-61
▁is	-62
▁be	-63
ut	-64
▁we	-65
ion	-66
quot	-67
▁it	-68
ent	-69
et	-70
▁T	-71
▁re	-72
ere	-73
ct	-74
▁on	-75
ver	-76
ld	-77
gh	-78
ay	-79
id	-80
▁ha	-81
▁Th	-82
▁And	-83
im	-84
▁this	-85
ur	-86
▁S	-87
▁st	-88
ch	-89
ke	-90
ro	-91
ce	-92
ter	-93
▁for	-94
▁W	-95
if	-96
se	-97
▁was	-98
ir	-99
am	-100
▁an	-101
op	-102
▁are	-103
ith	-104
▁do	-105
ol	-106
th	-107
ally	-108
▁with	-109
▁have	-110
▁ab	-111
▁go	-112
▁u	-113
st	-114
▁se	-115
▁they	-116
ra	-117
▁li	-118
ri	-119
▁k	-120
▁can	-121
ation	-122
▁as	-123
▁B	-124
▁—	-125
out	-126
use	-127
ght	-128
▁com	-129
▁wor	-130
▁he	-131
ad	-132
▁what	-133
ould	-134
▁?	-135
▁me	-136
very	-137
▁So	-138
▁ne	-139
od	-140
▁at	-141
▁not	-142
▁sh	-143
▁about	-144
ill	-145
ant	-146
▁so	-147
ge	-148
il	-149
ul	-150
ore	-151
ust	-152
▁ex	-153
▁j	-154
▁The	-155
▁all	-156
ers	-157
est	-158
▁ch	-159
▁de	-160
▁som	-161
▁my	-162
ause	-163
▁pro	-164
▁fr	-165
▁or	-166
ear	-167
▁pe	-168
▁We	-169
um	-170
▁there	-171
art	-172
▁con	-173
ople	-174
ck	-175
ess	-176
▁like	-177
ig	-178
ate	-179
ure	-180
▁L	-181
ity	-182
▁It	-183
▁people	-184
▁N	-185
▁one	-186
ok	-187
▁from	-188
▁our	-189
ist	-190
▁lo	-191
ble	-192
▁)	-193
▁(	-194
▁kn	-195
ive	-196
▁but	-197
▁us	-198
▁ma	-199
ind	-200
▁bec	-201
▁M	-202
▁al	-203
rou	-204
ies	-205
un	-206
ect	-207
all	-208
▁:	-209
▁out	-210
▁H	-211
▁v	-212
▁te	-213
ink	-214
▁C	-215
▁just	-216
pl	-217
▁know	-218
ide	-219
▁But	-220
▁them	-221
▁sp	-222
▁thing	-223
her	-224
and	-225
▁see	-226
▁these	-227
ort	-228
▁if	-229
▁up	-230
▁who	-231
▁think	-232
▁very	-233
▁pl	-234
ci	-235
▁by	-236
▁get	-237
el	-238
▁Y	-239
ich	-240
one	-241
▁when	-242
▁r	-243
ain	-244
▁going	-245
▁1	-246
▁had	-247
▁more	-248
▁some	-249
▁act	-250
▁int	-251
▁because	-252
em	-253
▁year	-254
▁im	-255
ost	-256
og	-257
▁Wh	-258
▁your	-259
▁tim	-260
▁would	-261
▁tr	-262
au	-263
▁their	-264
ie	-265
ose	-266
▁were	-267
ine	-268
ment	-269
our	-270
▁sa	-271
ame	-272
nt	-273
▁O	-274
▁how	-275
▁which	-276
▁work	-277
▁su	-278
▁look	-279
ast	-280
ous	-281
▁want	-282
act	-283
iz	-284
ack	-285
▁really	-286
ually	-287
▁en	-288
ard	-289
▁E	-290
iv	-291
▁comp	-292
ight	-293
reat	-294
are	-295
augh	-296
ence	-297
▁way	-298
hing	-299
▁le	-300
ans	-301
▁time	-302
ag	-303
aughter	-304
ab	-305
▁world	-306
▁has	-307
ther	-308
▁ta	-309
▁then	-310
▁per	-311
ong	-312
▁P	-313
▁every	-314
▁D	-315
▁You	-316
▁Laughter	-317
▁ev	-318
ions	-319
res	-320
▁man	-321
▁This	-322
▁will	-323
▁here	-324
fer	-325
▁could	-326
▁into	-327
ace	-328
ild	-329
▁fe	-330
▁don	-331
▁G	-332
▁qu	-333
▁actually	-334
per	-335
pen	-336
ud	-337
▁years	-338
▁where	-339
▁say	-340
▁ag	-341
▁now	-342
age	-343
pp	-344
itt	-345
nder	-346
▁did	-347
▁F	-348
▁other	-349
▁things	-350
king	-351
▁Now	-352
▁In	-353
▁somet	-354
▁ri	-355
▁been	-356
ach	-357
ical	-358
ice	-359
00	-360
▁cl	-361
▁make	-362
▁any	-363
▁no	-364
▁need	-365
ff	-366
▁than	-367
▁un	-368
▁dif	-369
▁They	-370
pt	-371
▁hap	-372
▁2	-373
▁tw	-374
irst	-375
so	-376
▁part	-377
▁start	-378
▁dis	-379
ome	-380
▁over	-381
▁right	-382
ree	-383
ry	-384
▁R	-385
round	-386
ign	-387
▁bu	-388
own	-389
orm	-390
▁something	-391
▁said	-392
olog	-393
ite	-394
uch	-395
▁those	-396
ount	-397
ia	-398
ory	-399
▁chan	-400
▁pr	-401
▁back	-402
▁much	-403
ife	-404
▁co	-405
▁first	-406
▁ar	-407
▁call	-408
▁inter	-409
ac	-410
▁two	-411
▁imp	-412
▁differ	-413
▁mo	-414
ber	-415
▁new	-416
end	-417
ass	-418
sel	-419
▁also	-420
▁po	-421
▁kind	-422
ving	-423
▁got	-424
ound	-425
cent	-426
ple	-427
▁ro	-428
ire	-429
ater	-430
ult	-431
ves	-432
ittle	-433
ue	-434
▁ac	-435
▁little	-436
▁lot	-437
▁she	-438
way	-439
ppl	-440
▁cont	-441
▁tal	-442
ru	-443
▁most	-444
▁bet	-445
oss	-446
▁under	-447
▁des	-448
▁happen	-449
vel	-450
▁pre	-451
▁That	-452
▁even	-453
▁res	-454
ep	-455
ations	-456
able	-457
ated	-458
▁only	-459
▁ph	-460
ip	-461
▁life	-462
▁J	-463
▁his	-464
▁hum	-465
ody	-466
▁am	-467
▁day	-468
ec	-469
lo	-470
▁ad	-471
rain	-472
rough	-473
▁sy	-474
ell	-475
▁What	-476
▁her	-477
▁take	-478
▁many	-479
▁different	-480
pplause	-481
other	-482
▁comm	-483
▁Applause	-484
ase	-485
▁real	-486
▁fo	-487
ick	-488
ict	-489
du	-490
co	-491
ank	-492
▁around	-493
ish	-494
▁bo	-495
int	-496
▁good	-497
▁through	-498
▁ide	-499
▁U	-500
▁does	-501
ress	-502
cess	-503
▁There	-504
form	-505
ms	-506
ning	-507
ents	-508
▁♫	-509
▁down	-510
▁He	-511
ors	-512
▁put	-513
▁being	-514
ether	-515
▁sc	-516
▁tell	-517
als	-518
▁em	-519
▁gr	-520
ade	-521
ance	-522
igh	-523
▁show	-524
▁use	-525
ary	-526
▁same	-527
▁inc	-528
chn	-529
ens	-530
▁thou	-531
ak	-532
xt	-533
ars	-534
ject	-535
ark	-536
▁gen	-537
day	-538
▁may	-539
ful	-540
wn	-541
ons	-542
lect	-543
ved	-544
▁count	-545
▁proble	-546
▁sm	-547
stem	-548
▁fact	-549
ord	-550
ower	-551
▁come	-552
▁try	-553
▁techn	-554
ting	-555
be	-556
ric	-557
ath	-558
▁Well	-559
▁wr	-560
ys	-561
▁human	-562
ces	-563
▁If	-564
ang	-565
urn	-566
▁pers	-567
fter	-568
▁off	-569
ne	-570
▁find	-571
ile	-572
▁great	-573
▁doing	-574
ible	-575
▁big	-576
▁dec	-577
vers	-578
▁sur	-579
▁percent	-580
▁system	-581
ology	-582
▁talk	-583
▁three	-584
ically	-585
fore	-586
▁build	-587
▁tra	-588
▁;	-589
▁exper	-590
▁bl	-591
red	-592
▁Ch	-593
▁let	-594
thing	-595
▁child	-596
▁wom	-597
▁called	-598
▁inv	-599
ities	-600
self	-601
cial	-602
ib	-603
▁again	-604
▁quest	-605
ial	-606
▁well	-607
▁sim	-608
ition	-609
▁col	-610
▁stud	-611
▁rem	-612
▁made	-613
▁ra	-614
ious	-615
▁ind	-616
▁lear	-617
illion	-618
▁own	-619
▁long	-620
▁bel	-621
mer	-622
body	-623
▁after	-624
olut	-625
ren	-626
ual	-627
ating	-628
▁gu	-629
▁end	-630
ics	-631
we	-632
▁underst	-633
▁import	-634
▁hel	-635
▁cr	-636
▁St	-637
ub	-638
▁today	-639
ew	-640
▁change	-641
ates	-642
▁should	-643
▁K	-644
▁br	-645
▁why	-646
▁fl	-647
av	-648
▁design	-649
ty	-650
▁didn	-651
▁Thank	-652
▁ask	-653
▁rel	-654
▁person	-655
▁feel	-656
▁inst	-657
▁idea	-658
ize	-659
▁its	-660
gan	-661
▁ob	-662
▁important	-663
▁thought	-664
▁started	-665
▁trans	-666
ail	-667
▁high	-668
con	-669
tern	-670
ft	-671
▁creat	-672
ian	-673
▁help	-674
▁app	-675
▁last	-676
▁car	-677
▁ins	-678
he	-679
les	-680
▁understand	-681
000	-682
▁him	-683
▁sci	-684
▁brain	-685
ope	-686
▁exam	-687
▁3	-688
▁might	-689
▁mean	-690
▁cour	-691
▁better	-692
▁before	-693
▁bas	-694
cho	-695
▁spe	-696
▁never	-697
ily	-698
ull	-699
ists	-700
ility	-701
▁interest	-702
▁tog	-703
te	-704
▁together	-705
▁cons	-706
▁able	-707
ise	-708
▁turn	-709
ven	-710
▁ke	-711
und	-712
▁pol	-713
▁produ	-714
ular	-715
▁commun	-716
▁belie	-717
▁went	-718
▁fam	-719
ave	-720
▁problem	-721
,000	-722
▁few	-723
ob	-724
▁bit	-725
▁another	-726
▁power	-727
▁point	-728
chool	-729
ction	-730
▁story	-731
▁still	-732
▁play	-733
▁plan	-734
▁give	-735
▁ext	-736
ough	-737
▁found	-738
▁ent	-739
alth	-740
▁hand	-741
▁next	-742
ather	-743
▁ago	-744
▁course	-745
▁exp	-746
ph	-747
ited	-748
▁sl	-749
ert	-750
▁20	-751
▁kid	-752
kes	-753
▁imag	-754
erg	-755
gin	-756
ese	-757
▁came	-758
▁dat	-759
▁mon	-760
▁num	-761
old	-762
oth	-763
velop	-764
▁When	-765
▁rec	-766
ix	-767
▁mod	-768
▁19	-769
oc	-770
▁school	-771
▁place	-772
▁V	-773
ng	-774
▁ter	-775
▁used	-776
ized	-777
ness	-778
ience	-779
#9	-780
▁&#9	-781
▁learn	-782
▁pat	-783
▁each	-784
▁technology	-785
▁women	-786
iss	-787
ork	-788
ween	-789
▁sort	-790
▁att	-791
az	-792
▁art	-793
▁tri	-794
▁comple	-795
▁ser	-796
▁med	-797
▁question	-798
read	-799
ward	-800
▁develop	-801
ood	-802
▁di	-803
▁Af	-804
▁between	-805
pe	-806
uc	-807
ense	-808
meric	-809
▁data	-810
▁How	-811
atch	-812
▁water	-813
arch	-814
▁too	-815
▁10	-816
▁cell	-817
▁cre	-818
▁small	-819
▁fin	-820
▁old	-821
ways	-822
ures	-823
▁grow	-824
▁gra	-825
ets	-826
▁comput	-827
▁met	-828
ific	-829
▁example	-830
cond	-831
ings	-832
formation	-833
ced	-834
cept	-835
▁love	-836
▁eff	-837
ram	-838
▁care	-839
▁far	-840
▁Americ	-841
▁mom	-842
▁str	-843
ism	-844
▁done	-845
▁cent	-846
▁read	-847
▁looking	-848
ger	-849
▁word	-850
ative	-851
▁partic	-852
▁wanted	-853
▁expl	-854
riend	-855
▁chang	-856
▁live	-857
ational	-858
▁four	-859
ah	-860
▁ever	-861
▁doesn	-862
▁Bec	-863
ond	-864
cy	-865
▁Because	-866
ably	-867
ubl	-868
▁second	-869
▁min	-870
▁rep	-871
▁move	-872
ments	-873
selves	-874
▁bi	-875
▁hard	-876
conom	-877
aph	-878
▁children	-879
ale	-880
▁beh	-881
▁whole	-882
▁ed	-883
olution	-884
▁Un	-885
▁always	-886
▁away	-887
▁reas	-888
cer	-889
▁cap	-890
aw	-891
▁nat	-892
▁trying	-893
▁giv	-894
▁ear	-895
▁5	-896
iness	-897
▁poss	-898
oney	-899
▁less	-900
▁Afric	-901
▁lar	-902
ands	-903
▁health	-904
▁econom	-905
▁believe	-906
▁gener	-907
▁working	-908
ks	-909
▁million	-910
▁light	-911
atter	-912
▁using	-913
ries	-914
ruct	-915
▁resp	-916
▁country	-917
▁sk	-918
vern	-919
▁friend	-920
▁organ	-921
li	-922
▁open	-923
▁stu	-924
▁As	-925
▁information	-926
▁el	-927
ital	-928
hip	-929
▁uni	-930
▁means	-931
▁book	-932
nect	-933
▁bus	-934
ural	-935
▁!	-936
▁compan	-937
▁home	-938
usic	-939
ten	-940
▁sub	-941
▁thinking	-942
▁lead	-943
▁prot	-944
▁4	-945
ident	-946
▁publ	-947
▁maybe	-948
▁vis	-949
▁cor	-950
▁project	-951
▁create	-952
pport	-953
ont	-954
▁space	-955
▁money	-956
air	-957
▁process	-958
ird	-959
▁run	-960
▁acc	-961
led	-962
▁pict	-963
▁took	-964
▁govern	-965
▁prog	-966
▁everything	-967
its	-968
▁fut	-969
ract	-970
aut	-971
▁become	-972
ines	-973
▁reg	-974
wh	-975
▁mind	-976
ues	-977
▁wal	-978
▁cou	-979
▁inf	-980
▁spec	-981
aces	-982
▁anim	-983
▁kids	-984
gg	-985
roup	-986
▁number	-987
▁My	-988
▁elect	-989
▁sing	-990
ories	-991
▁future	-992
▁enough	-993
▁One	-994
alf	-995
▁sol	-996
▁prob	-997
oy	-998
ied	-999
▁doll	-1000
▁five	-1001
▁No	-1002
▁eng	-1003
iron	-1004
▁cle	-1005
▁head	-1006
▁month	-1007
▁best	-1008
▁dem	-1009
▁energ	-1010
▁group	-1011
iew	-1012
bal	-1013
ever	-1014
▁form	-1015
▁dri	-1016
ouse	-1017
sw	-1018
▁left	-1019
▁She	-1020
▁glo	-1021
ention	-1022
ety	-1023
▁times	-1024
▁making	-1025
ember	-1026
iting	-1027
ts	-1028
▁social	-1029
▁comes	-1030
▁pret	-1031
ices	-1032
▁set	-1033
▁pres	-1034
▁wo	-1035
▁without	-1036
▁getting	-1037
▁war	-1038
▁quite	-1039
▁body	-1040
▁These	-1041
▁food	-1042
▁connect	-1043
▁answ	-1044
▁cur	-1045
▁happened	-1046
ake	-1047
▁sense	-1048
▁teach	-1049
▁Ind	-1050
▁energy	-1051
▁interesting	-1052
▁begin	-1053
ner	-1054
▁add	-1055
ross	-1056
▁pass	-1057
▁lives	-1058
imes	-1059
▁fun	-1060
▁job	-1061
▁young	-1062
imate	-1063
▁talking	-1064
▁room	-1065
▁building	-1066
▁For	-1067
der	-1068
▁countries	-1069
▁sign	-1070
▁Let	-1071
▁told	-1072
aps	-1073
▁probably	-1074
▁hist	-1075
▁soci	-1076
▁wee	-1077
ertain	-1078
▁moment	-1079
▁def	-1080
▁keep	-1081
reen	-1082
▁sound	-1083
▁pie	-1084
▁men	-1085
irl	-1086
▁mark	-1087
▁beaut	-1088
ead	-1089
▁phys	-1090
▁coming	-1091
▁across	-1092
▁contro	-1093
▁pretty	-1094
▁env	-1095
▁matter	-1096
▁allow	-1097
▁cho	-1098
▁dist	-1099
▁family	-1100
▁stuff	-1101
arth	-1102
▁half	-1103
▁pop	-1104
rib	-1105
▁wonder	-1106
▁Is	-1107
uring	-1108
▁val	-1109
cus	-1110
▁aut	-1111
▁such	-1112
▁stop	-1113
▁dep	-1114
▁New	-1115
▁anything	-1116
▁reason	-1117
▁dollars	-1118
▁Here	-1119
▁saw	-1120
most	-1121
▁side	-1122
▁model	-1123
ient	-1124
ality	-1125
▁An	-1126
▁hope	-1127
▁Why	-1128
▁rese	-1129
▁asked	-1130
ideo	-1131
ream	-1132
ying	-1133
▁else	-1134
▁experience	-1135
ided	-1136
▁det	-1137
▁share	-1138
▁having	-1139
▁environ	-1140
ogr	-1141
▁educ	-1142
▁stand	-1143
▁eas	-1144
▁bring	-1145
ince	-1146
▁ways	-1147
allen	-1148
▁Africa	-1149
rop	-1150
▁blo	-1151
▁business	-1152
▁fore	-1153
▁makes	-1154
▁scient	-1155
arent	-1156
▁simple	-1157
ization	-1158
idd	-1159
▁mem	-1160
▁living	-1161
▁science	-1162
▁cam	-1163
▁ty	-1164
▁200	-1165
▁conf	-1166
▁Earth	-1167
▁All	-1168
gs	-1169
▁ey	-1170
iter	-1171
▁hour	-1172
▁polit	-1173
▁top	-1174
work	-1175
▁air	-1176
▁cult	-1177
▁days	-1178
▁public	-1179
ote	-1180
▁particular	-1181
▁research	-1182
ime	-1183
▁seen	-1184
verse	-1185
ters	-1186
▁dise	-1187
▁later	-1188
▁case	-1189
▁global	-1190
▁remember	-1191
▁mach	-1192
▁effect	-1193
▁fig	-1194
▁list	-1195
▁happens	-1196
▁amaz	-1197
▁phot	-1198
▁while	-1199
▁computer	-1200
ences	-1201
▁answer	-1202
lf	-1203
where	-1204
ants	-1205
ute	-1206
▁complete	-1207
pr	-1208
▁bad	-1209
▁equ	-1210
llow	-1211
▁single	-1212
med	-1213
orn	-1214
▁planet	-1215
▁happ	-1216
▁thous	-1217
▁almost	-1218
▁inside	-1219
kay	-1220
▁says	-1221
ash	-1222
io	-1223
▁picture	-1224
ots	-1225
▁challen	-1226
▁often	-1227
ready	-1228
no	-1229
ilt	-1230
less	-1231
cover	-1232
▁sure	-1233
▁suc	-1234
▁community	-1235
▁sit	-1236
▁goes	-1237
▁billion	-1238
▁prof	-1239
ef	-1240
man	-1241
▁city	-1242
▁hear	-1243
▁char	-1244
ook	-1245
▁someone	-1246
pect	-1247
▁pain	-1248
▁test	-1249
▁ass	-1250
▁level	-1251
▁age	-1252
ape	-1253
ograph	-1254
▁saying	-1255
row	-1256
uge	-1257
▁contin	-1258
▁already	-1259
▁loc	-1260
▁cells	-1261
▁environment	-1262
▁nothing	-1263
▁problems	-1264
▁amazing	-1265
ott	-1266
▁girl	-1267
▁watch	-1268
osed	-1269
▁self	-1270
▁possible	-1271
▁yet	-1272
ulation	-1273
▁bre	-1274
ivid	-1275
▁looked	-1276
▁6	-1277
▁gl	-1278
▁program	-1279
▁six	-1280
▁both	-1281
▁months	-1282
ases	-1283
▁exc	-1284
unch	-1285
ken	-1286
▁product	-1287
▁par	-1288
ately	-1289
ury	-1290
ange	-1291
▁unt	-1292
angu	-1293
▁rest	-1294
▁myself	-1295
▁whether	-1296
1;	-1297
▁&#91;	-1298
▁sw	-1299
3;	-1300
▁&#93;	-1301
▁Al	-1302
▁exact	-1303
▁dev	-1304
▁lab	-1305
▁treat	-1306
▁history	-1307
▁mor	-1308
▁certain	-1309
▁government	-1310
▁order	-1311
ield	-1312
▁9	-1313
▁heart	-1314
▁cost	-1315
▁wrong	-1316
rem	-1317
▁dire	-1318
▁once	-1319
up	-1320
▁wa	-1321
▁Chin	-1322
▁beautif	-1323
ely	-1324
▁music	-1325
▁iss	-1326
▁within	-1327
undred	-1328
▁mag	-1329
▁face	-1330
▁night	-1331
ron	-1332
▁fund	-1333
▁30	-1334
ee	-1335
▁langu	-1336
▁adv	-1337
▁pri	-1338
▁sec	-1339
itive	-1340
ins	-1341
▁ideas	-1342
▁mil	-1343
side	-1344
▁aff	-1345
bers	-1346
▁imagine	-1347
▁15	-1348
ages	-1349
▁Intern	-1350
ling	-1351
▁incred	-1352
▁Do	-1353
▁United	-1354
▁mater	-1355
▁heard	-1356
▁rob	-1357
▁looks	-1358
▁entire	-1359
▁control	-1360
▁basically	-1361
▁friends	-1362
▁hundred	-1363
▁ris	-1364
ush	-1365
▁net	-1366
▁large	-1367
▁individ	-1368
▁walk	-1369
▁words	-1370
▁che	-1371
ivity	-1372
▁incre	-1373
ED	-1374
▁ref	-1375
▁news	-1376
▁50	-1377
ider	-1378
▁works	-1379
▁pay	-1380
▁result	-1381
▁wasn	-1382
▁built	-1383
▁kill	-1384
▁const	-1385
app	-1386
▁true	-1387
▁figure	-1388
ior	-1389
ier	-1390
▁past	-1391
▁class	-1392
▁100	-1393
▁beautiful	-1394
▁guy	-1395
▁fil	-1396
▁cond	-1397
▁vir	-1398
▁Or	-1399
▁until	-1400
uck	-1401
ired	-1402
▁cancer	-1403
▁full	-1404
▁ret	-1405
▁7	-1406
▁piece	-1407
▁object	-1408
cing	-1409
▁though	-1410
▁must	-1411
▁follow	-1412
get	-1413
etic	-1414
▁trad	-1415
cle	-1416
▁On	-1417
▁collect	-1418
atic	-1419
▁places	-1420
omes	-1421
▁isn	-1422
▁tool	-1423
iddle	-1424
ret	-1425
▁..	-1426
ex	-1427
aster	-1428
▁knew	-1429
▁decided	-1430
▁...	-1431
ional	-1432
ined	-1433
▁name	-1434
▁stories	-1435
▁learned	-1436
ians	-1437
utes	-1438
vious	-1439
aper	-1440
▁law	-1441
▁spend	-1442
▁became	-1443
▁education	-1444
ental	-1445
▁woman	-1446
plic	-1447
to	-1448
eah	-1449
▁Fr	-1450
▁States	-1451
▁Every	-1452
▁invest	-1453
▁success	-1454
ware	-1455
▁abs	-1456
▁mar	-1457
▁state	-1458
▁experim	-1459
▁study	-1460
▁land	-1461
▁line	-1462
▁couple	-1463
▁parent	-1464
▁species	-1465
▁view	-1466
▁8	-1467
▁front	-1468
bs	-1469
▁completely	-1470
outh	-1471
▁pos	-1472
▁Internet	-1473
▁quick	-1474
▁taking	-1475
▁society	-1476
▁z	-1477
▁discover	-1478
acter	-1479
▁video	-1480
▁At	-1481
land	-1482
▁dru	-1483
▁train	-1484
▁TED	-1485
▁diff	-1486
▁nature	-1487
▁engine	-1488
▁exactly	-1489
ogn	-1490
▁happening	-1491
▁struct	-1492
ared	-1493
▁team	-1494
ision	-1495
▁free	-1496
▁black	-1497
▁against	-1498
nov	-1499
▁disease	-1500
▁av	-1501
▁themselves	-1502
▁itself	-1503
icult	-1504
▁since	-1505
▁ourselves	-1506
▁Can	-1507
▁company	-1508
▁questions	-1509
▁relations	-1510
dd	-1511
▁sometimes	-1512
▁meas	-1513
▁house	-1514
▁America	-1515
line	-1516
▁mess	-1517
ats	-1518
▁language	-1519
▁mic	-1520
▁clear	-1521
ock	-1522
omet	-1523
thers	-1524
ral	-1525
▁huge	-1526
▁mother	-1527
▁everybody	-1528
▁gets	-1529
gest	-1530
ctor	-1531
▁deal	-1532
pportun	-1533
ished	-1534
▁dra	-1535
lud	-1536
▁hours	-1537
▁market	-1538
▁along	-1539
▁kinds	-1540
ability	-1541
▁opportun	-1542
▁ones	-1543
▁animals	-1544
▁Go	-1545
ones	-1546
▁somebody	-1547
▁cra	-1548
▁colle	-1549
▁close	-1550
▁rather	-1551
ane	-1552
itting	-1553
versity	-1554
▁created	-1555
▁difficult	-1556
▁meet	-1557
ives	-1558
▁instead	-1559
▁prov	-1560
ming	-1561
▁exist	-1562
▁worked	-1563
▁rad	-1564
aking	-1565
▁complex	-1566
▁appro	-1567
▁behav	-1568
▁everyone	-1569
▁supp	-1570
▁arch	-1571
▁others	-1572
▁hold	-1573
▁protect	-1574
haps	-1575
ature	-1576
▁mass	-1577
▁liter	-1578
ump	-1579
▁couldn	-1580
br	-1581
▁speak	-1582
sy	-1583
ator	-1584
▁universe	-1585
▁sex	-1586
ential	-1587
fort	-1588
▁thousands	-1589
▁jour	-1590
▁red	-1591
▁network	-1592
▁oce	-1593
face	-1594
▁innov	-1595
▁listen	-1596
▁Eur	-1597
ients	-1598
▁pred	-1599
▁indust	-1600
▁learning	-1601
▁vo	-1602
▁God	-1603
▁York	-1604
ames	-1605
▁students	-1606
▁Some	-1607
▁least	-1608
ples	-1609
istic	-1610
▁recent	-1611
iol	-1612
▁cir	-1613
▁coll	-1614
ption	-1615
▁wind	-1616
▁Oh	-1617
illions	-1618
▁relationship	-1619
ted	-1620
▁dig	-1621
▁neur	-1622
▁field	-1623
cc	-1624
▁ca	-1625
▁var	-1626
▁turns	-1627
▁expect	-1628
▁systems	-1629
▁Okay	-1630
▁deep	-1631
▁focus	-1632
ased	-1633
ination	-1634
urs	-1635
wards	-1636
▁early	-1637
▁’	-1638
▁India	-1639
▁pot	-1640
▁record	-1641
▁fly	-1642
ially	-1643
▁miss	-1644
▁amount	-1645
▁gave	-1646
erv	-1647
▁Ar	-1648
▁ve	-1649
ented	-1650
▁Pe	-1651
ibly	-1652
▁step	-1653
▁minutes	-1654
▁bro	-1655
▁fail	-1656
▁death	-1657
▁extra	-1658
▁taken	-1659
▁Then	-1660
▁mot	-1661
▁norm	-1662
▁middle	-1663
▁lots	-1664
ological	-1665
▁machine	-1666
▁third	-1667
▁Be	-1668
▁cut	-1669
aring	-1670
▁ele	-1671
▁Br	-1672
ides	-1673
▁aud	-1674
▁won	-1675
▁outside	-1676
▁bott	-1677
▁changed	-1678
▁es	-1679
▁communic	-1680
▁rev	-1681
▁oper	-1682
▁seeing	-1683
▁companies	-1684
▁To	-1685
ither	-1686
▁leg	-1687
▁beginning	-1688
not	-1689
▁reality	-1690
▁support	-1691
▁Sh	-1692
▁math	-1693
▁sens	-1694
cul	-1695
▁culture	-1696
rew	-1697
▁OK	-1698
▁serv	-1699
▁dream	-1700
▁access	-1701
▁stre	-1702
▁natural	-1703
els	-1704
▁cities	-1705
jor	-1706
olved	-1707
ges	-1708
▁ant	-1709
▁bab	-1710
▁Europe	-1711
▁ident	-1712
▁interact	-1713
inary	-1714
▁difference	-1715
fect	-1716
▁Man	-1717
▁common	-1718
▁century	-1719
▁reach	-1720
▁super	-1721
▁takes	-1722
▁behind	-1723
▁tre	-1724
ror	-1725
cious	-1726
elt	-1727
▁parents	-1728
itut	-1729
▁typ	-1730
▁lim	-1731
▁given	-1732
▁leave	-1733
▁Not	-1734
▁hands	-1735
▁needed	-1736
orth	-1737
▁happy	-1738
ully	-1739
▁eyes	-1740
▁pick	-1741
itions	-1742
▁American	-1743
▁finally	-1744
ency	-1745
▁hy	-1746
ode	-1747
▁grand	-1748
▁explain	-1749
▁fear	-1750
▁fre	-1751
▁stay	-1752
▁began	-1753
▁needs	-1754
▁short	-1755
▁sym	-1756
▁turned	-1757
era	-1758
ney	-1759
▁ess	-1760
osp	-1761
▁flo	-1762
▁easy	-1763
▁sent	-1764
▁perhaps	-1765
▁local	-1766
hood	-1767
verage	-1768
▁major	-1769
▁low	-1770
▁viol	-1771
▁guys	-1772
▁press	-1773
▁includ	-1774
▁green	-1775
▁parts	-1776
▁phone	-1777
NA	-1778
ove	-1779
▁during	-1780
▁image	-1781
▁terms	-1782
ply	-1783
▁extrem	-1784
▁seven	-1785
▁perform	-1786
▁saf	-1787
▁pattern	-1788
▁realized	-1789
▁longer	-1790
▁behavior	-1791
▁population	-1792
▁area	-1793
ium	-1794
▁famil	-1795
year	-1796
itect	-1797
▁moving	-1798
▁recogn	-1799
▁♪	-1800
▁40	-1801
▁impro	-1802
bo	-1803
▁surv	-1804
ering	-1805
▁priv	-1806
▁non	-1807
itch	-1808
▁week	-1809
▁la	-1810
▁China	-1811
▁powerful	-1812
▁yourself	-1813
▁simply	-1814
▁dr	-1815
ised	-1816
▁break	-1817
▁surpr	-1818
▁felt	-1819
▁send	-1820
▁cannot	-1821
erm	-1822
▁enc	-1823
▁travel	-1824
oh	-1825
▁personal	-1826
astic	-1827
▁approach	-1828
▁chem	-1829
idence	-1830
▁wonderful	-1831
eg	-1832
▁special	-1833
▁political	-1834
ged	-1835
▁ben	-1836
▁tem	-1837
▁absolut	-1838
ource	-1839
▁economic	-1840
▁occ	-1841
▁ge	-1842
▁bri	-1843
att	-1844
port	-1845
ony	-1846
▁requ	-1847
▁size	-1848
ison	-1849
▁Eng	-1850
▁ill	-1851
▁emot	-1852
▁humans	-1853
▁mult	-1854
anger	-1855
▁strong	-1856
▁perfect	-1857
▁12	-1858
▁measure	-1859
ern	-1860
rought	-1861
▁media	-1862
▁jo	-1863
▁democ	-1864
▁repres	-1865
▁emb	-1866
▁Just	-1867
▁desc	-1868
▁event	-1869
acy	-1870
▁Our	-1871
▁lost	-1872
▁risk	-1873
▁known	-1874
▁ground	-1875
que	-1876
ev	-1877
▁ori	-1878
ising	-1879
▁pract	-1880
▁growth	-1881
▁scale	-1882
▁ability	-1883
▁quickly	-1884
ilar	-1885
lease	-1886
▁architect	-1887
▁People	-1888
rodu	-1889
▁poor	-1890
▁father	-1891
▁challenge	-1892
▁key	-1893
▁tot	-1894
▁spent	-1895
ton	-1896
▁gone	-1897
avor	-1898
fully	-1899
▁near	-1900
bor	-1901
▁yes	-1902
amp	-1903
cks	-1904
▁Chr	-1905
ively	-1906
▁feed	-1907
▁game	-1908
ources	-1909
▁fight	-1910
sych	-1911
▁mov	-1912
ibility	-1913
▁direct	-1914
▁sun	-1915
▁fall	-1916
izing	-1917
▁blood	-1918
▁tried	-1919
▁obvious	-1920
▁leaders	-1921
▁whatever	-1922
▁eight	-1923
▁paper	-1924
▁changes	-1925
▁18	-1926
▁weeks	-1927
▁Yeah	-1928
▁blue	-1929
▁obs	-1930
ologies	-1931
▁opportunity	-1932
▁civ	-1933
▁har	-1934
▁wall	-1935
▁ocean	-1936
▁May	-1937
▁buy	-1938
ledge	-1939
▁respons	-1940
▁consider	-1941
uth	-1942
ards	-1943
▁convers	-1944
▁predict	-1945
rent	-1946
▁Tw	-1947
▁Yes	-1948
▁neigh	-1949
▁born	-1950
▁caus	-1951
▁dark	-1952
▁climate	-1953
urb	-1954
cially	-1955
▁intern	-1956
▁impact	-1957
▁present	-1958
▁interested	-1959
▁Music	-1960
▁consum	-1961
▁sitting	-1962
oph	-1963
▁cy	-1964
ouch	-1965
room	-1966
iny	-1967
▁Right	-1968
▁ap	-1969
▁CA	-1970
ellig	-1971
▁relig	-1972
▁economy	-1973
▁physical	-1974
lt	-1975
arr	-1976
▁oil	-1977
▁surface	-1978
ift	-1979
ax	-1980
oun	-1981
▁DNA	-1982
▁value	-1983
▁insp	-1984
▁patients	-1985
▁conv	-1986
▁fast	-1987
▁based	-1988
aught	-1989
▁psych	-1990
rand	-1991
▁alone	-1992
▁cal	-1993
▁dest	-1994
▁medic	-1995
▁material	-1996
▁fish	-1997
▁write	-1998
ains	-1999
▁wouldn	-2000
▁white	-2001
ression	-2002
▁either	-2003
▁structure	-2004
ze	-2005
com	-2006
gen	-2007
▁sum	-2008
▁trust	-2009
ateg	-2010
▁understanding	-2011
▁situ	-2012
ole	-2013
▁shows	-2014
▁evolution	-2015
ler	-2016
▁die	-2017
ators	-2018
▁telling	-2019
lish	-2020
▁micro	-2021
▁fundam	-2022
▁experi	-2023
▁numbers	-2024
▁hundreds	-2025
▁morning	-2026
▁anal	-2027
▁slow	-2028
▁vers	-2029
entially	-2030
ried	-2031
▁cool	-2032
▁scientists	-2033
cum	-2034
▁growing	-2035
▁experiment	-2036
▁individual	-2037
zy	-2038
orld	-2039
▁imm	-2040
▁average	-2041
▁photograph	-2042
▁technologies	-2043
of	-2044
▁comb	-2045
▁books	-2046
▁brought	-2047
▁box	-2048
bon	-2049
▁camp	-2050
▁areas	-2051
▁forest	-2052
aged	-2053
▁voice	-2054
▁institut	-2055
▁bar	-2056
▁opt	-2057
▁squ	-2058
ified	-2059
▁incredible	-2060
ike	-2061
ule	-2062
ored	-2063
▁eat	-2064
▁giving	-2065
▁prin	-2066
▁fac	-2067
▁feet	-2068
ext	-2069
ustain	-2070
▁robot	-2071
▁literally	-2072
ades	-2073
▁pur	-2074
▁feeling	-2075
▁realize	-2076
▁arg	-2077
▁win	-2078
▁developed	-2079
▁color	-2080
▁road	-2081
chie	-2082
ploy	-2083
▁foot	-2084
▁plant	-2085
▁seems	-2086
▁25	-2087
▁tools	-2088
▁millions	-2089
dden	-2090
ills	-2091
▁text	-2092
▁profess	-2093
cl	-2094
▁path	-2095
▁images	-2096
▁sudden	-2097
▁attention	-2098
ows	-2099
vent	-2100
▁draw	-2101
▁hor	-2102
▁sil	-2103
▁Z	-2104
▁deg	-2105
▁favor	-2106
ilities	-2107
▁similar	-2108
▁ste	-2109
▁vol	-2110
▁pull	-2111
▁bottom	-2112
▁polic	-2113
oud	-2114
▁60	-2115
▁film	-2116
ned	-2117
par	-2118
ials	-2119
ribut	-2120
▁nice	-2121
▁prom	-2122
▁electric	-2123
▁intellig	-2124
eed	-2125
▁tradition	-2126
▁miles	-2127
▁cars	-2128
▁animal	-2129
▁movement	-2130
ero	-2131
por	-2132
▁starting	-2133
▁development	-2134
▁201	-2135
▁crit	-2136
ging	-2137
▁ball	-2138
▁issue	-2139
▁worth	-2140
bit	-2141
chan	-2142
▁redu	-2143
▁soft	-2144
▁compet	-2145
ug	-2146
▁hosp	-2147
▁wrote	-2148
▁knowledge	-2149
ery	-2150
amed	-2151
▁soon	-2152
▁civil	-2153
▁forward	-2154
rad	-2155
ration	-2156
▁deli	-2157
▁spread	-2158
▁avail	-2159
▁est	-2160
▁ice	-2161
▁affect	-2162
▁serious	-2163
▁appl	-2164
▁truth	-2165
▁mole	-2166
▁touch	-2167
▁origin	-2168
lu	-2169
▁rul	-2170
▁center	-2171
ny	-2172
ung	-2173
▁11	-2174
▁lif	-2175
▁With	-2176
▁digital	-2177
iant	-2178
▁Sp	-2179
▁achie	-2180
pecially	-2181
▁guess	-2182
▁solve	-2183
▁absolutely	-2184
▁discovered	-2185
▁current	-2186
▁gives	-2187
▁depend	-2188
▁recently	-2189
▁hot	-2190
▁main	-2191
▁World	-2192
▁attack	-2193
▁running	-2194
iod	-2195
lev	-2196
▁hon	-2197
ances	-2198
light	-2199
urity	-2200
▁rate	-2201
▁changing	-2202
▁creating	-2203
sh	-2204
▁dead	-2205
▁thank	-2206
▁anyone	-2207
▁solution	-2208
▁fem	-2209
▁among	-2210
▁capital	-2211
▁tend	-2212
▁emerg	-2213
▁proper	-2214
▁stage	-2215
▁produce	-2216
▁subject	-2217
▁computers	-2218
ify	-2219
▁Am	-2220
▁vill	-2221
▁likely	-2222
▁sustain	-2223
uals	-2224
▁smart	-2225
▁industry	-2226
▁auth	-2227
▁asking	-2228
▁concept	-2229
eng	-2230
asing	-2231
▁react	-2232
ites	-2233
▁girls	-2234
▁designed	-2235
▁By	-2236
▁benef	-2237
▁chance	-2238
▁developing	-2239
▁sea	-2240
assion	-2241
▁normal	-2242
▁transform	-2243
ai	-2244
ma	-2245
apt	-2246
asc	-2247
▁clos	-2248
▁groups	-2249
▁audience	-2250
rum	-2251
▁dou	-2252
▁tiny	-2253
ipp	-2254
ggest	-2255
▁South	-2256
by	-2257
oid	-2258
itiz	-2259
▁eye	-2260
▁opp	-2261
▁available	-2262
omen	-2263
▁carbon	-2264
▁meaning	-2265
▁post	-2266
▁medical	-2267
▁suggest	-2268
▁arm	-2269
ister	-2270
▁putting	-2271
▁reasons	-2272
▁emp	-2273
▁prop	-2274
▁period	-2275
yond	-2276
▁save	-2277
▁Where	-2278
▁choice	-2279
▁innovation	-2280
abor	-2281
▁div	-2282
▁sho	-2283
▁report	-2284
▁showed	-2285
▁theory	-2286
▁especially	-2287
head	-2288
▁drive	-2289
▁force	-2290
▁vac	-2291
▁song	-2292
▁generation	-2293
▁aw	-2294
▁sn	-2295
▁fire	-2296
▁sever	-2297
▁seem	-2298
▁mechan	-2299
▁English	-2300
▁patient	-2301
ales	-2302
lear	-2303
▁bur	-2304
▁type	-2305
racy	-2306
▁Goog	-2307
▁issues	-2308
▁online	-2309
ffer	-2310
▁aren	-2311
▁ult	-2312
▁talked	-2313
▁becomes	-2314
▁stru	-2315
▁conscious	-2316
oll	-2317
▁Ph	-2318
▁cause	-2319
▁lived	-2320
▁modern	-2321
▁search	-2322
lict	-2323
▁mathem	-2324
▁neighbor	-2325
let	-2326
▁fur	-2327
▁map	-2328
▁resources	-2329
like	-2330
inal	-2331
▁Com	-2332
▁lay	-2333
▁stat	-2334
▁sounds	-2335
▁cop	-2336
▁er	-2337
▁Inst	-2338
▁poll	-2339
▁First	-2340
▁citiz	-2341
▁visual	-2342
▁several	-2343
▁communities	-2344
▁towards	-2345
▁sell	-2346
▁199	-2347
ously	-2348
usion	-2349
▁defin	-2350
▁baby	-2351
▁solar	-2352
▁beyond	-2353
rast	-2354
▁incredibly	-2355
vert	-2356
▁extraord	-2357
agn	-2358
▁bed	-2359
imens	-2360
▁haven	-2361
ires	-2362
▁lea	-2363
▁evidence	-2364
▁drug	-2365
▁activ	-2366
▁drugs	-2367
▁except	-2368
▁din	-2369
▁Mars	-2370
▁shape	-2371
iet	-2372
ude	-2373
iction	-2374
▁device	-2375
▁account	-2376
▁playing	-2377
▁violence	-2378
▁sle	-2379
▁Google	-2380
▁compassion	-2381
▁cover	-2382
▁bacter	-2383
▁potential	-2384
▁Look	-2385
▁mount	-2386
ffic	-2387
osph	-2388
▁flow	-2389
oms	-2390
▁fair	-2391
▁rece	-2392
▁street	-2393
▁journey	-2394
▁function	-2395
ived	-2396
▁danger	-2397
▁80	-2398
▁bigger	-2399
▁involved	-2400
▁Se	-2401
▁message	-2402
▁ep	-2403
medi	-2404
▁mob	-2405
oring	-2406
book	-2407
ival	-2408
▁Don	-2409
arily	-2410
▁clean	-2411
▁fu	-2412
▁action	-2413
▁national	-2414
▁progress	-2415
▁basic	-2416
▁perspect	-2417
une	-2418
▁Who	-2419
▁rain	-2420
▁breat	-2421
▁revolution	-2422
▁Maybe	-2423
▁table	-2424
▁necess	-2425
▁nuc	-2426
▁rules	-2427
▁particularly	-2428
▁movie	-2429
▁plants	-2430
▁situation	-2431
▁rock	-2432
▁suffer	-2433
▁pictures	-2434
▁Im	-2435
▁farm	-2436
▁nine	-2437
▁knows	-2438
▁screen	-2439
▁son	-2440
▁code	-2441
▁rights	-2442
▁died	-2443
▁speed	-2444
▁character	-2445
▁virt	-2446
come	-2447
▁showing	-2448
pre	-2449
▁Joh	-2450
▁bir	-2451
▁trees	-2452
▁African	-2453
nal	-2454
▁ce	-2455
▁flu	-2456
ference	-2457
▁hit	-2458
unately	-2459
▁princi	-2460
▁walking	-2461
ners	-2462
for	-2463
▁fa	-2464
▁fix	-2465
▁threat	-2466
▁dom	-2467
▁adm	-2468
▁fundamental	-2469
oon	-2470
ctors	-2471
ley	-2472
pens	-2473
▁role	-2474
▁writing	-2475
▁examples	-2476
ros	-2477
onse	-2478
▁deb	-2479
cient	-2480
▁apart	-2481
▁higher	-2482
▁particip	-2483
yn	-2484
ein	-2485
▁cris	-2486
▁After	-2487
▁meant	-2488
▁moved	-2489
▁neg	-2490
isions	-2491
▁offer	-2492
▁vision	-2493
▁results	-2494
▁represent	-2495
uly	-2496
▁sat	-2497
▁track	-2498
▁detail	-2499
plicated	-2500
▁general	-2501
ene	-2502
ray	-2503
▁led	-2504
▁sold	-2505
▁virus	-2506
▁starts	-2507
▁anybody	-2508
▁further	-2509
▁connected	-2510
▁conversation	-2511
idge	-2512
▁onto	-2513
▁colleag	-2514
▁schools	-2515
iar	-2516
ores	-2517
▁magn	-2518
▁prim	-2519
▁camera	-2520
ishing	-2521
imp	-2522
view	-2523
▁ast	-2524
istan	-2525
ground	-2526
▁multi	-2527
▁ready	-2528
▁biggest	-2529
▁certainly	-2530
uit	-2531
cuss	-2532
ured	-2533
▁syn	-2534
▁grew	-2535
▁choose	-2536
▁continue	-2537
odies	-2538
verty	-2539
ran	-2540
▁mus	-2541
▁tree	-2542
▁context	-2543
▁creative	-2544
▁security	-2545
▁skin	-2546
ressed	-2547
▁college	-2548
▁student	-2549
▁families	-2550
▁da	-2551
▁door	-2552
izations	-2553
▁democracy	-2554
▁boy	-2555
▁John	-2556
▁effic	-2557
▁wants	-2558
amm	-2559
▁Cl	-2560
▁push	-2561
▁peace	-2562
▁print	-2563
▁accept	-2564
▁exciting	-2565
▁favorite	-2566
▁response	-2567
antly	-2568
▁safe	-2569
erve	-2570
▁objects	-2571
▁buildings	-2572
▁extraordinary	-2573
ask	-2574
put	-2575
eter	-2576
▁software	-2577
▁terror	-2578
ped	-2579
▁Of	-2580
▁ec	-2581
▁Sec	-2582
▁Tod	-2583
▁Brit	-2584
▁Even	-2585
▁Most	-2586
iation	-2587
▁office	-2588
▁largest	-2589
▁Le	-2590
ought	-2591
▁conflict	-2592
▁daughter	-2593
umb	-2594
oming	-2595
▁stra	-2596
▁birth	-2597
▁crazy	-2598
▁minds	-2599
▁scientific	-2600
▁individuals	-2601
more	-2602
▁tar	-2603
itten	-2604
rible	-2605
▁bank	-2606
▁clin	-2607
ission	-2608
▁assum	-2609
▁medicine	-2610
how	-2611
rate	-2612
▁North	-2613
▁improve	-2614
▁aware	-2615
▁strateg	-2616
▁including	-2617
▁wife	-2618
▁immedi	-2619
▁perspective	-2620
▁Ge	-2621
▁okay	-2622
▁carry	-2623
▁faster	-2624
▁everywhere	-2625
ox	-2626
▁dam	-2627
▁mis	-2628
itary	-2629
▁bird	-2630
▁named	-2631
▁source	-2632
iversity	-2633
▁capt	-2634
▁poverty	-2635
▁collabor	-2636
▁projects	-2637
oke	-2638
▁repl	-2639
▁wish	-2640
▁launch	-2641
olutions	-2642
aur	-2643
osing	-2644
▁separ	-2645
ruction	-2646
ently	-2647
▁rich	-2648
▁freed	-2649
▁memory	-2650
▁quality	-2651
▁materials	-2652
▁fra	-2653
▁mine	-2654
▁finan	-2655
▁shown	-2656
enn	-2657
▁jobs	-2658
▁cross	-2659
▁totally	-2660
▁supposed	-2661
▁Re	-2662
isms	-2663
▁War	-2664
▁genes	-2665
▁notice	-2666
▁hospital	-2667
apan	-2668
▁bal	-2669
▁introdu	-2670
▁machines	-2671
▁Cal	-2672
▁meth	-2673
▁Today	-2674
▁doctor	-2675
▁chemical	-2676
▁ann	-2677
▁circ	-2678
▁labor	-2679
▁eventually	-2680
akes	-2681
rated	-2682
▁fill	-2683
▁models	-2684
ina	-2685
▁Japan	-2686
osphere	-2687
▁detect	-2688
▁Chinese	-2689
▁decision	-2690
▁increase	-2691
▁Pro	-2692
▁successful	-2693
eth	-2694
cape	-2695
▁Video	-2696
▁finding	-2697
▁thousand	-2698
▁watching	-2699
rage	-2700
▁infect	-2701
▁standing	-2702
▁obviously	-2703
▁check	-2704
▁nobody	-2705
▁prison	-2706
icle	-2707
▁log	-2708
▁sequ	-2709
▁taught	-2710
▁temper	-2711
▁alg	-2712
▁gas	-2713
▁cold	-2714
▁above	-2715
▁blind	-2716
▁stick	-2717
▁crisis	-2718
lex	-2719
cise	-2720
▁goal	-2721
▁link	-2722
▁spir	-2723
▁stri	-2724
▁worse	-2725
rial	-2726
▁killed	-2727
▁allowed	-2728
▁essentially	-2729
▁intelligence	-2730
▁adult	-2731
▁complicated	-2732
▁hop	-2733
▁cases	-2734
ik	-2735
▁earli	-2736
▁concer	-2737
right	-2738
▁excited	-2739
▁village	-2740
▁conc	-2741
▁tells	-2742
▁wealth	-2743
▁nuclear	-2744
▁products	-2745
ama	-2746
ech	-2747
▁90	-2748
▁Are	-2749
▁rap	-2750
cr	-2751
anc	-2752
▁70	-2753
▁lower	-2754
▁passion	-2755
▁respond	-2756
▁service	-2757
urban	-2758
▁grad	-2759
▁bunch	-2760
▁imposs	-2761
▁extremely	-2762
▁international	-2763
ims	-2764
▁docum	-2765
▁return	-2766
▁somewhere	-2767
▁Any	-2768
▁West	-2769
▁fing	-2770
▁lose	-2771
▁14	-2772
ered	-2773
iding	-2774
▁older	-2775
▁sleep	-2776
▁treatment	-2777
▁16	-2778
▁star	-2779
▁pieces	-2780
▁policy	-2781
▁usually	-2782
▁bacteria	-2783
▁mathemat	-2784
50	-2785
bol	-2786
▁Car	-2787
▁manage	-2788
▁conditions	-2789
▁traditional	-2790
atory	-2791
▁kept	-2792
▁late	-2793
▁Those	-2794
▁achieve	-2795
▁citizens	-2796
▁signific	-2797
aid	-2798
fact	-2799
▁bodies	-2800
▁remind	-2801
▁address	-2802
▁ox	-2803
iced	-2804
ring	-2805
▁kil	-2806
epend	-2807
▁activity	-2808
▁suddenly	-2809
▁recognize	-2810
▁institutions	-2811
▁sky	-2812
ounds	-2813
▁card	-2814
▁term	-2815
▁forms	-2816
▁waste	-2817
▁deliver	-2818
▁genetic	-2819
▁specific	-2820
▁architecture	-2821
▁gal	-2822
▁fant	-2823
▁electricity	-2824
▁organization	-2825
ued	-2826
sequ	-2827
▁lands	-2828
▁lines	-2829
▁allows	-2830
▁appear	-2831
▁larger	-2832
ologists	-2833
▁discuss	-2834
▁positive	-2835
▁teachers	-2836
▁17	-2837
▁block	-2838
▁corre	-2839
▁effort	-2840
▁fasc	-2841
▁jump	-2842
▁wait	-2843
▁afford	-2844
▁author	-2845
▁patterns	-2846
sect	-2847
though	-2848
▁loved	-2849
▁truly	-2850
▁port	-2851
▁police	-2852
▁biology	-2853
▁private	-2854
uss	-2855
▁mal	-2856
▁sou	-2857
ining	-2858
▁graph	-2859
▁employ	-2860
▁univers	-2861
▁impossible	-2862
others	-2863
▁influ	-2864
▁brains	-2865
▁indeed	-2866
joy	-2867
▁stress	-2868
▁ultimate	-2869
▁neighborhood	-2870
▁fine	-2871
▁diagn	-2872
▁stars	-2873
pensive	-2874
▁minute	-2875
▁freedom	-2876
▁decisions	-2877
▁governments	-2878
▁HI	-2879
▁bom	-2880
▁sch	-2881
erman	-2882
▁purp	-2883
▁secret	-2884
▁decades	-2885
▁mention	-2886
ops	-2887
ulate	-2888
▁wild	-2889
▁ended	-2890
▁descri	-2891
▁healthy	-2892
▁teacher	-2893
mb	-2894
▁De	-2895
▁Mar	-2896
▁mist	-2897
eren	-2898
▁Christ	-2899
enced	-2900
▁spect	-2901
▁somehow	-2902
▁HIV	-2903
▁exh	-2904
▁games	-2905
▁sorts	-2906
▁strugg	-2907
▁atm	-2908
▁roll	-2909
▁provide	-2910
▁reading	-2911
▁greatest	-2912
▁solutions	-2913
alk	-2914
▁remark	-2915
▁straight	-2916
▁Q	-2917
▁Sw	-2918
▁198	-2919
▁cat	-2920
▁coun	-2921
▁phil	-2922
inated	-2923
▁autom	-2924
▁anymore	-2925
▁neurons	-2926
ips	-2927
agine	-2928
aging	-2929
▁site	-2930
ana	-2931
▁Ag	-2932
▁fit	-2933
▁cloud	-2934
▁earth	-2935
itation	-2936
▁engage	-2937
▁luck	-2938
▁phen	-2939
▁enjoy	-2940
zz	-2941
urt	-2942
onst	-2943
▁dro	-2944
▁upon	-2945
▁enorm	-2946
▁throw	-2947
▁series	-2948
▁reflect	-2949
▁painting	-2950
▁training	-2951
▁increasing	-2952
▁TV	-2953
inct	-2954
estern	-2955
▁alive	-2956
▁floor	-2957
▁actual	-2958
▁beings	-2959
▁written	-2960
▁humanity	-2961
▁organizations	-2962
▁email	-2963
▁willing	-2964
▁becoming	-2965
▁critical	-2966
▁military	-2967
▁/	-2968
men	-2969
useum	-2970
▁pack	-2971
▁Somet	-2972
▁weren	-2973
▁famous	-2974
▁services	-2975
▁challenges	-2976
oles	-2977
▁Act	-2978
▁Har	-2979
▁cry	-2980
ables	-2981
▁desp	-2982
▁trou	-2983
▁societ	-2984
▁transl	-2985
▁smaller	-2986
▁studies	-2987
▁Americans	-2988
thern	-2989
▁determ	-2990
ises	-2991
▁ang	-2992
oking	-2993
▁cart	-2994
▁drop	-2995
▁urban	-2996
▁diseases	-2997
▁financial	-2998
▁relationships	-2999
SA	-3000
▁Like	-3001
▁prep	-3002
▁occur	-3003
▁respect	-3004
▁dangerous	-3005
▁happiness	-3006
fortunately	-3007
▁jud	-3008
▁swe	-3009
orrow	-3010
▁laws	-3011
▁moral	-3012
▁please	-3013
▁points	-3014
▁region	-3015
▁transport	-3016
▁Bra	-3017
▁webs	-3018
▁position	-3019
▁Ex	-3020
ceed	-3021
▁galax	-3022
▁robots	-3023
▁workers	-3024
▁anywhere	-3025
imb	-3026
▁costs	-3027
▁comfort	-3028
▁himself	-3029
▁journal	-3030
ps	-3031
▁13	-3032
▁lad	-3033
▁magic	-3034
▁trick	-3035
▁worry	-3036
▁German	-3037
▁skills	-3038
▁describ	-3039
▁expensive	-3040
used	-3041
▁town	-3042
▁offic	-3043
▁mental	-3044
▁pu	-3045
ster	-3046
time	-3047
▁pen	-3048
▁City	-3049
▁arri	-3050
▁store	-3051
▁clearly	-3052
▁doctors	-3053
▁earlier	-3054
▁pressure	-3055
▁dog	-3056
acity	-3057
eless	-3058
▁cust	-3059
atives	-3060
ologist	-3061
▁consequ	-3062
unk	-3063
soci	-3064
▁ran	-3065
▁heav	-3066
▁phenomen	-3067
▁politics	-3068
go	-3069
▁21	-3070
▁zero	-3071
▁shared	-3072
eral	-3073
ended	-3074
▁values	-3075
bb	-3076
dom	-3077
back	-3078
▁apply	-3079
▁final	-3080
▁weight	-3081
▁immediately	-3082
rom	-3083
▁af	-3084
▁page	-3085
▁decade	-3086
▁slight	-3087
▁Bl	-3088
▁oxy	-3089
itude	-3090
covery	-3091
▁Which	-3092
inating	-3093
▁walked	-3094
▁Imagine	-3095
▁strange	-3096
▁effective	-3097
▁Ad	-3098
lebr	-3099
▁whe	-3100
▁pros	-3101
▁price	-3102
▁driving	-3103
airs	-3104
ches	-3105
▁sal	-3106
▁park	-3107
▁range	-3108
▁colleagues	-3109
▁throughout	-3110
▁eth	-3111
erson	-3112
▁square	-3113
▁waiting	-3114
▁ign	-3115
▁mir	-3116
▁brand	-3117
▁saving	-3118
▁seconds	-3119
iti	-3120
▁web	-3121
▁Aust	-3122
▁unique	-3123
rastruct	-3124
▁production	-3125
ball	-3126
▁Afgh	-3127
▁board	-3128
▁types	-3129
▁environmental	-3130
aries	-3131
▁vacc	-3132
▁vict	-3133
ashing	-3134
▁career	-3135
▁select	-3136
▁massive	-3137
sc	-3138
rab	-3139
▁Ab	-3140
▁match	-3141
▁beauty	-3142
▁income	-3143
▁version	-3144
▁listening	-3145
met	-3146
owd	-3147
itor	-3148
▁tiss	-3149
▁celebr	-3150
▁mobile	-3151
▁University	-3152
oint	-3153
olve	-3154
iling	-3155
▁broad	-3156
▁optim	-3157
▁quant	-3158
▁levels	-3159
▁method	-3160
▁speech	-3161
▁greater	-3162
▁following	-3163
▁performance	-3164
rees	-3165
▁sam	-3166
▁veh	-3167
orith	-3168
▁sand	-3169
▁shot	-3170
▁forth	-3171
▁therefore	-3172
▁Cent	-3173
▁Chris	-3174
▁integ	-3175
▁direction	-3176
ube	-3177
attle	-3178
itted	-3179
▁yeah	-3180
▁catch	-3181
▁molec	-3182
▁surve	-3183
▁invent	-3184
▁algorith	-3185
▁engineering	-3186
▁infrastruct	-3187
▁aid	-3188
▁whose	-3189
mic	-3190
▁rid	-3191
▁East	-3192
▁drink	-3193
▁glass	-3194
▁honest	-3195
atically	-3196
▁speaking	-3197
▁experiences	-3198
unt	-3199
ufact	-3200
▁encou	-3201
▁liber	-3202
▁various	-3203
▁pan	-3204
▁sus	-3205
▁tax	-3206
▁Many	-3207
▁hair	-3208
▁legs	-3209
▁Afghan	-3210
▁nation	-3211
▁express	-3212
▁interview	-3213
▁societies	-3214
ays	-3215
apes	-3216
iger	-3217
ained	-3218
▁Cong	-3219
▁fuel	-3220
▁vari	-3221
▁gradu	-3222
▁female	-3223
▁choices	-3224
▁X	-3225
▁forget	-3226
▁spirit	-3227
▁content	-3228
urning	-3229
▁worst	-3230
▁physics	-3231
▁familiar	-3232
bes	-3233
udd	-3234
▁ple	-3235
anced	-3236
▁Face	-3237
▁Lond	-3238
▁gene	-3239
▁Another	-3240
▁programs	-3241
▁relative	-3242
▁Pr	-3243
cies	-3244
pped	-3245
▁Ken	-3246
▁Per	-3247
ement	-3248
▁rise	-3249
▁plastic	-3250
▁fantastic	-3251
iqu	-3252
val	-3253
aign	-3254
▁London	-3255
▁artist	-3256
▁calcul	-3257
▁decide	-3258
▁Instead	-3259
▁religion	-3260
wise	-3261
▁Two	-3262
istics	-3263
▁oppos	-3264
▁summer	-3265
▁distribut	-3266
aff	-3267
aly	-3268
ios	-3269
uct	-3270
ancy	-3271
ping	-3272
▁useful	-3273
▁instrum	-3274
▁communicate	-3275
▁nut	-3276
▁swim	-3277
ricult	-3278
▁radio	-3279
▁Second	-3280
▁belief	-3281
▁commer	-3282
▁helped	-3283
▁stopped	-3284
▁directly	-3285
▁manufact	-3286
▁24	-3287
orry	-3288
raid	-3289
▁Aud	-3290
itter	-3291
▁dram	-3292
▁race	-3293
▁ahead	-3294
▁connection	-3295
ica	-3296
▁Sc	-3297
▁Col	-3298
▁From	-3299
▁rand	-3300
▁dance	-3301
▁afraid	-3302
▁anyway	-3303
▁although	-3304
▁i	-3305
▁uses	-3306
▁custom	-3307
▁highly	-3308
▁electron	-3309
▁instance	-3310
▁consciousness	-3311
▁doub	-3312
▁hous	-3313
▁scan	-3314
▁surger	-3315
▁planets	-3316
▁atmosphere	-3317
▁understood	-3318
▁infrastructure	-3319
resh	-3320
▁random	-3321
▁invented	-3322
▁standard	-3323
oty	-3324
prene	-3325
reprene	-3326
▁disapp	-3327
▁mostly	-3328
▁noticed	-3329
▁streets	-3330
▁enormous	-3331
rench	-3332
▁base	-3333
▁quot	-3334
▁dying	-3335
▁profound	-3336
▁teaching	-3337
ils	-3338
▁AI	-3339
▁Sy	-3340
▁sad	-3341
▁Your	-3342
▁hero	-3343
▁flying	-3344
▁terrible	-3345
▁Dr	-3346
amic	-3347
arian	-3348
▁sick	-3349
▁resist	-3350
▁prevent	-3351
▁practice	-3352
equ	-3353
▁terr	-3354
▁closer	-3355
▁insect	-3356
▁temperature	-3357
af	-3358
▁Isl	-3359
▁tum	-3360
atell	-3361
iforn	-3362
▁destro	-3363
▁seemed	-3364
▁devices	-3365
▁Californ	-3366
▁National	-3367
cope	-3368
▁mut	-3369
▁male	-3370
▁ther	-3371
icians	-3372
▁histor	-3373
▁Western	-3374
rest	-3375
▁gun	-3376
arter	-3377
▁loss	-3378
▁target	-3379
▁meeting	-3380
▁Facebook	-3381
aced	-3382
ille	-3383
▁inj	-3384
apped	-3385
order	-3386
▁weap	-3387
▁causes	-3388
▁corner	-3389
▁central	-3390
▁purpose	-3391
▁campaign	-3392
▁experiments	-3393
▁feels	-3394
▁associ	-3395
▁agricult	-3396
na	-3397
iot	-3398
▁trade	-3399
▁switch	-3400
ervation	-3401
aim	-3402
▁ut	-3403
▁Dav	-3404
▁fir	-3405
▁hyd	-3406
aling	-3407
▁Think	-3408
▁explore	-3409
▁members	-3410
▁survive	-3411
▁mountain	-3412
kn	-3413
off	-3414
anda	-3415
lled	-3416
ript	-3417
rupt	-3418
▁Mus	-3419
▁Arab	-3420
▁Take	-3421
▁gold	-3422
▁rare	-3423
▁nearly	-3424
▁ancient	-3425
▁effects	-3426
▁California	-3427
▁entreprene	-3428
yle	-3429
zil	-3430
▁rough	-3431
▁expand	-3432
▁satell	-3433
▁capacity	-3434
▁networks	-3435
▁communication	-3436
▁500	-3437
▁Great	-3438
▁telev	-3439
▁visit	-3440
▁demonst	-3441
▁independ	-3442
▁published	-3443
▁sustainable	-3444
▁plat	-3445
▁trem	-3446
▁Brazil	-3447
▁popular	-3448
▁surprising	-3449
arm	-3450
ulf	-3451
▁mix	-3452
iving	-3453
oting	-3454
phone	-3455
▁lack	-3456
▁demand	-3457
▁inspired	-3458
nel	-3459
pro	-3460
▁197	-3461
inate	-3462
▁harm	-3463
▁argum	-3464
▁addition	-3465
▁remarkable	-3466
▁Ro	-3467
▁ban	-3468
▁hus	-3469
▁mamm	-3470
▁contact	-3471
▁condition	-3472
▁op	-3473
oper	-3474
antic	-3475
▁rule	-3476
▁raise	-3477
▁broken	-3478
▁website	-3479
▁designers	-3480
▁creativity	-3481
▁His	-3482
▁dad	-3483
▁gent	-3484
▁paid	-3485
▁vast	-3486
▁mission	-3487
▁scientist	-3488
▁Pl	-3489
wood	-3490
board	-3491
▁yell	-3492
▁below	-3493
▁laugh	-3494
▁degrees	-3495
▁markets	-3496
▁slightly	-3497
key	-3498
band	-3499
▁hom	-3500
▁ord	-3501
▁heat	-3502
▁accom	-3503
reg	-3504
vest	-3505
ening	-3506
▁Mich	-3507
▁tens	-3508
▁displ	-3509
▁smell	-3510
▁dimens	-3511
▁surround	-3512
empt	-3513
oses	-3514
▁Par	-3515
▁bra	-3516
▁motiv	-3517
▁slide	-3518
▁altern	-3519
▁applic	-3520
▁easily	-3521
▁gather	-3522
▁possibly	-3523
▁emotional	-3524
▁biological	-3525
▁300	-3526
▁mid	-3527
▁Over	-3528
here	-3529
▁dyn	-3530
idden	-3531
▁hole	-3532
anging	-3533
ashion	-3534
icking	-3535
▁basis	-3536
▁tough	-3537
▁efficient	-3538
▁television	-3539
▁responsibility	-3540
adem	-3541
cked	-3542
▁analy	-3543
▁aspect	-3544
▁states	-3545
▁helping	-3546
▁original	-3547
▁significant	-3548
ees	-3549
cules	-3550
▁Will	-3551
▁giant	-3552
▁legal	-3553
▁party	-3554
▁shock	-3555
▁total	-3556
ception	-3557
▁hearing	-3558
▁matters	-3559
▁trouble	-3560
▁differently	-3561
▁importantly	-3562
ada	-3563
▁En	-3564
aria	-3565
▁San	-3566
inist	-3567
▁forg	-3568
▁hall	-3569
▁narr	-3570
▁seed	-3571
▁reduce	-3572
▁supply	-3573
▁symbol	-3574
▁answers	-3575
▁knowing	-3576
▁cultural	-3577
▁produced	-3578
ids	-3579
iles	-3580
▁none	-3581
ifying	-3582
▁gotten	-3583
▁played	-3584
ya	-3585
term	-3586
▁join	-3587
▁frame	-3588
▁photo	-3589
▁rapid	-3590
▁surgery	-3591
▁structures	-3592
▁differences	-3593
▁196	-3594
▁cru	-3595
house	-3596
▁task	-3597
thetic	-3598
▁twice	-3599
▁Thanks	-3600
▁babies	-3601
▁justice	-3602
▁Ed	-3603
▁Te	-3604
▁ir	-3605
ened	-3606
▁tom	-3607
▁stem	-3608
▁wide	-3609
▁gentle	-3610
▁despite	-3611
▁platform	-3612
nds	-3613
▁fab	-3614
▁unc	-3615
▁wire	-3616
▁agree	-3617
▁fully	-3618
▁shift	-3619
▁bought	-3620
▁master	-3621
▁myster	-3622
▁Austral	-3623
▁missing	-3624
▁bringing	-3625
▁ur	-3626
icon	-3627
▁Hey	-3628
▁held	-3629
ometers	-3630
▁forces	-3631
▁genome	-3632
▁entirely	-3633
uing	-3634
▁coff	-3635
▁host	-3636
▁rele	-3637
▁funny	-3638
▁compon	-3639
▁passed	-3640
▁philos	-3641
▁background	-3642
▁Afghanistan	-3643
▁core	-3644
▁avoid	-3645
▁river	-3646
▁meters	-3647
gy	-3648
irt	-3649
osy	-3650
▁hun	-3651
▁Musl	-3652
▁1,000	-3653
▁easier	-3654
▁moments	-3655
▁traffic	-3656
▁spending	-3657
▁diversity	-3658
zen	-3659
iber	-3660
▁sharing	-3661
aul	-3662
▁Ob	-3663
▁Did	-3664
▁tun	-3665
othes	-3666
▁crowd	-3667
▁habit	-3668
▁spaces	-3669
▁evolved	-3670
▁landscape	-3671
▁religious	-3672
▁et	-3673
reci	-3674
▁ske	-3675
▁Russ	-3676
▁teen	-3677
▁wood	-3678
orders	-3679
▁parad	-3680
▁therap	-3681
▁regular	-3682
▁tremend	-3683
▁describe	-3684
▁industrial	-3685
▁investment	-3686
rael	-3687
based	-3688
▁beat	-3689
▁flight	-3690
▁inspir	-3691
▁farmers	-3692
▁identity	-3693
▁Med	-3694
▁bag	-3695
▁repe	-3696
▁turning	-3697
▁virtual	-3698
▁Mo	-3699
▁Char	-3700
cience	-3701
▁adapt	-3702
▁10,000	-3703
▁Indian	-3704
▁active	-3705
▁inform	-3706
▁sexual	-3707
▁window	-3708
▁correct	-3709
▁collective	-3710
gth	-3711
iers	-3712
▁boys	-3713
▁exer	-3714
▁tele	-3715
rength	-3716
ulated	-3717
▁dinos	-3718
▁invis	-3719
▁transm	-3720
▁creates	-3721
ification	-3722
▁partners	-3723
raq	-3724
▁fol	-3725
▁cred	-3726
▁poet	-3727
▁calls	-3728
▁enter	-3729
▁oxygen	-3730
▁tissue	-3731
▁forever	-3732
▁opportunities	-3733
hy	-3734
edd	-3735
ason	-3736
ander	-3737
▁Again	-3738
▁mouth	-3739
▁corpor	-3740
▁lights	-3741
▁notion	-3742
▁artists	-3743
▁opposite	-3744
▁complexity	-3745
cop	-3746
tle	-3747
▁iP	-3748
icles	-3749
plant	-3750
▁bone	-3751
▁fort	-3752
▁French	-3753
▁eating	-3754
▁strength	-3755
▁studying	-3756
▁imagination	-3757
exic	-3758
▁climb	-3759
▁attract	-3760
▁focused	-3761
▁majority	-3762
▁molecules	-3763
fl	-3764
ius	-3765
▁oh	-3766
▁ing	-3767
▁Iraq	-3768
▁David	-3769
▁desire	-3770
▁raised	-3771
ulations	-3772
▁depression	-3773
eal	-3774
reed	-3775
ysis	-3776
▁mos	-3777
▁copy	-3778
▁stuck	-3779
▁phones	-3780
▁leading	-3781
▁believed	-3782
▁strategy	-3783
▁fat	-3784
itely	-3785
ulous	-3786
▁wear	-3787
atures	-3788
▁accur	-3789
▁airpl	-3790
▁Israel	-3791
▁definition	-3792
the	-3793
▁Me	-3794
▁ends	-3795
▁magaz	-3796
ume	-3797
▁1.	-3798
cest	-3799
reet	-3800
▁Good	-3801
▁More	-3802
▁Mexic	-3803
▁cheap	-3804
▁walls	-3805
▁batter	-3806
▁coffee	-3807
▁desert	-3808
ifically	-3809
▁failure	-3810
▁benefits	-3811
roud	-3812
▁ver	-3813
rical	-3814
▁faith	-3815
▁weird	-3816
▁breath	-3817
▁museum	-3818
▁Actually	-3819
▁childhood	-3820
▁suffering	-3821
▁leadership	-3822
omy	-3823
orge	-3824
▁Con	-3825
▁pig	-3826
▁vul	-3827
ording	-3828
▁brings	-3829
▁double	-3830
▁physic	-3831
▁billions	-3832
▁previous	-3833
ae	-3834
win	-3835
▁Gu	-3836
ager	-3837
itute	-3838
known	-3839
▁brill	-3840
▁ancest	-3841
▁photos	-3842
▁extreme	-3843
▁Audience	-3844
▁European	-3845
▁accident	-3846
▁construct	-3847
▁ultimately	-3848
riage	-3849
▁fold	-3850
▁astron	-3851
▁remain	-3852
▁However	-3853
▁foreign	-3854
▁conference	-3855
cell	-3856
vere	-3857
▁Nor	-3858
▁den	-3859
▁Iran	-3860
▁bees	-3861
▁grav	-3862
▁soil	-3863
▁embra	-3864
▁advant	-3865
▁appreci	-3866
▁engineers	-3867
son	-3868
eper	-3869
▁reb	-3870
▁moon	-3871
▁mort	-3872
▁proud	-3873
ography	-3874
▁letter	-3875
▁contribut	-3876
amb	-3877
pan	-3878
ford	-3879
▁ble	-3880
eness	-3881
▁hell	-3882
▁reve	-3883
▁rout	-3884
apping	-3885
artment	-3886
▁refuge	-3887
▁transp	-3888
▁attempt	-3889
▁husband	-3890
▁necessary	-3891
gn	-3892
▁crim	-3893
osystem	-3894
▁dreams	-3895
▁lesson	-3896
▁empower	-3897
▁figured	-3898
▁distance	-3899
▁document	-3900
mon	-3901
▁Tr	-3902
ties	-3903
▁Fin	-3904
▁amb	-3905
▁bul	-3906
apers	-3907
▁recon	-3908
▁sector	-3909
▁classroom	-3910
▁commercial	-3911
▁$	-3912
▁CO	-3913
care	-3914
izes	-3915
▁See	-3916
▁fle	-3917
water	-3918
▁Once	-3919
▁gard	-3920
itable	-3921
▁trial	-3922
▁gender	-3923
▁vulner	-3924
▁British	-3925
▁counter	-3926
▁studied	-3927
▁emotions	-3928
▁organisms	-3929
▁possibility	-3930
▁responsible	-3931
▁Su	-3932
enty	-3933
▁Dan	-3934
celer	-3935
▁bear	-3936
▁hack	-3937
▁mill	-3938
▁shop	-3939
▁bound	-3940
▁helps	-3941
▁deeply	-3942
▁Twitter	-3943
▁fashion	-3944
▁holding	-3945
▁succeed	-3946
▁fighting	-3947
▁kilometers	-3948
yl	-3949
rel	-3950
▁Mr	-3951
iver	-3952
▁nan	-3953
▁Have	-3954
▁bomb	-3955
▁birds	-3956
▁north	-3957
▁sport	-3958
▁Washing	-3959
▁invisible	-3960
▁consequences	-3961
cut	-3962
ears	-3963
ront	-3964
▁adop	-3965
▁indic	-3966
ruption	-3967
▁cooper	-3968
▁opened	-3969
▁managed	-3970
▁require	-3971
▁elements	-3972
▁Sometimes	-3973
wide	-3974
▁etc	-3975
▁gar	-3976
▁joy	-3977
▁tit	-3978
print	-3979
▁burn	-3980
▁spot	-3981
▁fairly	-3982
▁remote	-3983
▁balance	-3984
▁ecosystem	-3985
▁Washington	-3986
▁mig	-3987
▁wis	-3988
▁Niger	-3989
▁maint	-3990
▁trill	-3991
▁bridge	-3992
▁compared	-3993
▁everyday	-3994
DS	-3995
aped	-3996
mark	-3997
▁del	-3998
▁blog	-3999
▁ship	-4000
▁Would	-4001
▁grandm	-4002
▁brother	-4003
▁finished	-4004
▁discovery	-4005
▁tremendous	-4006
▁nor	-4007
▁unf	-4008
▁Asia	-4009
▁epide	-4010
▁names	-4011
▁noise	-4012
entally	-4013
oration	-4014
▁president	-4015
ky	-4016
oo	-4017
iff	-4018
now	-4019
load	-4020
▁400	-4021
▁subst	-4022
▁adults	-4023
▁colors	-4024
▁destroy	-4025
▁necessarily	-4026
ugg	-4027
osis	-4028
iable	-4029
istry	-4030
ratic	-4031
rogen	-4032
stein	-4033
▁Bill	-4034
▁breast	-4035
▁caught	-4036
▁artific	-4037
▁benefit	-4038
▁wearing	-4039
RI	-4040
ief	-4041
▁Em	-4042
▁iron	-4043
▁cycle	-4044
▁novel	-4045
▁pleas	-4046
issions	-4047
▁belong	-4048
▁signal	-4049
▁stream	-4050
▁Des	-4051
▁alt	-4052
ctions	-4053
▁crime	-4054
▁lucky	-4055
▁newsp	-4056
▁sorry	-4057
▁autism	-4058
▁events	-4059
▁failed	-4060
▁surprise	-4061
rog	-4062
set	-4063
uries	-4064
▁Amaz	-4065
▁Park	-4066
▁leads	-4067
▁limited	-4068
▁negative	-4069
▁constantly	-4070
▁unfortunately	-4071
ests	-4072
lock	-4073
▁cos	-4074
▁era	-4075
▁exch	-4076
▁tast	-4077
ellect	-4078
▁Three	-4079
▁closed	-4080
▁degree	-4081
▁metaph	-4082
▁install	-4083
ibilities	-4084
▁transformation	-4085
thes	-4086
▁odd	-4087
▁Pres	-4088
▁equal	-4089
▁frequ	-4090
▁yellow	-4091
▁trained	-4092
▁typical	-4093
▁followed	-4094
▁competition	-4095
▁fascinating	-4096
▁Ne	-4097
iest	-4098
uild	-4099
▁150	-4100
estic	-4101
▁boat	-4102
▁note	-4103
elling	-4104
▁antib	-4105
▁circle	-4106
▁hidden	-4107
▁unlike	-4108
▁leaving	-4109
▁related	-4110
▁brilliant	-4111
▁otherwise	-4112
▁surprised	-4113
▁phenomenon	-4114
do	-4115
ami	-4116
cil	-4117
▁NA	-4118
▁Dar	-4119
▁bud	-4120
▁hyp	-4121
▁rot	-4122
▁AIDS	-4123
▁foss	-4124
ancing	-4125
encing	-4126
ildren	-4127
▁coast	-4128
▁exhib	-4129
▁faces	-4130
▁damage	-4131
▁pounds	-4132
▁acceler	-4133
▁curious	-4134
▁creation	-4135
▁intellect	-4136
athy	-4137
▁Her	-4138
▁due	-4139
▁frag	-4140
▁pregn	-4141
▁round	-4142
▁begins	-4143
▁expert	-4144
▁motion	-4145
ographic	-4146
▁Germany	-4147
▁malaria	-4148
▁multiple	-4149
▁Mc	-4150
bert	-4151
gypt	-4152
▁Gen	-4153
▁Bang	-4154
▁hate	-4155
▁chick	-4156
▁truck	-4157
▁invited	-4158
▁considered	-4159
▁university	-4160
cra	-4161
cles	-4162
urch	-4163
▁disc	-4164
▁tons	-4165
encies	-4166
idents	-4167
▁Egypt	-4168
▁click	-4169
▁lunch	-4170
▁mouse	-4171
▁wheel	-4172
▁finger	-4173
▁oceans	-4174
▁capable	-4175
▁described	-4176
▁mentioned	-4177
aker	-4178
hand	-4179
▁tor	-4180
▁cand	-4181
▁cogn	-4182
▁sympt	-4183
▁caused	-4184
▁leader	-4185
▁concent	-4186
▁emotion	-4187
▁shouldn	-4188
▁creatures	-4189
IT	-4190
▁Je	-4191
▁US	-4192
▁Hum	-4193
▁Sun	-4194
ength	-4195
▁Paul	-4196
▁fell	-4197
▁compl	-4198
▁paint	-4199
▁bright	-4200
▁convin	-4201
▁sequence	-4202
DP	-4203
▁rein	-4204
▁whom	-4205
▁grown	-4206
▁steps	-4207
▁debate	-4208
▁highest	-4209
▁replace	-4210
▁restaur	-4211
▁concerned	-4212
▁experienced	-4213
▁professional	-4214
my	-4215
unte	-4216
▁Big	-4217
▁Ste	-4218
force	-4219
▁edge	-4220
▁poem	-4221
▁shel	-4222
urally	-4223
▁eleph	-4224
▁stood	-4225
▁movies	-4226
▁picked	-4227
▁married	-4228
▁signals	-4229
▁watched	-4230
▁received	-4231
▁Ha	-4232
ulpt	-4233
▁org	-4234
▁Life	-4235
▁Rich	-4236
▁arms	-4237
▁trip	-4238
rating	-4239
▁argue	-4240
▁chimp	-4241
▁folks	-4242
▁quiet	-4243
▁rates	-4244
▁simpl	-4245
▁dollar	-4246
▁sculpt	-4247
▁insight	-4248
▁influence	-4249
▁particles	-4250
▁businesses	-4251
▁mathematics	-4252
uls	-4253
throp	-4254
▁Each	-4255
▁intu	-4256
▁lies	-4257
forest	-4258
▁bread	-4259
▁fresh	-4260
▁homes	-4261
▁prior	-4262
▁harder	-4263
▁sister	-4264
▁existence	-4265
▁researchers	-4266
hold	-4267
▁pun	-4268
▁disp	-4269
▁tour	-4270
ending	-4271
ushing	-4272
▁inequ	-4273
▁limit	-4274
▁moves	-4275
▁pages	-4276
▁fellow	-4277
▁illust	-4278
▁safety	-4279
▁investig	-4280
▁planning	-4281
▁survival	-4282
▁Australia	-4283
▁currently	-4284
▁generations	-4285
▁opin	-4286
▁scen	-4287
▁crash	-4288
▁scene	-4289
▁exists	-4290
▁leaves	-4291
▁factory	-4292
▁comfortable	-4293
pid	-4294
odes	-4295
▁Rem	-4296
▁ton	-4297
agers	-4298
▁puzz	-4299
▁vide	-4300
▁motor	-4301
▁battle	-4302
▁compare	-4303
▁identify	-4304
▁Gree	-4305
▁hasn	-4306
acters	-4307
▁Green	-4308
▁daily	-4309
▁slowly	-4310
▁unless	-4311
▁experts	-4312
imensional	-4313
▁designing	-4314
▁philosoph	-4315
▁principles	-4316
word	-4317
▁fed	-4318
ublic	-4319
▁bits	-4320
▁soul	-4321
▁rural	-4322
▁users	-4323
▁deeper	-4324
▁precise	-4325
▁volunte	-4326
▁advantage	-4327
▁perfectly	-4328
▁processes	-4329
▁interaction	-4330
osh	-4331
anes	-4332
▁dry	-4333
esome	-4334
▁Very	-4335
▁king	-4336
▁thri	-4337
▁categ	-4338
▁plane	-4339
▁quote	-4340
▁toward	-4341
▁partner	-4342
▁treated	-4343
▁designer	-4344
▁separate	-4345
▁President	-4346
▁characters	-4347
▁Co	-4348
▁Fl	-4349
cket	-4350
rete	-4351
rict	-4352
▁coal	-4353
▁claim	-4354
▁prefer	-4355
▁reward	-4356
▁principle	-4357
▁agriculture	-4358
lin	-4359
▁PM	-4360
iors	-4361
▁GDP	-4362
▁scr	-4363
▁shr	-4364
lands	-4365
owers	-4366
▁myth	-4367
▁vote	-4368
ribute	-4369
▁grass	-4370
▁inner	-4371
▁refer	-4372
▁saved	-4373
▁surge	-4374
▁commit	-4375
▁voices	-4376
▁contain	-4377
▁mothers	-4378
▁contract	-4379
▁requires	-4380
▁continent	-4381
▁artificial	-4382
▁Val	-4383
▁agg	-4384
essed	-4385
ropri	-4386
angers	-4387
itness	-4388
▁brief	-4389
▁camer	-4390
▁lifet	-4391
▁skill	-4392
▁circum	-4393
▁filled	-4394
▁pollut	-4395
▁wisdom	-4396
▁calling	-4397
▁clinical	-4398
▁engineer	-4399
▁magazine	-4400
▁technical	-4401
▁civilization	-4402
inc	-4403
▁1,	-4404
oman	-4405
▁Res	-4406
▁ens	-4407
▁Does	-4408
▁anti	-4409
▁hadn	-4410
▁isol	-4411
▁frust	-4412
▁tumor	-4413
▁radical	-4414
abilities	-4415
▁argument	-4416
▁launched	-4417
▁marriage	-4418
▁normally	-4419
▁essential	-4420
▁operating	-4421
de	-4422
ij	-4423
oted	-4424
▁gap	-4425
craft	-4426
▁heads	-4427
▁talks	-4428
vention	-4429
▁dealing	-4430
▁forests	-4431
▁insects	-4432
▁letters	-4433
▁prototy	-4434
▁worried	-4435
▁trillion	-4436
▁Everybody	-4437
▁seriously	-4438
▁conversations	-4439
ns	-4440
ino	-4441
iques	-4442
▁roof	-4443
▁colon	-4444
▁risks	-4445
▁south	-4446
▁stock	-4447
▁Mexico	-4448
▁announ	-4449
▁attach	-4450
▁paying	-4451
▁equival	-4452
▁messages	-4453
dimensional	-4454
▁Everything	-4455
ato	-4456
lly	-4457
▁Web	-4458
lling	-4459
▁cook	-4460
▁crop	-4461
▁Franc	-4462
▁waves	-4463
connect	-4464
▁weather	-4465
▁analysis	-4466
▁tomorrow	-4467
▁organized	-4468
▁increasingly	-4469
▁gay	-4470
abled	-4471
▁empt	-4472
▁warm	-4473
ession	-4474
▁mosqu	-4475
▁Canada	-4476
▁charge	-4477
▁protein	-4478
▁struggle	-4479
ocol	-4480
uous	-4481
▁lie	-4482
▁Last	-4483
▁abst	-4484
▁init	-4485
lement	-4486
terday	-4487
▁spoke	-4488
▁Amazon	-4489
▁illness	-4490
▁keeping	-4491
▁organic	-4492
▁weapons	-4493
▁exercise	-4494
▁feedback	-4495
▁property	-4496
semb	-4497
▁Rep	-4498
▁Tom	-4499
▁tox	-4500
asion	-4501
▁meat	-4502
▁purs	-4503
▁weak	-4504
▁2,000	-4505
▁estab	-4506
▁relev	-4507
▁fields	-4508
▁forced	-4509
▁implic	-4510
▁Francis	-4511
▁cutting	-4512
▁release	-4513
▁sentence	-4514
▁emissions	-4515
▁satellite	-4516
▁wondering	-4517
▁effectively	-4518
▁egg	-4519
▁pal	-4520
place	-4521
▁perm	-4522
▁shut	-4523
▁tall	-4524
▁user	-4525
▁Times	-4526
▁chain	-4527
▁holes	-4528
▁shark	-4529
▁dinner	-4530
▁explan	-4531
▁setting	-4532
▁advanced	-4533
ha	-4534
gal	-4535
iat	-4536
▁35	-4537
cend	-4538
▁App	-4539
▁MIT	-4540
▁spl	-4541
owing	-4542
▁stim	-4543
▁wake	-4544
▁Could	-4545
▁equip	-4546
▁cameras	-4547
▁testing	-4548
▁vehicle	-4549
▁reaction	-4550
▁hopefully	-4551
▁Sm	-4552
rian	-4553
▁tag	-4554
tered	-4555
▁nerv	-4556
▁sight	-4557
▁academ	-4558
▁incent	-4559
▁conduct	-4560
▁theater	-4561
▁emerging	-4562
▁microbes	-4563
▁ordinary	-4564
▁universal	-4565
▁collection	-4566
oe	-4567
▁Ein	-4568
▁Pal	-4569
▁thr	-4570
ortex	-4571
▁King	-4572
▁dial	-4573
▁flat	-4574
▁libr	-4575
▁liqu	-4576
▁seat	-4577
▁tick	-4578
▁valu	-4579
▁wave	-4580
pected	-4581
▁layer	-4582
▁perce	-4583
▁Middle	-4584
▁advert	-4585
▁100,000	-4586
▁arrived	-4587
▁expected	-4588
▁galaxies	-4589
▁techniques	-4590
▁grandmother	-4591
ago	-4592
ett	-4593
hab	-4594
icy	-4595
ked	-4596
aked	-4597
apse	-4598
ogen	-4599
▁Mal	-4600
▁pil	-4601
▁soph	-4602
▁broke	-4603
▁finish	-4604
▁fourth	-4605
▁houses	-4606
▁shapes	-4607
▁element	-4608
▁resource	-4609
▁equivalent	-4610
▁importance	-4611
▁pet	-4612
▁tow	-4613
▁vib	-4614
ivers	-4615
umber	-4616
father	-4617
▁prove	-4618
▁micros	-4619
▁versus	-4620
▁details	-4621
▁station	-4622
▁feelings	-4623
ux	-4624
pet	-4625
▁II	-4626
▁Ant	-4627
▁ten	-4628
▁ants	-4629
▁bare	-4630
▁date	-4631
▁exec	-4632
▁load	-4633
▁remo	-4634
▁sites	-4635
▁credit	-4636
▁encoun	-4637
▁muscle	-4638
▁specifically	-4639
uff	-4640
▁CE	-4641
zing	-4642
▁Bar	-4643
▁Ben	-4644
▁cave	-4645
▁cure	-4646
▁Their	-4647
▁stupid	-4648
▁actions	-4649
▁drawing	-4650
▁variety	-4651
▁metaphor	-4652
▁management	-4653
▁alternative	-4654
▁connections	-4655
▁construction	-4656
▁ves	-4657
lying	-4658
olves	-4659
▁Ange	-4660
▁Phil	-4661
▁Since	-4662
▁Street	-4663
▁facing	-4664
▁Richard	-4665
▁nervous	-4666
▁promise	-4667
▁Congress	-4668
▁languages	-4669
▁healthcare	-4670
anz	-4671
acle	-4672
aled	-4673
▁ali	-4674
▁und	-4675
usive	-4676
▁subm	-4677
▁concl	-4678
▁shoes	-4679
ressive	-4680
▁driver	-4681
▁videos	-4682
▁Einstein	-4683
▁independent	-4684
▁manufacturing	-4685
ara	-4686
▁El	-4687
ique	-4688
akers	-4689
▁2000	-4690
▁shif	-4691
▁suit	-4692
▁teles	-4693
▁fossil	-4694
▁thinks	-4695
▁covered	-4696
▁opening	-4697
▁symptoms	-4698
▁economics	-4699
▁equipment	-4700
▁transition	-4701
▁transportation	-4702
bel	-4703
pes	-4704
pir	-4705
▁75	-4706
ault	-4707
bble	-4708
▁lat	-4709
▁rat	-4710
lation	-4711
▁island	-4712
▁medium	-4713
▁quantum	-4714
▁sources	-4715
▁antibiot	-4716
▁molecule	-4717
▁released	-4718
▁movements	-4719
▁processing	-4720
▁relatively	-4721
rig	-4722
▁ho	-4723
▁zo	-4724
life	-4725
rant	-4726
neath	-4727
▁NASA	-4728
▁enem	-4729
▁gain	-4730
▁hide	-4731
ensity	-4732
▁inher	-4733
▁metal	-4734
▁neuros	-4735
▁Britain	-4736
▁accompl	-4737
▁article	-4738
▁killing	-4739
▁roughly	-4740
▁increased	-4741
▁corruption	-4742
▁politicians	-4743
▁intellectual	-4744
▁entrepreneurs	-4745
▁22	-4746
uary	-4747
▁dol	-4748
▁god	-4749
ipped	-4750
organ	-4751
▁Come	-4752
▁Kore	-4753
▁diet	-4754
▁flex	-4755
▁puts	-4756
ensive	-4757
▁Please	-4758
▁liquid	-4759
▁organs	-4760
▁factors	-4761
▁rapidly	-4762
▁sending	-4763
▁airplane	-4764
▁criminal	-4765
▁thoughts	-4766
▁narrative	-4767
▁associated	-4768
▁possibilities	-4769
down	-4770
fish	-4771
▁Red	-4772
▁pure	-4773
▁unex	-4774
stream	-4775
itarian	-4776
▁George	-4777
▁blocks	-4778
▁forgot	-4779
▁vessel	-4780
▁privile	-4781
▁valuable	-4782
▁vulnerable	-4783
edic	-4784
mber	-4785
▁cow	-4786
▁hur	-4787
▁band	-4788
▁gall	-4789
▁sees	-4790
▁France	-4791
▁assist	-4792
▁losing	-4793
▁capture	-4794
▁however	-4795
▁mosquit	-4796
▁unknown	-4797
▁warming	-4798
▁generate	-4799
▁required	-4800
▁according	-4801
▁cognitive	-4802
▁sophistic	-4803
▁worldwide	-4804
▁inequality	-4805
▁profession	-4806
hi	-4807
new	-4808
oot	-4809
▁Ke	-4810
cast	-4811
onym	-4812
rade	-4813
▁Dis	-4814
▁Jew	-4815
ament	-4816
pping	-4817
▁jail	-4818
▁kick	-4819
▁qual	-4820
▁resc	-4821
▁Kenya	-4822
▁chair	-4823
▁heavy	-4824
▁veget	-4825
▁symmet	-4826
▁awesome	-4827
▁epidemic	-4828
▁whenever	-4829
▁producing	-4830
▁electrical	-4831
ams	-4832
bre	-4833
aurs	-4834
cipl	-4835
▁mel	-4836
▁mer	-4837
▁san	-4838
erves	-4839
iency	-4840
▁lady	-4841
▁suic	-4842
▁empty	-4843
▁estim	-4844
▁infin	-4845
osition	-4846
▁School	-4847
▁galaxy	-4848
▁reform	-4849
▁consist	-4850
▁dynamic	-4851
▁privacy	-4852
▁chemistry	-4853
▁disappear	-4854
▁employees	-4855
▁foundation	-4856
add	-4857
ael	-4858
gar	-4859
aren	-4860
otic	-4861
▁Los	-4862
etics	-4863
▁pump	-4864
urance	-4865
▁dolph	-4866
▁goods	-4867
▁height	-4868
▁member	-4869
▁review	-4870
▁severe	-4871
▁battery	-4872
▁display	-4873
▁victims	-4874
▁consumer	-4875
▁existing	-4876
▁lifetime	-4877
▁printing	-4878
▁convinced	-4879
▁gentlemen	-4880
▁statistics	-4881
▁underneath	-4882
▁combination	-4883
▁evolutionary	-4884
▁fundamentally	-4885
la	-4886
ait	-4887
bors	-4888
iped	-4889
irty	-4890
olly	-4891
vard	-4892
▁Atl	-4893
▁Bas	-4894
▁cup	-4895
▁uns	-4896
itals	-4897
▁James	-4898
▁keeps	-4899
▁minim	-4900
▁songs	-4901
▁Darwin	-4902
▁length	-4903
▁scared	-4904
▁worlds	-4905
▁courage	-4906
▁extract	-4907
▁lessons	-4908
▁reached	-4909
▁selling	-4910
▁location	-4911
▁behaviors	-4912
▁encourage	-4913
▁professor	-4914
▁traveling	-4915
▁yesterday	-4916
▁dimensions	-4917
▁environments	-4918
ym	-4919
van	-4920
onom	-4921
resp	-4922
▁194	-4923
▁Min	-4924
▁Yet	-4925
▁Mart	-4926
▁bath	-4927
▁gift	-4928
▁ment	-4929
▁reci	-4930
▁recy	-4931
▁tail	-4932
▁honor	-4933
▁toile	-4934
▁define	-4935
▁replic	-4936
▁England	-4937
▁Harvard	-4938
▁reprodu	-4939
▁absolute	-4940
▁affected	-4941
▁carefully	-4942
▁algorithms	-4943
▁participate	-4944
box	-4945
▁99	-4946
pret	-4947
▁gri	-4948
▁Four	-4949
▁Swed	-4950
▁ille	-4951
▁snow	-4952
▁Frank	-4953
▁manip	-4954
▁solid	-4955
▁garden	-4956
▁nations	-4957
▁primary	-4958
▁Japanese	-4959
▁exchange	-4960
▁memories	-4961
car	-4962
▁ax	-4963
roph	-4964
uits	-4965
▁arts	-4966
▁bran	-4967
▁hurt	-4968
ension	-4969
▁awful	-4970
▁prote	-4971
▁formed	-4972
▁circumst	-4973
▁equality	-4974
▁spectrum	-4975
▁entertain	-4976
▁radiation	-4977
▁distribution	-4978
▁45	-4979
icip	-4980
▁Cam	-4981
▁ped	-4982
▁dots	-4983
▁inev	-4984
▁pray	-4985
▁goals	-4986
▁sides	-4987
ulating	-4988
▁option	-4989
▁cultures	-4990
▁chemicals	-4991
▁interface	-4992
▁neighbors	-4993
▁intelligent	-4994
▁potentially	-4995
uh	-4996
gets	-4997
itan	-4998
▁Art	-4999
▁anx	-5000
▁fal	-5001
▁nar	-5002
▁phr	-5003
aters	-5004
erved	-5005
icing	-5006
▁2008	-5007
▁Comm	-5008
▁fert	-5009
▁grid	-5010
▁lawy	-5011
▁shad	-5012
▁summ	-5013
▁thin	-5014
▁unit	-5015
icious	-5016
▁kitch	-5017
▁uncle	-5018
▁Muslim	-5019
▁assign	-5020
chnology	-5021
▁Nigeria	-5022
▁engaged	-5023
▁rational	-5024
▁Francisco	-5025
▁dinosaurs	-5026
▁mechanism	-5027
▁definitely	-5028
▁expression	-5029
cal	-5030
lym	-5031
hyth	-5032
ipping	-5033
▁chart	-5034
fficient	-5035
▁centers	-5036
▁appropri	-5037
▁election	-5038
▁protection	-5039
▁represents	-5040
▁challenging	-5041
▁Ap	-5042
whel	-5043
▁bee	-5044
▁tap	-5045
▁peak	-5046
▁ride	-5047
Americ	-5048
▁Women	-5049
▁aster	-5050
▁beach	-5051
▁ideal	-5052
▁input	-5053
▁negot	-5054
▁roads	-5055
▁analog	-5056
▁concrete	-5057
▁activities	-5058
▁consumption	-5059
30	-5060
olf	-5061
▁Ac	-5062
▁Ah	-5063
uses	-5064
▁Lad	-5065
▁Lat	-5066
▁Sim	-5067
power	-5068
▁Bank	-5069
▁bill	-5070
▁desk	-5071
▁flag	-5072
▁serve	-5073
▁teeth	-5074
▁acting	-5075
▁budget	-5076
▁script	-5077
▁depends	-5078
▁outcome	-5079
▁witness	-5080
▁recorded	-5081
▁components	-5082
▁grandfather	-5083
▁nav	-5084
▁rub	-5085
lines	-5086
▁Alex	-5087
▁loud	-5088
▁surf	-5089
▁added	-5090
▁coral	-5091
▁cyber	-5092
▁Center	-5093
▁joined	-5094
▁poetry	-5095
▁regard	-5096
▁applied	-5097
▁encoura	-5098
▁include	-5099
▁prepared	-5100
▁introduce	-5101
▁productive	-5102
▁properties	-5103
▁mathematical	-5104
ov	-5105
fit	-5106
▁fro	-5107
isher	-5108
▁vent	-5109
▁aging	-5110
▁grain	-5111
▁horiz	-5112
▁polar	-5113
▁steel	-5114
▁conver	-5115
▁fabric	-5116
▁status	-5117
▁cartoon	-5118
▁regions	-5119
▁silence	-5120
▁overwhel	-5121
▁mountains	-5122
▁perception	-5123
GO	-5124
esh	-5125
mas	-5126
aming	-5127
▁2010	-5128
▁pair	-5129
isters	-5130
porary	-5131
▁cards	-5132
▁court	-5133
▁advice	-5134
▁driven	-5135
▁hoping	-5136
▁sample	-5137
▁struck	-5138
▁gravity	-5139
▁maintain	-5140
▁naturally	-5141
▁instrument	-5142
▁situations	-5143
20	-5144
aser	-5145
▁Jan	-5146
▁Pol	-5147
▁Wow	-5148
alled	-5149
retch	-5150
▁biom	-5151
▁lapt	-5152
▁Other	-5153
▁curve	-5154
akistan	-5155
▁factor	-5156
▁pulled	-5157
▁feature	-5158
▁funding	-5159
▁organism	-5160
▁invention	-5161
▁terrorism	-5162
▁democratic	-5163
abet	-5164
▁Pac	-5165
vable	-5166
▁Also	-5167
olving	-5168
▁reven	-5169
▁uncom	-5170
▁arrest	-5171
▁bubble	-5172
▁former	-5173
▁survey	-5174
▁attacks	-5175
▁recover	-5176
▁asteroid	-5177
▁confront	-5178
▁password	-5179
▁soldiers	-5180
▁transfer	-5181
▁introduced	-5182
▁meaningful	-5183
▁resistance	-5184
▁restaurant	-5185
▁exploration	-5186
PS	-5187
asks	-5188
▁Dep	-5189
▁Pat	-5190
▁Sat	-5191
▁cha	-5192
▁eld	-5193
▁Only	-5194
▁drag	-5195
▁spin	-5196
▁tack	-5197
iosity	-5198
▁occup	-5199
▁paral	-5200
▁shall	-5201
▁signs	-5202
▁staff	-5203
▁drives	-5204
▁repair	-5205
▁trials	-5206
▁options	-5207
▁quarter	-5208
▁Anderson	-5209
▁abstract	-5210
▁graduate	-5211
▁molecular	-5212
▁literature	-5213
▁collaboration	-5214
bl	-5215
uel	-5216
▁Fe	-5217
cont	-5218
omas	-5219
rary	-5220
▁Ber	-5221
ograp	-5222
▁busy	-5223
▁hung	-5224
▁facts	-5225
▁shoot	-5226
▁Before	-5227
▁execut	-5228
▁season	-5229
▁falling	-5230
▁kitchen	-5231
▁therapy	-5232
▁vaccine	-5233
▁Pakistan	-5234
▁pregnant	-5235
▁ancestors	-5236
▁centuries	-5237
▁typically	-5238
▁sophisticated	-5239
▁Qu	-5240
▁Rev	-5241
▁lic	-5242
▁1990	-5243
▁appe	-5244
▁hang	-5245
▁maps	-5246
▁scar	-5247
▁horse	-5248
▁buying	-5249
▁contem	-5250
▁convince	-5251
▁relevant	-5252
▁Institute	-5253
▁hospitals	-5254
▁mortality	-5255
▁appreciate	-5256
▁convention	-5257
▁institution	-5258
▁technological	-5259
ris	-5260
Tube	-5261
berg	-5262
iano	-5263
▁iPh	-5264
▁mur	-5265
icago	-5266
orous	-5267
▁lens	-5268
▁unus	-5269
▁Paris	-5270
▁doubt	-5271
▁fewer	-5272
▁tests	-5273
▁advent	-5274
▁deploy	-5275
▁Angeles	-5276
▁Michael	-5277
▁YouTube	-5278
▁afterno	-5279
▁embrace	-5280
▁evening	-5281
▁harvest	-5282
▁mistake	-5283
▁opinion	-5284
▁carrying	-5285
▁internal	-5286
hes	-5287
xim	-5288
▁BG	-5289
heim	-5290
▁ack	-5291
scale	-5292
▁acqu	-5293
friend	-5294
ternal	-5295
▁While	-5296
▁resil	-5297
▁compar	-5298
▁desper	-5299
▁Chicago	-5300
▁dropped	-5301
▁mystery	-5302
▁singing	-5303
▁visible	-5304
▁swimming	-5305
▁generally	-5306
▁innovative	-5307
aj	-5308
igm	-5309
orb	-5310
zed	-5311
▁2.	-5312
olds	-5313
▁Rob	-5314
▁gut	-5315
▁mak	-5316
▁decl	-5317
▁dogs	-5318
▁lect	-5319
▁runs	-5320
▁notes	-5321
▁satis	-5322
▁topic	-5323
▁trend	-5324
▁perman	-5325
▁spring	-5326
▁winter	-5327
▁aspects	-5328
▁records	-5329
▁sensors	-5330
▁constant	-5331
▁pleasure	-5332
▁policies	-5333
▁interests	-5334
▁interpret	-5335
▁newspaper	-5336
▁destruction	-5337
bur	-5338
▁Gh	-5339
ingu	-5340
ught	-5341
▁Pri	-5342
▁Sil	-5343
▁pip	-5344
▁rom	-5345
orest	-5346
▁Part	-5347
▁Stan	-5348
▁cere	-5349
▁Inter	-5350
▁chose	-5351
▁dress	-5352
▁flies	-5353
▁sweet	-5354
▁bottle	-5355
▁clever	-5356
▁evolve	-5357
▁inject	-5358
▁sports	-5359
▁operate	-5360
▁disaster	-5361
▁hydrogen	-5362
▁explained	-5363
▁implement	-5364
▁providing	-5365
ener	-5366
iate	-5367
oice	-5368
olic	-5369
opia	-5370
▁Five	-5371
▁orch	-5372
▁State	-5373
▁dedic	-5374
▁grade	-5375
▁grant	-5376
▁hyper	-5377
▁liked	-5378
▁navig	-5379
▁teams	-5380
▁deaths	-5381
▁enable	-5382
▁secure	-5383
▁thanks	-5384
▁clothes	-5385
▁empathy	-5386
▁mistakes	-5387
▁awareness	-5388
▁collected	-5389
▁practical	-5390
▁physically	-5391
▁explanation	-5392
cred	-5393
▁CEO	-5394
▁Dem	-5395
▁voc	-5396
night	-5397
▁cast	-5398
▁disg	-5399
▁Islam	-5400
▁admit	-5401
▁false	-5402
▁frank	-5403
▁initi	-5404
▁boring	-5405
▁immune	-5406
▁volume	-5407
▁Perhaps	-5408
▁viruses	-5409
▁measured	-5410
▁inspiration	-5411
can	-5412
ita	-5413
ums	-5414
▁23	-5415
▁Gal	-5416
▁Get	-5417
▁adj	-5418
▁wel	-5419
acing	-5420
inter	-5421
▁2009	-5422
▁vert	-5423
inging	-5424
▁expon	-5425
▁guide	-5426
▁label	-5427
▁pitch	-5428
rations	-5429
▁acknow	-5430
▁ingred	-5431
etically	-5432
▁defined	-5433
▁apparent	-5434
▁domestic	-5435
▁instruct	-5436
▁wireless	-5437
▁wondered	-5438
▁algorithm	-5439
▁constrain	-5440
▁discussion	-5441
▁photographs	-5442
500	-5443
ann	-5444
oft	-5445
▁Eth	-5446
▁Jer	-5447
▁Mic	-5448
eline	-5449
▁zone	-5450
▁immig	-5451
▁logic	-5452
▁lying	-5453
▁renew	-5454
▁Health	-5455
▁Number	-5456
▁flower	-5457
▁parking	-5458
▁allowing	-5459
▁operation	-5460
▁unexpected	-5461
hips	-5462
lymp	-5463
▁Bro	-5464
▁Mil	-5465
comes	-5466
gment	-5467
▁High	-5468
▁Sept	-5469
▁army	-5470
▁chap	-5471
▁clip	-5472
making	-5473
▁dozen	-5474
▁films	-5475
▁rooms	-5476
▁Anyway	-5477
▁assume	-5478
▁genius	-5479
▁handle	-5480
▁mirror	-5481
▁rising	-5482
▁solved	-5483
▁Charles	-5484
▁amounts	-5485
▁borders	-5486
▁pushing	-5487
▁imagined	-5488
▁stronger	-5489
ologically	-5490
▁economies	-5491
▁electronic	-5492
itz	-5493
omm	-5494
vis	-5495
▁nurs	-5496
▁barri	-5497
▁coord	-5498
▁faced	-5499
▁ridic	-5500
▁thick	-5501
▁toxic	-5502
▁upper	-5503
▁Valley	-5504
aneously	-5505
▁Pacific	-5506
▁burning	-5507
▁causing	-5508
▁conserv	-5509
▁tonight	-5510
▁unusual	-5511
▁accurate	-5512
▁combined	-5513
▁proteins	-5514
▁percentage	-5515
alt	-5516
gent	-5517
▁Air	-5518
▁meg	-5519
▁que	-5520
▁row	-5521
lobal	-5522
▁cord	-5523
▁silk	-5524
▁Olymp	-5525
▁angry	-5526
▁sugar	-5527
▁traum	-5528
▁agreed	-5529
▁cortex	-5530
▁stayed	-5531
▁studio	-5532
▁channel	-5533
▁remains	-5534
▁Everyone	-5535
▁director	-5536
▁occurred	-5537
▁refugees	-5538
▁September	-5539
▁afternoon	-5540
▁confidence	-5541
▁personally	-5542
▁applications	-5543
ads	-5544
sem	-5545
oons	-5546
▁Int	-5547
▁sen	-5548
anish	-5549
oston	-5550
▁evil	-5551
▁mile	-5552
▁pool	-5553
▁prem	-5554
▁susp	-5555
ptions	-5556
▁Union	-5557
▁memor	-5558
▁Nobody	-5559
▁writer	-5560
▁closely	-5561
▁figures	-5562
▁largely	-5563
▁offered	-5564
▁violent	-5565
▁vehicles	-5566
▁functions	-5567
▁efficiency	-5568
▁Unfortunately	-5569
▁Ma	-5570
▁ju	-5571
aust	-5572
elly	-5573
rets	-5574
▁GPS	-5575
itors	-5576
point	-5577
▁bias	-5578
▁nose	-5579
▁plus	-5580
athers	-5581
▁Obama	-5582
▁score	-5583
▁Boston	-5584
▁Thomas	-5585
▁critic	-5586
▁divide	-5587
▁explos	-5588
▁extent	-5589
▁illegal	-5590
▁nowhere	-5591
▁dramatic	-5592
▁features	-5593
▁authority	-5594
▁computing	-5595
▁determine	-5596
▁protected	-5597
▁passionate	-5598
▁instruments	-5599
gr	-5600
ria	-5601
▁rit	-5602
iment	-5603
▁acts	-5604
▁diss	-5605
▁pill	-5606
▁sets	-5607
▁tank	-5608
▁wars	-5609
▁zoom	-5610
▁bones	-5611
▁shame	-5612
▁smile	-5613
▁button	-5614
▁remove	-5615
▁efforts	-5616
▁fingers	-5617
▁musical	-5618
▁receive	-5619
▁pollution	-5620
▁recognized	-5621
sp	-5622
oded	-5623
▁sla	-5624
▁diam	-5625
▁hits	-5626
▁mere	-5627
arency	-5628
▁5,000	-5629
▁Steve	-5630
▁plate	-5631
illance	-5632
respond	-5633
▁Russia	-5634
▁clinic	-5635
▁player	-5636
▁chicken	-5637
▁frankly	-5638
▁outcomes	-5639
▁reported	-5640
▁framework	-5641
▁statement	-5642
▁conclusion	-5643
▁greenhouse	-5644
▁underwater	-5645
▁personality	-5646
ola	-5647
crim	-5648
ifth	-5649
▁250	-5650
▁Haw	-5651
▁pin	-5652
▁raw	-5653
ingly	-5654
▁elev	-5655
▁flew	-5656
▁grab	-5657
arrass	-5658
▁alien	-5659
▁boxes	-5660
▁judge	-5661
▁prime	-5662
▁prost	-5663
▁style	-5664
▁ladies	-5665
▁placed	-5666
▁rocket	-5667
▁January	-5668
▁Project	-5669
▁equally	-5670
▁contrast	-5671
▁download	-5672
▁horrible	-5673
▁vaccines	-5674
▁correspond	-5675
▁laboratory	-5676
▁implications	-5677
▁circumstances	-5678
min	-5679
rol	-5680
iday	-5681
iety	-5682
▁Bab	-5683
▁Law	-5684
agram	-5685
▁boss	-5686
▁cosm	-5687
▁ears	-5688
▁firm	-5689
▁glam	-5690
▁joke	-5691
▁seek	-5692
▁3,000	-5693
▁depth	-5694
▁explo	-5695
▁youth	-5696
inction	-5697
▁church	-5698
▁iPhone	-5699
▁worker	-5700
onscious	-5701
▁advance	-5702
▁circuit	-5703
▁comment	-5704
▁dancing	-5705
▁discipl	-5706
▁reverse	-5707
▁creature	-5708
▁provided	-5709
▁embarrass	-5710
▁distributed	-5711
ey	-5712
ta	-5713
ula	-5714
▁Po	-5715
anta	-5716
earch	-5717
▁Fort	-5718
▁bicy	-5719
▁debt	-5720
▁obst	-5721
phones	-5722
▁Space	-5723
▁error	-5724
▁fixed	-5725
▁globe	-5726
▁storm	-5727
▁border	-5728
▁patent	-5729
▁signed	-5730
▁balloon	-5731
▁diction	-5732
▁floating	-5733
▁emergency	-5734
▁capitalism	-5735
▁productivity	-5736
▁ug	-5737
bage	-5738
engu	-5739
icit	-5740
rors	-5741
▁Che	-5742
▁Tur	-5743
▁1980	-5744
▁Mary	-5745
▁horm	-5746
▁stro	-5747
▁tape	-5748
▁About	-5749
▁Apple	-5750
▁Black	-5751
▁Found	-5752
▁datab	-5753
▁weigh	-5754
▁reject	-5755
▁senses	-5756
▁tested	-5757
▁cheaper	-5758
▁feeding	-5759
▁stretch	-5760
▁younger	-5761
▁Republic	-5762
▁infected	-5763
▁presence	-5764
▁curiosity	-5765
▁recording	-5766
▁connecting	-5767
▁educational	-5768
▁sustainability	-5769
za	-5770
appy	-5771
gger	-5772
▁Lib	-5773
▁bes	-5774
acles	-5775
iring	-5776
iters	-5777
oding	-5778
▁dign	-5779
▁leap	-5780
▁mice	-5781
▁reef	-5782
▁brown	-5783
▁cents	-5784
▁fears	-5785
▁grows	-5786
▁hotel	-5787
▁schol	-5788
▁vital	-5789
▁crying	-5790
▁monkey	-5791
▁scenar	-5792
inations	-5793
▁Central	-5794
▁carried	-5795
▁electro	-5796
▁suicide	-5797
▁equation	-5798
▁customers	-5799
▁sensitive	-5800
▁spreading	-5801
▁technique	-5802
▁surveillance	-5803
ih	-5804
wr	-5805
▁0	-5806
ald	-5807
ata	-5808
▁27	-5809
▁Es	-5810
cers	-5811
▁rig	-5812
entic	-5813
▁2007	-5814
▁Mont	-5815
▁chip	-5816
▁elim	-5817
▁knee	-5818
▁root	-5819
▁wine	-5820
heimer	-5821
▁House	-5822
▁atoms	-5823
▁plays	-5824
▁scary	-5825
▁taste	-5826
itution	-5827
▁barely	-5828
▁extend	-5829
▁sphere	-5830
▁Finally	-5831
▁breathe	-5832
▁exposed	-5833
▁removed	-5834
▁Remember	-5835
▁Something	-5836
▁consumers	-5837
▁insurance	-5838
▁marketing	-5839
▁department	-5840
▁mathematic	-5841
▁antibiotics	-5842
▁populations	-5843
▁conservation	-5844
aud	-5845
vey	-5846
gged	-5847
plom	-5848
▁Tal	-5849
▁aim	-5850
▁arr	-5851
▁twe	-5852
▁Mark	-5853
▁Wall	-5854
▁clus	-5855
▁ours	-5856
acular	-5857
rition	-5858
▁Latin	-5859
▁minor	-5860
▁prize	-5861
▁stone	-5862
through	-5863
▁devast	-5864
▁puzzle	-5865
ollywood	-5866
▁citizen	-5867
▁extinct	-5868
▁flowers	-5869
▁library	-5870
▁players	-5871
▁solving	-5872
▁subjects	-5873
▁confident	-5874
▁corporate	-5875
▁transformed	-5876
arct	-5877
foot	-5878
illy	-5879
▁dot	-5880
▁Next	-5881
▁Star	-5882
▁Talk	-5883
▁club	-5884
▁fake	-5885
▁lung	-5886
source	-5887
▁knock	-5888
▁march	-5889
▁orbit	-5890
▁ought	-5891
▁seeds	-5892
▁linked	-5893
▁string	-5894
▁intense	-5895
▁collapse	-5896
▁elephant	-5897
▁engaging	-5898
▁strangers	-5899
▁uncertain	-5900
▁mechanical	-5901
▁recognition	-5902
vas	-5903
▁Rw	-5904
ogue	-5905
oked	-5906
what	-5907
▁Alz	-5908
▁Pan	-5909
stand	-5910
▁Port	-5911
▁blow	-5912
▁prec	-5913
▁Count	-5914
▁Never	-5915
▁accum	-5916
▁doors	-5917
▁pharm	-5918
▁phase	-5919
▁rocks	-5920
▁toler	-5921
▁assemb	-5922
▁limits	-5923
▁Antarct	-5924
▁careful	-5925
▁classes	-5926
▁combine	-5927
▁disrupt	-5928
▁fishing	-5929
▁painful	-5930
▁samples	-5931
▁savings	-5932
▁disorder	-5933
▁magnetic	-5934
▁Alzheimer	-5935
▁Revolution	-5936
▁collecting	-5937
▁journalist	-5938
▁surrounded	-5939
▁transplant	-5940
▁dramatically	-5941
ias	-5942
aint	-5943
oned	-5944
rill	-5945
▁toy	-5946
level	-5947
▁1960	-5948
▁Hell	-5949
▁eggs	-5950
▁Human	-5951
▁abuse	-5952
▁colum	-5953
▁fruit	-5954
▁pengu	-5955
▁split	-5956
▁tasks	-5957
ogether	-5958
▁pollen	-5959
▁relate	-5960
▁classic	-5961
▁existed	-5962
▁overall	-5963
▁proport	-5964
▁prosper	-5965
connected	-5966
▁birthday	-5967
▁distinct	-5968
▁committed	-5969
▁continued	-5970
▁practices	-5971
▁presented	-5972
▁spiritual	-5973
▁accessible	-5974
▁controlled	-5975
▁International	-5976
▁psychological	-5977
ka	-5978
gic	-5979
och	-5980
▁Gl	-5981
ooth	-5982
roll	-5983
tery	-5984
unate	-5985
called	-5986
▁banks	-5987
▁champ	-5988
▁dense	-5989
▁drove	-5990
▁theme	-5991
eration	-5992
ushroom	-5993
▁Palest	-5994
▁lifest	-5995
▁Science	-5996
▁decline	-5997
▁fiction	-5998
▁methods	-5999
▁wanting	-6000
▁sunlight	-6001
▁tracking	-6002
▁apartment	-6003
▁colleague	-6004
▁exploring	-6005
▁uncomfort	-6006
▁neighborhoods	-6007
▁65	-6008
over	-6009
▁Jes	-6010
▁Mom	-6011
▁Mon	-6012
▁ath	-6013
▁sem	-6014
gging	-6015
using	-6016
▁icon	-6017
▁milk	-6018
▁wash	-6019
▁adopt	-6020
▁plans	-6021
▁walks	-6022
▁borrow	-6023
▁clouds	-6024
▁escape	-6025
▁papers	-6026
▁pocket	-6027
▁portra	-6028
▁recomm	-6029
ographer	-6030
▁anticip	-6031
▁cooking	-6032
▁reconst	-6033
▁windows	-6034
▁achieved	-6035
▁somewhat	-6036
▁traveled	-6037
▁precisely	-6038
▁searching	-6039
▁selection	-6040
▁fascinated	-6041
▁application	-6042
ls	-6043
▁x	-6044
▁ru	-6045
case	-6046
keys	-6047
tail	-6048
▁600	-6049
▁Nat	-6050
▁Sam	-6051
▁bow	-6052
▁enh	-6053
▁mat	-6054
bally	-6055
▁1950	-6056
▁gras	-6057
▁falls	-6058
▁presc	-6059
century	-6060
▁Global	-6061
▁candid	-6062
▁fisher	-6063
▁fright	-6064
▁thrown	-6065
▁command	-6066
▁destroyed	-6067
▁generated	-6068
▁resolution	-6069
▁transparency	-6070
▁automatically	-6071
▁communications	-6072
▁py	-6073
erge	-6074
oken	-6075
▁Day	-6076
▁bat	-6077
agger	-6078
aving	-6079
belie	-6080
oster	-6081
oxide	-6082
▁Ethi	-6083
▁neut	-6084
▁rush	-6085
▁ugly	-6086
asters	-6087
ateful	-6088
▁Grand	-6089
▁Mount	-6090
▁advoc	-6091
▁anger	-6092
▁breed	-6093
▁imper	-6094
▁skull	-6095
onymous	-6096
▁narrow	-6097
▁owners	-6098
▁storyt	-6099
▁traged	-6100
▁Nothing	-6101
▁essence	-6102
▁surgeon	-6103
▁accepted	-6104
▁overcome	-6105
▁wherever	-6106
▁breathing	-6107
▁celebrate	-6108
▁identical	-6109
▁standards	-6110
▁architects	-6111
▁contribute	-6112
▁disability	-6113
▁psychology	-6114
▁appropriate	-6115
▁entrepreneur	-6116
ari	-6117
rit	-6118
cean	-6119
east	-6120
icks	-6121
▁Hig	-6122
▁Jim	-6123
orter	-6124
▁Girl	-6125
▁cock	-6126
▁lets	-6127
▁pace	-6128
▁aside	-6129
▁aston	-6130
▁fuels	-6131
▁stack	-6132
raction	-6133
▁Museum	-6134
▁phrase	-6135
▁plenty	-6136
▁scream	-6137
▁continu	-6138
▁paralle	-6139
▁Stanford	-6140
▁drinking	-6141
▁hypothes	-6142
▁paradigm	-6143
▁suggests	-6144
▁reference	-6145
▁economists	-6146
▁microscope	-6147
▁uncomfortable	-6148
gl	-6149
aret	-6150
▁Jul	-6151
▁Nob	-6152
▁Tor	-6153
▁Wik	-6154
arity	-6155
iders	-6156
iture	-6157
ogram	-6158
think	-6159
▁cash	-6160
▁rely	-6161
imeter	-6162
▁decre	-6163
▁enemy	-6164
▁metab	-6165
▁piano	-6166
▁recru	-6167
▁whist	-6168
section	-6169
▁colony	-6170
▁fertil	-6171
▁fusion	-6172
▁invite	-6173
▁murder	-6174
▁repeat	-6175
▁spinal	-6176
▁stands	-6177
▁whales	-6178
▁airport	-6179
▁conclud	-6180
▁dioxide	-6181
▁trigger	-6182
▁Africans	-6183
▁captured	-6184
▁concepts	-6185
▁reaching	-6186
▁documents	-6187
▁household	-6188
▁Foundation	-6189
▁mechanisms	-6190
▁experiencing	-6191
aks	-6192
gun	-6193
nda	-6194
nic	-6195
sum	-6196
▁id	-6197
adic	-6198
nels	-6199
omic	-6200
udes	-6201
▁Wal	-6202
pring	-6203
▁Cons	-6204
▁Gold	-6205
▁Tell	-6206
▁plot	-6207
profit	-6208
▁White	-6209
▁abund	-6210
▁crops	-6211
▁laser	-6212
▁proof	-6213
▁rhyth	-6214
iveness	-6215
▁agency	-6216
▁oldest	-6217
▁proced	-6218
▁pushed	-6219
▁surely	-6220
American	-6221
▁entered	-6222
▁housing	-6223
▁passing	-6224
▁poorest	-6225
▁scratch	-6226
▁suppose	-6227
▁hardware	-6228
▁obsessed	-6229
▁shoulder	-6230
▁villages	-6231
▁Christmas	-6232
▁interactive	-6233
aws	-6234
▁36	-6235
▁Ty	-6236
rous	-6237
▁Sch	-6238
▁fan	-6239
arant	-6240
being	-6241
edded	-6242
leton	-6243
▁June	-6244
▁dust	-6245
▁gray	-6246
▁item	-6247
▁nest	-6248
abetes	-6249
▁Higgs	-6250
▁Nobel	-6251
▁Woman	-6252
▁chrom	-6253
▁flash	-6254
▁utter	-6255
▁Sweden	-6256
▁legacy	-6257
▁profit	-6258
▁victim	-6259
▁designs	-6260
▁disturb	-6261
▁diverse	-6262
▁finance	-6263
▁herself	-6264
▁neither	-6265
▁robotic	-6266
▁academic	-6267
▁brothers	-6268
▁occasion	-6269
▁continues	-6270
▁diagnosed	-6271
▁disorders	-6272
▁philosophy	-6273
▁conventional	-6274
▁expectations	-6275
▁interactions	-6276
-1	-6277
me	-6278
omb	-6279
rey	-6280
▁Us	-6281
onna	-6282
well	-6283
icted	-6284
▁Jeff	-6285
▁bike	-6286
▁furn	-6287
▁pour	-6288
▁rice	-6289
▁ring	-6290
arters	-6291
▁blank	-6292
▁chest	-6293
▁humor	-6294
▁recyc	-6295
▁shell	-6296
▁tight	-6297
▁tired	-6298
▁title	-6299
▁Micros	-6300
▁ensure	-6301
▁output	-6302
▁surviv	-6303
▁amongst	-6304
▁anxiety	-6305
▁distant	-6306
▁section	-6307
▁speaker	-6308
▁vessels	-6309
▁breaking	-6310
▁estimate	-6311
▁grateful	-6312
▁properly	-6313
▁exhibition	-6314
▁historical	-6315
▁interacting	-6316
▁spectacular	-6317
den	-6318
ige	-6319
mal	-6320
sey	-6321
▁fib	-6322
▁gla	-6323
▁unp	-6324
attan	-6325
itory	-6326
▁emph	-6327
▁incl	-6328
▁Korea	-6329
▁aband	-6330
▁aspir	-6331
▁chaos	-6332
▁drill	-6333
▁fluid	-6334
▁legis	-6335
▁nutri	-6336
▁usual	-6337
▁hungry	-6338
▁marine	-6339
▁liberal	-6340
▁infinite	-6341
▁organize	-6342
▁treating	-6343
▁conflicts	-6344
▁elections	-6345
▁footprint	-6346
▁paintings	-6347
▁privilege	-6348
▁virtually	-6349
alu	-6350
iam	-6351
nam	-6352
tes	-6353
▁Ox	-6354
iled	-6355
lete	-6356
oust	-6357
▁sed	-6358
otion	-6359
rants	-6360
▁Adam	-6361
▁Manh	-6362
▁Stud	-6363
▁ages	-6364
▁Democ	-6365
▁Super	-6366
▁crack	-6367
▁suppl	-6368
imately	-6369
uration	-6370
▁farmer	-6371
▁hunger	-6372
▁needle	-6373
▁prices	-6374
▁toilet	-6375
▁appears	-6376
▁collaps	-6377
▁dignity	-6378
▁mindset	-6379
▁raising	-6380
▁administ	-6381
▁astronom	-6382
▁attached	-6383
▁illusion	-6384
▁Basically	-6385
▁Hollywood	-6386
▁Manhattan	-6387
▁delivered	-6388
▁depending	-6389
▁breakthrough	-6390
bi	-6391
ham	-6392
hol	-6393
org	-6394
ras	-6395
▁La	-6396
▁Cop	-6397
▁Hel	-6398
▁mim	-6399
▁spr	-6400
opher	-6401
osure	-6402
▁2005	-6403
▁cute	-6404
▁hire	-6405
▁hook	-6406
▁prev	-6407
▁tent	-6408
mented	-6409
▁Scott	-6410
▁apple	-6411
▁brave	-6412
▁clock	-6413
▁domin	-6414
▁maxim	-6415
▁persu	-6416
▁roots	-6417
▁sales	-6418
▁smoke	-6419
▁hearts	-6420
▁mainly	-6421
▁retire	-6422
children	-6423
▁beliefs	-6424
▁mammals	-6425
▁opposed	-6426
▁orchest	-6427
▁regener	-6428
▁synthes	-6429
▁whereas	-6430
▁backwards	-6431
▁component	-6432
▁behavioral	-6433
▁optimistic	-6434
▁performing	-6435
▁treatments	-6436
▁entertainment	-6437
dri	-6438
hop	-6439
▁SS	-6440
etch	-6441
tech	-6442
ulse	-6443
▁NGO	-6444
▁Spe	-6445
▁mad	-6446
▁upl	-6447
while	-6448
▁1970	-6449
▁2011	-6450
▁Budd	-6451
▁excl	-6452
▁pink	-6453
▁rent	-6454
▁tech	-6455
▁Ghana	-6456
▁honey	-6457
▁polio	-6458
▁reput	-6459
anthrop	-6460
plicity	-6461
▁diplom	-6462
▁stable	-6463
▁weapon	-6464
▁chromos	-6465
▁disgust	-6466
▁inspire	-6467
▁painted	-6468
▁publish	-6469
▁rebuild	-6470
▁Children	-6471
▁diabetes	-6472
▁embedded	-6473
▁globally	-6474
▁mushroom	-6475
▁produces	-6476
▁Christian	-6477
▁announced	-6478
▁authentic	-6479
▁diagnosis	-6480
▁objective	-6481
▁commitment	-6482
▁represented	-6483
▁presentation	-6484
▁globalization	-6485
ani	-6486
han	-6487
lyn	-6488
▁32	-6489
▁95	-6490
ares	-6491
▁Oct	-6492
▁cab	-6493
▁tea	-6494
copes	-6495
iance	-6496
mates	-6497
▁Pole	-6498
▁Turn	-6499
▁anat	-6500
▁cens	-6501
▁gest	-6502
▁poly	-6503
▁Congo	-6504
▁Voice	-6505
▁liver	-6506
▁manif	-6507
▁purch	-6508
▁pyram	-6509
▁yield	-6510
▁Really	-6511
▁conven	-6512
▁expans	-6513
▁filter	-6514
▁frozen	-6515
▁hardly	-6516
▁heroes	-6517
▁ignore	-6518
▁laptop	-6519
▁latest	-6520
▁neuron	-6521
▁rarely	-6522
▁rating	-6523
▁concern	-6524
▁concert	-6525
▁diagram	-6526
▁habitat	-6527
▁license	-6528
▁monkeys	-6529
▁parties	-6530
▁picking	-6531
▁Research	-6532
▁meetings	-6533
▁reminded	-6534
▁increases	-6535
▁infection	-6536
▁permanent	-6537
▁incentives	-6538
▁integrated	-6539
oes	-6540
rat	-6541
top	-6542
▁Cy	-6543
▁Hi	-6544
aded	-6545
fall	-6546
▁Bon	-6547
▁Del	-6548
▁Lab	-6549
▁vot	-6550
isons	-6551
▁Step	-6552
▁guns	-6553
▁laid	-6554
▁limb	-6555
▁Prize	-6556
▁shake	-6557
▁tries	-6558
▁units	-6559
▁unpre	-6560
▁absorb	-6561
▁actors	-6562
▁chocol	-6563
▁facial	-6564
▁missed	-6565
▁powers	-6566
▁affects	-6567
▁crucial	-6568
▁unbelie	-6569
▁choosing	-6570
▁instinct	-6571
▁involves	-6572
▁vertical	-6573
▁Microsoft	-6574
▁dedicated	-6575
▁elsewhere	-6576
▁measuring	-6577
▁controvers	-6578
▁directions	-6579
▁strategies	-6580
▁advertising	-6581
▁electronics	-6582
uk	-6583
hib	-6584
▁Sl	-6585
ague	-6586
amin	-6587
osal	-6588
pled	-6589
rich	-6590
▁Cor	-6591
▁Eas	-6592
▁Jack	-6593
▁earn	-6594
▁sacr	-6595
▁seas	-6596
▁bombs	-6597
▁dynam	-6598
▁elder	-6599
▁adjust	-6600
▁behave	-6601
▁divided	-6602
▁federal	-6603
▁guarant	-6604
▁implant	-6605
▁printed	-6606
▁sisters	-6607
▁official	-6608
▁stranger	-6609
▁dimension	-6610
▁encounter	-6611
▁intention	-6612
▁lifestyle	-6613
▁responses	-6614
▁telescope	-6615
▁accomplish	-6616
▁rainforest	-6617
▁underlying	-6618
▁cooperation	-6619
▁journalists	-6620
▁universities	-6621
ali	-6622
agen	-6623
hour	-6624
ione	-6625
irds	-6626
▁120	-6627
▁Mad	-6628
▁Net	-6629
▁Ten	-6630
▁gro	-6631
eters	-6632
iform	-6633
itate	-6634
rates	-6635
worth	-6636
▁loop	-6637
▁rail	-6638
▁disag	-6639
▁spark	-6640
▁whale	-6641
▁Jewish	-6642
▁Nature	-6643
▁adding	-6644
▁lovely	-6645
▁subtle	-6646
▁Muslims	-6647
▁defense	-6648
▁earthqu	-6649
▁letting	-6650
▁pointed	-6651
▁provides	-6652
▁functional	-6653
▁satellites	-6654
▁controlling	-6655
▁transparent	-6656
BI	-6657
rav	-6658
arsh	-6659
exas	-6660
pass	-6661
zens	-6662
▁gig	-6663
allow	-6664
▁gang	-6665
▁hill	-6666
makers	-6667
▁gonna	-6668
▁holds	-6669
▁marry	-6670
▁stere	-6671
▁wings	-6672
forward	-6673
unction	-6674
▁agenda	-6675
▁establ	-6676
▁locked	-6677
▁satisf	-6678
▁trends	-6679
▁Nations	-6680
▁Wikiped	-6681
▁lecture	-6682
▁smarter	-6683
▁visited	-6684
▁focusing	-6685
▁includes	-6686
▁isolated	-6687
▁repeated	-6688
▁exception	-6689
▁forgotten	-6690
▁intuitive	-6691
▁predicted	-6692
▁telephone	-6693
▁affordable	-6694
▁apparently	-6695
▁inevitable	-6696
▁protecting	-6697
▁consequence	-6698
▁programming	-6699
azz	-6700
spe	-6701
war	-6702
▁DH	-6703
▁Up	-6704
fold	-6705
▁Bob	-6706
▁sne	-6707
▁van	-6708
angle	-6709
isted	-6710
▁Arch	-6711
▁Sing	-6712
▁bind	-6713
▁peer	-6714
mingly	-6715
▁Peter	-6716
▁Texas	-6717
▁angle	-6718
▁wound	-6719
▁Island	-6720
▁Martin	-6721
▁Robert	-6722
▁Rwanda	-6723
▁Things	-6724
▁capita	-6725
▁intent	-6726
▁scores	-6727
▁shadow	-6728
▁silent	-6729
▁slides	-6730
▁volcan	-6731
▁Through	-6732
▁imaging	-6733
▁impacts	-6734
▁protest	-6735
▁tragedy	-6736
▁agencies	-6737
▁football	-6738
▁parallel	-6739
▁southern	-6740
▁Wikipedia	-6741
▁investing	-6742
▁synthetic	-6743
▁terrorist	-6744
▁originally	-6745
▁struggling	-6746
▁discoveries	-6747
cip	-6748
iac	-6749
doll	-6750
▁Hom	-6751
enger	-6752
under	-6753
▁2012	-6754
▁Give	-6755
▁cous	-6756
▁fool	-6757
▁stun	-6758
▁tube	-6759
arents	-6760
lessly	-6761
orking	-6762
▁Ocean	-6763
▁comed	-6764
▁dirty	-6765
▁monit	-6766
▁views	-6767
▁50,000	-6768
▁Arabic	-6769
▁Design	-6770
▁Indeed	-6771
▁fought	-6772
▁layers	-6773
▁reveal	-6774
▁smooth	-6775
▁circles	-6776
▁consume	-6777
▁density	-6778
▁granted	-6779
▁helpful	-6780
▁instant	-6781
▁officer	-6782
▁suspect	-6783
▁external	-6784
▁flexible	-6785
▁shooting	-6786
▁transact	-6787
▁variation	-6788
▁capability	-6789
▁determined	-6790
▁disappoint	-6791
▁permission	-6792
▁observation	-6793
bra	-6794
rus	-6795
▁Bu	-6796
osen	-6797
▁Mod	-6798
▁bon	-6799
▁der	-6800
▁hol	-6801
▁tro	-6802
ckets	-6803
reens	-6804
ureau	-6805
▁biod	-6806
▁bump	-6807
▁lean	-6808
▁mold	-6809
utical	-6810
▁River	-6811
▁begun	-6812
▁craft	-6813
▁exped	-6814
▁fract	-6815
▁pilot	-6816
▁threw	-6817
▁curren	-6818
▁dozens	-6819
▁emphas	-6820
▁margin	-6821
▁neural	-6822
▁regime	-6823
▁rescue	-6824
▁stores	-6825
▁reports	-6826
▁touched	-6827
▁bathroom	-6828
▁database	-6829
▁stations	-6830
▁prototype	-6831
▁Antarctica	-6832
▁governance	-6833
▁identified	-6834
▁ridiculous	-6835
ida	-6836
▁Hy	-6837
bits	-6838
ctic	-6839
icop	-6840
zees	-6841
▁Boy	-6842
▁Leg	-6843
▁ate	-6844
▁cro	-6845
alian	-6846
esity	-6847
iated	-6848
▁Cont	-6849
▁beet	-6850
▁dict	-6851
▁dump	-6852
▁flip	-6853
▁kiss	-6854
▁tied	-6855
erving	-6856
▁array	-6857
▁chief	-6858
▁drawn	-6859
▁prose	-6860
▁observ	-6861
▁partly	-6862
▁spider	-6863
▁autonom	-6864
▁ceiling	-6865
▁immense	-6866
▁smoking	-6867
▁appeared	-6868
▁dolphins	-6869
▁invested	-6870
▁manifest	-6871
▁theories	-6872
▁abilities	-6873
▁highlight	-6874
▁additional	-6875
▁engagement	-6876
▁characteristics	-6877
AR	-6878
ek	-6879
appe	-6880
izer	-6881
rons	-6882
▁10-	-6883
▁Aug	-6884
▁Bay	-6885
▁Put	-6886
▁Six	-6887
esign	-6888
icher	-6889
▁axis	-6890
▁corn	-6891
anzees	-6892
dollar	-6893
▁finds	-6894
▁flows	-6895
▁glaci	-6896
▁likes	-6897
▁naked	-6898
▁nerve	-6899
▁veter	-6900
▁perpet	-6901
▁simult	-6902
▁bicycle	-6903
▁consult	-6904
▁delight	-6905
▁deserve	-6906
▁exhaust	-6907
▁garbage	-6908
▁monitor	-6909
▁muscles	-6910
▁obesity	-6911
▁paradox	-6912
▁routine	-6913
▁wheelch	-6914
aceutical	-6915
▁Atlantic	-6916
▁Ethiopia	-6917
▁fabulous	-6918
▁romantic	-6919
▁boundaries	-6920
▁operations	-6921
▁assumptions	-6922
▁genetically	-6923
▁innovations	-6924
▁underground	-6925
▁agricultural	-6926
cel	-6927
ora	-6928
atto	-6929
bola	-6930
esis	-6931
lets	-6932
umes	-6933
▁191	-6934
▁Bur	-6935
▁Ice	-6936
▁Unt	-6937
▁cub	-6938
going	-6939
▁2004	-6940
▁Rome	-6941
▁adap	-6942
▁bull	-6943
▁fulf	-6944
▁lock	-6945
▁sink	-6946
▁trop	-6947
▁whis	-6948
ometer	-6949
▁blame	-6950
▁edges	-6951
▁route	-6952
▁tears	-6953
▁yours	-6954
▁regret	-6955
▁served	-6956
▁spoken	-6957
▁tackle	-6958
appeared	-6959
▁Spanish	-6960
▁comprom	-6961
▁drivers	-6962
▁emerged	-6963
▁failing	-6964
▁fastest	-6965
▁hanging	-6966
▁percept	-6967
▁warning	-6968
▁dinosaur	-6969
▁measures	-6970
▁recovery	-6971
▁suffered	-6972
▁animation	-6973
▁daughters	-6974
▁nutrients	-6975
▁translate	-6976
▁reputation	-6977
▁improvement	-6978
▁instructions	-6979
▁neuroscience	-6980
ua	-6981
▁26	-6982
▁BF	-6983
hear	-6984
ober	-6985
▁hat	-6986
▁pra	-6987
archy	-6988
stage	-6989
▁List	-6990
▁Sure	-6991
▁agre	-6992
▁bask	-6993
▁bend	-6994
▁caps	-6995
▁east	-6996
▁till	-6997
▁Carol	-6998
▁burst	-6999
▁chron	-7000
▁coach	-7001
▁conce	-7002
▁therm	-7003
▁eradic	-7004
▁geomet	-7005
▁grandp	-7006
▁orange	-7007
▁poison	-7008
▁punish	-7009
▁richer	-7010
▁talent	-7011
▁elected	-7012
▁secrets	-7013
▁unclear	-7014
▁confused	-7015
▁darkness	-7016
▁dialogue	-7017
▁northern	-7018
▁programm	-7019
▁returned	-7020
▁chocolate	-7021
▁Department	-7022
▁terrorists	-7023
▁translated	-7024
▁ingredients	-7025
▁philanthrop	-7026
▁grandchildren	-7027
▁participation	-7028
▁EM	-7029
▁ub	-7030
▁lin	-7031
▁lun	-7032
ester	-7033
inson	-7034
obile	-7035
▁Long	-7036
▁Make	-7037
▁Time	-7038
▁asks	-7039
▁bubb	-7040
▁lift	-7041
▁Greek	-7042
▁Italy	-7043
▁males	-7044
▁mixed	-7045
▁opens	-7046
▁paras	-7047
▁seats	-7048
▁silly	-7049
▁skept	-7050
▁stops	-7051
▁20,000	-7052
▁Should	-7053
▁combat	-7054
▁nurses	-7055
▁sacred	-7056
▁unable	-7057
▁voting	-7058
▁October	-7059
▁fulfill	-7060
▁millenn	-7061
▁refugee	-7062
▁traject	-7063
▁welcome	-7064
▁aircraft	-7065
▁minister	-7066
▁sleeping	-7067
▁speakers	-7068
▁throwing	-7069
▁dependent	-7070
▁immediate	-7071
▁radically	-7072
▁religions	-7073
▁sculpture	-7074
▁teenagers	-7075
▁afterwards	-7076
▁ecosystems	-7077
▁disappeared	-7078
▁probability	-7079
bed	-7080
fin	-7081
▁28	-7082
▁Bo	-7083
keep	-7084
viol	-7085
▁MRI	-7086
▁Sol	-7087
class	-7088
lings	-7089
quare	-7090
riger	-7091
tical	-7092
▁clim	-7093
▁crew	-7094
▁golf	-7095
▁neck	-7096
▁nets	-7097
▁stom	-7098
iatric	-7099
itudes	-7100
usions	-7101
▁joint	-7102
▁pione	-7103
▁safer	-7104
▁spots	-7105
ustrial	-7106
▁During	-7107
▁Friday	-7108
▁scales	-7109
▁analyze	-7110
▁contrad	-7111
▁enterpr	-7112
▁helicop	-7113
▁initial	-7114
▁prepare	-7115
▁delivery	-7116
▁district	-7117
▁educated	-7118
▁informed	-7119
▁scholars	-7120
▁arguments	-7121
▁factories	-7122
▁mechanics	-7123
▁approaches	-7124
▁demonstrate	-7125
IS	-7126
hen	-7127
hus	-7128
rix	-7129
yal	-7130
▁Ug	-7131
agon	-7132
ahar	-7133
ocin	-7134
▁Som	-7135
▁Sou	-7136
▁Sov	-7137
▁Ven	-7138
▁Was	-7139
▁hey	-7140
ading	-7141
cence	-7142
inals	-7143
▁Coun	-7144
▁brut	-7145
▁loan	-7146
▁mail	-7147
▁salt	-7148
▁shar	-7149
▁sits	-7150
▁Ebola	-7151
▁elite	-7152
▁fifth	-7153
▁intim	-7154
▁reson	-7155
▁upset	-7156
liament	-7157
viously	-7158
▁catast	-7159
▁excell	-7160
▁funded	-7161
▁settle	-7162
▁stages	-7163
▁tumors	-7164
cedented	-7165
▁chances	-7166
▁clients	-7167
▁enforce	-7168
▁involve	-7169
▁pretend	-7170
▁pyramid	-7171
▁targets	-7172
▁threats	-7173
▁baseball	-7174
▁complain	-7175
▁refriger	-7176
▁textbook	-7177
▁accidents	-7178
▁furniture	-7179
▁positions	-7180
▁simplicity	-7181
▁chimpanzees	-7182
▁biodiversity	-7183
▁humanitarian	-7184
▁participants	-7185
tw	-7186
elf	-7187
ixt	-7188
ods	-7189
ups	-7190
▁gh	-7191
born	-7192
urse	-7193
▁195	-7194
▁700	-7195
▁Bet	-7196
▁aes	-7197
▁lon	-7198
▁lux	-7199
▁obl	-7200
▁tip	-7201
cript	-7202
field	-7203
opard	-7204
▁2006	-7205
▁Back	-7206
▁Mach	-7207
▁Move	-7208
▁bags	-7209
▁beer	-7210
▁glad	-7211
▁neat	-7212
▁quad	-7213
▁Haiti	-7214
▁genoc	-7215
▁legit	-7216
▁links	-7217
▁shout	-7218
▁August	-7219
▁athlet	-7220
▁branch	-7221
▁chosen	-7222
▁degrad	-7223
▁emerge	-7224
▁poster	-7225
▁render	-7226
▁rivers	-7227
▁robust	-7228
▁senior	-7229
▁shaped	-7230
▁tricks	-7231
▁briefly	-7232
▁observe	-7233
▁promote	-7234
▁session	-7235
▁controls	-7236
▁extended	-7237
▁particle	-7238
▁strongly	-7239
▁versions	-7240
▁calculate	-7241
▁expansion	-7242
▁primarily	-7243
▁mysterious	-7244
▁corporations	-7245
▁interestingly	-7246
mm	-7247
mod	-7248
opy	-7249
apor	-7250
▁Acc	-7251
▁Rio	-7252
▁Sea	-7253
▁Tim	-7254
▁esc	-7255
▁nit	-7256
andel	-7257
▁Bush	-7258
▁boom	-7259
▁file	-7260
▁quit	-7261
iology	-7262
▁jelly	-7263
▁schem	-7264
▁tatto	-7265
▁trail	-7266
▁Little	-7267
▁Oxford	-7268
▁arrive	-7269
▁attend	-7270
▁bother	-7271
▁commod	-7272
▁decent	-7273
▁ending	-7274
▁ethnic	-7275
▁jumped	-7276
▁killer	-7277
▁Whether	-7278
▁deliber	-7279
▁ethical	-7280
▁farming	-7281
▁hackers	-7282
▁magical	-7283
▁slavery	-7284
▁Palestin	-7285
▁attitude	-7286
▁facility	-7287
▁incident	-7288
▁included	-7289
▁shopping	-7290
▁Obviously	-7291
▁establish	-7292
▁nutrition	-7293
▁physician	-7294
▁separated	-7295
▁resilience	-7296
▁threatened	-7297
▁volunteers	-7298
▁competitive	-7299
▁capabilities	-7300
▁contemporary	-7301
▁institutional	-7302
▁unprecedented	-7303
ye	-7304
ota	-7305
zes	-7306
▁Sn	-7307
ardo	-7308
bial	-7309
uity	-7310
yard	-7311
▁Mag	-7312
▁Vir	-7313
▁aer	-7314
▁bio	-7315
▁lit	-7316
tocin	-7317
▁bars	-7318
▁cats	-7319
▁eleg	-7320
▁leaf	-7321
▁lone	-7322
▁mode	-7323
▁tear	-7324
ietnam	-7325
ortion	-7326
▁4,000	-7327
▁Brown	-7328
▁Child	-7329
▁Gates	-7330
▁Hello	-7331
▁Titan	-7332
▁cryst	-7333
▁digit	-7334
▁fiber	-7335
▁thumb	-7336
▁Within	-7337
▁caring	-7338
▁landed	-7339
▁lawyer	-7340
▁anthrop	-7341
▁charity	-7342
▁closest	-7343
▁elderly	-7344
▁founded	-7345
▁printer	-7346
▁Southern	-7347
▁contains	-7348
▁figuring	-7349
▁lighting	-7350
▁symmetry	-7351
▁healthier	-7352
▁inspiring	-7353
▁passwords	-7354
▁primitive	-7355
▁recommend	-7356
▁frustrated	-7357
▁prediction	-7358
▁astonishing	-7359
▁photography	-7360
▁photographed	-7361
▁photographer	-7362
▁pharmaceutical	-7363
wl	-7364
erd	-7365
nes	-7366
ril	-7367
▁LG	-7368
enly	-7369
iece	-7370
ship	-7371
ulum	-7372
west	-7373
▁Bel	-7374
▁Gra	-7375
▁Kev	-7376
▁Mor	-7377
▁Sur	-7378
▁ain	-7379
▁caf	-7380
anged	-7381
ribly	-7382
▁2001	-7383
▁2003	-7384
▁Gand	-7385
▁Mike	-7386
▁Narr	-7387
▁alco	-7388
▁bold	-7389
▁meal	-7390
▁pile	-7391
▁subs	-7392
market	-7393
mental	-7394
▁arrow	-7395
▁bears	-7396
▁bored	-7397
▁diver	-7398
▁ignor	-7399
▁nurse	-7400
▁realm	-7401
▁trash	-7402
related	-7403
▁assets	-7404
▁buried	-7405
▁golden	-7406
▁injury	-7407
▁Without	-7408
▁chapter	-7409
▁compete	-7410
▁request	-7411
▁channels	-7412
▁homeless	-7413
▁scenario	-7414
▁unlikely	-7415
▁depressed	-7416
forestation	-7417
▁dictionary	-7418
▁explaining	-7419
▁medication	-7420
▁suggesting	-7421
▁exponential	-7422
▁intervention	-7423
▁successfully	-7424
▁professionals	-7425
ete	-7426
reh	-7427
▁0.	-7428
▁3.	-7429
atar	-7430
▁Sir	-7431
▁awk	-7432
puter	-7433
rones	-7434
▁Eric	-7435
▁Gulf	-7436
▁bond	-7437
▁horr	-7438
▁tort	-7439
▁Brook	-7440
▁actor	-7441
▁civic	-7442
▁gotta	-7443
▁Arctic	-7444
▁Disney	-7445
▁Mother	-7446
▁Uganda	-7447
▁adoles	-7448
▁sensor	-7449
▁sharks	-7450
▁shrimp	-7451
▁waters	-7452
▁widely	-7453
▁General	-7454
▁Islamic	-7455
▁Vietnam	-7456
▁awkward	-7457
▁reduced	-7458
▁symbols	-7459
▁arrested	-7460
▁conclude	-7461
▁fraction	-7462
▁homework	-7463
▁listened	-7464
▁skeleton	-7465
▁survived	-7466
▁elephants	-7467
▁expanding	-7468
▁physicist	-7469
▁sentences	-7470
▁suggested	-7471
▁simulation	-7472
▁wheelchair	-7473
▁achievement	-7474
▁established	-7475
▁interviewed	-7476
▁conservative	-7477
▁experimental	-7478
ura	-7479
free	-7480
utch	-7481
▁Gab	-7482
▁Hen	-7483
▁Jon	-7484
▁Que	-7485
▁Sal	-7486
▁dim	-7487
▁ink	-7488
▁rac	-7489
▁wet	-7490
▁wid	-7491
eller	-7492
flies	-7493
itous	-7494
state	-7495
▁Blue	-7496
▁Ever	-7497
▁Love	-7498
▁defe	-7499
▁dism	-7500
▁sons	-7501
edding	-7502
semble	-7503
▁Jesus	-7504
▁March	-7505
▁Smith	-7506
▁Third	-7507
▁altru	-7508
▁badly	-7509
▁balls	-7510
▁punch	-7511
▁sheep	-7512
▁confir	-7513
▁sticks	-7514
▁Eastern	-7515
▁Silicon	-7516
▁convert	-7517
▁enables	-7518
▁artistic	-7519
▁category	-7520
▁distingu	-7521
▁entering	-7522
▁improved	-7523
▁mosquito	-7524
▁precious	-7525
▁activists	-7526
▁gathering	-7527
▁reduction	-7528
▁consistent	-7529
▁earthquake	-7530
▁prosperity	-7531
▁terrifying	-7532
▁predictions	-7533
▁collaborative	-7534
kin	-7535
sec	-7536
uba	-7537
,500	-7538
ilty	-7539
onic	-7540
ownt	-7541
part	-7542
raph	-7543
▁Far	-7544
▁Isn	-7545
▁NSA	-7546
▁Sar	-7547
▁Sen	-7548
▁Tes	-7549
clock	-7550
ifice	-7551
▁Brun	-7552
▁dish	-7553
▁gods	-7554
▁odds	-7555
▁wise	-7556
bridge	-7557
nocent	-7558
▁Until	-7559
▁chips	-7560
▁cliff	-7561
▁excit	-7562
▁hired	-7563
▁hopes	-7564
▁incom	-7565
▁relax	-7566
▁aggreg	-7567
▁basket	-7568
▁chains	-7569
▁defend	-7570
▁enthus	-7571
▁merely	-7572
▁multip	-7573
▁tribes	-7574
▁trucks	-7575
andering	-7576
▁educate	-7577
▁enabled	-7578
▁pulling	-7579
▁sensory	-7580
▁writers	-7581
▁crossing	-7582
▁detailed	-7583
▁diagnost	-7584
▁disabled	-7585
▁laughing	-7586
▁optimism	-7587
▁oxytocin	-7588
▁initially	-7589
▁investors	-7590
▁perceived	-7591
▁categories	-7592
▁surprisingly	-7593
▁transmission	-7594
▁unbelievable	-7595
DA	-7596
bru	-7597
che	-7598
ena	-7599
hal	-7600
ool	-7601
ses	-7602
urd	-7603
▁CD	-7604
agos	-7605
onds	-7606
▁Jud	-7607
▁upd	-7608
ammed	-7609
aping	-7610
asses	-7611
break	-7612
ician	-7613
ilize	-7614
inder	-7615
▁blah	-7616
▁clot	-7617
▁gaps	-7618
▁mate	-7619
▁pupp	-7620
▁sail	-7621
cember	-7622
vation	-7623
▁Sorry	-7624
▁flour	-7625
▁fraud	-7626
▁gases	-7627
▁mayor	-7628
▁meter	-7629
▁nucle	-7630
▁owner	-7631
▁sheet	-7632
▁wider	-7633
ributes	-7634
▁chairs	-7635
▁heaven	-7636
▁native	-7637
▁paraly	-7638
▁tragic	-7639
▁trains	-7640
▁bedroom	-7641
▁drought	-7642
▁forming	-7643
▁fragile	-7644
▁hitting	-7645
▁imagery	-7646
▁methane	-7647
▁miracle	-7648
▁shelter	-7649
▁colonies	-7650
▁magnific	-7651
▁restrict	-7652
▁frequency	-7653
▁gradually	-7654
▁improving	-7655
▁musicians	-7656
▁biologists	-7657
▁excitement	-7658
▁facilities	-7659
▁proportion	-7660
▁authorities	-7661
▁reconstruct	-7662
ET	-7663
SP	-7664
uty	-7665
uum	-7666
▁MS	-7667
▁tu	-7668
emen	-7669
emic	-7670
izar	-7671
play	-7672
wich	-7673
▁Den	-7674
▁Lar	-7675
▁hip	-7676
▁sew	-7677
▁tub	-7678
▁Sund	-7679
▁acid	-7680
▁boun	-7681
▁cert	-7682
▁sulf	-7683
▁west	-7684
engine	-7685
rowing	-7686
▁Asian	-7687
▁Trans	-7688
▁audio	-7689
▁femin	-7690
▁Virgin	-7691
▁assess	-7692
▁burden	-7693
▁shrink	-7694
▁theore	-7695
▁adopted	-7696
▁arrange	-7697
▁discrim	-7698
▁footage	-7699
▁serving	-7700
▁December	-7701
▁answered	-7702
▁climbing	-7703
▁comments	-7704
▁currency	-7705
▁drawings	-7706
▁feminist	-7707
▁leverage	-7708
▁reliable	-7709
▁replaced	-7710
▁conducted	-7711
▁expertise	-7712
▁intuition	-7713
▁qualities	-7714
▁supported	-7715
▁assumption	-7716
▁industries	-7717
▁profoundly	-7718
▁traditions	-7719
▁constructed	-7720
▁collectively	-7721
MS	-7722
ona	-7723
▁Di	-7724
▁pa	-7725
ding	-7726
oped	-7727
zero	-7728
▁Det	-7729
▁Ter	-7730
▁gam	-7731
amine	-7732
anges	-7733
▁2050	-7734
▁Flor	-7735
▁Jane	-7736
▁dile	-7737
▁hier	-7738
▁pigs	-7739
▁suck	-7740
ospher	-7741
▁Charl	-7742
▁Organ	-7743
▁evalu	-7744
▁indig	-7745
▁schiz	-7746
ounding	-7747
▁Academ	-7748
▁Saturn	-7749
▁appeal	-7750
▁breaks	-7751
▁burned	-7752
▁convey	-7753
▁export	-7754
▁garage	-7755
▁grades	-7756
▁intrig	-7757
▁strand	-7758
▁upside	-7759
▁demands	-7760
▁happier	-7761
▁harness	-7762
▁islands	-7763
▁reminds	-7764
▁revenue	-7765
▁winning	-7766
istically	-7767
▁Narrator	-7768
▁mobility	-7769
▁surfaces	-7770
▁astronaut	-7771
▁explosion	-7772
▁magnitude	-7773
▁replicate	-7774
▁commission	-7775
▁engineered	-7776
▁supporting	-7777
▁computation	-7778
▁description	-7779
▁connectivity	-7780
▁architectural	-7781
▁representation	-7782
EC	-7783
aze	-7784
eda	-7785
oma	-7786
rid	-7787
▁Jo	-7788
airo	-7789
rome	-7790
▁Mac	-7791
▁aqu	-7792
▁hem	-7793
▁pit	-7794
▁Ford	-7795
▁Moon	-7796
▁None	-7797
▁dear	-7798
▁dies	-7799
▁mood	-7800
▁subt	-7801
▁tong	-7802
▁turb	-7803
▁uplo	-7804
active	-7805
bruary	-7806
erable	-7807
▁Hawai	-7808
▁dilem	-7809
▁loans	-7810
▁owned	-7811
▁pairs	-7812
▁parks	-7813
▁steal	-7814
▁tends	-7815
▁ubiqu	-7816
▁Govern	-7817
▁Norway	-7818
▁Soviet	-7819
▁corals	-7820
▁injust	-7821
▁linear	-7822
▁nearby	-7823
▁ticket	-7824
▁tunnel	-7825
▁Council	-7826
▁Florida	-7827
▁closing	-7828
▁manager	-7829
▁February	-7830
▁Minister	-7831
▁accounts	-7832
▁believes	-7833
▁friendly	-7834
▁innocent	-7835
▁peaceful	-7836
▁preserve	-7837
▁purposes	-7838
▁Cambridge	-7839
▁adventure	-7840
▁instantly	-7841
▁renewable	-7842
▁Technology	-7843
▁remembered	-7844
▁unconscious	-7845
PA	-7846
ca	-7847
hum	-7848
lem	-7849
▁29	-7850
okes	-7851
outs	-7852
▁Abs	-7853
▁FBI	-7854
▁	-7855
e	-7856
t	-7857
o	-7858
a	-7859
n	-7860
s	-7861
i	-7862
r	-7863
h	-7864
l	-7865
d	-7866
u	-7867
c	-7868
p	-7869
m	-7870
y	-7871
w	-7872
g	-7873
f	-7874
,	-7875
b	-7876
.	-7877
v	-7878
;	-7879
&	-7880
k	-7881
I	-7882
q	-7883
A	-7884
T	-7885
S	-7886
x	-7887
W	-7888
0	-7889
j	-7890
B	-7891
—	-7892
-	-7893
?	-7894
z	-7895
N	-7896
L	-7897
M	-7898
C	-7899
)	-7900
(	-7901
1	-7902
H	-7903
:	-7904
Y	-7905
E	-7906
D	-7907
O	-7908
P	-7909
2	-7910
G	-7911
F	-7912
9	-7913
R	-7914
5	-7915
3	-7916
J	-7917
U	-7918
K	-7919
♫	-7920
4	-7921
V	-7922
8	-7923
6	-7924
7	-7925
#	-7926
!	-7927
’	-7928
♪	-7929
Z	-7930
Q	-7931
X	-7932
/	-7933
$	-7934
é	-7935
í	-7936
á	-7937
+	-7938
ó	-7939
ã	-7940
=	-7941
%	-7942
è	-7943
_	-7944
@	-7945
ö	-7946
ñ	-7947
^	-7948
ç	-7949
–	-7950
ü	-7951
ï	-7952
à	-7953
ø	-7954
ä	-7955
ô	-7956
ō	-7957
อ	-7958
*	-7959
£	-7960
Á	-7961
É	-7962
ë	-7963
ā	-7964
“	-7965
”	-7966
ê	-7967
ù	-7968
ć	-7969
ย	-7970
ร	-7971
่	-7972
•	-7973
\	-7974
¢	-7975
¿	-7976
Å	-7977
Ç	-7978
Ö	-7979
â	-7980
æ	-7981
ì	-7982
ú	-7983
û	-7984
Ă	-7985
Č	-7986
ē	-7987
ě	-7988
ī	-7989
Ō	-7990
Ť	-7991
̊	-7992
τ	-7993
‘	-7994
€	-7995
∇	-7996
