<unk>	0
<s>	0
</s>	0
▁b	-0
ar	-1
er	-2
an	-3
in	-4
▁.	-5
ir	-6
▁d	-7
en	-8
▁,	-9
▁k	-10
il	-11
ın	-12
lar	-13
▁y	-14
▁g	-15
▁o	-16
▁s	-17
ma	-18
ek	-19
▁bir	-20
▁v	-21
or	-22
la	-23
un	-24
ak	-25
im	-26
el	-27
▁i	-28
▁&	-29
iz	-30
▁h	-31
▁a	-32
da	-33
▁t	-34
ap	-35
yor	-36
▁B	-37
et	-38
▁ve	-39
ler	-40
▁ç	-41
de	-42
lı	-43
ün	-44
ik	-45
ey	-46
▁ol	-47
▁bu	-48
ya	-49
ot	-50
di	-51
dı	-52
on	-53
le	-54
qu	-55
quot	-56
▁de	-57
▁ş	-58
▁da	-59
tı	-60
▁m	-61
os	-62
es	-63
ız	-64
du	-65
ra	-66
▁n	-67
▁ka	-68
st	-69
em	-70
apos	-71
ok	-72
aş	-73
▁ö	-74
ce	-75
ım	-76
▁A	-77
um	-78
bil	-79
▁gö	-80
▁e	-81
▁iç	-82
iş	-83
as	-84
ların	-85
uz	-86
▁f	-87
den	-88
ür	-89
li	-90
▁p	-91
▁sa	-92
lan	-93
üz	-94
am	-95
▁için	-96
▁Bu	-97
iyor	-98
ur	-99
at	-100
▁yap	-101
▁in	-102
dan	-103
iy	-104
ıl	-105
ları	-106
it	-107
az	-108
▁il	-109
ha	-110
ış	-111
ini	-112
ay	-113
ında	-114
ük	-115
is	-116
▁z	-117
mak	-118
unu	-119
üş	-120
▁V	-121
▁oldu	-122
▁ha	-123
ol	-124
▁gör	-125
san	-126
▁S	-127
▁şey	-128
▁bil	-129
üm	-130
▁ar	-131
ır	-132
ul	-133
▁an	-134
▁ger	-135
ta	-136
▁çok	-137
ık	-138
eler	-139
▁değ	-140
▁Ve	-141
ca	-142
▁var	-143
▁?	-144
bilir	-145
ti	-146
ine	-147
▁baş	-148
▁et	-149
▁K	-150
▁daha	-151
mek	-152
iniz	-153
alı	-154
▁D	-155
▁gel	-156
al	-157
▁gi	-158
imiz	-159
bi	-160
iler	-161
▁H	-162
▁G	-163
▁ne	-164
ıyor	-165
▁insan	-166
te	-167
▁olduğ	-168
▁son	-169
uş	-170
oğ	-171
ını	-172
▁T	-173
öy	-174
sı	-175
ül	-176
▁on	-177
diğ	-178
▁ben	-179
leri	-180
inde	-181
▁ki	-182
▁Y	-183
▁)	-184
▁(	-185
▁ver	-186
dir	-187
cak	-188
▁ön	-189
uy	-190
eye	-191
ka	-192
▁en	-193
uk	-194
▁kar	-195
▁ist	-196
▁İ	-197
me	-198
aki	-199
▁:	-200
aman	-201
üy	-202
▁düş	-203
▁E	-204
▁M	-205
eş	-206
ğı	-207
▁olma	-208
▁kad	-209
▁her	-210
ki	-211
larak	-212
▁al	-213
▁gibi	-214
eç	-215
tir	-216
▁zaman	-217
dır	-218
▁olarak	-219
ımız	-220
ara	-221
▁O	-222
inin	-223
se	-224
lik	-225
▁ay	-226
▁iş	-227
▁kon	-228
▁olan	-229
ec	-230
ev	-231
ah	-232
ğer	-233
eki	-234
▁ya	-235
▁ola	-236
▁r	-237
ut	-238
▁..	-239
cı	-240
▁bun	-241
laş	-242
yı	-243
▁değil	-244
çek	-245
▁yer	-246
▁...	-247
öyle	-248
▁—	-249
▁biz	-250
ark	-251
tır	-252
ına	-253
▁1	-254
üç	-255
lık	-256
us	-257
▁düşün	-258
alış	-259
ceğ	-260
ip	-261
▁or	-262
ön	-263
▁çalış	-264
ab	-265
▁kadar	-266
▁ken	-267
op	-268
▁yaş	-269
▁Bir	-270
▁büy	-271
esi	-272
▁yıl	-273
▁gerçek	-274
lama	-275
daki	-276
mış	-277
ci	-278
▁tek	-279
dım	-280
lara	-281
sa	-282
dığ	-283
kü	-284
▁sor	-285
man	-286
▁yüz	-287
▁P	-288
üyor	-289
▁kul	-290
ten	-291
▁bak	-292
miş	-293
ınız	-294
▁Ç	-295
▁kullan	-296
der	-297
▁N	-298
ünkü	-299
▁iy	-300
eni	-301
yan	-302
dim	-303
unuz	-304
▁ama	-305
▁yar	-306
▁Ş	-307
uyor	-308
ro	-309
▁ma	-310
ama	-311
rada	-312
▁ile	-313
ör	-314
ecek	-315
ünya	-316
eceğ	-317
▁şek	-318
ağ	-319
siniz	-320
▁F	-321
▁çık	-322
▁siz	-323
▁bul	-324
▁ko	-325
▁fark	-326
ez	-327
▁anla	-328
▁u	-329
ep	-330
ru	-331
dü	-332
unda	-333
ər	-334
dece	-335
▁sonra	-336
▁büyük	-337
ani	-338
▁doğ	-339
▁el	-340
▁gerek	-341
yon	-342
lerin	-343
larını	-344
len	-345
dik	-346
▁den	-347
▁aç	-348
maya	-349
▁olduğunu	-350
▁sür	-351
▁geç	-352
ından	-353
asıl	-354
ili	-355
imdi	-356
ken	-357
ren	-358
iç	-359
üt	-360
▁ilg	-361
ika	-362
▁Ama	-363
▁iyi	-364
▁har	-365
▁bunu	-366
▁2	-367
ana	-368
iye	-369
men	-370
▁gün	-371
tık	-372
▁nasıl	-373
şı	-374
▁c	-375
▁haya	-376
sl	-377
lk	-378
▁üz	-379
oc	-380
▁şekil	-381
tiğ	-382
▁değiş	-383
tığ	-384
▁sah	-385
cağ	-386
▁C	-387
eyi	-388
▁hak	-389
si	-390
▁dur	-391
leş	-392
▁öğ	-393
▁sağ	-394
▁sadece	-395
ster	-396
00	-397
ının	-398
ist	-399
▁bo	-400
▁uz	-401
deki	-402
üc	-403
▁par	-404
iyorum	-405
azla	-406
▁üzer	-407
sel	-408
▁dünya	-409
tik	-410
▁ev	-411
meler	-412
tan	-413
olo	-414
meye	-415
▁fazla	-416
▁tan	-417
▁başla	-418
nı	-419
lu	-420
ası	-421
lıyor	-422
▁yok	-423
▁top	-424
▁yol	-425
▁di	-426
ça	-427
▁yeni	-428
▁çünkü	-429
arı	-430
▁göster	-431
om	-432
azı	-433
dık	-434
▁yak	-435
ən	-436
slında	-437
▁dön	-438
isi	-439
diyor	-440
▁şekilde	-441
ter	-442
▁Ben	-443
▁ak	-444
imi	-445
▁gen	-446
▁Bun	-447
ede	-448
akat	-449
▁kur	-450
▁zor	-451
▁öz	-452
▁pro	-453
ebilir	-454
eğ	-455
▁öl	-456
▁kı	-457
▁şu	-458
▁der	-459
oloj	-460
gi	-461
bir	-462
▁çoc	-463
▁önce	-464
lem	-465
▁uy	-466
▁ed	-467
▁hakk	-468
▁bel	-469
inden	-470
ans	-471
▁;	-472
tur	-473
raf	-474
▁aynı	-475
sunuz	-476
▁bağ	-477
▁yan	-478
lerini	-479
▁benim	-480
▁insanlar	-481
▁iki	-482
▁gerçekten	-483
tü	-484
▁önem	-485
öz	-486
yla	-487
▁kay	-488
▁konuş	-489
▁kal	-490
tım	-491
▁ek	-492
▁karşı	-493
▁ok	-494
▁san	-495
liğ	-496
▁mil	-497
düğ	-498
▁hiç	-499
▁diğer	-500
▁tüm	-501
▁kendi	-502
▁Yani	-503
▁kiş	-504
dum	-505
▁R	-506
▁ara	-507
bileceğ	-508
▁az	-509
eri	-510
▁kö	-511
▁Şimdi	-512
▁tara	-513
▁duy	-514
▁farklı	-515
if	-516
▁sahip	-517
▁yapa	-518
▁öğren	-519
▁ilk	-520
tr	-521
eh	-522
▁bunun	-523
eb	-524
▁L	-525
mem	-526
lardan	-527
ülüş	-528
▁dev	-529
▁çocuk	-530
▁taraf	-531
lü	-532
▁oluş	-533
▁hakkında	-534
▁olduğu	-535
ması	-536
yun	-537
arak	-538
▁neden	-539
▁ür	-540
▁sı	-541
iyoruz	-542
▁An	-543
eli	-544
▁yön	-545
▁İn	-546
▁şeyler	-547
▁kor	-548
ütün	-549
▁do	-550
larda	-551
▁Gülüş	-552
▁yet	-553
erk	-554
▁küç	-555
▁fik	-556
lkış	-557
▁orta	-558
▁sev	-559
▁üç	-560
▁git	-561
▁önemli	-562
▁görün	-563
▁inan	-564
▁Alkış	-565
iyle	-566
▁ede	-567
tu	-568
▁Ö	-569
▁içinde	-570
▁bilg	-571
▁durum	-572
▁iste	-573
▁etk	-574
▁göz	-575
mız	-576
▁ih	-577
mas	-578
▁ilgili	-579
istem	-580
ilen	-581
▁olur	-582
▁veya	-583
▁Ne	-584
▁alan	-585
▁tekn	-586
▁söyle	-587
umuz	-588
▁aslında	-589
una	-590
etir	-591
lere	-592
maz	-593
duğ	-594
▁bas	-595
▁başka	-596
▁On	-597
▁bö	-598
▁küçük	-599
▁kend	-600
▁doğru	-601
let	-602
▁Gülüşmeler	-603
▁böyle	-604
▁ta	-605
▁tar	-606
▁olduk	-607
▁mu	-608
▁burada	-609
▁eder	-610
re	-611
diğim	-612
▁hast	-613
gün	-614
▁hep	-615
▁iz	-616
▁bizim	-617
▁♫	-618
▁geliş	-619
▁getir	-620
sek	-621
▁kap	-622
larımız	-623
mer	-624
▁ada	-625
▁ihti	-626
lg	-627
ran	-628
larının	-629
▁sistem	-630
▁tür	-631
tür	-632
rı	-633
▁ediyor	-634
▁Son	-635
▁bey	-636
ley	-637
▁eğ	-638
▁3	-639
diği	-640
eti	-641
enin	-642
▁yapı	-643
tim	-644
üst	-645
▁ağ	-646
▁mi	-647
dur	-648
▁biri	-649
ekk	-650
▁ise	-651
▁eğer	-652
▁bazı	-653
rn	-654
ef	-655
▁kim	-656
gu	-657
ebil	-658
imizi	-659
▁J	-660
siz	-661
cek	-662
▁bana	-663
▁ül	-664
▁yaz	-665
▁bütün	-666
▁ik	-667
dığı	-668
ayı	-669
▁söy	-670
▁su	-671
▁hayat	-672
muş	-673
▁yük	-674
▁Fakat	-675
asar	-676
▁his	-677
▁ra	-678
▁İş	-679
▁Biz	-680
larla	-681
larına	-682
də	-683
iya	-684
ındaki	-685
eşekk	-686
eşekkür	-687
laya	-688
mı	-689
▁aş	-690
▁size	-691
▁bile	-692
lığ	-693
▁olacak	-694
▁açık	-695
▁tem	-696
sanız	-697
esin	-698
▁çek	-699
▁gir	-700
fa	-701
▁tama	-702
▁biraz	-703
▁te	-704
▁teknoloj	-705
▁özel	-706
▁Eğer	-707
üzel	-708
▁-	-709
lər	-710
asında	-711
ret	-712
ıp	-713
elim	-714
▁insanların	-715
▁alt	-716
lay	-717
sınız	-718
▁ad	-719
▁mü	-720
▁ülk	-721
sız	-722
▁hik	-723
ünüz	-724
vaş	-725
▁ku	-726
▁sen	-727
eket	-728
▁tut	-729
ımı	-730
duk	-731
▁ihtiya	-732
vet	-733
eleri	-734
▁es	-735
▁çoğ	-736
▁tasar	-737
▁değiştir	-738
▁geri	-739
ileri	-740
tar	-741
biliriz	-742
likle	-743
iyorlar	-744
ih	-745
▁edil	-746
set	-747
lak	-748
mayı	-749
dür	-750
ək	-751
▁topl	-752
▁U	-753
esini	-754
ıyoruz	-755
mesi	-756
▁Bunu	-757
▁dış	-758
▁ce	-759
▁seç	-760
ri	-761
ümüz	-762
▁diye	-763
kaha	-764
▁yara	-765
▁hem	-766
diğimiz	-767
▁olmak	-768
leştir	-769
aya	-770
▁alı	-771
▁çıkar	-772
▁yüzden	-773
▁tam	-774
ob	-775
▁bah	-776
ıs	-777
▁nok	-778
▁Kah	-779
▁benz	-780
▁hareket	-781
ed	-782
kaç	-783
lerde	-784
▁sonu	-785
rar	-786
ıyorum	-787
ven	-788
▁hay	-789
▁çev	-790
larında	-791
eniz	-792
unun	-793
daş	-794
▁as	-795
elik	-796
▁ner	-797
▁vardı	-798
▁kadın	-799
ers	-800
▁gü	-801
▁şimdi	-802
bilirsiniz	-803
▁yapmak	-804
▁mes	-805
ic	-806
▁Çünkü	-807
ünü	-808
▁Amer	-809
▁onu	-810
▁güç	-811
▁hız	-812
▁bulun	-813
dığını	-814
▁Bil	-815
▁yardım	-816
▁Kahkaha	-817
van	-818
▁örn	-819
▁zamanda	-820
▁tarafından	-821
ilik	-822
▁çöz	-823
▁üzerinde	-824
▁Da	-825
va	-826
▁arka	-827
▁q	-828
esinde	-829
▁hikay	-830
uğ	-831
▁bin	-832
▁mo	-833
▁fikir	-834
▁mı	-835
alık	-836
▁yarat	-837
▁res	-838
yle	-839
▁yaptığ	-840
▁hal	-841
▁onun	-842
▁milyon	-843
▁oluyor	-844
▁nın	-845
▁Siz	-846
▁üret	-847
ydı	-848
luk	-849
▁bit	-850
yız	-851
dığımız	-852
▁Her	-853
sal	-854
▁göre	-855
ber	-856
000	-857
▁düz	-858
manın	-859
iyi	-860
▁19	-861
▁Af	-862
han	-863
▁etmek	-864
üp	-865
▁güzel	-866
▁istiyorum	-867
layı	-868
▁say	-869
▁İşte	-870
▁5	-871
▁li	-872
▁yaklaş	-873
gan	-874
▁Sa	-875
▁üst	-876
yal	-877
▁at	-878
çok	-879
▁kat	-880
üs	-881
▁kaz	-882
cu	-883
▁Çok	-884
id	-885
ıyorlar	-886
ram	-887
▁20	-888
▁olabilir	-889
▁kaç	-890
up	-891
▁I	-892
▁is	-893
▁ortaya	-894
▁uzun	-895
ece	-896
anı	-897
gı	-898
▁və	-899
rup	-900
▁4	-901
▁tak	-902
min	-903
▁konu	-904
▁bilim	-905
▁eş	-906
▁Bunun	-907
lığı	-908
▁bize	-909
▁dok	-910
yanın	-911
▁görüyor	-912
isay	-913
▁la	-914
▁oy	-915
▁şeyi	-916
erek	-917
anın	-918
mel	-919
diler	-920
▁taş	-921
▁sorun	-922
▁oldukça	-923
▁birkaç	-924
▁fakat	-925
▁ulaş	-926
onom	-927
▁gelen	-928
▁adam	-929
aba	-930
▁ses	-931
▁W	-932
▁tel	-933
▁şeh	-934
▁kab	-935
▁deney	-936
▁olması	-937
irk	-938
malı	-939
lamak	-940
▁10	-941
sin	-942
iv	-943
▁kız	-944
▁gördüğ	-945
▁zorunda	-946
şey	-947
ünde	-948
aç	-949
▁onları	-950
▁oluştur	-951
mez	-952
▁boyun	-953
▁devam	-954
▁Ay	-955
▁kit	-956
▁Peki	-957
lerine	-958
inç	-959
lım	-960
▁beni	-961
ide	-962
diğini	-963
▁herk	-964
leye	-965
▁yani	-966
▁değer	-967
▁tekrar	-968
▁konus	-969
▁soru	-970
▁ort	-971
▁sayı	-972
▁ci	-973
▁karar	-974
▁ın	-975
▁Dünya	-976
ırak	-977
sun	-978
tem	-979
del	-980
liği	-981
▁güven	-982
▁Aslında	-983
uv	-984
▁hüc	-985
▁araş	-986
▁anlam	-987
ağı	-988
▁kayn	-989
▁koy	-990
▁boyunca	-991
▁uç	-992
▁din	-993
▁seb	-994
erj	-995
isayar	-996
asyon	-997
edi	-998
▁anda	-999
lerden	-1000
▁mak	-1001
▁bırak	-1002
▁düşünüyor	-1003
ət	-1004
ünyanın	-1005
▁hat	-1006
esine	-1007
▁Burada	-1008
▁po	-1009
▁yay	-1010
düm	-1011
▁Alkışlar	-1012
▁kıs	-1013
▁yaşam	-1014
▁ser	-1015
likte	-1016
▁belir	-1017
▁Böyle	-1018
▁İnsan	-1019
▁nokta	-1020
elen	-1021
▁dan	-1022
▁kork	-1023
inizi	-1024
▁eğit	-1025
▁araştır	-1026
▁parça	-1027
▁bunlar	-1028
əy	-1029
eyen	-1030
▁dönüş	-1031
lerinin	-1032
▁Ar	-1033
ciler	-1034
cağım	-1035
landır	-1036
▁Afr	-1037
aret	-1038
atı	-1039
ilm	-1040
emek	-1041
▁bölg	-1042
▁Teşekkür	-1043
blem	-1044
siy	-1045
eg	-1046
tığı	-1047
lendir	-1048
net	-1049
▁kötü	-1050
▁fot	-1051
▁birçok	-1052
işim	-1053
oğraf	-1054
liy	-1055
og	-1056
▁çalışma	-1057
iyordu	-1058
▁!	-1059
vi	-1060
▁bura	-1061
▁toplum	-1062
▁bek	-1063
▁Ü	-1064
▁arkadaş	-1065
mal	-1066
eden	-1067
sak	-1068
▁gez	-1069
▁yüzde	-1070
▁haf	-1071
▁enerj	-1072
▁yüksek	-1073
inci	-1074
▁onlar	-1075
bet	-1076
▁basit	-1077
stan	-1078
▁Daha	-1079
tıcı	-1080
▁sık	-1081
▁yapma	-1082
▁Ancak	-1083
▁geçir	-1084
▁ail	-1085
▁birbir	-1086
▁Al	-1087
bilecek	-1088
larından	-1089
▁ter	-1090
▁dik	-1091
▁met	-1092
acak	-1093
▁hiçbir	-1094
▁belki	-1095
imizin	-1096
▁tes	-1097
▁çeş	-1098
▁ış	-1099
▁problem	-1100
▁hayal	-1101
gel	-1102
▁kişi	-1103
lam	-1104
▁Evet	-1105
sında	-1106
ılmaz	-1107
▁muh	-1108
▁Ha	-1109
iyorsunuz	-1110
əl	-1111
lük	-1112
sını	-1113
eme	-1114
▁bilgisayar	-1115
▁keş	-1116
▁şirk	-1117
▁dedi	-1118
▁başarı	-1119
imde	-1120
▁Ken	-1121
▁arasında	-1122
meyi	-1123
▁söz	-1124
ba	-1125
iydi	-1126
▁mik	-1127
▁ekonom	-1128
▁içer	-1129
▁oyun	-1130
▁tamamen	-1131
memiz	-1132
▁mut	-1133
▁er	-1134
▁savaş	-1135
▁En	-1136
▁buna	-1137
▁sıra	-1138
▁bugün	-1139
ılmış	-1140
yar	-1141
dığım	-1142
▁Kahkahalar	-1143
▁orada	-1144
▁sizin	-1145
▁pek	-1146
▁cev	-1147
dük	-1148
▁proj	-1149
▁bilm	-1150
▁para	-1151
▁çeşit	-1152
▁em	-1153
dılar	-1154
işk	-1155
esel	-1156
▁erk	-1157
▁dünyanın	-1158
üne	-1159
şa	-1160
kı	-1161
▁geliyor	-1162
▁yerine	-1163
dak	-1164
lerle	-1165
ört	-1166
ayan	-1167
▁çiz	-1168
▁dav	-1169
larım	-1170
▁birlikte	-1171
▁im	-1172
kat	-1173
▁pay	-1174
▁demek	-1175
▁nerede	-1176
▁um	-1177
art	-1178
▁saat	-1179
▁sonuç	-1180
▁tah	-1181
▁man	-1182
rim	-1183
▁dil	-1184
▁örnek	-1185
tor	-1186
ral	-1187
▁gereken	-1188
usu	-1189
ği	-1190
▁ala	-1191
▁Afrika	-1192
azır	-1193
▁parç	-1194
▁fotoğraf	-1195
çı	-1196
▁nin	-1197
seniz	-1198
luğ	-1199
lerinde	-1200
▁öyle	-1201
gil	-1202
▁artık	-1203
osyal	-1204
▁şöyle	-1205
▁daki	-1206
▁harika	-1207
▁öğret	-1208
ib	-1209
▁kan	-1210
▁kazan	-1211
diğiniz	-1212
▁can	-1213
▁ölç	-1214
▁ettiğ	-1215
▁üzerine	-1216
trol	-1217
▁temel	-1218
rıca	-1219
uyu	-1220
▁6	-1221
uluk	-1222
oz	-1223
▁etkil	-1224
▁Sonra	-1225
▁paylaş	-1226
▁oku	-1227
▁yaptık	-1228
▁onların	-1229
▁mer	-1230
▁veri	-1231
əm	-1232
can	-1233
kan	-1234
▁eden	-1235
▁boy	-1236
▁erkek	-1237
▁şirket	-1238
ebilirsiniz	-1239
▁uygu	-1240
▁kır	-1241
suz	-1242
▁katı	-1243
▁yakın	-1244
çe	-1245
▁önc	-1246
elerin	-1247
▁geliştir	-1248
cağını	-1249
▁Böylece	-1250
▁ihtiyac	-1251
▁uzak	-1252
ternet	-1253
ıcı	-1254
▁San	-1255
manız	-1256
▁işte	-1257
▁yür	-1258
▁anlama	-1259
▁hücr	-1260
ne	-1261
tıyor	-1262
▁poli	-1263
▁bağlan	-1264
▁genel	-1265
▁hayvan	-1266
▁Z	-1267
liyor	-1268
eği	-1269
▁ederim	-1270
▁vardır	-1271
lış	-1272
hangi	-1273
izm	-1274
▁kontrol	-1275
▁gön	-1276
▁birşey	-1277
▁Amerika	-1278
▁hatır	-1279
▁sin	-1280
▁güc	-1281
lardı	-1282
▁dair	-1283
▁organ	-1284
ektr	-1285
▁şehir	-1286
imin	-1287
nız	-1288
for	-1289
▁anlat	-1290
▁milyar	-1291
ox	-1292
▁hızlı	-1293
▁gelir	-1294
▁Ger	-1295
layan	-1296
oy	-1297
lerce	-1298
inc	-1299
leme	-1300
▁kolay	-1301
alnız	-1302
ilmiş	-1303
▁Şu	-1304
▁oyn	-1305
eğin	-1306
iyet	-1307
ilerin	-1308
▁gelecek	-1309
erkez	-1310
▁bizi	-1311
▁genç	-1312
▁yı	-1313
▁kes	-1314
lerinden	-1315
▁ancak	-1316
ad	-1317
▁kaynak	-1318
▁Tama	-1319
▁hazır	-1320
menin	-1321
▁keşf	-1322
▁sanat	-1323
▁işe	-1324
▁ilginç	-1325
yse	-1326
▁konusunda	-1327
mamız	-1328
▁otur	-1329
▁yaşa	-1330
▁sosyal	-1331
▁yeniden	-1332
▁Sadece	-1333
▁davran	-1334
▁müz	-1335
▁onlara	-1336
tış	-1337
efon	-1338
▁çevr	-1339
▁herkes	-1340
▁Bel	-1341
oş	-1342
kün	-1343
▁sonunda	-1344
▁okul	-1345
indeki	-1346
▁yaklaşık	-1347
▁açı	-1348
▁Baş	-1349
▁ona	-1350
▁sal	-1351
▁olmayan	-1352
▁200	-1353
▁yen	-1354
▁tasarım	-1355
▁dört	-1356
▁kelim	-1357
▁hisset	-1358
▁fır	-1359
▁geldi	-1360
▁dol	-1361
▁sek	-1362
masını	-1363
▁kol	-1364
ye	-1365
▁prog	-1366
▁%	-1367
▁grup	-1368
gin	-1369
larınız	-1370
isini	-1371
▁dest	-1372
▁yerde	-1373
tiğini	-1374
▁çoğu	-1375
▁Bunlar	-1376
izi	-1377
tığımız	-1378
ime	-1379
iyiz	-1380
▁tarih	-1381
▁ister	-1382
▁sağlık	-1383
lır	-1384
sik	-1385
teş	-1386
▁Hin	-1387
cağız	-1388
▁beyn	-1389
mi	-1390
lat	-1391
▁Gün	-1392
▁ber	-1393
müş	-1394
▁un	-1395
▁herhangi	-1396
▁ün	-1397
▁araç	-1398
▁araştırma	-1399
▁kut	-1400
▁Benim	-1401
▁hemen	-1402
▁teşekkür	-1403
▁inanılmaz	-1404
imize	-1405
▁dolar	-1406
▁elde	-1407
siyon	-1408
▁karşılaş	-1409
▁şeyleri	-1410
şık	-1411
▁yazı	-1412
▁ot	-1413
▁bilgi	-1414
ınır	-1415
▁üçün	-1416
əs	-1417
hi	-1418
▁El	-1419
say	-1420
▁telefon	-1421
▁9	-1422
▁inşa	-1423
▁gezeg	-1424
yım	-1425
▁dak	-1426
▁tabi	-1427
▁biy	-1428
▁böylece	-1429
dən	-1430
▁değişik	-1431
▁7	-1432
ela	-1433
▁ilet	-1434
ekli	-1435
▁tane	-1436
▁konuşma	-1437
▁çalışan	-1438
▁Gör	-1439
▁yapar	-1440
▁’	-1441
▁ölüm	-1442
tör	-1443
▁hava	-1444
▁ı	-1445
▁yapıyor	-1446
ümkün	-1447
▁insanları	-1448
▁Teşekkürler	-1449
ültür	-1450
▁geniş	-1451
ig	-1452
▁etraf	-1453
▁böl	-1454
▁elektr	-1455
▁düzen	-1456
lemek	-1457
▁Gerçek	-1458
▁kom	-1459
▁olduğumuz	-1460
▁istediğim	-1461
ift	-1462
▁dem	-1463
matik	-1464
▁iler	-1465
▁derece	-1466
▁hala	-1467
▁benzer	-1468
▁dikkat	-1469
▁Av	-1470
lanmış	-1471
uvar	-1472
ırım	-1473
yacak	-1474
abilir	-1475
▁uğ	-1476
▁model	-1477
ddi	-1478
▁cevap	-1479
▁eğitim	-1480
▁plan	-1481
▁film	-1482
▁hafta	-1483
▁yalnız	-1484
▁hale	-1485
▁Tamam	-1486
▁l	-1487
rak	-1488
▁mümkün	-1489
▁altında	-1490
ince	-1491
obot	-1492
larca	-1493
▁kesin	-1494
▁durumda	-1495
▁tep	-1496
▁yeter	-1497
.000	-1498
▁kendim	-1499
▁olmalı	-1500
▁tab	-1501
▁pr	-1502
tiği	-1503
▁8	-1504
▁dey	-1505
▁aras	-1506
sın	-1507
▁haber	-1508
▁kür	-1509
▁bahset	-1510
▁merkez	-1511
▁dünyada	-1512
ala	-1513
hat	-1514
▁beş	-1515
▁nes	-1516
▁kabul	-1517
▁etm	-1518
▁kil	-1519
abil	-1520
ideo	-1521
▁ora	-1522
▁olay	-1523
sına	-1524
ğa	-1525
uma	-1526
sam	-1527
▁bar	-1528
uluğ	-1529
▁gönder	-1530
azen	-1531
▁Size	-1532
▁Bugün	-1533
af	-1534
▁güçlü	-1535
▁Amerik	-1536
izik	-1537
ünün	-1538
det	-1539
umu	-1540
▁eski	-1541
irsiniz	-1542
▁izin	-1543
▁istem	-1544
▁başladı	-1545
▁karma	-1546
leyen	-1547
▁edin	-1548
▁vüc	-1549
esinin	-1550
isinde	-1551
▁&#	-1552
▁də	-1553
undan	-1554
▁&#9	-1555
▁biç	-1556
▁oda	-1557
▁oran	-1558
▁destek	-1559
▁parçası	-1560
▁sene	-1561
▁hatta	-1562
▁kültür	-1563
▁ilişk	-1564
▁teknoloji	-1565
▁pat	-1566
etr	-1567
alım	-1568
▁İs	-1569
▁Neden	-1570
▁kitap	-1571
▁çözüm	-1572
▁New	-1573
▁15	-1574
▁yas	-1575
▁görüş	-1576
▁bunları	-1577
▁yine	-1578
▁gider	-1579
▁Ya	-1580
▁sınır	-1581
ing	-1582
▁beyin	-1583
alar	-1584
mekte	-1585
▁enerji	-1586
ınızda	-1587
ac	-1588
▁aşağı	-1589
ork	-1590
etik	-1591
▁insanlara	-1592
▁sey	-1593
▁Bura	-1594
▁hisse	-1595
▁Or	-1596
▁tanı	-1597
▁dedim	-1598
aber	-1599
▁resim	-1600
▁inc	-1601
▁teh	-1602
lo	-1603
▁ic	-1604
▁kısa	-1605
dip	-1606
▁sebep	-1607
lerimiz	-1608
aj	-1609
▁İlk	-1610
▁şunu	-1611
▁tanım	-1612
lə	-1613
▁mus	-1614
▁bağlı	-1615
gun	-1616
▁kam	-1617
eceğim	-1618
▁deniz	-1619
▁çift	-1620
gın	-1621
▁ayak	-1622
▁Doğ	-1623
▁Bence	-1624
▁araba	-1625
▁yapmaya	-1626
lanma	-1627
tığım	-1628
▁program	-1629
▁gördüğünüz	-1630
ver	-1631
▁Hep	-1632
▁bence	-1633
▁makin	-1634
▁ifa	-1635
▁Hay	-1636
▁süre	-1637
▁Hindi	-1638
▁yönet	-1639
▁mek	-1640
▁görev	-1641
▁diz	-1642
▁tamam	-1643
▁30	-1644
▁mey	-1645
meden	-1646
▁ul	-1647
ivers	-1648
ED	-1649
uh	-1650
▁kullanı	-1651
▁hastalık	-1652
▁çar	-1653
▁robot	-1654
▁evren	-1655
▁değildir	-1656
ıldı	-1657
▁taşı	-1658
▁alıyor	-1659
▁yanlış	-1660
▁Mar	-1661
▁kav	-1662
▁boyut	-1663
çi	-1664
▁bahse	-1665
▁siya	-1666
▁taki	-1667
iversit	-1668
▁götür	-1669
▁neler	-1670
dikleri	-1671
hil	-1672
lüğ	-1673
▁kez	-1674
▁yaşında	-1675
est	-1676
makta	-1677
▁sizi	-1678
▁gezegen	-1679
▁görüntü	-1680
▁100	-1681
▁teda	-1682
▁tahmin	-1683
▁ren	-1684
▁etti	-1685
▁dolayı	-1686
▁neredeyse	-1687
▁şaş	-1688
▁biliyor	-1689
ünden	-1690
▁han	-1691
▁bağlantı	-1692
ali	-1693
▁hes	-1694
▁araya	-1695
hen	-1696
▁olduğuna	-1697
▁karmaşık	-1698
▁Hindistan	-1699
▁ann	-1700
tiler	-1701
emiz	-1702
lüyor	-1703
temelen	-1704
üf	-1705
▁50	-1706
sıyla	-1707
▁mal	-1708
▁yolu	-1709
▁istiyor	-1710
▁Tek	-1711
▁Di	-1712
▁ülkeler	-1713
▁fizik	-1714
ormal	-1715
ola	-1716
▁özellikle	-1717
he	-1718
▁Büy	-1719
▁sab	-1720
be	-1721
▁hük	-1722
▁yere	-1723
▁İk	-1724
▁uğra	-1725
▁hepsi	-1726
uyla	-1727
▁boş	-1728
▁ışık	-1729
▁gerekiyor	-1730
▁alın	-1731
▁içine	-1732
▁olmuş	-1733
▁kr	-1734
arken	-1735
lamaya	-1736
ebiliriz	-1737
▁şeyin	-1738
▁bundan	-1739
▁internet	-1740
mişti	-1741
▁ye	-1742
usal	-1743
▁çağ	-1744
▁hâ	-1745
ğın	-1746
maları	-1747
raki	-1748
▁TED	-1749
▁doğal	-1750
▁İngil	-1751
fes	-1752
▁ihtiyaç	-1753
diy	-1754
▁sok	-1755
üle	-1756
asını	-1757
▁engel	-1758
madan	-1759
▁heye	-1760
▁yapan	-1761
▁yaptığımız	-1762
▁başladım	-1763
ladı	-1764
▁Çin	-1765
ilerini	-1766
▁idi	-1767
▁tük	-1768
▁Ch	-1769
▁çocuğ	-1770
▁düşünün	-1771
cağı	-1772
▁sil	-1773
▁beraber	-1774
▁Kon	-1775
mıştı	-1776
isk	-1777
okra	-1778
▁deneyim	-1779
dis	-1780
diş	-1781
lim	-1782
labilir	-1783
cü	-1784
▁gerekir	-1785
oh	-1786
duğu	-1787
▁mad	-1788
▁düşündüğ	-1789
cə	-1790
isinin	-1791
yıl	-1792
▁bakar	-1793
▁gidiyor	-1794
▁fak	-1795
str	-1796
▁gösteriyor	-1797
▁kullanarak	-1798
isel	-1799
▁ettik	-1800
▁Har	-1801
▁geçen	-1802
▁rahat	-1803
esinden	-1804
▁bunların	-1805
na	-1806
ıt	-1807
▁özg	-1808
▁ürün	-1809
▁heyecan	-1810
▁Yap	-1811
▁giz	-1812
bol	-1813
▁Ön	-1814
▁kah	-1815
iliğ	-1816
▁olsa	-1817
tif	-1818
imizde	-1819
▁çö	-1820
▁Aynı	-1821
ant	-1822
ve	-1823
▁Ta	-1824
tılar	-1825
larıyla	-1826
▁iletişim	-1827
▁bakın	-1828
fer	-1829
▁akıl	-1830
▁ortak	-1831
▁ə	-1832
▁Tüm	-1833
▁mən	-1834
▁söylüyor	-1835
iğ	-1836
ocuk	-1837
▁görür	-1838
▁Dev	-1839
▁çox	-1840
▁koş	-1841
▁sını	-1842
▁dakika	-1843
▁karış	-1844
▁zar	-1845
ceğim	-1846
▁yöntem	-1847
▁değildi	-1848
ham	-1849
▁öldür	-1850
▁arasındaki	-1851
▁ilaç	-1852
▁organiz	-1853
▁olmadığını	-1854
eyin	-1855
▁rağ	-1856
▁kans	-1857
▁bölüm	-1858
▁yoktu	-1859
▁ey	-1860
sini	-1861
▁art	-1862
▁azal	-1863
▁ayr	-1864
tuğ	-1865
▁Bazı	-1866
ıyordu	-1867
▁dir	-1868
asına	-1869
▁dönem	-1870
▁alır	-1871
▁hasta	-1872
▁üzere	-1873
▁davranış	-1874
▁ihtiyacımız	-1875
dar	-1876
▁derin	-1877
▁ilgilen	-1878
lek	-1879
uyorum	-1880
▁dayan	-1881
iyim	-1882
▁gaz	-1883
▁Onlar	-1884
bilirim	-1885
▁rağmen	-1886
▁av	-1887
mızı	-1888
bilmek	-1889
olojik	-1890
▁ifade	-1891
biliyor	-1892
diğinde	-1893
▁sonraki	-1894
▁küresel	-1895
▁biliyoruz	-1896
▁du	-1897
pr	-1898
▁kaf	-1899
▁şaşır	-1900
▁hayatım	-1901
▁alıp	-1902
ırı	-1903
memiş	-1904
▁insanın	-1905
tal	-1906
tıl	-1907
ımızı	-1908
▁am	-1909
oğun	-1910
ukarı	-1911
▁canlı	-1912
▁kalan	-1913
bileceği	-1914
▁hoş	-1915
▁Belki	-1916
▁yeten	-1917
ge	-1918
▁boz	-1919
▁gide	-1920
mesini	-1921
tın	-1922
emez	-1923
azar	-1924
sine	-1925
▁düşünc	-1926
▁düşünür	-1927
▁Ara	-1928
▁düşünüyorum	-1929
▁hizm	-1930
▁sürü	-1931
▁lider	-1932
▁yaptığı	-1933
ayda	-1934
lacak	-1935
▁York	-1936
▁Büyük	-1937
▁görüyorsunuz	-1938
dy	-1939
▁sak	-1940
▁prot	-1941
▁görmek	-1942
ınızı	-1943
son	-1944
▁birisi	-1945
▁görebil	-1946
edef	-1947
▁olsun	-1948
▁yatır	-1949
duğumuz	-1950
▁doktor	-1951
▁Tan	-1952
▁ikinci	-1953
▁söyleye	-1954
▁Bana	-1955
▁anlaş	-1956
leriyle	-1957
▁görebilirsiniz	-1958
▁yağ	-1959
▁bakış	-1960
▁başlıyor	-1961
▁Gen	-1962
sının	-1963
▁adım	-1964
▁verici	-1965
▁emin	-1966
ust	-1967
pek	-1968
▁ör	-1969
▁bab	-1970
▁nedir	-1971
▁etmeye	-1972
▁güneş	-1973
ina	-1974
▁mev	-1975
▁ettim	-1976
▁gerçekleş	-1977
▁suç	-1978
▁çarp	-1979
uyoruz	-1980
▁verir	-1981
larımızı	-1982
▁yardımcı	-1983
diniz	-1984
▁Ayrıca	-1985
▁düşündüm	-1986
bileceğini	-1987
ton	-1988
ban	-1989
▁Çocuk	-1990
▁muhtemelen	-1991
ucu	-1992
▁bes	-1993
▁harit	-1994
leyi	-1995
▁yüzyıl	-1996
liyet	-1997
meleri	-1998
▁buz	-1999
▁laz	-2000
▁şans	-2001
▁bazen	-2002
uzey	-2003
▁Avrup	-2004
▁Bütün	-2005
▁Kar	-2006
▁olup	-2007
▁olmaya	-2008
▁yaşayan	-2009
uç	-2010
▁cin	-2011
mıyor	-2012
▁Buna	-2013
▁sistemi	-2014
bileceğiniz	-2015
▁kuş	-2016
lilik	-2017
▁altı	-2018
▁yüksel	-2019
▁teş	-2020
▁balık	-2021
▁görül	-2022
▁sağlaya	-2023
lanan	-2024
aten	-2025
ildi	-2026
▁yavaş	-2027
▁yat	-2028
▁As	-2029
▁ana	-2030
ard	-2031
taki	-2032
▁keşfet	-2033
▁adı	-2034
miyor	-2035
▁kural	-2036
▁merak	-2037
emmel	-2038
▁sınıf	-2039
▁çevir	-2040
▁dışarı	-2041
▁miktar	-2042
▁beb	-2043
▁başına	-2044
▁renk	-2045
▁normal	-2046
▁yukarı	-2047
▁sol	-2048
▁Diğer	-2049
imli	-2050
emeye	-2051
elerini	-2052
▁meydan	-2053
NA	-2054
▁sun	-2055
▁vak	-2056
▁ayrıca	-2057
tika	-2058
▁dünyayı	-2059
lerdi	-2060
▁yetiş	-2061
bon	-2062
▁yiy	-2063
meniz	-2064
▁test	-2065
▁mesaj	-2066
▁yapılan	-2067
orm	-2068
ital	-2069
masına	-2070
▁hüküm	-2071
▁geçmiş	-2072
▁dönüştür	-2073
duğum	-2074
▁hikaye	-2075
bar	-2076
▁dö	-2077
▁Hiç	-2078
▁büyüm	-2079
▁incel	-2080
▁video	-2081
dığında	-2082
▁Bizim	-2083
dıkları	-2084
▁AB	-2085
ud	-2086
▁uc	-2087
▁zih	-2088
▁hesap	-2089
▁yapıl	-2090
▁sorum	-2091
mam	-2092
▁mük	-2093
▁Haya	-2094
▁etme	-2095
malıyız	-2096
meyen	-2097
lardır	-2098
▁almak	-2099
▁okyan	-2100
▁kendini	-2101
▁ekonomik	-2102
▁çalışıyor	-2103
tra	-2104
eyim	-2105
▁bal	-2106
▁ele	-2107
▁seçim	-2108
əb	-2109
yken	-2110
ımda	-2111
ınca	-2112
▁bilin	-2113
▁diy	-2114
lığın	-2115
bileceğimiz	-2116
ere	-2117
▁Müz	-2118
▁vermek	-2119
▁takip	-2120
▁yılda	-2121
▁dışında	-2122
▁beri	-2123
ilere	-2124
▁geleceğ	-2125
▁yıldı	-2126
▁değişim	-2127
▁Ok	-2128
▁devlet	-2129
▁başarılı	-2130
▁Ma	-2131
oloji	-2132
teşem	-2133
▁odak	-2134
▁tartış	-2135
▁görüyoruz	-2136
▁kesinlikle	-2137
▁Tabi	-2138
▁ciddi	-2139
▁ba	-2140
ileş	-2141
▁Bak	-2142
cık	-2143
▁risk	-2144
▁eşit	-2145
▁mis	-2146
▁şid	-2147
▁görünüyor	-2148
ari	-2149
▁Pek	-2150
▁cih	-2151
lin	-2152
bette	-2153
▁yoğun	-2154
syon	-2155
teki	-2156
▁uygun	-2157
uydu	-2158
▁acı	-2159
▁sürekli	-2160
▁İnsanlar	-2161
▁sp	-2162
landı	-2163
▁kaldır	-2164
▁yıldız	-2165
▁yaratıcı	-2166
▁va	-2167
▁mot	-2168
jen	-2169
▁nüf	-2170
▁başar	-2171
cut	-2172
▁12	-2173
arkı	-2174
▁tip	-2175
elere	-2176
▁hav	-2177
▁deki	-2178
▁kimse	-2179
▁varsa	-2180
od	-2181
▁ait	-2182
▁hedef	-2183
▁zen	-2184
hal	-2185
▁yemek	-2186
▁hizmet	-2187
▁gerektiğini	-2188
▁orman	-2189
▁bulunan	-2190
ly	-2191
cılar	-2192
▁asla	-2193
deş	-2194
▁şeye	-2195
▁anlamına	-2196
▁fikr	-2197
▁yılında	-2198
pan	-2199
sil	-2200
▁Do	-2201
▁Gerçekten	-2202
eyn	-2203
▁Birleş	-2204
▁nedenle	-2205
▁binlerce	-2206
▁sar	-2207
▁40	-2208
orat	-2209
▁konuda	-2210
sat	-2211
▁nə	-2212
▁ıs	-2213
▁evrim	-2214
▁tanış	-2215
▁haline	-2216
▁yaptım	-2217
dül	-2218
eydi	-2219
isine	-2220
▁ortam	-2221
ch	-2222
lıkla	-2223
▁evet	-2224
▁koru	-2225
▁nokt	-2226
▁Avrupa	-2227
▁yerleştir	-2228
▁defa	-2229
▁yarı	-2230
ıntı	-2231
▁mate	-2232
▁içerisinde	-2233
▁kurul	-2234
▁dünyadaki	-2235
fak	-2236
▁ayır	-2237
▁Go	-2238
▁mah	-2239
▁başladık	-2240
▁Ev	-2241
▁Geç	-2242
▁kurt	-2243
▁gidip	-2244
tiğimiz	-2245
▁x	-2246
▁yem	-2247
▁ayrı	-2248
▁Hayır	-2249
▁edecek	-2250
lerim	-2251
▁alış	-2252
laştır	-2253
tığını	-2254
▁arada	-2255
sem	-2256
▁fa	-2257
▁Gel	-2258
▁fil	-2259
▁vur	-2260
▁halk	-2261
▁bağım	-2262
▁hastalı	-2263
ker	-2264
▁işi	-2265
▁olduğum	-2266
▁çocuklar	-2267
▁tehlik	-2268
▁mükemmel	-2269
▁kitab	-2270
▁yatırım	-2271
▁ediyorum	-2272
asının	-2273
▁çıktı	-2274
▁kaybet	-2275
▁zamanlar	-2276
yi	-2277
▁ark	-2278
▁müzik	-2279
▁per	-2280
rafik	-2281
▁ağır	-2282
▁uzman	-2283
mur	-2284
▁lazım	-2285
▁yalnızca	-2286
▁yayın	-2287
əc	-2288
lıyorum	-2289
▁olmadan	-2290
▁uygulama	-2291
▁sayesinde	-2292
din	-2293
▁DNA	-2294
unuyor	-2295
▁sürec	-2296
▁tabii	-2297
enüz	-2298
▁öde	-2299
▁elektrik	-2300
▁gece	-2301
▁tarz	-2302
▁düşük	-2303
▁olurdu	-2304
langı	-2305
▁ağaç	-2306
ayet	-2307
▁rek	-2308
dığınız	-2309
dın	-2310
▁eğlen	-2311
ste	-2312
▁18	-2313
tıra	-2314
▁imk	-2315
▁unu	-2316
▁fikri	-2317
▁temiz	-2318
arım	-2319
luğu	-2320
olek	-2321
▁mim	-2322
ansız	-2323
▁ülke	-2324
▁özgür	-2325
uyorlar	-2326
▁zengin	-2327
▁tıp	-2328
▁Yeni	-2329
▁kayı	-2330
ğan	-2331
▁uzay	-2332
▁silah	-2333
▁Örn	-2334
inize	-2335
▁kurum	-2336
dam	-2337
▁mem	-2338
hendis	-2339
amız	-2340
▁hâl	-2341
▁kısm	-2342
▁veren	-2343
▁öt	-2344
ladık	-2345
▁arab	-2346
incisi	-2347
▁seviy	-2348
▁anlaya	-2349
▁yıldır	-2350
▁tu	-2351
▁yolc	-2352
▁gördük	-2353
▁ışı	-2354
▁kanı	-2355
▁dahil	-2356
▁olası	-2357
,000	-2358
▁mevcut	-2359
▁musunuz	-2360
ebi	-2361
medi	-2362
▁algı	-2363
▁şiddet	-2364
inizin	-2365
▁demokra	-2366
▁ABD	-2367
▁gar	-2368
▁giy	-2369
▁birey	-2370
▁birinin	-2371
▁don	-2372
▁açıs	-2373
lit	-2374
▁sıcak	-2375
eşil	-2376
▁bitir	-2377
▁sinir	-2378
▁muhteşem	-2379
▁Br	-2380
stik	-2381
▁yor	-2382
▁Kendi	-2383
▁biliyorum	-2384
▁bilirsiniz	-2385
za	-2386
▁kas	-2387
▁endiş	-2388
▁mutlu	-2389
üsü	-2390
etler	-2391
ümüzde	-2392
▁fayda	-2393
▁harca	-2394
▁uğraş	-2395
oğu	-2396
▁dolu	-2397
▁gerekli	-2398
▁ban	-2399
▁işlem	-2400
▁sürdür	-2401
▁ah	-2402
▁şekl	-2403
▁geçer	-2404
▁kanser	-2405
▁anlamak	-2406
▁olmadığı	-2407
▁tat	-2408
▁kişisel	-2409
▁öy	-2410
efer	-2411
ilir	-2412
▁malz	-2413
▁hap	-2414
▁kir	-2415
▁birini	-2416
▁tedavi	-2417
▁hayatta	-2418
ost	-2419
▁25	-2420
üstü	-2421
▁Mes	-2422
▁sahib	-2423
▁karbon	-2424
▁anlamı	-2425
▁etkileş	-2426
▁olduğunuz	-2427
sen	-2428
▁ca	-2429
asit	-2430
▁verdi	-2431
▁hepimiz	-2432
izyon	-2433
▁dağı	-2434
▁yaka	-2435
▁pazar	-2436
▁sebebi	-2437
▁ders	-2438
▁ileri	-2439
▁mekan	-2440
ıma	-2441
▁Kim	-2442
▁bula	-2443
▁takım	-2444
▁hangi	-2445
▁süreç	-2446
▁özellik	-2447
arlı	-2448
▁çap	-2449
▁İki	-2450
larımızın	-2451
▁çıkan	-2452
meliyiz	-2453
▁öğrenciler	-2454
elikle	-2455
▁söyledi	-2456
▁göstermek	-2457
üper	-2458
▁ham	-2459
▁kem	-2460
▁kop	-2461
▁vir	-2462
dınız	-2463
▁kısmı	-2464
əh	-2465
▁hə	-2466
▁çalışır	-2467
elerde	-2468
▁asıl	-2469
▁okyanus	-2470
▁teor	-2471
▁kimya	-2472
▁molek	-2473
▁başlaya	-2474
▁yaptığım	-2475
▁Üç	-2476
ində	-2477
▁büyü	-2478
▁fırsat	-2479
▁olacağını	-2480
▁tr	-2481
▁cihaz	-2482
▁kullana	-2483
emin	-2484
▁med	-2485
▁tav	-2486
malar	-2487
▁işaret	-2488
▁Amerikan	-2489
üb	-2490
eyse	-2491
luluk	-2492
▁yapabil	-2493
▁Pro	-2494
▁lab	-2495
▁nun	-2496
▁duyg	-2497
▁Müzik	-2498
▁yaptı	-2499
▁İngiliz	-2500
of	-2501
jital	-2502
▁kamer	-2503
▁olsay	-2504
cadel	-2505
▁beyaz	-2506
▁kurtar	-2507
▁fiziksel	-2508
iyat	-2509
▁buraya	-2510
▁oluşan	-2511
iyel	-2512
sinin	-2513
▁Devlet	-2514
▁bulmak	-2515
▁herkesin	-2516
▁ces	-2517
tiğim	-2518
▁duygu	-2519
▁buy	-2520
etrol	-2521
▁Onun	-2522
▁dalg	-2523
▁başlangı	-2524
▁sağlıyor	-2525
▁söylemek	-2526
▁eki	-2527
▁öğretmen	-2528
▁num	-2529
▁amaç	-2530
▁aldım	-2531
lerimizi	-2532
▁kalk	-2533
▁diyor	-2534
ete	-2535
▁Hat	-2536
▁Artık	-2537
▁zaten	-2538
▁çoğun	-2539
ebilecek	-2540
▁kendimi	-2541
▁ortalama	-2542
▁birleştir	-2543
ləri	-2544
sünüz	-2545
madı	-2546
liğin	-2547
▁karak	-2548
▁oğ	-2549
▁Öz	-2550
▁bur	-2551
▁sav	-2552
1;	-2553
ni	-2554
yüz	-2555
▁ac	-2556
▁&#91;	-2557
▁aracı	-2558
fen	-2559
yat	-2560
▁Uz	-2561
▁rol	-2562
▁hayır	-2563
▁verdim	-2564
▁Örneğin	-2565
▁Birleşik	-2566
▁mühendis	-2567
▁yapabilir	-2568
lığa	-2569
ydım	-2570
maktan	-2571
gen	-2572
haf	-2573
▁In	-2574
▁aile	-2575
▁fakir	-2576
▁dünyaya	-2577
▁veriyor	-2578
▁yapacak	-2579
▁şeylerden	-2580
▁kok	-2581
▁gerçekleştir	-2582
tiv	-2583
▁henüz	-2584
▁üniversit	-2585
ku	-2586
▁gözük	-2587
▁beklen	-2588
▁mücadel	-2589
▁politik	-2590
▁kadınlar	-2591
3;	-2592
may	-2593
ücü	-2594
anız	-2595
olog	-2596
▁Herk	-2597
▁olun	-2598
▁&#93;	-2599
▁yık	-2600
▁katıl	-2601
▁matematik	-2602
bo	-2603
ris	-2604
eyle	-2605
ımın	-2606
▁saldır	-2607
▁karakter	-2608
ışı	-2609
▁60	-2610
▁bec	-2611
ülebilir	-2612
▁Orta	-2613
▁gelenek	-2614
bu	-2615
▁gelip	-2616
▁gördüm	-2617
▁bakalım	-2618
taj	-2619
▁diş	-2620
▁sır	-2621
▁nüfus	-2622
sul	-2623
anda	-2624
ogle	-2625
▁ufak	-2626
▁belli	-2627
▁şarkı	-2628
▁kimi	-2629
▁umut	-2630
ov	-2631
müyor	-2632
▁meydana	-2633
▁yetiştir	-2634
▁ruh	-2635
▁bina	-2636
▁endü	-2637
▁oraya	-2638
anlık	-2639
▁aldı	-2640
▁yıllık	-2641
▁laborat	-2642
per	-2643
▁11	-2644
▁CA	-2645
▁görsel	-2646
tum	-2647
▁Yaş	-2648
▁Başka	-2649
emi	-2650
▁Mars	-2651
▁gücü	-2652
▁Güney	-2653
▁mesel	-2654
əd	-2655
▁Və	-2656
▁Google	-2657
mos	-2658
diklerini	-2659
▁adlandır	-2660
▁mar	-2661
arlar	-2662
▁kalp	-2663
▁Kuzey	-2664
▁nedeni	-2665
▁şeylerin	-2666
amaya	-2667
▁gerç	-2668
▁bebek	-2669
▁kendisi	-2670
▁yiyecek	-2671
sü	-2672
arası	-2673
▁alak	-2674
▁olağan	-2675
▁gru	-2676
▁başlar	-2677
▁biçimde	-2678
▁j	-2679
üler	-2680
▁kök	-2681
dular	-2682
▁olmaz	-2683
kel	-2684
▁le	-2685
▁soy	-2686
▁sanırım	-2687
maq	-2688
▁Es	-2689
▁sahi	-2690
▁unut	-2691
inizde	-2692
▁201	-2693
▁sim	-2694
▁ulus	-2695
▁yanında	-2696
▁çeki	-2697
▁bitk	-2698
▁kara	-2699
▁gittik	-2700
▁kardeş	-2701
▁gittim	-2702
▁sayıda	-2703
uc	-2704
dem	-2705
▁işle	-2706
▁gec	-2707
▁azından	-2708
üğ	-2709
mamış	-2710
▁yerel	-2711
ile	-2712
▁bakter	-2713
ent	-2714
▁Nasıl	-2715
▁iyileş	-2716
▁Ak	-2717
▁yeterli	-2718
▁ediyoruz	-2719
▁topluluk	-2720
▁bakarsanız	-2721
▁nör	-2722
iliği	-2723
▁farkında	-2724
▁yapıyoruz	-2725
▁far	-2726
▁doğr	-2727
▁yenilik	-2728
bı	-2729
ger	-2730
▁pen	-2731
▁madde	-2732
▁yeşil	-2733
▁kişinin	-2734
ale	-2735
▁Yak	-2736
▁tic	-2737
▁içeri	-2738
▁w	-2739
▁yaşlı	-2740
▁dijital	-2741
iği	-2742
sıt	-2743
▁ata	-2744
▁yüzey	-2745
▁yapılmış	-2746
gar	-2747
▁hər	-2748
▁Sonuç	-2749
▁halde	-2750
▁derecede	-2751
▁politika	-2752
ici	-2753
dern	-2754
▁böy	-2755
▁saç	-2756
▁şef	-2757
▁sabah	-2758
▁sefer	-2759
▁istedim	-2760
asa	-2761
▁sit	-2762
▁olursa	-2763
▁çatı	-2764
▁yerlerde	-2765
▁çocukların	-2766
▁Sor	-2767
▁mağ	-2768
iliyor	-2769
▁Hatta	-2770
▁aşırı	-2771
▁petrol	-2772
▁gösteren	-2773
▁hücreler	-2774
▁olacaktır	-2775
▁değişiklik	-2776
▁olduklarını	-2777
▁pla	-2778
irler	-2779
lanır	-2780
▁ödül	-2781
▁ihtimal	-2782
▁kişiler	-2783
▁na	-2784
lığını	-2785
▁bununla	-2786
▁girişim	-2787
▁aşı	-2788
ladım	-2789
▁yedi	-2790
dından	-2791
▁medya	-2792
▁kendine	-2793
▁buradaki	-2794
▁yaratmak	-2795
▁çalışmak	-2796
▁şaşırtıcı	-2797
▁biliyorsunuz	-2798
üyle	-2799
▁gül	-2800
▁seçen	-2801
▁insanlarla	-2802
▁bilər	-2803
▁dağ	-2804
▁Su	-2805
atan	-2806
▁resmi	-2807
lanıyor	-2808
ort	-2809
▁zek	-2810
▁Tanrı	-2811
▁gözlem	-2812
▁bazıları	-2813
var	-2814
▁İç	-2815
▁soğ	-2816
▁Fran	-2817
acağım	-2818
cağımız	-2819
▁söylen	-2820
▁sağlayan	-2821
ang	-2822
▁Ek	-2823
▁cep	-2824
▁fin	-2825
▁kıya	-2826
▁sesi	-2827
iyordum	-2828
əz	-2829
ore	-2830
▁Mo	-2831
▁199	-2832
▁edi	-2833
▁has	-2834
▁sanki	-2835
▁Birkaç	-2836
▁temsil	-2837
▁ob	-2838
▁mavi	-2839
▁psik	-2840
▁kanıt	-2841
▁mantık	-2842
▁yüzünden	-2843
▁açısından	-2844
tuk	-2845
▁hikâ	-2846
▁hastan	-2847
▁noktada	-2848
▁zamanlarda	-2849
▁milyonlarca	-2850
caq	-2851
inda	-2852
▁küt	-2853
▁aşama	-2854
▁Mesela	-2855
▁ap	-2856
▁süper	-2857
▁Sanırım	-2858
ser	-2859
▁ilham	-2860
▁metre	-2861
eceksiniz	-2862
ahat	-2863
▁Sağ	-2864
▁pot	-2865
sizlik	-2866
▁hissediyor	-2867
▁teşekkürler	-2868
▁ateş	-2869
▁işin	-2870
▁dolaş	-2871
▁birden	-2872
▁gəl	-2873
▁edir	-2874
▁ters	-2875
▁etkili	-2876
ıyorsunuz	-2877
▁kod	-2878
onik	-2879
▁det	-2880
▁proje	-2881
əş	-2882
kın	-2883
lum	-2884
ümü	-2885
▁yum	-2886
▁kapı	-2887
ılması	-2888
▁mesela	-2889
yalı	-2890
laması	-2891
▁görme	-2892
▁maliyet	-2893
unç	-2894
üman	-2895
▁ila	-2896
▁form	-2897
▁çizg	-2898
▁duvar	-2899
▁Amerikalı	-2900
fi	-2901
ga	-2902
alet	-2903
mesine	-2904
▁tanesi	-2905
ize	-2906
mat	-2907
▁sahn	-2908
▁edebil	-2909
▁kırmızı	-2910
bat	-2911
eceğiz	-2912
melerini	-2913
gor	-2914
ula	-2915
▁becer	-2916
▁köpek	-2917
▁yaşan	-2918
▁teknik	-2919
▁değilim	-2920
▁edilmiş	-2921
▁hükümet	-2922
amaz	-2923
▁köy	-2924
▁ziy	-2925
▁sana	-2926
▁terci	-2927
▁akıllı	-2928
▁üzerinden	-2929
ow	-2930
ıb	-2931
▁80	-2932
▁pa	-2933
▁ten	-2934
leyse	-2935
▁yaban	-2936
▁Am	-2937
ılan	-2938
▁Düş	-2939
elerden	-2940
▁sahibi	-2941
dek	-2942
▁Onu	-2943
▁çal	-2944
▁malzem	-2945
▁istiyoruz	-2946
▁Sen	-2947
▁senin	-2948
▁of	-2949
▁bulduk	-2950
▁gördüğümüz	-2951
liğe	-2952
▁yoksa	-2953
▁anlamda	-2954
▁göstereceğim	-2955
ub	-2956
▁ucuz	-2957
▁bilir	-2958
▁farket	-2959
▁saniye	-2960
▁inanıyorum	-2961
azz	-2962
▁rak	-2963
▁alet	-2964
▁kağı	-2965
▁sokak	-2966
▁toplan	-2967
▁zamanı	-2968
ekt	-2969
mək	-2970
ydi	-2971
▁it	-2972
▁Mil	-2973
▁şehr	-2974
▁satın	-2975
ij	-2976
▁Yüz	-2977
▁sem	-2978
▁Dolayı	-2979
▁herşey	-2980
▁yapıyorlar	-2981
zer	-2982
▁oldum	-2983
▁zarar	-2984
mayacak	-2985
▁çeşitli	-2986
ramı	-2987
▁Par	-2988
▁Batı	-2989
▁günde	-2990
▁iklim	-2991
▁Top	-2992
▁kuv	-2993
çiler	-2994
▁budur	-2995
▁işler	-2996
▁anlata	-2997
▁bl	-2998
mayan	-2999
miştim	-3000
▁Herkes	-3001
▁İkinci	-3002
▁olduğundan	-3003
▁not	-3004
niversit	-3005
▁yapabiliriz	-3006
▁mas	-3007
ınıza	-3008
▁baskı	-3009
▁garip	-3010
▁bilimsel	-3011
▁ihtiyacı	-3012
▁isim	-3013
▁alanı	-3014
ulu	-3015
▁tüket	-3016
▁yarar	-3017
▁tercih	-3018
▁olmasını	-3019
iq	-3020
istik	-3021
▁rast	-3022
▁olanlar	-3023
▁Mü	-3024
▁bor	-3025
▁günlük	-3026
ağa	-3027
▁gı	-3028
▁fon	-3029
▁izle	-3030
▁uçak	-3031
duğunuz	-3032
▁molekül	-3033
▁örneğin	-3034
▁gerçekte	-3035
▁min	-3036
enler	-3037
▁adlı	-3038
▁kims	-3039
▁sağlıklı	-3040
▁Dolayısıyla	-3041
tura	-3042
▁öner	-3043
▁Tabii	-3044
ilerine	-3045
▁içindeki	-3046
ond	-3047
adın	-3048
ələr	-3049
ekler	-3050
muyor	-3051
duğunu	-3052
▁babam	-3053
▁gizli	-3054
▁mikro	-3055
▁öğrenc	-3056
▁korkunç	-3057
▁genellikle	-3058
lıp	-3059
▁aya	-3060
işkin	-3061
▁piya	-3062
masının	-3063
▁re	-3064
▁Orada	-3065
▁çıkıyor	-3066
▁edebilir	-3067
ati	-3068
ıştır	-3069
▁aktiv	-3070
▁ölçek	-3071
▁getirmek	-3072
▁Öğ	-3073
imden	-3074
▁gitmek	-3075
▁potans	-3076
▁üstünde	-3077
iyorlardı	-3078
▁olduğunda	-3079
▁seviyorum	-3080
dil	-3081
▁aldık	-3082
▁karanlık	-3083
▁konuşmak	-3084
▁kullanmak	-3085
▁oldukları	-3086
▁bilmiyorum	-3087
eliğ	-3088
▁dans	-3089
▁icin	-3090
▁De	-3091
eyiz	-3092
▁eve	-3093
▁nde	-3094
▁Biraz	-3095
▁indir	-3096
▁türlü	-3097
evizyon	-3098
▁müt	-3099
▁çıl	-3100
▁uyum	-3101
▁hücre	-3102
▁virüs	-3103
vik	-3104
▁fel	-3105
▁anne	-3106
liğini	-3107
▁motor	-3108
▁buluş	-3109
▁giden	-3110
lardaki	-3111
▁açıdan	-3112
▁endüstr	-3113
▁bunlardan	-3114
▁16	-3115
▁amacı	-3116
eksiyon	-3117
▁söyley	-3118
▁yoktur	-3119
▁alakalı	-3120
kin	-3121
▁tec	-3122
▁şah	-3123
▁nereye	-3124
▁elbette	-3125
▁rahatsız	-3126
▁ip	-3127
▁nesn	-3128
▁uyan	-3129
layıcı	-3130
▁miyiz	-3131
▁vücud	-3132
▁Onları	-3133
▁edilen	-3134
▁olmayacak	-3135
alak	-3136
atif	-3137
ehir	-3138
ilim	-3139
lukla	-3140
▁durumu	-3141
▁üzerindeki	-3142
mür	-3143
şam	-3144
▁Ner	-3145
▁salg	-3146
mıştım	-3147
▁ettir	-3148
▁buldum	-3149
▁yüzlerce	-3150
▁kendilerini	-3151
fet	-3152
▁üc	-3153
▁anal	-3154
▁eylem	-3155
▁gazet	-3156
▁genetik	-3157
▁başarısız	-3158
▁bahsediyor	-3159
ho	-3160
düğü	-3161
▁gök	-3162
▁yax	-3163
▁İyi	-3164
▁eriş	-3165
gör	-3166
▁yürüy	-3167
lararası	-3168
▁önemlisi	-3169
▁İnternet	-3170
▁geleneksel	-3171
sey	-3172
ura	-3173
ırlar	-3174
▁etik	-3175
▁cevab	-3176
▁önceki	-3177
▁sağlamak	-3178
ck	-3179
go	-3180
geç	-3181
isik	-3182
▁siv	-3183
▁başlama	-3184
▁bilgiyi	-3185
iyer	-3186
ikalı	-3187
lerdir	-3188
▁sonsuz	-3189
onu	-3190
▁tur	-3191
▁hâlâ	-3192
▁kala	-3193
▁güvenli	-3194
əyə	-3195
▁Kur	-3196
▁dek	-3197
▁icat	-3198
manızı	-3199
▁rakam	-3200
▁yaşama	-3201
▁üçüncü	-3202
▁kendimizi	-3203
▁Er	-3204
▁üy	-3205
▁tedav	-3206
▁yarış	-3207
▁olabil	-3208
maktadır	-3209
▁düşünmeye	-3210
dışı	-3211
▁şüp	-3212
aları	-3213
▁anlay	-3214
▁eğlenc	-3215
▁verdik	-3216
▁Tam	-3217
▁kura	-3218
▁ekran	-3219
▁kayıt	-3220
▁insanı	-3221
▁yoksul	-3222
▁Üniversit	-3223
▁laboratuvar	-3224
▁Man	-3225
▁Mən	-3226
▁köş	-3227
▁Beni	-3228
▁stan	-3229
▁stra	-3230
▁zeki	-3231
▁profes	-3232
▁sanatçı	-3233
▁gerektir	-3234
▁değiştirmek	-3235
ada	-3236
yum	-3237
ayla	-3238
urken	-3239
▁aklı	-3240
▁Video	-3241
▁düşünce	-3242
kop	-3243
sas	-3244
▁ani	-3245
▁dam	-3246
▁pop	-3247
▁adında	-3248
▁arkadaşım	-3249
▁İnsanların	-3250
abr	-3251
dit	-3252
▁siyah	-3253
▁Birçok	-3254
▁Bundan	-3255
▁ziyaret	-3256
50	-3257
▁başk	-3258
larımı	-3259
▁etmiş	-3260
▁edeceğ	-3261
▁önünde	-3262
malarını	-3263
▁nö	-3264
emli	-3265
layıp	-3266
▁Alman	-3267
▁işlet	-3268
▁teşvik	-3269
▁anlamaya	-3270
▁değerlendir	-3271
ym	-3272
▁Ə	-3273
lis	-3274
ükle	-3275
▁tecr	-3276
▁Pekala	-3277
▁kuvvet	-3278
▁modern	-3279
▁söyler	-3280
▁karşılık	-3281
▁yaparken	-3282
cer	-3283
ire	-3284
ohn	-3285
çuk	-3286
lenmiş	-3287
▁vücut	-3288
▁etkisi	-3289
▁kavram	-3290
▁düşündük	-3291
▁birbirine	-3292
vv	-3293
▁yi	-3294
apon	-3295
tere	-3296
▁rüz	-3297
▁sekiz	-3298
▁yaşıyor	-3299
▁sırasında	-3300
▁çalışıyoruz	-3301
▁Et	-3302
▁poz	-3303
▁işbir	-3304
▁nesil	-3305
▁Burası	-3306
▁altına	-3307
▁yönlendir	-3308
▁Öy	-3309
mada	-3310
▁etrafında	-3311
▁yeterince	-3312
bev	-3313
dün	-3314
▁70	-3315
▁90	-3316
▁ni	-3317
tern	-3318
▁Dav	-3319
lıyoruz	-3320
▁sonucu	-3321
▁yaparak	-3322
taş	-3323
tej	-3324
▁ilgi	-3325
▁Geçen	-3326
▁sahibiz	-3327
utan	-3328
▁Mer	-3329
▁bay	-3330
▁esas	-3331
▁ikna	-3332
layacak	-3333
▁geriye	-3334
▁parmak	-3335
▁belirli	-3336
larındaki	-3337
▁Aç	-3338
▁sap	-3339
diğimi	-3340
▁bağış	-3341
ümüzdeki	-3342
iyy	-3343
▁kum	-3344
▁müş	-3345
▁sıf	-3346
▁John	-3347
beveyn	-3348
lıklar	-3349
▁bilinç	-3350
▁konusu	-3351
▁zorluk	-3352
▁olmasına	-3353
▁geldiğini	-3354
▁”	-3355
▁çı	-3356
▁akl	-3357
luluğ	-3358
ütfen	-3359
esiyle	-3360
ımızın	-3361
▁erken	-3362
▁sorunu	-3363
ilerinin	-3364
▁kadınların	-3365
▁olağanüstü	-3366
▁ep	-3367
▁Muh	-3368
eyici	-3369
▁devr	-3370
▁düzey	-3371
isiklet	-3372
▁toprak	-3373
▁yaşaya	-3374
işki	-3375
▁beden	-3376
▁imkan	-3377
▁şekli	-3378
▁olsaydı	-3379
▁ediyorlar	-3380
▁Ann	-3381
▁ton	-3382
▁tır	-3383
azzam	-3384
uştur	-3385
▁sayfa	-3386
▁verin	-3387
▁birleş	-3388
▁televizyon	-3389
ron	-3390
▁198	-3391
▁suy	-3392
dunuz	-3393
▁böcek	-3394
▁kaldı	-3395
▁zihin	-3396
▁üretim	-3397
▁çalışıyorum	-3398
▁“	-3399
▁list	-3400
▁davet	-3401
▁korku	-3402
▁birine	-3403
▁gittiğ	-3404
tığınızda	-3405
ros	-3406
▁14	-3407
▁At	-3408
isyon	-3409
▁Japon	-3410
▁başlat	-3411
▁kendime	-3412
hiş	-3413
▁Ul	-3414
şeyi	-3415
▁nef	-3416
▁Demek	-3417
▁atmos	-3418
▁tıpkı	-3419
▁kelime	-3420
▁sırada	-3421
▁odaklan	-3422
▁demektir	-3423
▁yetişkin	-3424
▁/	-3425
rek	-3426
liliğ	-3427
▁yanı	-3428
▁biçim	-3429
düğünüz	-3430
▁yerinde	-3431
▁hakkındaki	-3432
inə	-3433
▁kere	-3434
isiniz	-3435
▁detay	-3436
meyecek	-3437
▁beynin	-3438
▁yaygın	-3439
▁stratej	-3440
sef	-3441
esiz	-3442
▁iti	-3443
▁harc	-3444
iri	-3445
yet	-3446
▁Kız	-3447
▁mimar	-3448
▁devrim	-3449
▁yapmayı	-3450
▁görürsünüz	-3451
▁istediğimiz	-3452
▁paha	-3453
forman	-3454
leyici	-3455
sından	-3456
▁yağmur	-3457
ıyla	-3458
▁gib	-3459
uyordu	-3460
▁Savaş	-3461
▁danış	-3462
miyorum	-3463
▁yapmamız	-3464
co	-3465
▁Değ	-3466
▁dal	-3467
▁meş	-3468
ımıza	-3469
▁dahi	-3470
▁kutu	-3471
▁adına	-3472
▁ikisi	-3473
▁terör	-3474
▁sonrasında	-3475
gü	-3476
lif	-3477
ıra	-3478
▁gıda	-3479
▁katkı	-3480
▁mahal	-3481
▁soruyu	-3482
▁karşılaştır	-3483
▁Q	-3484
osu	-3485
ruf	-3486
ümde	-3487
▁göç	-3488
▁onunla	-3489
▁kimyasal	-3490
▁arz	-3491
▁dür	-3492
▁fir	-3493
atandaş	-3494
eceğini	-3495
mektedir	-3496
▁boyutlu	-3497
▁13	-3498
▁17	-3499
▁vaz	-3500
▁çab	-3501
▁ölçü	-3502
▁koşul	-3503
▁başında	-3504
▁genelde	-3505
▁çalışmaya	-3506
tay	-3507
▁Ol	-3508
▁Ste	-3509
kenin	-3510
menizi	-3511
▁düzel	-3512
▁belirt	-3513
▁yazılım	-3514
▁yaptıkları	-3515
ry	-3516
ene	-3517
alığı	-3518
▁araz	-3519
lığına	-3520
▁hikây	-3521
lıkları	-3522
▁hayatı	-3523
▁yapmış	-3524
▁düşünmek	-3525
ite	-3526
urur	-3527
▁hey	-3528
▁pan	-3529
▁şiş	-3530
▁kabil	-3531
▁kısım	-3532
▁nöron	-3533
layarak	-3534
eğe	-3535
▁Ona	-3536
▁alk	-3537
▁net	-3538
▁yayı	-3539
▁düşür	-3540
▁çılgın	-3541
bur	-3542
dig	-3543
lamaz	-3544
▁aray	-3545
▁başa	-3546
▁oyna	-3547
▁yorum	-3548
▁yıllar	-3549
erra	-3550
meli	-3551
▁cam	-3552
▁kör	-3553
▁mez	-3554
▁park	-3555
▁seyahat	-3556
▁çocukları	-3557
yo	-3558
tüğ	-3559
▁Kö	-3560
▁hali	-3561
▁ülkede	-3562
▁önceden	-3563
diğinizde	-3564
▁Dünyanın	-3565
▁imkansız	-3566
▁olduğumu	-3567
▁yaklaşım	-3568
▁fe	-3569
ledik	-3570
▁Sizin	-3571
ag	-3572
▁fabr	-3573
▁kriz	-3574
▁Öyle	-3575
▁dokun	-3576
▁ondan	-3577
▁pahalı	-3578
▁sektör	-3579
▁halinde	-3580
▁fikirler	-3581
▁güvenlik	-3582
▁mücadele	-3583
▁organizasyon	-3584
mə	-3585
▁Um	-3586
land	-3587
▁Car	-3588
▁bom	-3589
▁Bazen	-3590
▁adını	-3591
▁stand	-3592
erseniz	-3593
▁sinyal	-3594
ilebilir	-3595
▁Öyleyse	-3596
▁hücreleri	-3597
cil	-3598
abet	-3599
ulmuş	-3600
▁hata	-3601
▁okula	-3602
▁ücret	-3603
▁ederek	-3604
▁tehdit	-3605
▁çekici	-3606
ladığımız	-3607
▁performan	-3608
hur	-3609
ysa	-3610
▁Hem	-3611
▁Mic	-3612
▁Fark	-3613
▁depr	-3614
▁masa	-3615
▁dalga	-3616
▁fiyat	-3617
▁gayet	-3618
mıyorum	-3619
sit	-3620
lüğü	-3621
▁adet	-3622
▁çaba	-3623
▁bağımlı	-3624
▁ardından	-3625
etre	-3626
deler	-3627
▁komp	-3628
▁akşam	-3629
▁bakım	-3630
▁muazzam	-3631
▁başlangıç	-3632
▁tehlikeli	-3633
bin	-3634
lıq	-3635
▁21	-3636
▁Den	-3637
▁Yer	-3638
düler	-3639
ograf	-3640
raman	-3641
▁İnan	-3642
▁nefes	-3643
▁sonuc	-3644
▁kaynağı	-3645
▁olmamız	-3646
▁harekete	-3647
▁öğrendim	-3648
oyu	-3649
ədər	-3650
▁ilə	-3651
▁diren	-3652
▁kilom	-3653
▁çatış	-3654
diğimde	-3655
tıkları	-3656
▁bizler	-3657
abiliriz	-3658
▁şeylere	-3659
tığımızda	-3660
▁anlatmak	-3661
▁sağlayacak	-3662
▁gerekiyordu	-3663
▁Bilg	-3664
ladığı	-3665
undaki	-3666
▁delik	-3667
▁sanal	-3668
▁onlarla	-3669
▁tarafta	-3670
▁miktarda	-3671
av	-3672
rop	-3673
▁Ge	-3674
osta	-3675
ılma	-3676
anistan	-3677
▁farkına	-3678
▁Buradaki	-3679
▁gerektiği	-3680
▁ir	-3681
ayıf	-3682
▁şif	-3683
▁Yine	-3684
miştir	-3685
ündeki	-3686
▁giriş	-3687
▁koruma	-3688
▁bisiklet	-3689
▁tasarruf	-3690
apı	-3691
har	-3692
▁kafa	-3693
alıyor	-3694
▁Kadın	-3695
▁etkin	-3696
▁isteyen	-3697
▁veriler	-3698
▁oluştura	-3699
▁biyolojik	-3700
▁bulunuyor	-3701
▁potansiyel	-3702
ima	-3703
▁Küç	-3704
▁cok	-3705
panya	-3706
▁yada	-3707
▁birer	-3708
▁taşın	-3709
▁Onlara	-3710
▁meslek	-3711
▁fazlası	-3712
əq	-3713
alt	-3714
rat	-3715
▁qu	-3716
▁yu	-3717
▁qədər	-3718
▁tepki	-3719
▁piyasa	-3720
larınızı	-3721
▁bağımsız	-3722
▁çalıştığım	-3723
ayn	-3724
▁Le	-3725
▁Sah	-3726
▁mahk	-3727
▁Güneş	-3728
▁bileş	-3729
▁kopya	-3730
▁ettiler	-3731
▁yabancı	-3732
▁erkekler	-3733
▁topluluğ	-3734
▁Ro	-3735
omuz	-3736
mayın	-3737
▁edici	-3738
▁müthiş	-3739
lıyorlar	-3740
▁hayatın	-3741
▁öğrenmek	-3742
▁ortasında	-3743
dyo	-3744
eter	-3745
tarı	-3746
▁Rus	-3747
▁olum	-3748
▁çevre	-3749
▁beslen	-3750
▁etkilen	-3751
ace	-3752
mini	-3753
▁web	-3754
▁ayar	-3755
▁uçuş	-3756
▁prote	-3757
▁savun	-3758
▁soğuk	-3759
▁alanda	-3760
▁ettiği	-3761
▁tamamı	-3762
▁çıkara	-3763
▁hepimizin	-3764
lah	-3765
▁tas	-3766
▁Adam	-3767
▁koya	-3768
▁zihn	-3769
▁şart	-3770
▁asker	-3771
▁birik	-3772
▁neyse	-3773
▁çizgi	-3774
▁ışığı	-3775
▁müşter	-3776
▁kapasit	-3777
▁sorular	-3778
lül	-3779
▁piş	-3780
▁iddi	-3781
▁spor	-3782
▁tutk	-3783
▁aydın	-3784
cağınız	-3785
▁almaya	-3786
larımıza	-3787
▁Bunların	-3788
iber	-3789
örün	-3790
▁obj	-3791
▁belə	-3792
▁yılı	-3793
▁yansı	-3794
▁zayıf	-3795
▁benimle	-3796
▁geçerli	-3797
▁kuruluş	-3798
▁verilen	-3799
▁yetenek	-3800
▁kullanım	-3801
▁standart	-3802
▁nit	-3803
▁tıb	-3804
▁dışı	-3805
▁ekip	-3806
▁buçuk	-3807
▁mesaf	-3808
ellikle	-3809
▁dep	-3810
▁Kend	-3811
▁Küçük	-3812
elerine	-3813
leriniz	-3814
▁kurtul	-3815
▁dediler	-3816
▁istedik	-3817
▁iyileştir	-3818
gər	-3819
▁24	-3820
ısır	-3821
▁sat	-3822
▁ısı	-3823
▁Hayat	-3824
▁eksik	-3825
▁kağıt	-3826
▁öngör	-3827
▁sayısı	-3828
▁ebeveyn	-3829
bileceğimizi	-3830
▁teknolojinin	-3831
pt	-3832
eci	-3833
her	-3834
üme	-3835
▁Açık	-3836
▁tuhaf	-3837
▁sessiz	-3838
▁şeyden	-3839
▁benzeri	-3840
▁göreceksiniz	-3841
las	-3842
urt	-3843
alan	-3844
▁ide	-3845
▁alma	-3846
ilmesi	-3847
▁ilişki	-3848
▁eğlenceli	-3849
▁km	-3850
▁mül	-3851
▁uydu	-3852
lemeye	-3853
▁arama	-3854
▁deyil	-3855
▁hızla	-3856
▁Hiçbir	-3857
▁sordum	-3858
▁toplam	-3859
bilirler	-3860
▁atmosfer	-3861
▁çöp	-3862
▁buydu	-3863
▁olanı	-3864
asından	-3865
▁sıradan	-3866
▁bildiğimiz	-3867
▁kullanıyor	-3868
▁olduğumuzu	-3869
ülü	-3870
▁şi	-3871
ılır	-3872
▁anah	-3873
▁vücu	-3874
▁yeri	-3875
düğünü	-3876
▁burası	-3877
▁finans	-3878
▁olmayı	-3879
▁yarısı	-3880
dıklarını	-3881
▁vatandaş	-3882
▁çalıştım	-3883
▁birşeyler	-3884
▁kullanılan	-3885
ann	-3886
▁Aş	-3887
▁eg	-3888
▁Tel	-3889
▁tra	-3890
IV	-3891
SA	-3892
▁Kı	-3893
atür	-3894
▁esn	-3895
▁mod	-3896
eğini	-3897
▁Tekn	-3898
▁etki	-3899
▁toplu	-3900
elerinde	-3901
▁Hepimiz	-3902
▁olmanın	-3903
▁çapında	-3904
itim	-3905
▁döv	-3906
▁yarıs	-3907
▁harita	-3908
▁nefret	-3909
▁konuştuğ	-3910
▁hastalığı	-3911
yen	-3912
▁neh	-3913
▁tale	-3914
liliği	-3915
▁geçiş	-3916
▁sıfır	-3917
dığımda	-3918
▁alacak	-3919
▁duygusal	-3920
▁yolculuk	-3921
▁kullanıcı	-3922
▁İngiltere	-3923
ou	-3924
les	-3925
umda	-3926
liler	-3927
▁görə	-3928
▁pren	-3929
▁ünlü	-3930
▁Zaman	-3931
▁burda	-3932
imizden	-3933
▁grafik	-3934
▁makine	-3935
esindeki	-3936
▁değiller	-3937
eks	-3938
ərə	-3939
▁Ap	-3940
▁HIV	-3941
▁cüm	-3942
▁şüph	-3943
▁bölge	-3944
▁yolculuğ	-3945
▁hayatımız	-3946
sta	-3947
ayım	-3948
▁dör	-3949
▁tor	-3950
▁kart	-3951
▁serv	-3952
▁terk	-3953
elerle	-3954
mıştır	-3955
▁merkezi	-3956
▁yapabilirsiniz	-3957
ansı	-3958
▁sez	-3959
▁günü	-3960
ükleer	-3961
▁yazar	-3962
▁sağlar	-3963
▁Elbette	-3964
▁plastik	-3965
▁sizinle	-3966
▁kullanıl	-3967
▁olmaları	-3968
▁tit	-3969
layın	-3970
▁komş	-3971
▁Çoğu	-3972
▁dedik	-3973
▁hafif	-3974
▁keşif	-3975
larımın	-3976
▁problemi	-3977
▁etkileşim	-3978
amp	-3979
▁anı	-3980
▁kuy	-3981
anlar	-3982
bilen	-3983
medik	-3984
▁Lond	-3985
▁grub	-3986
▁kamp	-3987
▁Chris	-3988
▁kalır	-3989
▁Şöyle	-3990
lanması	-3991
▁üstüne	-3992
▁şeydir	-3993
elerinin	-3994
▁yönetim	-3995
▁benziyor	-3996
aka	-3997
▁Bab	-3998
▁Doğu	-3999
▁uzan	-4000
▁derec	-4001
▁oranı	-4002
meliyim	-4003
tığında	-4004
▁görünen	-4005
▁saldırı	-4006
▁zorundayız	-4007
▁sürdürülebilir	-4008
▁Yar	-4009
▁düğ	-4010
▁fen	-4011
▁hip	-4012
laşma	-4013
▁neye	-4014
▁zinc	-4015
alifor	-4016
▁kapat	-4017
leyecek	-4018
▁gelecekte	-4019
▁önemlidir	-4020
şi	-4021
▁ır	-4022
▁Kal	-4023
▁sig	-4024
▁Hadi	-4025
▁edip	-4026
▁artış	-4027
▁birlik	-4028
▁cinsel	-4029
▁giderek	-4030
▁görmeye	-4031
▁yapıyorum	-4032
▁yaşındaki	-4033
ori	-4034
pit	-4035
▁gür	-4036
▁isə	-4037
▁ref	-4038
▁deng	-4039
▁gitti	-4040
▁kenar	-4041
ebiliyor	-4042
▁değiliz	-4043
▁bekliyor	-4044
əcək	-4045
▁Mat	-4046
▁Bize	-4047
▁denk	-4048
▁kayb	-4049
▁değerli	-4050
▁noktaya	-4051
▁onlardan	-4052
▁X	-4053
lav	-4054
▁Ah	-4055
▁Dr	-4056
▁Eğ	-4057
▁st	-4058
lari	-4059
onun	-4060
▁uyar	-4061
▁yola	-4062
▁aktar	-4063
▁ameli	-4064
▁bacak	-4065
▁örneği	-4066
▁tasarımcı	-4067
▁yaratıyor	-4068
oli	-4069
▁1.	-4070
▁Afg	-4071
tırma	-4072
usunu	-4073
▁maym	-4074
▁tren	-4075
▁sabit	-4076
▁başara	-4077
cağımızı	-4078
ıyorlardı	-4079
▁şirketler	-4080
xt	-4081
əkil	-4082
▁197	-4083
▁qar	-4084
▁tık	-4085
lıyız	-4086
▁doğa	-4087
▁suyu	-4088
▁azalt	-4089
▁doğum	-4090
▁bilmek	-4091
▁Sonunda	-4092
▁mekaniz	-4093
▁kullanır	-4094
▁ettiğimiz	-4095
abilirsiniz	-4096
öv	-4097
etin	-4098
▁Ora	-4099
▁haq	-4100
▁keç	-4101
▁nda	-4102
▁yana	-4103
lamayı	-4104
▁bozuk	-4105
▁galak	-4106
▁inanç	-4107
▁ayakka	-4108
▁bakmak	-4109
▁hassas	-4110
▁yandan	-4111
▁Onların	-4112
▁gelişmiş	-4113
▁kahraman	-4114
to	-4115
gul	-4116
iki	-4117
one	-4118
içek	-4119
▁Ver	-4120
▁kaya	-4121
▁kemik	-4122
▁yerler	-4123
▁Afganistan	-4124
▁be	-4125
▁Ber	-4126
▁koc	-4127
cının	-4128
▁tepk	-4129
▁vide	-4130
▁Bilim	-4131
▁genom	-4132
▁analiz	-4133
▁durdur	-4134
▁ülkenin	-4135
▁uluslararası	-4136
aq	-4137
esif	-4138
etic	-4139
▁500	-4140
▁Ses	-4141
▁part	-4142
▁barış	-4143
▁kaçır	-4144
▁saygı	-4145
▁adalet	-4146
▁bahsede	-4147
kar	-4148
▁The	-4149
▁nevi	-4150
▁kalma	-4151
▁görmüş	-4152
▁kısmını	-4153
▁ortadan	-4154
bileceğim	-4155
lanabilir	-4156
▁ülkelerde	-4157
▁İngilizce	-4158
▁insanlardan	-4159
sə	-4160
▁İz	-4161
▁196	-4162
▁Yıl	-4163
▁alty	-4164
▁boya	-4165
lamanın	-4166
▁reklam	-4167
▁noktası	-4168
dığınızda	-4169
tüy	-4170
apor	-4171
best	-4172
meme	-4173
otik	-4174
ukuk	-4175
▁bax	-4176
▁evr	-4177
leşme	-4178
▁kalit	-4179
▁insana	-4180
▁duruyor	-4181
▁hepsini	-4182
▁bilmiyor	-4183
▁mantıklı	-4184
▁Bilirsiniz	-4185
▁Gördüğünüz	-4186
▁oluşturmak	-4187
ruk	-4188
▁Ağ	-4189
əyir	-4190
▁bat	-4191
▁nak	-4192
▁pil	-4193
siyet	-4194
diğine	-4195
ülüyor	-4196
▁edildi	-4197
masından	-4198
▁Bununla	-4199
▁çocuğun	-4200
▁olabilecek	-4201
▁çoğunlukla	-4202
amı	-4203
▁Pa	-4204
altı	-4205
umun	-4206
▁Göz	-4207
cağına	-4208
ımızda	-4209
▁bulut	-4210
▁polis	-4211
▁kaybol	-4212
▁olanak	-4213
▁varsay	-4214
▁misiniz	-4215
▁yaptığını	-4216
dal	-4217
▁arı	-4218
cılık	-4219
▁Düşün	-4220
▁adamı	-4221
▁böyük	-4222
▁kısıt	-4223
▁arttır	-4224
▁numara	-4225
ebilirim	-4226
▁anlayış	-4227
▁görünür	-4228
▁korumak	-4229
▁sağladı	-4230
▁hatırlıyorum	-4231
rım	-4232
▁bi	-4233
erken	-4234
eştir	-4235
▁doku	-4236
▁oper	-4237
▁yasa	-4238
▁besin	-4239
▁büyüy	-4240
▁yakıt	-4241
▁yarım	-4242
▁Harika	-4243
▁seviye	-4244
diğimizi	-4245
▁sizlere	-4246
▁Devletler	-4247
▁hayvanlar	-4248
▁İl	-4249
▁dar	-4250
▁tuv	-4251
▁Önc	-4252
▁şim	-4253
▁baba	-4254
▁bahç	-4255
lasyon	-4256
▁gurur	-4257
▁neyin	-4258
▁sever	-4259
▁bilinen	-4260
▁verecek	-4261
▁öğrenme	-4262
▁sevdiğim	-4263
▁sonuçlar	-4264
▁Birincisi	-4265
▁söylediği	-4266
ke	-4267
çak	-4268
▁ro	-4269
▁ən	-4270
▁men	-4271
ceğiz	-4272
irken	-4273
▁itibar	-4274
▁kamera	-4275
▁kapalı	-4276
▁ölçüde	-4277
▁çalıştık	-4278
▁gerekirse	-4279
▁geldiğinde	-4280
biy	-4281
met	-4282
ceği	-4283
stit	-4284
ğını	-4285
▁Asya	-4286
▁eser	-4287
dığına	-4288
lerimi	-4289
umuzun	-4290
▁annem	-4291
▁şuydu	-4292
▁adamın	-4293
▁siyasi	-4294
lerimizin	-4295
▁versiyon	-4296
▁paylaşmak	-4297
kil	-4298
tre	-4299
tüm	-4300
▁Fr	-4301
▁Kan	-4302
▁İsv	-4303
eceği	-4304
▁kolon	-4305
▁korun	-4306
▁parlak	-4307
▁rüzgar	-4308
▁Bunları	-4309
▁diyorum	-4310
▁başladılar	-4311
oya	-4312
▁dəy	-4313
mekten	-4314
▁denem	-4315
isinden	-4316
▁hayata	-4317
▁tespit	-4318
▁edebilirsiniz	-4319
dakı	-4320
▁Bur	-4321
▁Dem	-4322
▁red	-4323
▁tap	-4324
▁müda	-4325
▁aktif	-4326
cilerin	-4327
▁Nerede	-4328
▁yerleş	-4329
▁cesaret	-4330
▁evrenin	-4331
▁yapıldı	-4332
▁Gö	-4333
rail	-4334
▁Tim	-4335
indən	-4336
ıklık	-4337
▁kamu	-4338
▁yapay	-4339
▁Londra	-4340
▁büyüme	-4341
imizdeki	-4342
rom	-4343
▁Ey	-4344
imle	-4345
▁Kit	-4346
▁enf	-4347
▁gor	-4348
dikal	-4349
asyonu	-4350
▁dokuz	-4351
▁anlatıyor	-4352
▁bulunduğu	-4353
▁dediğimiz	-4354
▁olabilirsiniz	-4355
ise	-4356
işi	-4357
eğen	-4358
▁atı	-4359
▁gem	-4360
▁oto	-4361
▁saf	-4362
iydim	-4363
▁artı	-4364
memizi	-4365
▁Avust	-4366
▁David	-4367
▁arası	-4368
▁gönül	-4369
▁yargı	-4370
▁önüne	-4371
▁gelişim	-4372
dığımızda	-4373
▁doğrudan	-4374
▁mutluluk	-4375
▁şeklinde	-4376
▁şekillendir	-4377
▁Sp	-4378
usun	-4379
ülen	-4380
▁vah	-4381
iyyət	-4382
▁karş	-4383
▁seni	-4384
▁tuta	-4385
▁Konuş	-4386
lığında	-4387
▁tırman	-4388
▁nereden	-4389
▁verimli	-4390
▁gösterdi	-4391
▁yaptılar	-4392
▁çıkarmak	-4393
uru	-4394
lana	-4395
▁hek	-4396
▁hid	-4397
▁epey	-4398
▁kalb	-4399
▁Doğru	-4400
▁Güzel	-4401
▁oyunu	-4402
▁şeydi	-4403
atistik	-4404
▁verdiği	-4405
▁öğrendik	-4406
▁hikayeler	-4407
rip	-4408
əni	-4409
▁ez	-4410
ezil	-4411
▁bol	-4412
dukları	-4413
ilerden	-4414
▁süreci	-4415
▁vazgeç	-4416
▁dikkatli	-4417
▁teknolojiyi	-4418
▁olabileceğini	-4419
âr	-4420
▁Eski	-4421
▁batı	-4422
▁ince	-4423
▁bitki	-4424
▁yönel	-4425
▁Öğren	-4426
▁geldik	-4427
▁konfer	-4428
▁lütfen	-4429
▁yerden	-4430
▁düşünme	-4431
▁isterim	-4432
▁nükleer	-4433
▁yaşamak	-4434
▁açıklama	-4435
▁olmaktan	-4436
▁kullanıyoruz	-4437
▁çalıştığımız	-4438
ich	-4439
iti	-4440
süz	-4441
aydı	-4442
ihir	-4443
ğına	-4444
▁Sür	-4445
anada	-4446
▁artır	-4447
▁istif	-4448
▁şimdiye	-4449
▁gelişmekte	-4450
ID	-4451
olu	-4452
ydık	-4453
▁Dok	-4454
▁aşk	-4455
▁lim	-4456
▁zir	-4457
ciğer	-4458
renin	-4459
tımız	-4460
▁aptal	-4461
▁kayde	-4462
▁komik	-4463
lığıyla	-4464
▁korkut	-4465
▁seçenek	-4466
▁toplantı	-4467
▁istiyorlar	-4468
▁300	-4469
▁Kür	-4470
▁dök	-4471
▁idar	-4472
ilerle	-4473
▁bilme	-4474
▁sebeb	-4475
▁tarım	-4476
▁ayakkabı	-4477
▁fazlasını	-4478
▁gerçeklik	-4479
ane	-4480
ləş	-4481
imler	-4482
▁Araş	-4483
▁elem	-4484
▁türü	-4485
▁çiçek	-4486
ilendir	-4487
▁gelmiş	-4488
▁bulmaya	-4489
▁karınca	-4490
▁sesleri	-4491
▁büyüklüğ	-4492
▁gittikçe	-4493
▁Tw	-4494
▁iğ	-4495
▁Hal	-4496
▁Tem	-4497
hayet	-4498
laraq	-4499
▁duya	-4500
▁sarı	-4501
▁Bakın	-4502
arsanız	-4503
▁bakarak	-4504
▁diyoruz	-4505
▁geldiği	-4506
▁hayatını	-4507
▁kullanma	-4508
qiq	-4509
book	-4510
dünüz	-4511
leyin	-4512
▁bakıp	-4513
▁kaçın	-4514
lelikle	-4515
▁açıkça	-4516
▁Afrikalı	-4517
▁yaşıyoruz	-4518
▁St	-4519
▁str	-4520
▁çıx	-4521
▁ırk	-4522
eketi	-4523
ilyon	-4524
unuzu	-4525
▁Arap	-4526
▁kilo	-4527
▁utan	-4528
▁basın	-4529
▁bulur	-4530
▁verme	-4531
▁yaxşı	-4532
▁doldur	-4533
▁isteye	-4534
▁dönüşüm	-4535
▁bahsetmek	-4536
▁del	-4537
▁sıv	-4538
laşık	-4539
ırken	-4540
▁Face	-4541
▁dene	-4542
▁dizi	-4543
▁ısın	-4544
▁ayrıl	-4545
▁dakik	-4546
▁dönüp	-4547
ebilmek	-4548
▁kişiye	-4549
▁modeli	-4550
▁sembol	-4551
▁taklit	-4552
▁karıştır	-4553
▁ötesinde	-4554
▁anlamıyla	-4555
▁getiriyor	-4556
▁edebiliriz	-4557
ash	-4558
▁atom	-4559
▁cerra	-4560
▁haklı	-4561
▁kimin	-4562
▁kulak	-4563
▁musun	-4564
▁tüken	-4565
mıyoruz	-4566
▁bildir	-4567
▁herşeyi	-4568
▁alanında	-4569
▁verileri	-4570
▁sorunları	-4571
nun	-4572
əli	-4573
▁Co	-4574
amik	-4575
▁baz	-4576
▁peş	-4577
▁2000	-4578
▁Uzun	-4579
▁kalı	-4580
▁oksi	-4581
▁sıkı	-4582
mamızı	-4583
▁dinle	-4584
▁yanıt	-4585
▁sayede	-4586
lerindeki	-4587
▁parçaları	-4588
evk	-4589
▁Bar	-4590
vantaj	-4591
▁kanun	-4592
▁rapor	-4593
▁tıbbi	-4594
▁olmadı	-4595
▁protein	-4596
▁vermeye	-4597
▁dolarlık	-4598
▁ihtiyacınız	-4599
▁kullandığımız	-4600
▁Pr	-4601
▁Dar	-4602
▁gay	-4603
▁akış	-4604
▁krit	-4605
▁necə	-4606
dığımı	-4607
imizle	-4608
▁banka	-4609
▁civar	-4610
▁deyiş	-4611
▁kıyas	-4612
▁dürüst	-4613
▁kaydet	-4614
▁olaraq	-4615
▁uzaklaş	-4616
tez	-4617
əsi	-4618
▁kula	-4619
slüman	-4620
tılmış	-4621
unuzun	-4622
▁Hepsi	-4623
▁şeker	-4624
▁olamaz	-4625
▁çocuğu	-4626
▁kariyer	-4627
layabilir	-4628
▁kullanan	-4629
▁endişelen	-4630
▁kendilerine	-4631
▁Üniversitesi	-4632
asif	-4633
▁sayf	-4634
▁yürü	-4635
▁benden	-4636
▁tarihi	-4637
▁ettiğim	-4638
▁serbest	-4639
▁ulaşmak	-4640
▁yerlere	-4641
▁kültürel	-4642
▁karşısında	-4643
and	-4644
ano	-4645
baş	-4646
cin	-4647
▁iP	-4648
▁tə	-4649
iğin	-4650
ulan	-4651
çası	-4652
▁Din	-4653
▁Dur	-4654
▁ker	-4655
▁Irak	-4656
▁sunu	-4657
▁denen	-4658
▁mater	-4659
▁suyun	-4660
▁çıkıp	-4661
tığımda	-4662
ıyordum	-4663
▁dediği	-4664
▁etmeyi	-4665
▁maymun	-4666
▁yapama	-4667
▁gerçeği	-4668
▁görüyorum	-4669
▁sonuçları	-4670
dıra	-4671
▁Bin	-4672
▁Hol	-4673
▁Sol	-4674
▁ayn	-4675
▁yav	-4676
yonel	-4677
▁sert	-4678
▁şifr	-4679
ınızın	-4680
▁balon	-4681
▁etmək	-4682
▁Tekrar	-4683
▁tecrüb	-4684
▁yolunu	-4685
▁anahtar	-4686
ong	-4687
yiz	-4688
▁Ku	-4689
▁ib	-4690
eder	-4691
unus	-4692
▁Char	-4693
▁kate	-4694
▁kıyı	-4695
▁algor	-4696
▁halka	-4697
▁kayıp	-4698
▁Çalış	-4699
▁dizayn	-4700
▁ortada	-4701
▁ulusal	-4702
ternatif	-4703
▁içinden	-4704
emezsiniz	-4705
▁Facebook	-4706
▁edersiniz	-4707
▁düşünüyoruz	-4708
▁əs	-4709
▁ölü	-4710
esyon	-4711
▁derg	-4712
▁zamana	-4713
▁algorit	-4714
▁karşıya	-4715
▁olursak	-4716
▁işbirliği	-4717
yim	-4718
▁Öl	-4719
atör	-4720
▁Tar	-4721
▁evde	-4722
▁mark	-4723
liğine	-4724
▁barın	-4725
▁veril	-4726
ladılar	-4727
lıyordu	-4728
▁şehrin	-4729
▁canlandır	-4730
▁Bilgisayar	-4731
▁istediğiniz	-4732
luy	-4733
tma	-4734
▁yox	-4735
▁Üçün	-4736
▁boşluk	-4737
▁düzelt	-4738
▁eyalet	-4739
▁yıldan	-4740
▁ekonomi	-4741
▁toplumun	-4742
IDS	-4743
ekte	-4744
▁boğ	-4745
▁kre	-4746
ediye	-4747
ışlar	-4748
▁Arka	-4749
▁otob	-4750
▁gürül	-4751
▁roman	-4752
▁salon	-4753
layabil	-4754
▁Merkez	-4755
▁parçacık	-4756
▁hesaplama	-4757
ğin	-4758
▁Dış	-4759
▁Kut	-4760
▁Wal	-4761
▁fos	-4762
▁pak	-4763
▁seks	-4764
cağımı	-4765
▁Sanat	-4766
▁hapis	-4767
▁lerde	-4768
▁sivil	-4769
▁sordu	-4770
▁sorgu	-4771
▁yalan	-4772
leyerek	-4773
▁Brezil	-4774
▁berbat	-4775
▁işleri	-4776
▁yapıla	-4777
▁hatırla	-4778
▁herkese	-4779
▁başlayan	-4780
▁yüzyılda	-4781
▁ihtiyacım	-4782
▁önümüzdeki	-4783
▁Biliyorsunuz	-4784
güt	-4785
▁Sh	-4786
▁dos	-4787
▁dün	-4788
▁çök	-4789
landa	-4790
▁dura	-4791
▁şiir	-4792
▁cevabı	-4793
▁kurmak	-4794
▁İsrail	-4795
lerinizi	-4796
▁görünüş	-4797
▁cinsiyet	-4798
▁değişimi	-4799
▁programı	-4800
lob	-4801
sör	-4802
akin	-4803
dura	-4804
hale	-4805
▁Ban	-4806
▁Bey	-4807
lamış	-4808
linik	-4809
ürken	-4810
ksiyon	-4811
▁iskel	-4812
▁talep	-4813
▁yazık	-4814
duğunda	-4815
lerdeki	-4816
osistem	-4817
üyorlar	-4818
▁dayalı	-4819
▁istifa	-4820
▁katman	-4821
▁şefkat	-4822
▁evrensel	-4823
▁hissettir	-4824
omo	-4825
ood	-4826
rist	-4827
urta	-4828
▁emek	-4829
▁kent	-4830
▁teşh	-4831
▁Kesin	-4832
▁degil	-4833
▁domuz	-4834
▁geçti	-4835
▁güney	-4836
▁işlev	-4837
▁mektu	-4838
tığınız	-4839
▁yerini	-4840
▁çıkarı	-4841
▁karışık	-4842
▁gerektiğ	-4843
▁kimsenin	-4844
▁telefonu	-4845
▁ihtimalle	-4846
▁çocuklara	-4847
ock	-4848
▁Mu	-4849
araq	-4850
gele	-4851
▁Tah	-4852
▁büt	-4853
▁göm	-4854
lenen	-4855
▁ahla	-4856
▁plat	-4857
▁bekle	-4858
▁büyüt	-4859
▁hafız	-4860
▁nadir	-4861
▁radyo	-4862
▁ürünü	-4863
ırsınız	-4864
▁başkan	-4865
▁eminim	-4866
larımdan	-4867
▁birinde	-4868
▁si	-4869
▁Kat	-4870
▁göğ	-4871
▁muc	-4872
günkü	-4873
iyeti	-4874
▁dost	-4875
▁kanal	-4876
▁teker	-4877
▁sorunun	-4878
▁zamanlı	-4879
▁Yaklaşık	-4880
▁geleceği	-4881
▁olmasının	-4882
▁istiyorsanız	-4883
ick	-4884
şet	-4885
vvəl	-4886
▁Kor	-4887
üphan	-4888
▁hukuk	-4889
▁kuzey	-4890
uyordum	-4891
▁Yalnız	-4892
▁aksine	-4893
▁alarak	-4894
▁istedi	-4895
▁kitabı	-4896
▁türden	-4897
▁getirdi	-4898
▁kadının	-4899
▁yoluyla	-4900
▁İkincisi	-4901
▁konuşmaya	-4902
gh	-4903
▁NA	-4904
form	-4905
▁Der	-4906
▁heç	-4907
asıyla	-4908
▁Deniz	-4909
▁misin	-4910
▁üstün	-4911
▁düşman	-4912
▁memnun	-4913
asındaki	-4914
uyorsunuz	-4915
▁ettiğini	-4916
▁kampanya	-4917
▁heyecanlı	-4918
▁elektronik	-4919
▁olduğunuzu	-4920
olf	-4921
▁Yok	-4922
▁sız	-4923
lıkta	-4924
▁AIDS	-4925
▁Sizi	-4926
▁ceza	-4927
▁titr	-4928
▁diğeri	-4929
▁faktör	-4930
▁ibaret	-4931
▁mesele	-4932
▁sonrası	-4933
malısınız	-4934
▁sahiptir	-4935
▁tartışma	-4936
▁toplumsal	-4937
▁edilebilir	-4938
▁isterseniz	-4939
▁sistemleri	-4940
br	-4941
eğim	-4942
▁Tıp	-4943
itter	-4944
ceğini	-4945
▁bulaş	-4946
▁saniy	-4947
▁yürüt	-4948
ülasyon	-4949
▁Sağlık	-4950
▁fabrika	-4951
▁Bazıları	-4952
▁gösterir	-4953
▁yakından	-4954
▁fonksiyon	-4955
ia	-4956
qa	-4957
evi	-4958
caba	-4959
usur	-4960
▁400	-4961
▁çat	-4962
▁çer	-4963
▁şar	-4964
▁manz	-4965
▁zevk	-4966
▁almış	-4967
▁altın	-4968
▁gökyüz	-4969
▁takdir	-4970
▁ticari	-4971
▁buradan	-4972
▁hissede	-4973
▁Bunlardan	-4974
▁kendisini	-4975
▁oluşturan	-4976
▁istatistik	-4977
▁ü	-4978
▁Se	-4979
isin	-4980
▁Hak	-4981
▁Yan	-4982
▁pol	-4983
dukça	-4984
▁amac	-4985
▁Şunu	-4986
lerken	-4987
▁bende	-4988
▁bulma	-4989
▁evlen	-4990
▁seyir	-4991
▁çağır	-4992
▁şudur	-4993
ecektir	-4994
mesinin	-4995
▁yollar	-4996
▁şanslı	-4997
▁anladım	-4998
▁bilgiye	-4999
▁kanseri	-5000
▁trilyon	-5001
▁elimizde	-5002
▁gözüküyor	-5003
▁üniversite	-5004
ayıp	-5005
▁Ada	-5006
▁ayı	-5007
etici	-5008
▁uçur	-5009
▁Görün	-5010
▁dəyiş	-5011
▁dolara	-5012
▁düzgün	-5013
▁alternatif	-5014
▁yapabilecek	-5015
ami	-5016
▁Mc	-5017
veriş	-5018
▁peki	-5019
▁isten	-5020
▁çoğunu	-5021
▁Almanya	-5022
▁Japonya	-5023
▁aktivit	-5024
▁araçlar	-5025
▁kahkaha	-5026
▁olacağı	-5027
▁öğrenci	-5028
diğimizde	-5029
▁hikayesi	-5030
▁ekosistem	-5031
▁ilişkiler	-5032
▁kendinizi	-5033
▁performans	-5034
sip	-5035
▁Ko	-5036
gini	-5037
ilər	-5038
itan	-5039
üven	-5040
▁Pat	-5041
lobal	-5042
stein	-5043
▁atık	-5044
▁harf	-5045
ikatür	-5046
isiyle	-5047
üyoruz	-5048
▁Mısır	-5049
▁anlar	-5050
▁görem	-5051
▁taban	-5052
▁yılın	-5053
▁etiket	-5054
▁ederken	-5055
▁katılım	-5056
▁hikayeyi	-5057
▁fikirleri	-5058
▁nedeniyle	-5059
▁söylüyorum	-5060
ele	-5061
pat	-5062
panz	-5063
ıklı	-5064
▁Hey	-5065
▁kıv	-5066
▁Tasar	-5067
▁bayan	-5068
▁gülüş	-5069
▁okuya	-5070
▁yörün	-5071
liğinde	-5072
▁eğilim	-5073
▁konuyu	-5074
▁salgın	-5075
▁Fransız	-5076
▁aşağıya	-5077
▁Brezilya	-5078
çev	-5079
▁Be	-5080
▁ef	-5081
keri	-5082
tesi	-5083
uldu	-5084
araya	-5085
masız	-5086
▁acil	-5087
▁boyu	-5088
▁göst	-5089
▁hiss	-5090
ysanız	-5091
▁sihir	-5092
▁ahlaki	-5093
▁anlamlı	-5094
▁bunlara	-5095
▁patlama	-5096
▁sorumlu	-5097
elerinden	-5098
▁kendileri	-5099
▁düşündüğümüz	-5100
▁♪	-5101
lon	-5102
ünki	-5103
▁Kısa	-5104
▁İran	-5105
empanz	-5106
▁okuma	-5107
▁vakit	-5108
▁şəkil	-5109
▁erişim	-5110
▁gücünü	-5111
▁içerik	-5112
▁kalmış	-5113
▁oranda	-5114
▁Küresel	-5115
▁bizimle	-5116
▁olmuştu	-5117
▁radikal	-5118
▁yaratık	-5119
▁verdiler	-5120
▁tarafında	-5121
▁baktığınızda	-5122
gre	-5123
▁Sey	-5124
▁dis	-5125
dumuz	-5126
▁ordu	-5127
acağız	-5128
ebilen	-5129
▁artan	-5130
▁hissi	-5131
▁yolda	-5132
▁Ulusal	-5133
▁alalım	-5134
▁bizden	-5135
▁bölümü	-5136
▁deyişle	-5137
▁zamandan	-5138
▁meslektaş	-5139
ord	-5140
oster	-5141
▁Amma	-5142
▁Genç	-5143
▁ziya	-5144
lıktan	-5145
▁beyni	-5146
arsınız	-5147
▁değeri	-5148
▁döndür	-5149
ılabilir	-5150
▁geçiyor	-5151
▁kalıyor	-5152
▁yönelik	-5153
▁ameliyat	-5154
▁finansal	-5155
▁çevresel	-5156
▁fotoğrafı	-5157
▁profesyonel	-5158
su	-5159
los	-5160
yın	-5161
▁mə	-5162
▁Mon	-5163
lılar	-5164
madım	-5165
▁birç	-5166
▁metr	-5167
▁Önce	-5168
▁istek	-5169
▁komşu	-5170
▁motiv	-5171
▁zehir	-5172
▁isimli	-5173
▁isteme	-5174
▁tutmak	-5175
dığımızı	-5176
▁eleştir	-5177
▁popüler	-5178
▁ediliyor	-5179
▁zihinsel	-5180
▁arkasında	-5181
▁kendimize	-5182
▁Özellikle	-5183
▁baktığımızda	-5184
omp	-5185
cısı	-5186
mali	-5187
siye	-5188
əcəy	-5189
balık	-5190
▁pers	-5191
imleri	-5192
▁fırsa	-5193
▁tarif	-5194
▁tümör	-5195
lığının	-5196
▁Kanada	-5197
▁hayran	-5198
▁klinik	-5199
▁oyuncu	-5200
▁çerçev	-5201
▁altyapı	-5202
▁getiren	-5203
▁sınırlı	-5204
▁uyuştur	-5205
▁zamandır	-5206
▁bilgileri	-5207
▁gelebilir	-5208
▁ülkelerin	-5209
ədə	-5210
ford	-5211
irdi	-5212
▁Kaç	-5213
▁dip	-5214
▁faa	-5215
▁tuz	-5216
▁Geor	-5217
▁Söyle	-5218
▁kavra	-5219
▁olmam	-5220
▁yürüm	-5221
▁devasa	-5222
▁konuya	-5223
▁mercan	-5224
▁bakıyor	-5225
▁etmemiz	-5226
tak	-5227
▁So	-5228
▁so	-5229
ijer	-5230
▁Bağ	-5231
▁Bul	-5232
▁Dan	-5233
▁Erk	-5234
▁mec	-5235
▁toz	-5236
larsa	-5237
lasik	-5238
ülmüş	-5239
ımdan	-5240
▁anti	-5241
▁hâle	-5242
▁itir	-5243
ümüzün	-5244
▁Okyan	-5245
▁bomba	-5246
▁Bizler	-5247
▁keşfed	-5248
▁mantar	-5249
▁başlamak	-5250
▁hareketi	-5251
▁demokrasi	-5252
▁yapacağım	-5253
ket	-5254
▁2.	-5255
▁astr	-5256
▁Genel	-5257
▁bağır	-5258
▁beğen	-5259
▁buldu	-5260
▁maden	-5261
▁arkada	-5262
▁etmesi	-5263
▁içeren	-5264
▁parayı	-5265
▁sürede	-5266
▁alanlar	-5267
▁diyelim	-5268
▁hakları	-5269
▁olmanız	-5270
▁rekabet	-5271
▁zamanla	-5272
▁durumunda	-5273
▁güvenilir	-5274
▁karikatür	-5275
▁kilometre	-5276
▁düşünmüyor	-5277
▁hissediyorum	-5278
eya	-5279
kür	-5280
▁öf	-5281
▁üm	-5282
inat	-5283
iste	-5284
▁edə	-5285
areti	-5286
lərin	-5287
▁belg	-5288
▁umur	-5289
▁üçte	-5290
ington	-5291
suzluk	-5292
▁kilit	-5293
▁maruz	-5294
▁topra	-5295
▁yatak	-5296
▁yolla	-5297
▁çekil	-5298
▁ederiz	-5299
▁yaradı	-5300
▁çekmek	-5301
▁ticaret	-5302
▁yenilen	-5303
▁gördüğüm	-5304
▁olduğunun	-5305
▁sonucunda	-5306
adi	-5307
haba	-5308
▁Biy	-5309
▁Kam	-5310
▁Rob	-5311
▁Mart	-5312
▁Neyse	-5313
▁metal	-5314
▁yapım	-5315
lanacak	-5316
▁bakıma	-5317
▁fikrim	-5318
▁kişiyi	-5319
▁makale	-5320
▁sürece	-5321
▁çözmek	-5322
melerine	-5323
▁hızlıca	-5324
▁oksijen	-5325
▁yumurta	-5326
▁şirketi	-5327
▁adamları	-5328
▁birbirlerine	-5329
sh	-5330
hti	-5331
▁Ju	-5332
▁Te	-5333
inal	-5334
ledi	-5335
▁Ail	-5336
▁Bah	-5337
▁Gez	-5338
▁for	-5339
▁hac	-5340
▁lar	-5341
▁pir	-5342
umuzu	-5343
▁Hint	-5344
▁saçma	-5345
▁verim	-5346
▁əvvəl	-5347
aliforn	-5348
tikleri	-5349
▁balığı	-5350
▁buluna	-5351
▁tarafı	-5352
▁uzakta	-5353
▁zincir	-5354
▁gibiydi	-5355
▁insanlık	-5356
▁istediği	-5357
▁olacaktı	-5358
▁olmaması	-5359
▁platform	-5360
▁sistemin	-5361
▁çalıştır	-5362
▁Öncelikle	-5363
▁kullanmaya	-5364
▁çalışırken	-5365
lən	-5366
▁Beş	-5367
▁Wil	-5368
▁Proj	-5369
▁konum	-5370
▁Twitter	-5371
melisiniz	-5372
▁söyleyen	-5373
▁özgürlük	-5374
larımızdan	-5375
▁günümüzde	-5376
▁milyarlarca	-5377
▁Em	-5378
▁por	-5379
▁İlg	-5380
▁Hava	-5381
▁dili	-5382
▁onay	-5383
▁öykü	-5384
ılıyor	-5385
▁Allah	-5386
▁fosil	-5387
▁suçlu	-5388
▁İslam	-5389
liğinin	-5390
miyoruz	-5391
abilecek	-5392
▁fikrini	-5393
▁gönüllü	-5394
▁istəyir	-5395
▁kurtara	-5396
larımızda	-5397
▁alabilir	-5398
▁hisseder	-5399
▁çalışması	-5400
▁yaptığınız	-5401
▁düşündüğünüz	-5402
are	-5403
▁Uy	-5404
▁af	-5405
▁150	-5406
▁Ter	-5407
▁İst	-5408
danın	-5409
diğin	-5410
liydi	-5411
ralya	-5412
▁Kral	-5413
▁sıvı	-5414
▁Nijer	-5415
▁Yaşam	-5416
▁kablo	-5417
▁mülte	-5418
▁sağlam	-5419
▁yüzleş	-5420
▁deniyor	-5421
▁yapmanın	-5422
▁yıllarda	-5423
▁depresyon	-5424
▁Kesinlikle	-5425
▁değiştirdi	-5426
ell	-5427
onal	-5428
▁Res	-5429
▁ima	-5430
▁pra	-5431
antum	-5432
tacak	-5433
▁arac	-5434
▁depo	-5435
▁sevg	-5436
▁öldü	-5437
masyon	-5438
▁Kenya	-5439
▁bölün	-5440
▁felak	-5441
▁lisan	-5442
▁sevgi	-5443
▁tablo	-5444
▁vahşi	-5445
▁askeri	-5446
▁avantaj	-5447
▁birinci	-5448
▁kişilik	-5449
aliforniya	-5450
▁olmasıdır	-5451
▁bilmiyoruz	-5452
▁yaşındayken	-5453
▁yaptıklarını	-5454
tel	-5455
tük	-5456
ərq	-5457
▁La	-5458
emem	-5459
▁Bay	-5460
▁sıç	-5461
▁tez	-5462
▁blog	-5463
▁donan	-5464
▁kaybe	-5465
▁göstər	-5466
▁yörüng	-5467
diğinizi	-5468
▁yaşamın	-5469
▁yapacağız	-5470
▁çalıştığını	-5471
20	-5472
▁Eş	-5473
▁işç	-5474
lerse	-5475
makla	-5476
▁slay	-5477
liyeti	-5478
▁teles	-5479
liyoruz	-5480
▁Kendim	-5481
▁bağlam	-5482
▁baştan	-5483
▁bilimi	-5484
▁kuyruk	-5485
▁varlık	-5486
▁basitçe	-5487
▁yapması	-5488
biliyoruz	-5489
▁alıyoruz	-5490
▁olmuştur	-5491
▁sorumluluk	-5492
▁birbirinden	-5493
daly	-5494
ohum	-5495
otip	-5496
ğının	-5497
▁Park	-5498
▁Paul	-5499
▁Basit	-5500
▁Değil	-5501
▁günün	-5502
cıların	-5503
▁olmasa	-5504
▁sıkıcı	-5505
▁denilen	-5506
▁dönemde	-5507
▁faaliyet	-5508
▁sıklıkla	-5509
▁özelliği	-5510
▁yapılması	-5511
▁geliştirmek	-5512
ner	-5513
üya	-5514
diyi	-5515
ebek	-5516
▁Hik	-5517
▁caz	-5518
leyip	-5519
▁cesur	-5520
▁döner	-5521
▁farkı	-5522
▁kusur	-5523
▁kütle	-5524
▁İsveç	-5525
▁kapsam	-5526
▁kritik	-5527
▁ziyade	-5528
▁geliyordu	-5529
ast	-5530
▁Ob	-5531
▁Ser	-5532
▁küm	-5533
▁təs	-5534
ümüzü	-5535
▁köpr	-5536
▁neyi	-5537
▁zeka	-5538
▁başta	-5539
▁duran	-5540
▁düşüş	-5541
▁etmem	-5542
▁mobil	-5543
▁soyut	-5544
▁çeken	-5545
▁Farklı	-5546
▁duymuş	-5547
▁dışına	-5548
▁zordur	-5549
eticiler	-5550
▁Oldukça	-5551
▁nihayet	-5552
▁sebeple	-5553
▁süredir	-5554
▁Müslüman	-5555
▁istifadə	-5556
▁otomatik	-5557
▁civarında	-5558
▁farklılık	-5559
▁Muhtemelen	-5560
▁başlıyoruz	-5561
▁aracılığıyla	-5562
30	-5563
ân	-5564
por	-5565
und	-5566
▁lı	-5567
diki	-5568
▁Alq	-5569
▁Sev	-5570
▁dük	-5571
▁lez	-5572
▁ofis	-5573
▁suya	-5574
▁Sorun	-5575
▁mezun	-5576
▁numar	-5577
▁odada	-5578
▁yapıp	-5579
▁çıkış	-5580
▁mağara	-5581
▁olumlu	-5582
▁yazdım	-5583
▁kocaman	-5584
▁diyorlar	-5585
▁yüzyılın	-5586
▁bildiğiniz	-5587
▁biliyordum	-5588
▁Kaliforniya	-5589
▁ihtiyaçları	-5590
▁arkadaşlarım	-5591
cis	-5592
▁Kap	-5593
düncü	-5594
eğine	-5595
▁Okul	-5596
▁dava	-5597
▁filmi	-5598
▁gördü	-5599
▁iddia	-5600
▁sıkış	-5601
▁baktım	-5602
▁kutsal	-5603
▁merham	-5604
▁değişti	-5605
▁oyuncak	-5606
▁bireysel	-5607
▁dışarıda	-5608
▁rastgele	-5609
▁kaynakları	-5610
bab	-5611
mede	-5612
▁Cev	-5613
▁tək	-5614
▁çək	-5615
▁şok	-5616
▁Oyun	-5617
▁eğil	-5618
▁kaps	-5619
▁hidro	-5620
▁heykel	-5621
▁mikros	-5622
▁oradan	-5623
▁yaratır	-5624
larınızın	-5625
▁bilgiler	-5626
▁pozisyon	-5627
▁başlayalım	-5628
▁düşündüğüm	-5629
▁anlatacağım	-5630
▁yaşadığımız	-5631
▁söyleyebilirim	-5632
io	-5633
mıza	-5634
üydü	-5635
▁Lab	-5636
▁Per	-5637
▁ağz	-5638
▁Üst	-5639
medim	-5640
▁özgü	-5641
lemeyi	-5642
▁Babam	-5643
▁esnek	-5644
▁trans	-5645
▁Umarım	-5646
▁arayüz	-5647
▁duydum	-5648
▁sonsuza	-5649
▁tersine	-5650
▁alanları	-5651
▁oluşuyor	-5652
▁oluşturur	-5653
faf	-5654
int	-5655
▁Bro	-5656
▁Ein	-5657
▁Yük	-5658
▁esk	-5659
▁mon	-5660
▁mor	-5661
▁ağrı	-5662
▁blok	-5663
▁falan	-5664
▁istis	-5665
▁kırık	-5666
▁mənim	-5667
▁yasal	-5668
masında	-5669
▁yaptır	-5670
▁eskiden	-5671
leyiciler	-5672
▁genişlet	-5673
▁geçirdim	-5674
▁materyal	-5675
▁olacağız	-5676
▁seviyede	-5677
▁hissettim	-5678
▁demokratik	-5679
▁verdiğimiz	-5680
▁bahsettiğim	-5681
▁hayvanların	-5682
▁0	-5683
cel	-5684
arız	-5685
dede	-5686
etim	-5687
▁Mut	-5688
▁Yun	-5689
▁lik	-5690
dıkça	-5691
▁deli	-5692
▁aylık	-5693
▁hakkı	-5694
▁kitle	-5695
▁yasak	-5696
▁yavru	-5697
▁yönde	-5698
▁çiftç	-5699
▁geldim	-5700
▁mimari	-5701
▁teklif	-5702
▁trafik	-5703
▁kolayca	-5704
▁araçları	-5705
▁hapishan	-5706
▁oluşturuyor	-5707
▁teknolojiler	-5708
isiz	-5709
▁ağa	-5710
▁deh	-5711
▁Çev	-5712
▁çel	-5713
▁Veya	-5714
▁başv	-5715
▁iyim	-5716
▁moda	-5717
▁sent	-5718
▁Angel	-5719
▁başqa	-5720
▁tatlı	-5721
▁aniden	-5722
▁sonuna	-5723
▁adamlar	-5724
▁şempanz	-5725
üyorsunuz	-5726
▁sorunlar	-5727
▁konferans	-5728
▁yapılıyor	-5729
▁dünyasında	-5730
▁değişikliği	-5731
aza	-5732
düy	-5733
zon	-5734
▁Sc	-5735
▁op	-5736
trop	-5737
▁çöl	-5738
▁öne	-5739
saydı	-5740
uyucu	-5741
▁Hala	-5742
▁Rich	-5743
▁vaxt	-5744
▁alana	-5745
▁yayıl	-5746
tiğinde	-5747
▁geçtik	-5748
▁pencer	-5749
▁restor	-5750
▁yanına	-5751
▁Gelecek	-5752
▁artıyor	-5753
▁bildiği	-5754
▁gelişme	-5755
▁organik	-5756
▁Einstein	-5757
▁Herhangi	-5758
▁görünmez	-5759
▁sahipler	-5760
▁konuşmayı	-5761
▁kullanımı	-5762
▁düşünceler	-5763
▁etkileyici	-5764
▁bahsedeceğim	-5765
we	-5766
dun	-5767
ica	-5768
yıp	-5769
▁35	-5770
▁45	-5771
▁pu	-5772
▁rö	-5773
itif	-5774
▁Dik	-5775
▁Han	-5776
▁ağı	-5777
tanın	-5778
▁Biri	-5779
cileri	-5780
ediler	-5781
▁sahne	-5782
▁önemi	-5783
▁cerrah	-5784
▁gelince	-5785
▁gibidir	-5786
▁sıkıntı	-5787
▁birazcık	-5788
▁organize	-5789
▁uyuşturucu	-5790
▁istemiyorum	-5791
IT	-5792
ple	-5793
▁ge	-5794
ağın	-5795
ikir	-5796
oter	-5797
▁Git	-5798
▁Ros	-5799
yetik	-5800
madığı	-5801
▁Eylül	-5802
▁kalın	-5803
▁kanat	-5804
▁gelmek	-5805
▁kazana	-5806
▁getirir	-5807
▁iyimser	-5808
▁üretmek	-5809
▁açıklaya	-5810
▁bilgisay	-5811
▁robotlar	-5812
▁söyledim	-5813
▁sıradışı	-5814
▁şeylerle	-5815
▁kelimeler	-5816
▁İnanılmaz	-5817
▁erkeklerin	-5818
▁üstesinden	-5819
,5	-5820
âl	-5821
enn	-5822
əti	-5823
anta	-5824
▁20.	-5825
▁içi	-5826
▁kra	-5827
▁kuz	-5828
oksit	-5829
▁NASA	-5830
▁Siya	-5831
▁borç	-5832
▁Güven	-5833
▁ahlak	-5834
▁açısı	-5835
▁lerin	-5836
▁oldug	-5837
▁pişir	-5838
▁stres	-5839
▁süren	-5840
▁yapış	-5841
▁ölçüm	-5842
▁şeyle	-5843
▁duruma	-5844
▁göçmen	-5845
▁sormak	-5846
▁çoktan	-5847
▁eğitimi	-5848
▁gidecek	-5849
▁istemez	-5850
▁sandaly	-5851
▁liderlik	-5852
▁yaşadığı	-5853
▁kullandık	-5854
▁teknolojik	-5855
cuk	-5856
nik	-5857
▁Bö	-5858
▁soh	-5859
itler	-5860
lantı	-5861
ısını	-5862
▁Aman	-5863
▁hang	-5864
▁ismi	-5865
▁satı	-5866
dikten	-5867
eyecek	-5868
▁Times	-5869
▁demiş	-5870
▁müdür	-5871
▁sakin	-5872
▁tanrı	-5873
▁Sosyal	-5874
▁ayında	-5875
▁umarım	-5876
▁Üçüncü	-5877
mazsınız	-5878
▁Dünyada	-5879
▁bakteri	-5880
▁bilimin	-5881
▁dinamik	-5882
▁kategor	-5883
▁yapamaz	-5884
▁Neredeyse	-5885
▁altındaki	-5886
▁olursanız	-5887
▁söylediler	-5888
ade	-5889
win	-5890
▁Sal	-5891
▁mir	-5892
▁som	-5893
▁səb	-5894
▁Belə	-5895
▁baya	-5896
▁iken	-5897
▁kare	-5898
cıları	-5899
esidir	-5900
▁buzul	-5901
inizden	-5902
▁Toplum	-5903
▁aklıma	-5904
▁okulda	-5905
▁oturup	-5906
▁yazılı	-5907
▁olmuyor	-5908
▁sağlama	-5909
▁sunuyor	-5910
▁yürüyüş	-5911
▁evrimleş	-5912
▁oranında	-5913
▁vereceğim	-5914
▁bağlantılı	-5915
▁olabilirdi	-5916
▁söylediğim	-5917
▁çalışmalar	-5918
▁çalışıyorlar	-5919
▁kullanabiliriz	-5920
-1	-5921
▁Sı	-5922
arda	-5923
mama	-5924
ukat	-5925
▁Bit	-5926
▁Los	-5927
▁cez	-5928
▁köp	-5929
▁öyr	-5930
dilər	-5931
tiniz	-5932
▁Geri	-5933
▁Kork	-5934
▁biyo	-5935
▁sına	-5936
▁koymak	-5937
▁renkli	-5938
▁veriyi	-5939
mıyorlar	-5940
▁bölgede	-5941
▁tuvalet	-5942
▁ilerleme	-5943
▁Çocuklar	-5944
▁kişilerin	-5945
▁bulduğumuz	-5946
muz	-5947
▁Az	-5948
hone	-5949
line	-5950
▁Bos	-5951
▁Mac	-5952
▁def	-5953
▁müh	-5954
▁uça	-5955
isyen	-5956
▁arzu	-5957
▁bütç	-5958
▁Yakın	-5959
▁kredi	-5960
▁hayret	-5961
▁meşgul	-5962
▁bugünkü	-5963
▁yolunda	-5964
▁şehirde	-5965
bileceğine	-5966
▁farkettim	-5967
▁tamamıyla	-5968
ota	-5969
tin	-5970
ube	-5971
udi	-5972
▁75	-5973
cası	-5974
▁Böy	-5975
▁süt	-5976
▁yel	-5977
bilim	-5978
▁Uzay	-5979
▁eşya	-5980
▁sine	-5981
▁tərə	-5982
dıktan	-5983
▁Hemen	-5984
▁dosya	-5985
▁ekmek	-5986
▁tutul	-5987
▁yuvar	-5988
luğunda	-5989
▁mektup	-5990
▁vizyon	-5991
▁oradaki	-5992
▁benzeyen	-5993
▁müdahale	-5994
▁diğerleri	-5995
▁tasarlanmış	-5996
▁düşünüyordum	-5997
RI	-5998
yer	-5999
çik	-6000
übe	-6001
▁uş	-6002
için	-6003
▁21.	-6004
▁Hig	-6005
▁Sek	-6006
▁duv	-6007
muştu	-6008
▁maaş	-6009
▁İtal	-6010
▁Şirk	-6011
dırlar	-6012
▁Kimse	-6013
▁marka	-6014
▁niyet	-6015
▁tabak	-6016
▁şehri	-6017
ecekler	-6018
▁Ekonom	-6019
▁görmez	-6020
▁gözden	-6021
▁havada	-6022
▁görülen	-6023
▁prensip	-6024
▁bakarsak	-6025
▁Araştırma	-6026
▁oluyorlar	-6027
▁dolayısıyla	-6028
▁görebiliriz	-6029
▁kullanıyorlar	-6030
ney	-6031
▁sö	-6032
▁Kır	-6033
▁Mal	-6034
▁Mik	-6035
▁hır	-6036
▁kli	-6037
▁sığ	-6038
▁Meks	-6039
▁lise	-6040
▁sona	-6041
▁Annem	-6042
▁Sanki	-6043
▁girdi	-6044
▁kutup	-6045
▁olayı	-6046
▁tohum	-6047
landığı	-6048
▁aldığı	-6049
▁endişe	-6050
▁servis	-6051
▁dönüyor	-6052
▁kazandır	-6053
▁şehirler	-6054
asi	-6055
cül	-6056
gram	-6057
▁Yol	-6058
▁fav	-6059
emizi	-6060
▁ağac	-6061
▁omur	-6062
▁İşin	-6063
mediği	-6064
▁gülüm	-6065
▁paket	-6066
▁örgüt	-6067
▁geçmek	-6068
▁iyidir	-6069
▁kamyon	-6070
▁Sonuçta	-6071
▁Tamamen	-6072
▁faydalı	-6073
▁değişken	-6074
▁günlerde	-6075
▁taraftan	-6076
▁merkezinde	-6077
▁ediyorsunuz	-6078
ğe	-6079
ğım	-6080
ates	-6081
esan	-6082
imer	-6083
▁cad	-6084
▁piy	-6085
▁öte	-6086
imini	-6087
▁Harv	-6088
▁Hast	-6089
▁Stan	-6090
▁sırt	-6091
derson	-6092
▁ayrım	-6093
▁büyül	-6094
▁çabuk	-6095
▁alıntı	-6096
▁edelim	-6097
▁yapmam	-6098
dığından	-6099
▁Hayatım	-6100
▁Kendisi	-6101
▁biyoloj	-6102
▁kalacak	-6103
▁oldular	-6104
▁sürüyor	-6105
▁yapalım	-6106
▁yaratan	-6107
▁dakikada	-6108
▁hatırlat	-6109
▁konuşuyor	-6110
▁zamanında	-6111
▁kullandığı	-6112
ələ	-6113
▁Ka	-6114
▁je	-6115
unku	-6116
▁Cam	-6117
▁rit	-6118
cilik	-6119
usuna	-6120
▁Wash	-6121
▁dini	-6122
▁yöne	-6123
larıma	-6124
yasyon	-6125
▁ilgil	-6126
▁ların	-6127
malıyım	-6128
▁imkanı	-6129
eceğiniz	-6130
emeyecek	-6131
▁Meksika	-6132
▁Richard	-6133
▁mekanik	-6134
▁sağlığı	-6135
▁diğerine	-6136
▁düşünmüş	-6137
▁maliyeti	-6138
▁dayanıklı	-6139
▁çalışarak	-6140
▁Avustralya	-6141
▁enfeksiyon	-6142
mr	-6143
fon	-6144
iğe	-6145
par	-6146
▁kl	-6147
ilde	-6148
wood	-6149
▁Nor	-6150
▁Var	-6151
▁göv	-6152
▁kıl	-6153
diven	-6154
▁Kans	-6155
▁elle	-6156
▁gölg	-6157
memize	-6158
▁haqda	-6159
▁hesab	-6160
▁senar	-6161
▁şansı	-6162
leniyor	-6163
▁döndüm	-6164
▁insani	-6165
▁masraf	-6166
▁mikrop	-6167
▁sohbet	-6168
▁temelde	-6169
▁edilmesi	-6170
▁profesör	-6171
▁korkutucu	-6172
▁sistemini	-6173
▁değiştiren	-6174
ayi	-6175
rin	-6176
ator	-6177
etro	-6178
▁MIT	-6179
▁öle	-6180
utbol	-6181
▁Anne	-6182
▁Bizi	-6183
▁graf	-6184
▁reak	-6185
▁serg	-6186
▁bozul	-6187
▁gelin	-6188
▁kapan	-6189
▁sürük	-6190
▁çekir	-6191
▁elinde	-6192
▁saatte	-6193
▁sizden	-6194
▁gruplar	-6195
▁katkıda	-6196
▁yerleri	-6197
▁bilginin	-6198
▁ediyordu	-6199
▁prototip	-6200
▁gezegenin	-6201
▁hikayesini	-6202
yn	-6203
▁GS	-6204
▁Jo	-6205
▁TV	-6206
afor	-6207
inek	-6208
lıca	-6209
▁möv	-6210
jener	-6211
▁Beyn	-6212
▁beda	-6213
▁döng	-6214
▁kıta	-6215
▁onur	-6216
▁öğle	-6217
maktır	-6218
▁aynen	-6219
▁daima	-6220
▁grubu	-6221
▁gören	-6222
▁larda	-6223
▁macer	-6224
▁çözün	-6225
▁Eğitim	-6226
▁George	-6227
▁ayakta	-6228
▁balina	-6229
▁görevi	-6230
▁ilerle	-6231
▁patent	-6232
▁sesini	-6233
▁yakala	-6234
▁Nijerya	-6235
▁durumun	-6236
▁ederler	-6237
▁konuşur	-6238
▁biraraya	-6239
▁kütüphan	-6240
▁tanıştım	-6241
▁yapmanız	-6242
▁Dünyadaki	-6243
▁organizma	-6244
▁teknolojisi	-6245
▁kullanabilir	-6246
▁birbirleriyle	-6247
mik	-6248
▁bı	-6249
anne	-6250
▁koz	-6251
▁muz	-6252
unuza	-6253
amıyor	-6254
esiydi	-6255
mamıza	-6256
▁eşsiz	-6257
▁kalıp	-6258
▁tipik	-6259
landıra	-6260
▁Doktor	-6261
▁Yüksek	-6262
▁sensör	-6263
▁yemeği	-6264
▁çıkmış	-6265
▁şeffaf	-6266
▁Arkadaş	-6267
▁bakacak	-6268
▁biridir	-6269
▁doğanın	-6270
▁pozitif	-6271
leyebilir	-6272
▁bitkiler	-6273
▁örnekler	-6274
▁Teknoloji	-6275
▁Washington	-6276
cük	-6277
▁3.	-6278
▁Is	-6279
asız	-6280
luğa	-6281
▁şer	-6282
▁2008	-6283
▁akım	-6284
▁bayı	-6285
▁dile	-6286
▁madd	-6287
alesef	-6288
likten	-6289
▁benze	-6290
▁kalem	-6291
▁uyarı	-6292
▁Fransa	-6293
▁incele	-6294
▁kalmak	-6295
▁kırsal	-6296
abiliyor	-6297
▁Francis	-6298
▁denklem	-6299
▁düzeyde	-6300
▁barındır	-6301
▁olanları	-6302
▁tasarımı	-6303
▁bilərsiniz	-6304
▁göstereyim	-6305
▁bahsediyorum	-6306
cav	-6307
ith	-6308
ıla	-6309
▁22	-6310
dını	-6311
▁alg	-6312
▁ler	-6313
▁mür	-6314
edeki	-6315
▁rüya	-6316
▁sezg	-6317
▁Üzer	-6318
▁İlki	-6319
zersiz	-6320
▁ailem	-6321
▁baktı	-6322
▁kömür	-6323
▁kötüy	-6324
▁tesis	-6325
▁ödeme	-6326
▁atıyor	-6327
▁konser	-6328
▁siyahi	-6329
▁Harvard	-6330
▁duyarlı	-6331
▁etmenin	-6332
▁iyisini	-6333
▁yöntemi	-6334
ıldığında	-6335
▁bırakmak	-6336
▁güçlendir	-6337
▁kadınlara	-6338
▁çalışmayı	-6339
▁çalıştığı	-6340
▁kahkahalar	-6341
▁sisteminin	-6342
▁bilmiyordum	-6343
▁mühendislik	-6344
▁zorundasınız	-6345
PS	-6346
əri	-6347
▁Oh	-6348
ames	-6349
ırdı	-6350
əsin	-6351
▁Bal	-6352
▁kış	-6353
cavüz	-6354
iştir	-6355
ürler	-6356
▁Bill	-6357
▁Sana	-6358
▁alda	-6359
▁işim	-6360
▁kaba	-6361
▁kuru	-6362
ildiği	-6363
▁alkış	-6364
▁bakan	-6365
▁düşen	-6366
▁ideal	-6367
▁ikiye	-6368
▁tərəf	-6369
▁Başkan	-6370
▁İlginç	-6371
▁biriydi	-6372
▁dediğim	-6373
▁fırsatı	-6374
▁gerekti	-6375
▁yararlı	-6376
▁üretken	-6377
▁Sonrasında	-6378
▁olabiliriz	-6379
▁sorumluluğ	-6380
▁birbirimize	-6381
▁bilgisayarlar	-6382
▁Un	-6383
eral	-6384
pati	-6385
stri	-6386
▁eğr	-6387
▁gri	-6388
delim	-6389
▁1000	-6390
▁ötür	-6391
larken	-6392
▁Etraf	-6393
▁Hikay	-6394
▁Tarih	-6395
▁miyim	-6396
▁satış	-6397
▁galaks	-6398
▁kurban	-6399
▁oluşur	-6400
▁vermiş	-6401
▁Angeles	-6402
▁düzenli	-6403
▁etkiler	-6404
▁görürüz	-6405
▁herkesi	-6406
▁yolları	-6407
▁projeler	-6408
▁soruları	-6409
▁Günümüzde	-6410
▁hayatımın	-6411
▁sistemler	-6412
▁bazılarını	-6413
▁çeşitlilik	-6414
▁hayatlarını	-6415
▁teknolojileri	-6416
gs	-6417
cisi	-6418
iriz	-6419
manı	-6420
ətin	-6421
▁dah	-6422
▁kos	-6423
▁muy	-6424
▁tüy	-6425
▁uns	-6426
lendi	-6427
ürlük	-6428
▁amma	-6429
▁zirv	-6430
mazlar	-6431
▁ayağa	-6432
▁nehir	-6433
▁Birbir	-6434
▁alabil	-6435
▁avukat	-6436
▁kulağa	-6437
▁oynaya	-6438
dığınızı	-6439
▁bakmaya	-6440
▁dönüştü	-6441
▁dünyası	-6442
▁geçirmek	-6443
▁terörist	-6444
▁ürünleri	-6445
▁ettikleri	-6446
▁istiyordum	-6447
▁veriyorlar	-6448
▁öğrendiğim	-6449
▁hareketleri	-6450
▁çalışmaları	-6451
▁matematiksel	-6452
ezi	-6453
laq	-6454
▁27	-6455
▁99	-6456
▁Gi	-6457
▁Re	-6458
cusu	-6459
tına	-6460
▁Asl	-6461
▁Bas	-6462
▁Buz	-6463
▁Sur	-6464
▁Tom	-6465
▁hab	-6466
▁işg	-6467
▁sos	-6468
erler	-6469
losuz	-6470
üzyon	-6471
▁Bang	-6472
▁Emin	-6473
▁Sıra	-6474
▁fərq	-6475
▁suna	-6476
▁Apple	-6477
▁Beyin	-6478
▁Seyir	-6479
▁muhaf	-6480
▁yerin	-6481
▁Buraya	-6482
▁Tanrım	-6483
▁bulama	-6484
▁kaldım	-6485
▁pratik	-6486
▁yaşlan	-6487
▁akciğer	-6488
▁büyüyen	-6489
▁engelli	-6490
▁ileriye	-6491
▁kişiden	-6492
▁ortamda	-6493
▁zamanın	-6494
larımızla	-6495
▁Anderson	-6496
▁varsayım	-6497
▁Biliyorum	-6498
▁kuralları	-6499
▁durumlarda	-6500
▁olabileceği	-6501
kob	-6502
tek	-6503
uşu	-6504
▁aj	-6505
luğun	-6506
▁ekib	-6507
▁ölen	-6508
eyerek	-6509
likler	-6510
▁Atlan	-6511
▁Haydi	-6512
▁ailen	-6513
▁gidiş	-6514
▁kurtu	-6515
▁sahte	-6516
▁yenil	-6517
elendir	-6518
ırsanız	-6519
▁Amazon	-6520
▁Sistem	-6521
▁anında	-6522
▁yaprak	-6523
▁Biliyor	-6524
▁Merhaba	-6525
▁kıyafet	-6526
▁uzaktan	-6527
ebilirler	-6528
▁merhamet	-6529
▁yazılmış	-6530
▁yetersiz	-6531
▁aldığımız	-6532
▁söylemeye	-6533
▁düşünürseniz	-6534
tıp	-6535
adem	-6536
amda	-6537
unca	-6538
▁Fot	-6539
emini	-6540
ganda	-6541
sever	-6542
tıkça	-6543
▁sözü	-6544
usunda	-6545
▁direk	-6546
▁girip	-6547
▁hasar	-6548
▁havuz	-6549
▁hekay	-6550
▁varol	-6551
▁çünki	-6552
▁Normal	-6553
▁coğraf	-6554
▁millet	-6555
▁sorduk	-6556
mesinden	-6557
▁binanın	-6558
▁bulundu	-6559
▁kuantum	-6560
▁miktarı	-6561
▁sisteme	-6562
▁yaşamış	-6563
▁demokras	-6564
▁egzersiz	-6565
▁etkileri	-6566
▁kurallar	-6567
▁kullanılabilir	-6568
wa	-6569
adü	-6570
içi	-6571
âlâ	-6572
▁23	-6573
akar	-6574
eton	-6575
eyif	-6576
siya	-6577
▁Web	-6578
▁elb	-6579
▁reh	-6580
▁sel	-6581
tıldı	-6582
ümcek	-6583
▁Dört	-6584
▁kızı	-6585
enleri	-6586
mezler	-6587
umuzda	-6588
▁Temel	-6589
▁bilen	-6590
▁buyuk	-6591
▁dağın	-6592
▁idare	-6593
▁koyun	-6594
▁tamir	-6595
▁tutku	-6596
▁çağrı	-6597
abilmek	-6598
akistan	-6599
▁kalıcı	-6600
▁yeryüz	-6601
▁etrafta	-6602
▁felaket	-6603
▁gelişen	-6604
▁hepiniz	-6605
▁izliyor	-6606
▁sonuçta	-6607
▁hepsinin	-6608
▁makinesi	-6609
▁alanlarda	-6610
▁etkileyen	-6611
▁birbiriyle	-6612
▁yapabilmek	-6613
▁yapmalıyız	-6614
ebileceğimiz	-6615
▁konuşacağım	-6616
air	-6617
ole	-6618
▁Ed	-6619
▁dâ	-6620
▁And	-6621
▁Hük	-6622
▁cen	-6623
▁haz	-6624
▁lam	-6625
▁tüp	-6626
▁Ülk	-6627
lıklı	-6628
ğında	-6629
▁2010	-6630
▁özet	-6631
▁hakim	-6632
▁kahve	-6633
▁köken	-6634
▁oğlum	-6635
▁sunum	-6636
▁tetik	-6637
sındaki	-6638
▁geride	-6639
▁mahkum	-6640
▁tarafa	-6641
▁yeteri	-6642
▁düzenle	-6643
▁giriyor	-6644
▁tecrübe	-6645
▁yakında	-6646
▁yapılar	-6647
▁çarpıcı	-6648
▁ölçekte	-6649
▁biyoloji	-6650
▁resimler	-6651
▁operasyon	-6652
▁İnsanları	-6653
▁başlayacak	-6654
▁karşılıklı	-6655
▁problemleri	-6656
▁yapabilirim	-6657
▁özellikleri	-6658
məy	-6659
▁Bo	-6660
▁CO	-6661
▁No	-6662
etri	-6663
▁Ale	-6664
▁nas	-6665
▁reç	-6666
▁çay	-6667
lidir	-6668
▁teki	-6669
▁uyku	-6670
▁Obama	-6671
▁meden	-6672
▁slayt	-6673
▁tutar	-6674
▁yığın	-6675
▁zorlu	-6676
lenmesi	-6677
▁Darwin	-6678
▁Enstit	-6679
▁klasik	-6680
▁sergil	-6681
▁üreten	-6682
ladığını	-6683
mezsiniz	-6684
▁Demokra	-6685
▁gazetec	-6686
▁süreçte	-6687
▁çatışma	-6688
▁ötesine	-6689
▁karbondi	-6690
▁görülüyor	-6691
layabiliriz	-6692
▁duyduğumuz	-6693
▁söyleyecek	-6694
lor	-6695
tis	-6696
uya	-6697
▁mel	-6698
▁yuz	-6699
▁açtı	-6700
▁bant	-6701
▁okuy	-6702
emiyor	-6703
imdeki	-6704
slində	-6705
sızlık	-6706
▁Tıpkı	-6707
▁demir	-6708
▁harik	-6709
▁sinek	-6710
▁səbəb	-6711
▁özgün	-6712
▁başlay	-6713
▁lisans	-6714
▁oynama	-6715
▁sözcük	-6716
▁tanıma	-6717
landırma	-6718
lerimize	-6719
▁aldığım	-6720
▁etmekte	-6721
▁gürültü	-6722
▁konuşan	-6723
ebileceği	-6724
▁bilinçli	-6725
▁büyüklük	-6726
▁dünyamız	-6727
▁istasyon	-6728
▁mutluluğ	-6729
▁normalde	-6730
▁teleskop	-6731
▁alışveriş	-6732
▁kabiliyet	-6733
▁olursunuz	-6734
▁yıllardır	-6735
▁düşünüyorsunuz	-6736
com	-6737
kır	-6738
uar	-6739
uğu	-6740
ırız	-6741
▁Duy	-6742
▁Kaf	-6743
▁Kom	-6744
▁dər	-6745
▁Şey	-6746
▁Şim	-6747
▁hemş	-6748
▁imza	-6749
▁nden	-6750
▁traj	-6751
▁düştü	-6752
▁istih	-6753
▁işini	-6754
▁salın	-6755
▁terap	-6756
▁tersi	-6757
▁tutan	-6758
diyimiz	-6759
ologlar	-6760
▁bulmuş	-6761
▁futbol	-6762
▁iPhone	-6763
▁kainat	-6764
▁kısaca	-6765
ımızdaki	-6766
▁Merkezi	-6767
▁aileler	-6768
▁aldılar	-6769
▁malzeme	-6770
▁belirsiz	-6771
▁gördünüz	-6772
▁konuştuk	-6773
▁yapıştır	-6774
▁çözümler	-6775
▁hikayenin	-6776
▁seferinde	-6777
▁kaçınılmaz	-6778
▁kendisinin	-6779
▁istedikleri	-6780
rum	-6781
zər	-6782
örf	-6783
▁BM	-6784
▁Li	-6785
▁əl	-6786
anlı	-6787
usuz	-6788
▁194	-6789
▁Adı	-6790
▁Gar	-6791
▁Kul	-6792
▁asl	-6793
▁yir	-6794
▁Şeh	-6795
irkin	-6796
leydi	-6797
▁1990	-6798
▁anım	-6799
▁kast	-6800
▁mənə	-6801
lemesi	-6802
▁Cevap	-6803
▁Rusya	-6804
▁Senin	-6805
▁alıcı	-6806
▁döndü	-6807
▁halen	-6808
▁kiçik	-6809
▁pilot	-6810
▁qarşı	-6811
▁sürdü	-6812
▁yapın	-6813
▁Savaşı	-6814
▁dükkan	-6815
▁görünt	-6816
▁ilgisi	-6817
▁inşaat	-6818
▁kurduk	-6819
▁yaşına	-6820
▁çarpış	-6821
▁çıkmak	-6822
diğinden	-6823
▁alışkan	-6824
▁dikkate	-6825
▁düşüyor	-6826
▁gitmeye	-6827
▁ikisini	-6828
▁mahalle	-6829
▁oluştuğ	-6830
▁çıkacak	-6831
▁duyduğum	-6832
▁edeceğim	-6833
▁saniyede	-6834
lerimizden	-6835
▁hızlandır	-6836
▁kendinize	-6837
▁yapılacak	-6838
▁yenilikçi	-6839
▁kullanılıyor	-6840
▁–	-6841
idi	-6842
▁vs	-6843
▁Vir	-6844
▁Vüc	-6845
▁huz	-6846
posta	-6847
▁1980	-6848
▁adil	-6849
▁akra	-6850
▁uçan	-6851
emeyiz	-6852
laşmış	-6853
▁bulan	-6854
▁damar	-6855
▁krizi	-6856
▁çekim	-6857
▁ötürü	-6858
▁direnç	-6859
▁kaynağ	-6860
▁olunca	-6861
▁ulaşım	-6862
madığını	-6863
▁Charles	-6864
▁devamlı	-6865
▁komplek	-6866
▁çıkardı	-6867
▁arkadaşı	-6868
▁giderken	-6869
▁güzellik	-6870
▁oluyordu	-6871
▁kendisine	-6872
▁sistemine	-6873
▁veriyoruz	-6874
▁gülüşmeler	-6875
▁araştırmacı	-6876
▁istiyorsunuz	-6877
▁değişiklikler	-6878
ie	-6879
pe	-6880
ess	-6881
emen	-6882
▁Mas	-6883
▁Tür	-6884
▁hev	-6885
▁oğl	-6886
▁ust	-6887
umhur	-6888
▁1960	-6889
▁açan	-6890
▁muha	-6891
▁uşaq	-6892
ediyor	-6893
iliğin	-6894
▁James	-6895
▁acaba	-6896
▁inanc	-6897
▁iyisi	-6898
▁jener	-6899
▁refah	-6900
▁tutun	-6901
▁zemin	-6902
▁şahit	-6903
düğünde	-6904
ladığım	-6905
▁Tahmin	-6906
▁alınan	-6907
▁teşhis	-6908
▁yaşamı	-6909
▁yoldan	-6910
▁anlıyor	-6911
▁değilse	-6912
▁çalıştı	-6913
duğunuzda	-6914
▁dinlemek	-6915
▁geldiler	-6916
▁ücretsiz	-6917
▁değişiyor	-6918
▁görebilir	-6919
▁çoğunluğu	-6920
▁büyüleyici	-6921
iyə	-6922
lie	-6923
ons	-6924
sən	-6925
tiy	-6926
▁He	-6927
tımı	-6928
uşak	-6929
yeni	-6930
ülük	-6931
▁Lat	-6932
▁Pen	-6933
▁sur	-6934
cinin	-6935
diyim	-6936
ıplak	-6937
▁2009	-6938
▁ente	-6939
▁kali	-6940
▁otor	-6941
▁şuna	-6942
emizde	-6943
portaj	-6944
unuzda	-6945
▁Bayan	-6946
▁həqiq	-6947
▁keyif	-6948
▁pengu	-6949
▁tutuk	-6950
▁yunus	-6951
tıracak	-6952
▁kimlik	-6953
▁matema	-6954
▁oturan	-6955
▁ölüyor	-6956
▁düşünen	-6957
▁nitelik	-6958
▁tavsiye	-6959
▁Ardından	-6960
▁bireyler	-6961
▁geçmişte	-6962
▁işlerini	-6963
▁sonradan	-6964
▁çocukken	-6965
bileceğimi	-6966
▁anlatmaya	-6967
▁açıklamak	-6968
▁kalabalık	-6969
▁yoksulluk	-6970
▁Böylelikle	-6971
▁insanlığın	-6972
▁gelecekteki	-6973
▁gösterdiğim	-6974
▁teknolojiye	-6975
▁şirketlerin	-6976
do	-6977
ert	-6978
gim	-6979
obi	-6980
vel	-6981
amın	-6982
embe	-6983
stin	-6984
▁Kiş	-6985
▁Yah	-6986
▁kıt	-6987
▁neç	-6988
▁şik	-6989
lenme	-6990
madık	-6991
onlar	-6992
seydi	-6993
▁Altı	-6994
▁ayda	-6995
▁calis	-6996
▁tanın	-6997
▁öyrən	-6998
biyotik	-6999
▁akadem	-7000
▁duyduk	-7001
▁kenara	-7002
▁sizler	-7003
▁yapmaz	-7004
▁başkanı	-7005
▁izlemek	-7006
▁metafor	-7007
▁tanıdık	-7008
▁dersiniz	-7009
▁evrimsel	-7010
▁hayatımı	-7011
▁kaynaklı	-7012
▁kontrolü	-7013
▁düşünelim	-7014
▁hayatının	-7015
▁kadınları	-7016
▁olduğudur	-7017
▁istediğini	-7018
ko	-7019
rik	-7020
ült	-7021
iski	-7022
memi	-7023
unya	-7024
üldü	-7025
▁GPS	-7026
▁tok	-7027
htiya	-7028
mekle	-7029
▁cana	-7030
dirler	-7031
lanmak	-7032
▁Paris	-7033
▁tahta	-7034
▁testi	-7035
▁Millet	-7036
▁aramız	-7037
▁felsef	-7038
▁sesler	-7039
▁sivris	-7040
▁çıkart	-7041
▁hiçbiri	-7042
▁taşıyan	-7043
▁zararlı	-7044
▁çiftlik	-7045
▁çoğunuz	-7046
▁Pakistan	-7047
▁deneyimi	-7048
▁dördüncü	-7049
▁itibaren	-7050
▁söyledik	-7051
▁yerinden	-7052
▁öylesine	-7053
▁alıyorlar	-7054
▁keşfettik	-7055
▁fikirlerin	-7056
▁şirketleri	-7057
bileceğinizi	-7058
lör	-7059
pte	-7060
▁id	-7061
omen	-7062
rana	-7063
stra	-7064
ətən	-7065
▁Ven	-7066
▁bür	-7067
▁raf	-7068
▁çak	-7069
▁ömr	-7070
estra	-7071
etrik	-7072
meyin	-7073
müştü	-7074
▁edən	-7075
▁hadi	-7076
▁ndan	-7077
▁trav	-7078
eğinde	-7079
ilerde	-7080
lywood	-7081
usunun	-7082
▁Steve	-7083
▁açığa	-7084
▁damla	-7085
▁digər	-7086
▁yanıl	-7087
▁yayım	-7088
▁çizim	-7089
larımla	-7090
▁baktık	-7091
▁koltuk	-7092
▁otobüs	-7093
sunuzdur	-7094
▁Tasarım	-7095
▁bulunur	-7096
▁hücresi	-7097
▁yarıyor	-7098
▁bitirmek	-7099
▁bulduğum	-7100
▁haberler	-7101
▁kullanış	-7102
▁parçalar	-7103
▁projenin	-7104
▁ilgilidir	-7105
▁kullanıla	-7106
▁makineler	-7107
▁çalışmanın	-7108
düz	-7109
▁Ot	-7110
▁Ör	-7111
edia	-7112
uncu	-7113
ydim	-7114
▁Tur	-7115
▁Zor	-7116
▁bəz	-7117
▁cik	-7118
▁lif	-7119
▁təh	-7120
ander	-7121
hazır	-7122
sızın	-7123
temel	-7124
zaman	-7125
▁Kötü	-7126
▁dişi	-7127
pektif	-7128
▁Gezeg	-7129
▁Micha	-7130
▁kılan	-7131
▁torun	-7132
▁yazdı	-7133
▁Şehir	-7134
▁bedava	-7135
▁deneme	-7136
▁oyunun	-7137
▁savaşı	-7138
▁tesadü	-7139
▁çevrim	-7140
▁Kendimi	-7141
▁projesi	-7142
▁tecavüz	-7143
▁yükselt	-7144
▁ürünler	-7145
▁şimdiki	-7146
▁amacıyla	-7147
▁başlamış	-7148
ach	-7149
duz	-7150
sim	-7151
şır	-7152
▁CE	-7153
maye	-7154
▁Bra	-7155
▁Jon	-7156
▁Sab	-7157
▁elə	-7158
▁köl	-7159
▁çip	-7160
iyeli	-7161
çılar	-7162
▁Mary	-7163
▁vaka	-7164
manlık	-7165
▁Erkek	-7166
▁Evren	-7167
▁Geliş	-7168
▁Higgs	-7169
▁diplo	-7170
▁makal	-7171
▁miydi	-7172
ceğiniz	-7173
▁başvur	-7174
▁hikâye	-7175
▁oluşum	-7176
▁evlilik	-7177
▁eğlence	-7178
▁haftada	-7179
▁olaylar	-7180
▁ölümcül	-7181
▁Internet	-7182
▁arabalar	-7183
▁bahseder	-7184
▁hidrojen	-7185
▁kendimiz	-7186
▁noktalar	-7187
▁yapmaları	-7188
▁değiştirebilir	-7189
▁Uç	-7190
amak	-7191
amin	-7192
esto	-7193
ezer	-7194
opar	-7195
▁Min	-7196
▁Tho	-7197
▁ard	-7198
▁qal	-7199
▁umu	-7200
luyum	-7201
çılık	-7202
▁başı	-7203
▁deri	-7204
▁fare	-7205
▁iniş	-7206
▁inti	-7207
▁kurb	-7208
▁tali	-7209
▁örtü	-7210
▁cazib	-7211
▁kesim	-7212
▁tavuk	-7213
▁Birisi	-7214
▁Thomas	-7215
▁gercek	-7216
▁geçici	-7217
▁tatmin	-7218
▁taşıma	-7219
▁taşıya	-7220
▁teslim	-7221
▁çocuğa	-7222
▁öncesi	-7223
▁anlatır	-7224
▁doğrusu	-7225
▁olurlar	-7226
▁siyaset	-7227
▁türleri	-7228
iliğinden	-7229
▁belirgin	-7230
▁öncesine	-7231
▁Francisco	-7232
▁animasyon	-7233
▁parçasını	-7234
▁topluluğu	-7235
▁vücudumuz	-7236
bilecekleri	-7237
▁bölgelerde	-7238
▁fazlasıyla	-7239
▁internette	-7240
▁çalışıyordum	-7241
▁karbondioksit	-7242
▁görebileceğiniz	-7243
don	-7244
▁sə	-7245
dəki	-7246
emde	-7247
gide	-7248
ilip	-7249
▁bam	-7250
▁dua	-7251
▁çub	-7252
▁2007	-7253
▁Kore	-7254
▁atar	-7255
▁işit	-7256
▁İndi	-7257
istler	-7258
ırtıcı	-7259
▁Beyaz	-7260
▁Hayal	-7261
▁Lakin	-7262
▁Oraya	-7263
▁birim	-7264
▁döngü	-7265
▁tarla	-7266
▁tarzı	-7267
leyebil	-7268
▁Hayvan	-7269
▁benzet	-7270
▁bugüne	-7271
▁yapısı	-7272
▁Birinci	-7273
▁ayrıntı	-7274
▁doktora	-7275
▁topluma	-7276
▁bildiğim	-7277
▁kablosuz	-7278
▁kararlar	-7279
▁olasılık	-7280
▁yaparlar	-7281
▁bulabilir	-7282
▁gittiğini	-7283
▁kelimenin	-7284
▁olmalıyız	-7285
▁sınırları	-7286
▁çıkarıyor	-7287
▁öncelikle	-7288
▁geliyorlar	-7289
▁gerektiğine	-7290
▁gerçekleşen	-7291
ug	-7292
aze	-7293
ill	-7294
üyü	-7295
▁ab	-7296
aban	-7297
ardı	-7298
▁Alz	-7299
▁Tak	-7300
▁Vay	-7301
▁rad	-7302
▁stü	-7303
aktif	-7304
lıdır	-7305
▁Ulus	-7306
▁aday	-7307
▁açıl	-7308
▁bank	-7309
▁şark	-7310
inizle	-7311
▁Pasif	-7312
▁Robot	-7313
▁bulgu	-7314
▁dusun	-7315
▁göğüs	-7316
▁kafat	-7317
▁limit	-7318
▁türde	-7319
ceğimiz	-7320
memişti	-7321
▁Dikkat	-7322
▁bilinc	-7323
▁deneye	-7324
▁direkt	-7325
▁sonuca	-7326
mediğini	-7327
▁ilaçlar	-7328
▁resimde	-7329
▁yardımı	-7330
▁şeklini	-7331
bileceğiz	-7332
▁toplumda	-7333
▁umuyorum	-7334
▁olacaklar	-7335
▁parçalara	-7336
▁Bildiğiniz	-7337
▁koleksiyon	-7338
▁kullanabil	-7339
mm	-7340
oo	-7341
emiş	-7342
isti	-7343
ozor	-7344
ətir	-7345
▁600	-7346
▁bed	-7347
▁rok	-7348
▁çor	-7349
ester	-7350
tınız	-7351
▁Asıl	-7352
▁bire	-7353
▁indi	-7354
▁pomp	-7355
▁saha	-7356
▁yüzü	-7357
eğimiz	-7358
▁Hüküm	-7359
▁durdu	-7360
▁duyma	-7361
▁duyul	-7362
▁polen	-7363
▁Öğret	-7364
dakiler	-7365
masıdır	-7366
▁Geçmiş	-7367
▁duymak	-7368
▁edilir	-7369
▁fabrik	-7370
▁halkın	-7371
▁harcan	-7372
▁hizmeti	-7373
▁kültürü	-7374
▁savaşın	-7375
▁uyandır	-7376
▁öncelik	-7377
▁birileri	-7378
▁gelmişti	-7379
▁hastalar	-7380
▁hastanın	-7381
▁muhtemel	-7382
▁röportaj	-7383
▁düşünerek	-7384
▁kadarıyla	-7385
▁keresinde	-7386
▁keşfetmek	-7387
▁istiyorsak	-7388
▁konuşurken	-7389
▁olabilirler	-7390
fə	-7391
ts	-7392
azi	-7393
fil	-7394
▁65	-7395
▁se	-7396
ayip	-7397
azan	-7398
irəm	-7399
ücük	-7400
şeye	-7401
▁dog	-7402
▁yil	-7403
lavuz	-7404
▁....	-7405
▁Soru	-7406
▁çama	-7407
heimer	-7408
▁dâhil	-7409
▁gətir	-7410
▁parma	-7411
▁unsur	-7412
▁üzgün	-7413
lanmaya	-7414
masıyla	-7415
mesidir	-7416
▁Elektr	-7417
▁mahall	-7418
▁titreş	-7419
▁değişen	-7420
▁gösterg	-7421
▁sahnede	-7422
▁sermaye	-7423
▁içeriyor	-7424
▁kazanmak	-7425
▁manyetik	-7426
▁iletişime	-7427
▁moleküler	-7428
▁olmalıdır	-7429
▁geçtiğimiz	-7430
▁kullanmayı	-7431
▁perspektif	-7432
▁çevresinde	-7433
▁şekillerde	-7434
▁büyüklüğünde	-7435
eff	-7436
zet	-7437
▁Ba	-7438
iter	-7439
iyan	-7440
▁Kas	-7441
▁You	-7442
▁get	-7443
▁naz	-7444
▁sən	-7445
denin	-7446
tılan	-7447
▁Film	-7448
▁Poli	-7449
▁Seni	-7450
▁duyu	-7451
▁ekle	-7452
▁neçə	-7453
▁öden	-7454
▁üzər	-7455
eliyiz	-7456
emizin	-7457
ilikon	-7458
omobil	-7459
▁arazi	-7460
▁efsan	-7461
▁heves	-7462
▁ilkel	-7463
▁ispat	-7464
▁nasil	-7465
▁zorun	-7466
▁soruya	-7467
▁vadede	-7468
▁varmış	-7469
▁çirkin	-7470
▁Michael	-7471
▁manzara	-7472
▁onlarca	-7473
▁yaratma	-7474
lerimizde	-7475
▁Yalnızca	-7476
▁bekleyen	-7477
▁edilemez	-7478
▁kilometr	-7479
▁gezegende	-7480
▁pazarlama	-7481
▁bağışıklık	-7482
▁bölgesinde	-7483
▁malzemeler	-7484
▁nihayetinde	-7485
▁söylemeliyim	-7486
ble	-7487
▁ga	-7488
yali	-7489
▁Col	-7490
▁Jos	-7491
▁rah	-7492
▁Çox	-7493
ember	-7494
iyatr	-7495
▁grip	-7496
▁kahv	-7497
▁kedi	-7498
▁otel	-7499
▁uzat	-7500
▁Araba	-7501
▁aktör	-7502
▁kayda	-7503
▁kızın	-7504
▁nesne	-7505
▁oynat	-7506
▁sahil	-7507
▁tedar	-7508
▁topar	-7509
▁yaxın	-7510
▁babası	-7511
▁bayağı	-7512
▁okudum	-7513
▁poster	-7514
cağınızı	-7515
▁biriyle	-7516
▁gördüğü	-7517
▁ilişkin	-7518
▁saatlik	-7519
▁sahipti	-7520
▁vererek	-7521
▁yaparız	-7522
▁arabanın	-7523
▁enerjisi	-7524
▁enerjiyi	-7525
▁haritası	-7526
▁kısmında	-7527
▁Birleşmiş	-7528
▁öğrenmeye	-7529
ebileceğini	-7530
▁inanıyoruz	-7531
tun	-7532
▁Wh	-7533
▁nı	-7534
cüsü	-7535
meni	-7536
olik	-7537
ılda	-7538
▁Jac	-7539
▁Nat	-7540
▁Seç	-7541
▁Söz	-7542
▁bük	-7543
▁cis	-7544
▁həm	-7545
▁ini	-7546
opter	-7547
▁Alex	-7548
▁Fili	-7549
▁balı	-7550
▁rüzg	-7551
▁sera	-7552
▁Ödül	-7553
▁çağı	-7554
▁Süper	-7555
▁durup	-7556
▁huzur	-7557
▁koyar	-7558
▁vergi	-7559
lerimin	-7560
tabilir	-7561
▁10.000	-7562
▁Birden	-7563
▁global	-7564
▁gücüne	-7565
▁sürücü	-7566
▁donanım	-7567
▁edersek	-7568
▁olumsuz	-7569
▁paranın	-7570
▁yarattı	-7571
▁yönetic	-7572
▁çekiyor	-7573
▁çoğunun	-7574
▁Şimdiye	-7575
landığını	-7576
▁görmüyor	-7577
▁merdiven	-7578
▁görmezden	-7579
▁tarihinde	-7580
▁veriyorum	-7581
▁yaşadığım	-7582
▁hastaların	-7583
▁hayvanları	-7584
▁çalışıyordu	-7585
▁Görüyorsunuz	-7586
araj	-7587
irli	-7588
otek	-7589
priz	-7590
sünü	-7591
▁Del	-7592
▁Far	-7593
▁Gül	-7594
▁qur	-7595
▁süp	-7596
lanıp	-7597
memek	-7598
▁diya	-7599
▁esin	-7600
▁evin	-7601
▁felç	-7602
▁fiya	-7603
▁frek	-7604
▁niye	-7605
▁orij	-7606
▁çıka	-7607
sinden	-7608
▁Frank	-7609
▁Yüzde	-7610
▁ancaq	-7611
▁firma	-7612
▁gezin	-7613
▁girer	-7614
▁hapse	-7615
▁istik	-7616
▁kuram	-7617
▁köprü	-7618
ilmişti	-7619
▁gelmez	-7620
▁kızlar	-7621
▁sermay	-7622
▁yansıt	-7623
leştirme	-7624
sinizdir	-7625
▁Buradan	-7626
▁Laborat	-7627
▁büyüdüm	-7628
▁diyordu	-7629
▁dönelim	-7630
▁kazandı	-7631
▁vereyim	-7632
▁yürüyor	-7633
lenebilir	-7634
▁Fotoğraf	-7635
▁yeteneği	-7636
▁bakıyoruz	-7637
▁geleceğin	-7638
▁gelişmeler	-7639
▁yaratıcılık	-7640
▁hastalıkları	-7641
yl	-7642
att	-7643
ity	-7644
mar	-7645
ult	-7646
vir	-7647
ərk	-7648
▁Ki	-7649
atom	-7650
bire	-7651
orta	-7652
tılı	-7653
▁19.	-7654
▁Ham	-7655
▁Kol	-7656
▁bot	-7657
▁miz	-7658
▁çim	-7659
vanın	-7660
▁Phil	-7661
▁ardı	-7662
▁aşık	-7663
▁koku	-7664
▁okur	-7665
▁vası	-7666
▁ümit	-7667
kinden	-7668
▁Aşağı	-7669
▁antik	-7670
▁bariz	-7671
▁diyal	-7672
▁hariç	-7673
▁ilacı	-7674
▁kırıl	-7675
▁redde	-7676
▁yazma	-7677
▁çekti	-7678
diğince	-7679
larıdır	-7680
tiğiniz	-7681
▁Boston	-7682
▁Lütfen	-7683
▁birçoğ	-7684
▁havaya	-7685
▁kapatı	-7686
▁rehber	-7687
▁çıktık	-7688
▁etmeniz	-7689
▁kalmayı	-7690
▁olmakla	-7691
▁taşıyor	-7692
▁toplama	-7693
▁yaşımda	-7694
▁birinden	-7695
▁endüstri	-7696
▁etmesini	-7697
▁ihtimali	-7698
▁sıcaklık	-7699
▁ülkedeki	-7700
▁Alzheimer	-7701
▁geliştirme	-7702
▁gittiğimde	-7703
▁çeşitliliğ	-7704
▁değiştirmeye	-7705
uf	-7706
zi	-7707
▁bə	-7708
rama	-7709
ümün	-7710
▁Mah	-7711
▁Yen	-7712
▁cid	-7713
▁lük	-7714
▁tör	-7715
▁vad	-7716
▁Çoğ	-7717
anızı	-7718
biler	-7719
▁1970	-7720
▁Para	-7721
▁kral	-7722
mişler	-7723
▁Ondan	-7724
▁kucak	-7725
▁somut	-7726
▁önyar	-7727
▁şarap	-7728
hazırda	-7729
▁Dışarı	-7730
▁cihazı	-7731
▁fikrin	-7732
▁katına	-7733
▁mesajı	-7734
▁sigara	-7735
▁Önemli	-7736
▁çıplak	-7737
lerimden	-7738
miyorlar	-7739
▁evrende	-7740
▁güvende	-7741
▁kılavuz	-7742
▁kıyasla	-7743
▁zamanki	-7744
▁şikayet	-7745
▁biriktir	-7746
▁getirdik	-7747
▁arasından	-7748
▁gidiyoruz	-7749
▁yarattığı	-7750
▁yollarını	-7751
▁İnsanlara	-7752
▁başlangıcı	-7753
▁görüntüler	-7754
▁problemler	-7755
▁arkasındaki	-7756
▁başkalarının	-7757
▁bulunduğumuz	-7758
ona	-7759
ony	-7760
yol	-7761
əkt	-7762
▁Sm	-7763
ediy	-7764
irin	-7765
ozom	-7766
▁Con	-7767
▁Pan	-7768
▁Sch	-7769
▁amp	-7770
▁məh	-7771
işsel	-7772
umdan	-7773
▁Dedi	-7774
▁Doğr	-7775
kestra	-7776
lərini	-7777
▁Bende	-7778
▁denir	-7779
▁doğan	-7780
▁hərək	-7781
▁pasif	-7782
▁terim	-7783
▁yanlı	-7784
▁çelik	-7785
▁ailesi	-7786
▁derken	-7787
▁keskin	-7788
▁okumak	-7789
▁uyumlu	-7790
▁ülkeye	-7791
larsanız	-7792
▁anlattı	-7793
▁beklent	-7794
▁insanoğ	-7795
▁kaldıra	-7796
▁konular	-7797
▁yumuşak	-7798
mayacağım	-7799
▁değildim	-7800
▁etkisini	-7801
▁kızların	-7802
▁oluyoruz	-7803
▁yapamaya	-7804
▁başlangıc	-7805
▁duyuyorum	-7806
▁dışındaki	-7807
▁göreceğiz	-7808
▁gösterdiği	-7809
▁hikayeleri	-7810
▁yaparsınız	-7811
▁heyecanlandır	-7812
▁edebileceğiniz	-7813
məyə	-7814
yatı	-7815
▁Tes	-7816
▁neş	-7817
▁sön	-7818
▁vol	-7819
ayıcı	-7820
ektif	-7821
iğini	-7822
ırsak	-7823
▁Bank	-7824
▁Port	-7825
▁Yara	-7826
▁ilac	-7827
▁inek	-7828
▁yurt	-7829
▁ömür	-7830
anları	-7831
leşmiş	-7832
▁Yeşil	-7833
▁atmak	-7834
▁eseri	-7835
▁etmez	-7836
▁riski	-7837
▁veric	-7838
▁çoklu	-7839
▁itiraf	-7840
▁koydum	-7841
▁Pasifik	-7842
▁detaylı	-7843
▁nüfusun	-7844
▁toplumu	-7845
▁çoğumuz	-7846
▁derinlik	-7847
▁geleceğe	-7848
▁gelmiyor	-7849
▁insandan	-7850
ebiliyoruz	-7851
▁birisinin	-7852
▁istediler	-7853
▁kitapları	-7854
▁nüfusunun	-7855
▁şekilleri	-7856
▁Devletleri	-7857
▁elektrikli	-7858
▁hücrelerin	-7859
▁yaparsanız	-7860
▁diyebiliriz	-7861
▁söylüyorlar	-7862
ott	-7863
▁32	-7864
▁Po	-7865
▁if	-7866
▁öb	-7867
bası	-7868
gren	-7869
mert	-7870
▁250	-7871
▁Fin	-7872
▁Keş	-7873
▁Mak	-7874
▁cil	-7875
▁evi	-7876
▁mit	-7877
▁mıs	-7878
▁pul	-7879
▁the	-7880
meyiz	-7881
ömert	-7882
▁avcı	-7883
▁açıp	-7884
▁haqq	-7885
▁pros	-7886
iyatro	-7887
luğunu	-7888
▁Gelen	-7889
▁arttı	-7890
▁duyur	-7891
▁gizem	-7892
▁gözle	-7893
▁maraq	-7894
▁resme	-7895
▁utanç	-7896
mesiyle	-7897
▁baylar	-7898
▁güncel	-7899
▁hâline	-7900
▁koyduk	-7901
▁müziği	-7902
▁oluruz	-7903
lanmıştı	-7904
▁gizemli	-7905
▁keşfede	-7906
▁oynamak	-7907
▁sahneye	-7908
▁çamaşır	-7909
▁çözmeye	-7910
▁üretimi	-7911
▁astronom	-7912
▁beyninin	-7913
▁deneyler	-7914
▁hükümeti	-7915
▁kitaplar	-7916
▁başladığı	-7917
▁getirdiği	-7918
▁görüntüsü	-7919
▁istəyirəm	-7920
▁Yaptığımız	-7921
▁gösterilen	-7922
▁olmasından	-7923
▁arkadaşları	-7924
▁endüstriyel	-7925
▁uzunluğunda	-7926
▁görebiliyoruz	-7927
ky	-7928
zı	-7929
ern	-7930
sah	-7931
▁Ni	-7932
▁Si	-7933
▁Vi	-7934
▁Çö	-7935
arya	-7936
liam	-7937
▁Ant	-7938
▁rej	-7939
▁tün	-7940
enizi	-7941
veren	-7942
▁atış	-7943
▁göka	-7944
▁obez	-7945
▁orda	-7946
▁şura	-7947
eliğin	-7948
▁Kitap	-7949
▁açmak	-7950
▁bulup	-7951
▁devre	-7952
▁doğur	-7953
▁eksen	-7954
▁enstr	-7955
▁gücün	-7956
▁həyat	-7957
▁kapak	-7958
▁konse	-7959
▁memel	-7960
▁miras	-7961
▁okulu	-7962
▁çeker	-7963
▁gitmiş	-7964
▁kasaba	-7965
▁çözümü	-7966
eceğimiz	-7967
ınızdaki	-7968
▁babamın	-7969
▁etmiyor	-7970
▁örümcek	-7971
▁Filistin	-7972
▁başardık	-7973
▁edeceğiz	-7974
▁oyunları	-7975
▁piyasaya	-7976
▁tanesini	-7977
▁ettiğiniz	-7978
▁medeniyet	-7979
▁noktaları	-7980
▁problemin	-7981
▁tanımlama	-7982
▁edebiliyor	-7983
▁hastalığın	-7984
▁istersiniz	-7985
▁sanmıyorum	-7986
▁sivrisinek	-7987
▁yaşıyorlar	-7988
▁beklenmedik	-7989
▁gerçekleşti	-7990
▁yapabiliyor	-7991
▁değiştirecek	-7992
▁değiştiriyor	-7993
▁söyleyeceğim	-7994
▁gerçekleşiyor	-7995
ira	-7996
mis	-7997
opa	-7998
rid	-7999
▁36	-8000
▁MS	-8001
▁Ür	-8002
▁ət	-8003
Tube	-8004
mamı	-8005
ment	-8006
▁Ola	-8007
▁fıs	-8008
▁hit	-8009
▁sam	-8010
▁sef	-8011
liklə	-8012
▁kaza	-8013
▁krom	-8014
▁sadə	-8015
▁önde	-8016
epyeni	-8017
ografi	-8018
ıldığı	-8019
▁Ancaq	-8020
▁Organ	-8021
▁Peter	-8022
▁aslan	-8023
▁disip	-8024
▁gövde	-8025
▁imkân	-8026
▁kader	-8027
▁posta	-8028
▁teori	-8029
▁yatan	-8030
▁yaşın	-8031
▁İster	-8032
▁amaçlı	-8033
▁derler	-8034
▁dönmek	-8035
▁meşhur	-8036
▁Birliği	-8037
▁Telefon	-8038
▁YouTube	-8039
▁bölgesi	-8040
▁demişti	-8041
▁işletme	-8042
▁odadaki	-8043
▁videoyu	-8044
▁çekildi	-8045
▁açıkçası	-8046
▁derinden	-8047
▁fazladan	-8048
▁ilişkili	-8049
▁orijinal	-8050
▁planlama	-8051
▁yapısını	-8052
mayacağını	-8053
▁buradayım	-8054
▁hayatımda	-8055
▁internete	-8056
▁radyasyon	-8057
▁biliyorlar	-8058
▁istediğimi	-8059
▁yapılabilir	-8060
▁öğretmenler	-8061
▁yapıyorsunuz	-8062
▁bulabilirsiniz	-8063
▁yapabileceğimiz	-8064
ua	-8065
ilə	-8066
mes	-8067
▁Yo	-8068
▁ax	-8069
▁sü	-8070
lərə	-8071
stir	-8072
▁Gal	-8073
▁Gre	-8074
▁Hız	-8075
▁fig	-8076
▁qər	-8077
▁süz	-8078
eliği	-8079
mayız	-8080
▁Akıl	-8081
▁Alan	-8082
▁golf	-8083
▁şaka	-8084
ilecek	-8085
▁Bakan	-8086
▁Hangi	-8087
▁adeta	-8088
▁dalış	-8089
▁kilis	-8090
▁cömert	-8091
▁dehşet	-8092
▁protez	-8093
▁uzmanı	-8094
larınıza	-8095
▁Hareket	-8096
▁bileşen	-8097
▁bulabil	-8098
▁insanla	-8099
▁izleyen	-8100
▁işlerin	-8101
▁kapital	-8102
▁çıkarıp	-8103
▁önemsiz	-8104
▁bölgeler	-8105
▁dolardan	-8106
▁insansız	-8107
▁oturuyor	-8108
▁protesto	-8109
▁sıkıştır	-8110
▁verdiğim	-8111
▁yaşamaya	-8112
▁şiddetli	-8113
▁Hepimizin	-8114
▁noktasına	-8115
▁olacağına	-8116
▁versiyonu	-8117
▁çalışacak	-8118
▁olabiliyor	-8119
▁tasarlamak	-8120
▁etrafındaki	-8121
▁sağlayabilir	-8122
gr	-8123
ze	-8124
▁1,	-8125
▁fi	-8126
akip	-8127
erji	-8128
ikip	-8129
lisi	-8130
▁Düz	-8131
▁Fre	-8132
▁Kab	-8133
▁Mot	-8134
▁bez	-8135
▁kâr	-8136
▁öfk	-8137
ümüze	-8138
▁2005	-8139
▁Mark	-8140
▁boru	-8141
▁eyni	-8142
▁sini	-8143
▁sizə	-8144
▁suda	-8145
▁Ölüm	-8146
▁özen	-8147
▁Doğal	-8148
▁Yunan	-8149
▁dersi	-8150
▁dilim	-8151
▁dolay	-8152
▁doğdu	-8153
▁dönen	-8154
▁kurgu	-8155
▁milli	-8156
▁resif	-8157
▁temin	-8158
▁uydur	-8159
▁verip	-8160
▁çekip	-8161
eliğine	-8162
▁Eminim	-8163
▁bekler	-8164
▁biçimi	-8165
▁deneyi	-8166
▁düştüğ	-8167
▁empati	-8168
▁kalkın	-8169
▁online	-8170
▁bıraktı	-8171
▁ekipman	-8172
▁işliyor	-8173
▁alanlara	-8174
▁dünyadan	-8175
▁kompleks	-8176
▁liderler	-8177
▁yarattık	-8178
▁özgürlüğ	-8179
▁enerjinin	-8180
▁kullandım	-8181
▁modelleri	-8182
▁bakteriler	-8183
▁kaybediyor	-8184
▁yapacağını	-8185
▁hastalıklar	-8186
▁yapıldığını	-8187
▁araştırmalar	-8188
layabilirsiniz	-8189
zu	-8190
fik	-8191
hai	-8192
une	-8193
▁DH	-8194
▁ox	-8195
atır	-8196
lımı	-8197
▁Bon	-8198
▁Mus	-8199
▁deg	-8200
▁dib	-8201
▁tey	-8202
▁yed	-8203
▁ölk	-8204
▁özü	-8205
▁şun	-8206
luyor	-8207
▁anki	-8208
▁fizi	-8209
▁içgü	-8210
▁olar	-8211
▁onda	-8212
▁stat	-8213
▁özür	-8214
eğinin	-8215
ydılar	-8216
▁Burda	-8217
▁Henüz	-8218
▁aklım	-8219
▁dağıt	-8220
▁derdi	-8221
▁duyar	-8222
▁geril	-8223
▁kaybı	-8224
▁sıtma	-8225
▁çoğal	-8226
▁İklim	-8227
▁ətraf	-8228
irseniz	-8229
▁benlik	-8230
▁edirəm	-8231
▁yazmak	-8232
▁Dünyayı	-8233
▁aramaya	-8234
▁binalar	-8235
▁bölgeye	-8236
▁düşünül	-8237
▁kitabın	-8238
▁mısınız	-8239
▁sihirli	-8240
▁yatıyor	-8241
▁elektron	-8242
▁gerçekçi	-8243
▁çalıştığ	-8244
▁çılgınca	-8245
▁anlayabil	-8246
▁balıkları	-8247
▁mikroskop	-8248
▁böylelikle	-8249
▁düşünmemiz	-8250
▁geleceğini	-8251
▁noktasında	-8252
▁psikolojik	-8253
▁fotoğraflar	-8254
üye	-8255
▁Ab	-8256
▁Ac	-8257
alim	-8258
azor	-8259
dıma	-8260
eten	-8261
kala	-8262
opik	-8263
usta	-8264
əndə	-8265
ərək	-8266
▁Gaz	-8267
▁Lin	-8268
▁Nob	-8269
▁Sam	-8270
▁Sar	-8271
▁Sat	-8272
▁Tor	-8273
▁ası	-8274
▁fer	-8275
▁içe	-8276
▁mav	-8277
▁çam	-8278
▁şap	-8279
düğüm	-8280
emize	-8281
saire	-8282
umuza	-8283
əktəb	-8284
▁1950	-8285
▁Ocak	-8286
▁Roma	-8287
▁gemi	-8288
▁inov	-8289
▁oğlu	-8290
▁uzer	-8291
▁ışın	-8292
mışlar	-8293
▁Fizik	-8294
▁Hatır	-8295
▁Hedef	-8296
▁Latin	-8297
▁ayırt	-8298
▁cümle	-8299
▁doğuş	-8300
▁gitme	-8301
▁maddi	-8302
▁otizm	-8303
▁tatil	-8304
▁tavan	-8305
▁tuval	-8306
▁ultra	-8307
▁yolun	-8308
dilerde	-8309
eminist	-8310
lanarak	-8311
lığımız	-8312
▁havalı	-8313
▁işleme	-8314
▁kazanç	-8315
▁makina	-8316
▁reddet	-8317
▁sanatı	-8318
▁türler	-8319
▁aşağıda	-8320
▁durdura	-8321
▁gelmeye	-8322
▁koyuyor	-8323
▁olmazdı	-8324
▁projeyi	-8325
▁senaryo	-8326
▁sürpriz	-8327
▁vesaire	-8328
▁yayılan	-8329
leştirmek	-8330
▁Birlikte	-8331
▁Gülüşler	-8332
▁Kadınlar	-8333
▁konuşmam	-8334
▁koruyucu	-8335
▁numaralı	-8336
▁yıllarca	-8337
▁çocukluk	-8338
▁ülkeleri	-8339
▁alırsınız	-8340
▁etkiliyor	-8341
▁merkezine	-8342
▁yanındaki	-8343
▁Geçtiğimiz	-8344
▁hizmetleri	-8345
▁kullanışlı	-8346
▁yaşlarında	-8347
▁çözünürlük	-8348
▁ödüllendir	-8349
▁gezegendeki	-8350
▁görünüyordu	-8351
▁bilgisayarın	-8352
▁alabilirsiniz	-8353
AR	-8354
ux	-8355
bah	-8356
bel	-8357
dıq	-8358
əng	-8359
iran	-8360
sten	-8361
üntü	-8362
▁Mim	-8363
▁Sin	-8364
▁işı	-8365
▁tay	-8366
barat	-8367
cımız	-8368
emesi	-8369
irsek	-8370
seler	-8371
ünüzü	-8372
ırdım	-8373
▁Doğa	-8374
▁Kalp	-8375
▁Mate	-8376
▁istə	-8377
▁mülk	-8378
▁üstü	-8379
emeyen	-8380
seydik	-8381
▁Karşı	-8382
▁ayıra	-8383
▁cunku	-8384
▁davam	-8385
▁dönüm	-8386
▁elini	-8387
▁kabuk	-8388
▁meyve	-8389
▁minik	-8390
▁nazik	-8391
▁sınav	-8392
▁şebek	-8393
düğümüz	-8394
ilmemiş	-8395
▁alanın	-8396
▁kısmen	-8397
▁mürekk	-8398
▁nüfusu	-8399
▁reform	-8400
▁santim	-8401
▁tavsiy	-8402
▁ucunda	-8403
▁umursa	-8404
▁ısınma	-8405
emiyorum	-8406
▁Genelde	-8407
▁düşündü	-8408
▁seviyor	-8409
▁tedarik	-8410
▁tehlike	-8411
▁tutuyor	-8412
▁yepyeni	-8413
▁beslenme	-8414
▁kromozom	-8415
▁kuvvetli	-8416
▁mutasyon	-8417
▁oranları	-8418
▁değerleri	-8419
▁doktorlar	-8420
▁etmeliyiz	-8421
▁getirecek	-8422
▁okyanusun	-8423
▁verebilir	-8424
▁düşünürken	-8425
▁antibiyotik	-8426
▁görüntüleri	-8427
▁Amerikalılar	-8428
▁başladığımda	-8429
ate	-8430
ech	-8431
nia	-8432
ray	-8433
▁Je	-8434
▁MR	-8435
feri	-8436
mağa	-8437
süel	-8438
ucak	-8439
▁Güç	-8440
▁Jim	-8441
▁dra	-8442
▁kaş	-8443
▁sıt	-8444
alist	-8445
indan	-8446
mamın	-8447
otekn	-8448
tadır	-8449
treet	-8450
əsini	-8451
▁2004	-8452
▁2011	-8453
▁Baba	-8454
▁Vadi	-8455
▁göze	-8456
▁müte	-8457
▁Anlaş	-8458
▁güver	-8459
▁işten	-8460
▁mısır	-8461
▁parti	-8462
▁uygar	-8463
terneti	-8464
▁Kanser	-8465
▁gördüy	-8466
▁hafıza	-8467
▁ismini	-8468
▁vardım	-8469
▁yapımı	-8470
▁çıktım	-8471
bilirsin	-8472
malarına	-8473
▁anlaşma	-8474
▁bulacak	-8475
▁gençler	-8476
▁verildi	-8477
▁yapılır	-8478
▁yaşadım	-8479
ilerinden	-8480
▁Gerçekte	-8481
▁bağlıdır	-8482
▁kelimeyi	-8483
▁Enstitüsü	-8484
▁edebilmek	-8485
▁girişimci	-8486
▁resimleri	-8487
▁yaptığımı	-8488
▁yaratmaya	-8489
▁bilinmeyen	-8490
▁ekonominin	-8491
ebileceğiniz	-8492
▁bahsediyoruz	-8493
▁ilişkilendir	-8494
▁ulaşılabilir	-8495
.5	-8496
pi	-8497
ont	-8498
▁oz	-8499
doğu	-8500
ille	-8501
▁Bob	-8502
▁Rio	-8503
▁azı	-8504
▁rəq	-8505
amızı	-8506
dilik	-8507
ektro	-8508
ezerv	-8509
leyiş	-8510
▁Mavi	-8511
▁Star	-8512
▁Türk	-8513
▁seri	-8514
▁takı	-8515
▁ödey	-8516
cinsel	-8517
ilerim	-8518
manıza	-8519
uluyor	-8520
▁Fikir	-8521
▁değin	-8522
▁inter	-8523
▁ndeki	-8524
▁nerde	-8525
▁neydi	-8526
▁refer	-8527
▁yarın	-8528
▁yılan	-8529
lamamız	-8530
laşıyor	-8531
miyordu	-8532
əmiyyət	-8533
▁Cumhur	-8534
▁Modern	-8535
▁beklem	-8536
▁girdim	-8537
▁günden	-8538
▁hayali	-8539
▁kötüsü	-8540
▁olacaq	-8541
▁yerdir	-8542
lığından	-8543
olojinin	-8544
▁birliği	-8545
▁entegre	-8546
▁fırtına	-8547
▁istekli	-8548
▁kentsel	-8549
▁yavaşça	-8550
▁çalıyor	-8551
▁ülkeden	-8552
▁Alqışlar	-8553
▁dışarıya	-8554
▁fotograf	-8555
▁inanıyor	-8556
▁kapsamlı	-8557
▁kurumsal	-8558
▁sizlerle	-8559
▁yukarıda	-8560
▁biliyordu	-8561
▁yetenekli	-8562
▁gerektiren	-8563
▁hatırlayın	-8564
▁motivasyon	-8565
▁araştırmaya	-8566
▁destekleyen	-8567
▁olmalısınız	-8568
▁Uluslararası	-8569
▁fotoğrafları	-8570
▁kendiliğinden	-8571
bak	-8572
dus	-8573
rem	-8574
tig	-8575
▁28	-8576
▁Oğ	-8577
▁Ra	-8578
▁Th	-8579
▁kâ	-8580
idor	-8581
sist	-8582
▁195	-8583
▁Chi	-8584
▁Haz	-8585
▁dum	-8586
▁ism	-8587
▁lok	-8588
▁səh	-8589
iliğe	-8590
larız	-8591
lenin	-8592
lərlə	-8593
niyet	-8594
▁Jeff	-8595
▁kolu	-8596
▁sual	-8597
▁tabl	-8598
anızda	-8599
mıştık	-8600
▁Nobel	-8601
▁dikey	-8602
▁finan	-8603
▁geçip	-8604
▁iyice	-8605
▁nəzər	-8606
▁optik	-8607
▁orası	-8608
▁panel	-8609
▁pembe	-8610
▁vurgu	-8611
▁yirmi	-8612
diyorum	-8613
▁almayı	-8614
▁annesi	-8615
▁ekstra	-8616
▁enstit	-8617
▁günler	-8618
▁haberi	-8619
▁hoşlan	-8620
▁oluştu	-8621
▁Sizlere	-8622
▁Sürekli	-8623
▁aptalca	-8624
▁fikrine	-8625
▁gücünün	-8626
▁inanmak	-8627
▁projeye	-8628
▁taşımak	-8629
▁teorisi	-8630
▁önyargı	-8631
▁bozukluk	-8632
▁büyükann	-8633
▁değerler	-8634
▁engeller	-8635
▁kardeşim	-8636
▁modeller	-8637
▁olacağım	-8638
▁otomobil	-8639
▁yaparsak	-8640
▁yollarla	-8641
▁Öğretmen	-8642
▁şimdiden	-8643
dıklarında	-8644
▁düşüncesi	-8645
▁həqiqətən	-8646
▁kurtarmak	-8647
▁baktığımda	-8648
▁gösterecek	-8649
▁oluşturduk	-8650
▁çocuklarını	-8651
▁kullanıyorum	-8652
oj	-8653
tə	-8654
eyf	-8655
oft	-8656
▁BG	-8657
▁Gr	-8658
alel	-8659
irim	-8660
tlar	-8661
▁Bla	-8662
▁CEO	-8663
▁Dep	-8664
▁Sil	-8665
▁Sim	-8666
▁Sok	-8667
▁pal	-8668
▁pap	-8669
▁yos	-8670
▁yoz	-8671
▁çiç	-8672
değer	-8673
dığın	-8674
ikola	-8675
iller	-8676
iydik	-8677
ıldım	-8678
▁Prot	-8679
▁alay	-8680
▁asan	-8681
▁ağız	-8682
▁hızı	-8683
▁ildə	-8684
▁yuva	-8685
ımdaki	-8686
▁Dedim	-8687
▁Derek	-8688
▁Haiti	-8689
▁demək	-8690
▁elbis	-8691
▁hakik	-8692
▁kızım	-8693
▁memur	-8694
▁niçin	-8695
▁yazan	-8696
▁şüphe	-8697
lamalar	-8698
▁Başarı	-8699
▁Britan	-8700
▁Street	-8701
▁açıyor	-8702
▁benzin	-8703
▁esasen	-8704
▁kötüye	-8705
▁seyret	-8706
▁sunmak	-8707
memiştim	-8708
▁Gelenek	-8709
▁büyüyor	-8710
▁gözleri	-8711
▁hastası	-8712
▁iskelet	-8713
▁işareti	-8714
▁sevimli	-8715
▁tüketim	-8716
▁yetecek	-8717
alifornia	-8718
▁adındaki	-8719
▁kabullen	-8720
▁Hollywood	-8721
▁algoritma	-8722
▁bakıyorum	-8723
▁dakikalık	-8724
▁gerekecek	-8725
▁maliyetli	-8726
▁öğrencisi	-8727
leyebiliriz	-8728
leştirilmiş	-8729
▁düşünürsek	-8730
▁edebilecek	-8731
▁jenerasyon	-8732
▁konuşmalar	-8733
▁bilgilendir	-8734
▁geliştirdik	-8735
▁diyebilirsiniz	-8736
ahi	-8737
ben	-8738
gon	-8739
med	-8740
nam	-8741
old	-8742
▁Ox	-8743
amış	-8744
ondu	-8745
ürüz	-8746
▁Cin	-8747
▁pey	-8748
▁pis	-8749
▁sag	-8750
lərdə	-8751
sinde	-8752
stero	-8753
▁ilan	-8754
▁sola	-8755
▁yaya	-8756
hattan	-8757
▁Titan	-8758
▁anket	-8759
▁diyen	-8760
▁enter	-8761
▁evine	-8762
▁liber	-8763
▁metab	-8764
▁metin	-8765
▁yerli	-8766
▁ısrar	-8767
▁Christ	-8768
▁Kültür	-8769
▁Martin	-8770
▁Onunla	-8771
▁başıma	-8772
▁doğada	-8773
▁girmek	-8774
▁mesafe	-8775
▁takımı	-8776
▁temeli	-8777
▁teşkil	-8778
▁tuttuğ	-8779
▁yoksun	-8780
▁yönden	-8781
▁şurada	-8782
lanmamış	-8783
▁Problem	-8784
▁bırakıp	-8785
▁dağıtım	-8786
▁denedim	-8787
▁finanse	-8788
▁gelmesi	-8789
▁gibiler	-8790
▁kararlı	-8791
▁kazanan	-8792
▁kurmaya	-8793
▁tarihte	-8794
▁tümüyle	-8795
elikopter	-8796
▁Muhteşem	-8797
▁kullandı	-8798
▁seçimler	-8799
▁anlıyorum	-8800
▁dayanıyor	-8801
▁döneminde	-8802
▁dünyasına	-8803
▁ediyordum	-8804
▁istiyordu	-8805
▁keşfettim	-8806
▁tekrardan	-8807
▁varlığını	-8808
▁başladığım	-8809
▁gerektirir	-8810
▁insanlarda	-8811
▁çeşitliliği	-8812
▁birbirlerini	-8813
ens	-8814
urn	-8815
ızı	-8816
▁lu	-8817
kanı	-8818
lamı	-8819
▁Gir	-8820
▁Haf	-8821
▁Tay	-8822
▁fiz	-8823
▁iğn	-8824
▁təş	-8825
▁vat	-8826
▁yit	-8827
▁çığ	-8828
▁İşe	-8829
arıma	-8830
istir	-8831
▁Juli	-8832
▁Unut	-8833
▁geom	-8834
▁kuma	-8835
▁solu	-8836
amanın	-8837
ləşdir	-8838
▁Değiş	-8839
▁Yoksa	-8840
▁alkol	-8841
▁denet	-8842
▁halkı	-8843
▁hipot	-8844
▁kaygı	-8845
▁lazer	-8846
▁liste	-8847
▁muciz	-8848
▁odaya	-8849
▁olmaq	-8850
▁önems	-8851
▁üyesi	-8852
ografik	-8853
▁anatom	-8854
▁dokunu	-8855
▁duvara	-8856
▁gözler	-8857
▁hamile	-8858
▁kalite	-8859
▁kuşlar	-8860
▁lezzet	-8861
▁sözlük	-8862
▁varken	-8863
▁ülkeyi	-8864
▁ağaçlar	-8865
▁değişir	-8866
▁etmeden	-8867
▁kavramı	-8868
▁konuyla	-8869
▁meraklı	-8870
▁sekilde	-8871
▁soruyor	-8872
▁altından	-8873
▁buldular	-8874
▁bulundur	-8875
▁herşeyin	-8876
▁kurumlar	-8877
▁kusursuz	-8878
▁kırılgan	-8879
▁sayısını	-8880
▁seviyesi	-8881
▁tüketici	-8882
▁yapmadan	-8883
▁çekilmiş	-8884
▁geliyoruz	-8885
▁ilerliyor	-8886
▁olanların	-8887
▁yaratacak	-8888
▁internetin	-8889
▁konuşmanın	-8890
▁uygulamaya	-8891
▁şehirlerde	-8892
▁bilgisayara	-8893
▁görebiliyor	-8894
▁bakıyorsunuz	-8895
▁öğrencilerin	-8896
▁olabildiğince	-8897
BI	-8898
ff	-8899
fı	-8900
vab	-8901
▁26	-8902
▁PM	-8903
anti	-8904
batı	-8905
deti	-8906
eşit	-8907
ilar	-8908
olon	-8909
ümüş	-8910
▁Alt	-8911
▁Ana	-8912
▁Bek	-8913
▁Fak	-8914
▁Hav	-8915
▁Vak	-8916
▁War	-8917
▁dır	-8918
▁fit	-8919
▁müd	-8920
▁nan	-8921
▁zıt	-8922
mamak	-8923
▁Yazı	-8924
▁burn	-8925
▁meme	-8926
▁omuz	-8927
▁terc	-8928
▁Özel	-8929
▁əsas	-8930
▁Devam	-8931
▁aşkın	-8932
▁desen	-8933
▁diyet	-8934
▁düşer	-8935
▁figür	-8936
▁hayli	-8937
▁mıydı	-8938
▁oğlan	-8939
▁rengi	-8940
▁riske	-8941
▁uzağa	-8942
▁Uganda	-8943
▁adapte	-8944
▁aynısı	-8945
▁gazete	-8946
▁hacker	-8947
▁hediye	-8948
▁inanın	-8949
▁koruya	-8950
▁olayın	-8951
▁savaşa	-8952
▁yüzeye	-8953
▁ışığın	-8954
liğinden	-8955
▁Kırmızı	-8956
▁element	-8957
▁frekans	-8958
▁görünce	-8959
▁götürdü	-8960
▁kalırsa	-8961
▁liberal	-8962
▁tiyatro	-8963
▁varlığı	-8964
▁Üstelik	-8965
▁çıkaran	-8966
▁öğretti	-8967
▁bilişsel	-8968
▁düşündür	-8969
▁getirdim	-8970
▁hücrenin	-8971
▁sayıları	-8972
▁yoğunlaş	-8973
▁üretilen	-8974
▁Manhattan	-8975
▁bittiğini	-8976
▁getirmeye	-8977
▁hissettiğ	-8978
▁yapmasını	-8979
▁yaşayacak	-8980
▁gördüğümde	-8981
▁hatırlıyor	-8982
▁ilgilendir	-8983
▁desteklemek	-8984
▁öğrencileri	-8985
▁diğerlerinin	-8986
▁düşünmüyorum	-8987
▁çocuklarının	-8988
elt	-8989
▁vb	-8990
▁öv	-8991
berg	-8992
bert	-8993
lata	-8994
əsən	-8995
▁Aka	-8996
▁Mor	-8997
▁göl	-8998
▁kov	-8999
▁nis	-9000
▁qey	-9001
▁tim	-9002
irdim	-9003
ostat	-9004
▁Esas	-9005
▁Noel	-9006
▁Yəni	-9007
▁atıl	-9008
▁koyu	-9009
▁topu	-9010
sinler	-9011
▁Hrist	-9012
▁alama	-9013
▁ingil	-9014
▁kaydı	-9015
▁ulduz	-9016
ılmıştı	-9017
ınızdan	-9018
▁Hastan	-9019
▁Robert	-9020
▁aralık	-9021
▁boyutu	-9022
▁mutlak	-9023
▁prensi	-9024
▁sentez	-9025
▁vadeli	-9026
ilmiştir	-9027
▁100.000	-9028
▁anlatan	-9029
▁aşamada	-9030
▁bizlere	-9031
▁dinozor	-9032
▁elektro	-9033
▁eşitsiz	-9034
▁galaksi	-9035
▁hastane	-9036
▁istemiş	-9037
▁koridor	-9038
▁olmasın	-9039
▁oynayan	-9040
▁çevreye	-9041
▁çıktığı	-9042
▁şarkısı	-9043
meyeceğim	-9044
▁Hollanda	-9045
▁alanının	-9046
▁başından	-9047
▁mürekkep	-9048
▁oldugunu	-9049
▁anlatayım	-9050
▁başlarına	-9051
▁dayanarak	-9052
▁hastaneye	-9053
▁incelemek	-9054
▁yapmaktan	-9055
▁kelimesini	-9056
▁kolaylıkla	-9057
▁çocuklarla	-9058
▁dönüştürmek	-9059
▁seviyesinde	-9060
▁tasarımcılar	-9061
▁yenilenebilir	-9062
baz	-9063
bın	-9064
tey	-9065
ısı	-9066
ardo	-9067
cesi	-9068
opya	-9069
sayı	-9070
▁Cas	-9071
▁Cez	-9072
▁Dön	-9073
▁Kra	-9074
▁Met	-9075
▁est	-9076
▁məs	-9077
▁zıp	-9078
dikçe	-9079
tikçe	-9080
ələri	-9081
▁Birç	-9082
▁Ever	-9083
▁Plan	-9084
▁puan	-9085
artman	-9086
esince	-9087
menize	-9088
tırmak	-9089
▁bunda	-9090
▁duyan	-9091
▁dönük	-9092
▁istey	-9093
▁karın	-9094
▁mısın	-9095
▁mıyız	-9096
▁satır	-9097
▁seyre	-9098
▁uzaya	-9099
▁zordu	-9100
▁çubuk	-9101
lamıyor	-9102
likleri	-9103
malıdır	-9104
▁alması	-9105
▁aramak	-9106
▁evinde	-9107
▁gergin	-9108
▁hemşir	-9109
▁kararı	-9110
▁mutfak	-9111
▁üretir	-9112
▁İçinde	-9113
▁alanına	-9114
▁buluyor	-9115
▁büyüdük	-9116
▁dağılım	-9117
▁geçmişe	-9118
▁gidelim	-9119
▁ileride	-9120
▁oluşmuş	-9121
▁resmini	-9122
▁silahlı	-9123
▁sürecin	-9124
▁çıkarak	-9125
▁devletin	-9126
▁haqqında	-9127
▁olayları	-9128
▁seviyeye	-9129
▁tamamını	-9130
▁tarihsel	-9131
▁tedavisi	-9132
biliyorlar	-9133
▁genelinde	-9134
▁California	-9135
▁simülasyon	-9136
▁sistemimiz	-9137
▁potansiyeli	-9138
▁sonuçlarını	-9139
▁başladığımız	-9140
▁düşünüyorlar	-9141
leyebilirsiniz	-9142
aa	-9143
cım	-9144
▁Me	-9145
liye	-9146
olom	-9147
tüel	-9148
▁Hen	-9149
▁Sır	-9150
▁adr	-9151
▁and	-9152
▁ceb	-9153
▁güv	-9154
▁len	-9155
▁çuk	-9156
▁şov	-9157
anlıq	-9158
dilen	-9159
dırma	-9160
gatif	-9161
mızda	-9162
sanın	-9163
▁Asla	-9164
▁doğu	-9165
▁koca	-9166
▁saya	-9167
▁yıla	-9168
▁çala	-9169
▁Yerel	-9170
▁alçak	-9171
▁ağacı	-9172
▁denge	-9173
▁gəlir	-9174
▁hükum	-9175
▁istes	-9176
▁izlen	-9177
▁kulüb	-9178
▁planı	-9179
▁sabır	-9180
▁yaşta	-9181
elenmiş	-9182
▁Profes	-9183
▁Vadisi	-9184
▁akraba	-9185
▁astero	-9186
▁döndük	-9187
▁gökada	-9188
▁hayati	-9189
▁herbir	-9190
▁kaldık	-9191
▁market	-9192
▁taşıyı	-9193
▁boyutta	-9194
▁denemek	-9195
▁kaybede	-9196
▁okumaya	-9197
▁sormaya	-9198
▁vücudun	-9199
▁yanımda	-9200
▁yaramaz	-9201
▁yaşadık	-9202
▁Açıkçası	-9203
▁disiplin	-9204
▁ekolojik	-9205
▁geceleri	-9206
▁gelişimi	-9207
▁kuyruklu	-9208
▁nedenini	-9209
▁orkestra	-9210
▁sebepten	-9211
▁yarısını	-9212
▁değişimin	-9213
▁kaynaklar	-9214
▁olmalıydı	-9215
▁biliyorduk	-9216
▁gidiyorlar	-9217
▁tərəfindən	-9218
▁benzediğini	-9219
▁bölgelerinde	-9220
▁yapabileceğiniz	-9221
ix	-9222
yu	-9223
əx	-9224
▁$	-9225
ata	-9226
dət	-9227
küt	-9228
lev	-9229
ruğ	-9230
▁Fl	-9231
olar	-9232
varı	-9233
▁120	-9234
▁Ark	-9235
▁Don	-9236
▁GSY	-9237
▁Yas	-9238
▁bon	-9239
▁log	-9240
▁məş	-9241
▁Çar	-9242
lekli	-9243
osfer	-9244
▁Kara	-9245
▁inin	-9246
▁rica	-9247
▁uyuş	-9248
▁Əgər	-9249
ağında	-9250
cilere	-9251
lastik	-9252
oterap	-9253
▁Kitab	-9254
▁balin	-9255
▁dunya	-9256
▁eklem	-9257
▁etken	-9258
▁gözet	-9259
▁koydu	-9260
▁olana	-9261
▁sorar	-9262
▁şehre	-9263
izasyon	-9264
leyelim	-9265
parator	-9266
▁artışı	-9267
▁cidden	-9268
▁hesaba	-9269
▁inanan	-9270
▁kadına	-9271
▁macera	-9272
▁mutsuz	-9273
▁ressam	-9274
▁taşına	-9275
▁yazarı	-9276
▁yazıcı	-9277
▁yılına	-9278
larsınız	-9279
▁Sonraki	-9280
▁arabayı	-9281
▁devrimi	-9282
▁duyuyor	-9283
▁emisyon	-9284
▁fenomen	-9285
▁intihar	-9286
▁istisna	-9287
▁içeriği	-9288
▁kısmına	-9289
▁severim	-9290
▁çaresiz	-9291
▁şəkildə	-9292
▁danışman	-9293
▁dramatik	-9294
▁gereksiz	-9295
▁kalmıyor	-9296
▁kaybetti	-9297
▁olanlara	-9298
▁verilere	-9299
▁yapmıyor	-9300
▁yukarıya	-9301
▁yuvarlak	-9302
▁Milletler	-9303
▁bırakıyor	-9304
▁güvenliği	-9305
▁örnekleri	-9306
▁bitkilerin	-9307
▁işletmeler	-9308
▁olmadığına	-9309
▁söyleyeyim	-9310
▁Önümüzdeki	-9311
▁olmayabilir	-9312
▁çalışanları	-9313
▁öğrendiğimiz	-9314
dev	-9315
enk	-9316
nek	-9317
zan	-9318
ayın	-9319
baba	-9320
kırı	-9321
mark	-9322
olan	-9323
ymış	-9324
▁Ali	-9325
▁Dal	-9326
▁Eve	-9327
▁Kil	-9328
▁Kop	-9329
▁Mek	-9330
▁cür	-9331
▁doz	-9332
▁kel	-9333
▁set	-9334
▁yal	-9335
▁Şef	-9336
▁şük	-9337
▁aygı	-9338
▁ayna	-9339
▁ağın	-9340
▁dəfə	-9341
▁işçi	-9342
▁kana	-9343
▁Hasta	-9344
▁Merak	-9345
▁Smith	-9346
▁beton	-9347
▁daire	-9348
▁fikre	-9349
▁gecek	-9350
▁kavuş	-9351
▁koyup	-9352
▁tanık	-9353
▁çətin	-9354
larımda	-9355
▁10,000	-9356
▁Herşey	-9357
▁alındı	-9358
▁grubun	-9359
▁göreme	-9360
▁isters	-9361
▁kalanı	-9362
▁yangın	-9363
▁yapıyı	-9364
▁İtalya	-9365
isindeki	-9366
lamaları	-9367
▁Eskiden	-9368
▁ekranda	-9369
▁götürür	-9370
▁karşıtı	-9371
▁küçücük	-9372
▁oyunlar	-9373
▁umutsuz	-9374
▁yapmalı	-9375
▁yazmaya	-9376
▁yaşanan	-9377
▁zehirli	-9378
▁öyleyse	-9379
lediğimiz	-9380
lerimizle	-9381
▁Herkesin	-9382
▁aynısını	-9383
▁başlayıp	-9384
▁konuştum	-9385
▁sorduğum	-9386
▁strateji	-9387
▁yanından	-9388
▁öğretmek	-9389
▁ekonomisi	-9390
▁esnasında	-9391
▁kaybetmiş	-9392
▁reaksiyon	-9393
▁sağladığı	-9394
▁süresince	-9395
▁yolculuğa	-9396
▁çiftçiler	-9397
▁özgürlüğü	-9398
▁Geleneksel	-9399
▁bakımından	-9400
▁ilişkileri	-9401
▁isimlendir	-9402
▁verdikleri	-9403
▁yapılandır	-9404
▁bazılarının	-9405
▁fotoğrafını	-9406
▁konusundaki	-9407
▁programları	-9408
▁söyleyebilir	-9409
ila	-9410
şiv	-9411
▁BF	-9412
▁Ru	-9413
▁ça	-9414
ling	-9415
masi	-9416
▁Gra	-9417
▁Lis	-9418
▁Med	-9419
▁Sık	-9420
▁bag	-9421
▁ink	-9422
▁sip	-9423
▁şab	-9424
delik	-9425
taydı	-9426
üşvet	-9427
▁2012	-9428
▁Körf	-9429
▁Oysa	-9430
▁mini	-9431
▁nano	-9432
▁Çift	-9433
▁İste	-9434
balığı	-9435
lərdən	-9436
▁Chica	-9437
▁entel	-9438
▁hitap	-9439
▁kurak	-9440
▁kızıl	-9441
▁sanay	-9442
▁ölmüş	-9443
▁Aslına	-9444
▁Yıllar	-9445
▁cennet	-9446
▁doğası	-9447
▁edemez	-9448
▁minnet	-9449
▁motive	-9450
▁tahrip	-9451
▁öylece	-9452
▁ürünün	-9453
▁Gezegen	-9454
▁annemin	-9455
▁birçoğu	-9456
▁duygusu	-9457
▁geçecek	-9458
▁hərəkət	-9459
▁kalmaya	-9460
▁mülteci	-9461
▁negatif	-9462
▁paralel	-9463
▁vermesi	-9464
▁yardıma	-9465
▁yönünde	-9466
▁zinciri	-9467
biliyorum	-9468
▁acımasız	-9469
▁akıllıca	-9470
▁alıyorum	-9471
▁ağaçları	-9472
▁hepimizi	-9473
▁ikincisi	-9474
▁ikisinin	-9475
▁korumaya	-9476
▁meselesi	-9477
▁toplamak	-9478
yacaksınız	-9479
▁Matematik	-9480
▁dikkatini	-9481
▁enteresan	-9482
▁hayatları	-9483
▁inovasyon	-9484
▁seslerini	-9485
▁çıktığını	-9486
▁fotoğrafçı	-9487
▁olasılıkla	-9488
▁verirseniz	-9489
▁şehirlerin	-9490
▁yaratabilir	-9491
▁yıldızların	-9492
▁adlandırılan	-9493
MA	-9494
ny	-9495
pa	-9496
cik	-9497
mey	-9498
ıkn	-9499
▁Ad	-9500
allı	-9501
biya	-9502
graf	-9503
izin	-9504
izmi	-9505
tüyü	-9506
ultu	-9507
ğini	-9508
ənin	-9509
▁Hüc	-9510
▁Mey	-9511
▁Tit	-9512
▁enj	-9513
▁növ	-9514
▁paz	-9515
▁qız	-9516
▁yut	-9517
iksel	-9518
tığın	-9519
▁2006	-9520
▁Işık	-9521
▁abar	-9522
▁alık	-9523
▁asit	-9524
▁bizə	-9525
▁gazı	-9526
▁olgu	-9527
▁rolü	-9528
▁tümü	-9529
▁özüm	-9530
▁əgər	-9531
cılığı	-9532
eceğin	-9533
esiniz	-9534
ıknatı	-9535
▁Alqış	-9536
▁Carol	-9537
▁Pazar	-9538
▁Sahip	-9539
▁durur	-9540
▁giren	-9541
▁koyul	-9542
▁temas	-9543
▁çözül	-9544
liyorum	-9545
çilerin	-9546
ımızdan	-9547
▁arayış	-9548
▁bilmem	-9549
▁dünyan	-9550
▁işlemi	-9551
▁koltuğ	-9552
▁pirinç	-9553
▁sandal	-9554
▁satıcı	-9555
▁sorusu	-9556
▁süresi	-9557
▁yıkıcı	-9558
▁Chicago	-9559
▁William	-9560
▁anladık	-9561
▁bakınca	-9562
▁diyalog	-9563
▁dizüstü	-9564
▁geçirdi	-9565
▁robotik	-9566
▁sigorta	-9567
▁Güvenlik	-9568
▁algılama	-9569
▁anlamsız	-9570
▁belediye	-9571
▁bunlarla	-9572
▁enerjiye	-9573
▁isterdim	-9574
▁işlevsel	-9575
▁kahveren	-9576
▁kaybeder	-9577
▁kelimesi	-9578
▁kişilere	-9579
▁kurtarma	-9580
▁nesneler	-9581
▁ulaşabil	-9582
▁yönetimi	-9583
▁yükseliş	-9584
▁Bakanlığı	-9585
▁istemiyor	-9586
▁olmasıydı	-9587
▁yapıyordu	-9588
▁başlarında	-9589
▁bireylerin	-9590
▁gerçekliği	-9591
▁görünmüyor	-9592
▁değiştiğini	-9593
▁hücrelerini	-9594
▁gerçekleştirmek	-9595
wn	-9596
gah	-9597
ian	-9598
ora	-9599
▁Gu	-9600
▁uf	-9601
▁ur	-9602
amuk	-9603
evin	-9604
iyse	-9605
ojen	-9606
▁Cen	-9607
▁Dis	-9608
▁Eri	-9609
▁Tic	-9610
▁hic	-9611
▁pas	-9612
▁qoy	-9613
▁çey	-9614
▁öğr	-9615
▁Şah	-9616
salar	-9617
çilik	-9618
▁2001	-9619
▁açar	-9620
▁disk	-9621
▁güce	-9622
▁verg	-9623
▁öncü	-9624
ebilme	-9625
▁Haber	-9626
▁Yeter	-9627
▁bizde	-9628
▁içten	-9629
▁kaplı	-9630
▁mağaz	-9631
▁ndaki	-9632
▁piram	-9633
▁sesin	-9634
▁sürüc	-9635
▁tanıt	-9636
▁ödülü	-9637
düğümde	-9638
ikolata	-9639
layalım	-9640
▁atalım	-9641
▁bardak	-9642
▁basınç	-9643
▁beceri	-9644
▁deprem	-9645
▁durmak	-9646
▁elimde	-9647
▁filmin	-9648
▁izleme	-9649
▁kalkıp	-9650
▁məktəb	-9651
▁odanın	-9652
▁patron	-9653
▁virüsü	-9654
▁yüzünü	-9655
▁çember	-9656
▁Okyanus	-9657
▁Silikon	-9658
▁aletler	-9659
▁arasına	-9660
▁boşluğu	-9661
▁denedik	-9662
▁emniyet	-9663
▁gizlice	-9664
▁kişiyle	-9665
▁çalışıp	-9666
layacağız	-9667
tiklerini	-9668
▁Ortalama	-9669
▁aydınlat	-9670
▁cevaplar	-9671
▁etmekten	-9672
▁grupları	-9673
▁kaldılar	-9674
▁maalesef	-9675
▁müzisyen	-9676
▁noktadan	-9677
▁yoğunluk	-9678
▁çıkardık	-9679
▁Beləliklə	-9680
▁ekonomist	-9681
▁göndermek	-9682
▁karaciğer	-9683
▁konularda	-9684
▁verdiğini	-9685
▁eşitsizlik	-9686
▁kullanıldı	-9687
▁sinyalleri	-9688
▁beraberinde	-9689
▁düşünüyordu	-9690
▁kolaylaştır	-9691
▁oluyorsunuz	-9692
▁yapacağımız	-9693
▁zorundaydım	-9694
▁kendilerinin	-9695
▁istediklerini	-9696
xn	-9697
div	-9698
ino	-9699
ung	-9700
şın	-9701
▁Tr	-9702
Amer	-9703
atçı	-9704
list	-9705
lüğe	-9706
okul	-9707
törü	-9708
udur	-9709
▁191	-9710
▁Art	-9711
▁Cid	-9712
▁Mük	-9713
▁ica	-9714
▁kəs	-9715
▁lan	-9716
▁sül	-9717
▁tac	-9718
▁uyu	-9719
digim	-9720
irlər	-9721
lunun	-9722
▁Step	-9723
▁deyə	-9724
▁horm	-9725
▁ikiz	-9726
▁ilki	-9727
▁kaos	-9728
▁məlu	-9729
▁nöro	-9730
▁obje	-9731
▁yetk	-9732
▁Çevr	-9733
▁şair	-9734
ayarak	-9735
diyini	-9736
latıcı	-9737
mektir	-9738
panyol	-9739
ılmaya	-9740
▁Acaba	-9741
▁Yemek	-9742
▁almaz	-9743
▁açlık	-9744
▁buzun	-9745
▁bıçak	-9746
▁cavab	-9747
▁evden	-9748
▁filtr	-9749
▁nesli	-9750
▁silin	-9751
▁sığın	-9752
▁tünel	-9753
▁çöküş	-9754
ational	-9755
eğinden	-9756
▁ilgimi	-9757
▁kadını	-9758
▁kosmos	-9759
▁ortamı	-9760
▁savunu	-9761
▁spektr	-9762
▁tanıya	-9763
▁yapıcı	-9764
▁çıkmaz	-9765
diyseniz	-9766
inizdeki	-9767
▁edemeye	-9768
▁inandır	-9769
▁işleyen	-9770
▁kalmadı	-9771
▁listesi	-9772
▁parçacı	-9773
▁penguen	-9774
▁projede	-9775
▁sayılır	-9776
▁sevdiği	-9777
▁yaratıl	-9778
▁yarayan	-9779
▁şiddeti	-9780
layacağım	-9781
▁Stanford	-9782
▁akademik	-9783
▁aktivist	-9784
▁aldığını	-9785
▁azaltmak	-9786
▁bağlamda	-9787
▁deneysel	-9788
▁değerini	-9789
▁değişime	-9790
▁durumunu	-9791
▁istikrar	-9792
▁tarafına	-9793
▁buluyorum	-9794
▁ederseniz	-9795
▁haberleri	-9796
▁hastanede	-9797
▁hayatında	-9798
▁ilgiliydi	-9799
▁mekanizma	-9800
▁milyondan	-9801
▁sanıyorum	-9802
▁sebebiyle	-9803
▁sorunumuz	-9804
▁öncesinde	-9805
▁Genellikle	-9806
▁aşamasında	-9807
▁gerekmiyor	-9808
▁göstermeye	-9809
▁kullanılır	-9810
▁zorundayım	-9811
▁çıktığında	-9812
▁başladığını	-9813
▁başlıyorlar	-9814
▁farkındalık	-9815
▁göreceğiniz	-9816
▁teknolojilerin	-9817
dv	-9818
ök	-9819
had	-9820
tas	-9821
əyi	-9822
▁33	-9823
▁to	-9824
anet	-9825
balı	-9826
onot	-9827
unum	-9828
ımla	-9829
▁Küt	-9830
▁Neh	-9831
▁doy	-9832
▁meg	-9833
▁qor	-9834
▁İsa	-9835
▁Şaş	-9836
acağı	-9837
aklar	-9838
imdir	-9839
oskop	-9840
tiğin	-9841
ıldız	-9842
▁2003	-9843
▁Ford	-9844
▁atan	-9845
▁hile	-9846
▁imaj	-9847
▁nəti	-9848
▁onar	-9849
▁ödün	-9850
lediği	-9851
lerime	-9852
▁Evrim	-9853
▁andan	-9854
▁buhar	-9855
▁doldu	-9856
▁hızda	-9857
▁mezar	-9858
▁odası	-9859
▁rekor	-9860
▁sömür	-9861
▁İsviç	-9862
acağını	-9863
▁bencil	-9864
▁dolusu	-9865
▁doğmuş	-9866
▁iyiydi	-9867
▁kastet	-9868
▁mekani	-9869
▁seçimi	-9870
▁tropik	-9871
▁çevrel	-9872
▁şaşırt	-9873
bilirsek	-9874
ildiğini	-9875
mışlardı	-9876
▁Araştır	-9877
▁Krallık	-9878
▁ailenin	-9879
▁bekleme	-9880
▁bilinir	-9881
▁dinazor	-9882
▁diyecek	-9883
▁eşitlik	-9884
▁garanti	-9885
▁güçleri	-9886
▁paradig	-9887
▁savunma	-9888
▁tanıyor	-9889
▁tutarlı	-9890
▁tutkulu	-9891
▁yayıldı	-9892
▁yazıyor	-9893
▁aileleri	-9894
▁aktivite	-9895
▁anlattım	-9896
▁azalıyor	-9897
▁geçerken	-9898
▁restoran	-9899
▁söyleyin	-9900
▁yapmakta	-9901
▁ülkelere	-9902
▁şekiller	-9903
▁şüphesiz	-9904
▁bölgeleri	-9905
▁davranışı	-9906
▁enstrüman	-9907
▁gecekondu	-9908
▁haklarını	-9909
▁ilaçların	-9910
▁tasarımın	-9911
▁yakalamak	-9912
▁gezegenler	-9913
▁helikopter	-9914
▁yardımıyla	-9915
▁yerlerinde	-9916
▁İnanıyorum	-9917
▁davranışsal	-9918
▁çalışacağım	-9919
▁karşılığında	-9920
▁diğerlerinden	-9921
▁laboratuvarda	-9922
▁Amerikalıların	-9923
ego	-9924
ght	-9925
ibə	-9926
oth	-9927
ras	-9928
ərh	-9929
▁95	-9930
▁Ga	-9931
▁Hə	-9932
▁Mi	-9933
▁ST	-9934
iyon	-9935
uyan	-9936
üsus	-9937
ətta	-9938
▁700	-9939
▁Bat	-9940
▁Dah	-9941
▁May	-9942
▁Wat	-9943
▁küp	-9944
▁tuş	-9945
larin	-9946
lenir	-9947
▁Bölg	-9948
▁Wall	-9949
▁eşim	-9950
▁iğne	-9951
▁klav	-9952
▁müəl	-9953
▁once	-9954
▁öbür	-9955
▁ölür	-9956
▁Scott	-9957
▁bitiş	-9958
▁ergen	-9959
▁gidin	-9960
▁gözəl	-9961
▁hiper	-9962
▁kartı	-9963
▁kaçak	-9964
▁kirli	-9965
▁paraz	-9966
▁telif	-9967
▁tutum	-9968
▁vakti	-9969
▁vasit	-9970
▁zarif	-9971
▁ölümü	-9972
▁üreme	-9973
ileştir	-9974
▁Antark	-9975
▁Yardım	-9976
▁ağları	-9977
▁denize	-9978
▁doları	-9979
▁etkile	-9980
▁favori	-9981
▁uzayda	-9982
▁alırken	-9983
▁gittiği	-9984
▁görünüm	-9985
▁harcama	-9986
▁konsept	-9987
▁parçayı	-9988
▁uğraşan	-9989
▁çevreyi	-9990
▁ölçekli	-9991
▁Başlangı	-9992
▁bağlayan	-9993
▁bölümünü	-9994
▁durumuna	-9995
▁eğitimli	-9996
▁eşcinsel	-9997
▁kalitesi	-9998
▁sentetik	-9999
▁söylemem	-10000
▁yakınlaş	-10001
▁bölümünde	-10002
▁dönüşüyor	-10003
▁miktarını	-10004
▁tamamiyle	-10005
▁çevrimiçi	-10006
▁haritasını	-10007
▁bazılarınız	-10008
▁başlangıçta	-10009
▁beklentiler	-10010
▁görüntüleme	-10011
▁karşılaştım	-10012
▁olacaksınız	-10013
▁çalışmasını	-10014
ebileceğimizi	-10015
▁farklılıklar	-10016
▁gezegenlerin	-10017
▁yapabilirler	-10018
▁üniversiteye	-10019
▁hastalıkların	-10020
▁kullandıkları	-10021
▁başlayabiliriz	-10022
▁fotoğraflarını	-10023
hel	-10024
lkə	-10025
yət	-10026
▁Pe	-10027
▁RB	-10028
disi	-10029
dört	-10030
rian	-10031
tral	-10032
ırın	-10033
▁Big	-10034
▁güt	-10035
▁imz	-10036
▁kül	-10037
▁sta	-10038
▁uğr	-10039
▁çür	-10040
▁ört	-10041
▁İla	-10042
əkkür	-10043
▁Camb	-10044
▁King	-10045
▁tela	-10046
▁üste	-10047
işleri	-10048
rosoft	-10049
▁Sabah	-10050
▁Yavaş	-10051
▁ağlar	-10052
▁durak	-10053
▁fırla	-10054
▁işgal	-10055
▁kayak	-10056
▁kurdu	-10057
▁maddə	-10058
▁portr	-10059
▁qalak	-10060
▁saati	-10061
▁sesli	-10062
▁sonda	-10063
▁şerit	-10064
bilmesi	-10065
mıyordu	-10066
▁Kullan	-10067
▁aykırı	-10068
▁gereği	-10069
▁gözlük	-10070
▁içgüdü	-10071
▁kombin	-10072
▁kurdum	-10073
▁olalım	-10074
▁resmin	-10075
▁tabaka	-10076
▁verilm	-10077
▁ölecek	-10078
ıldığını	-10079
▁balıkçı	-10080
▁basamak	-10081
▁ciddiye	-10082
▁devreye	-10083
▁dizilim	-10084
▁geçiren	-10085
▁hikayem	-10086
▁işçiler	-10087
▁kalıntı	-10088
▁kısıtlı	-10089
▁sokakta	-10090
▁çağında	-10091
▁çıkmaya	-10092
▁öldürül	-10093
▁əslində	-10094
madığımız	-10095
▁Britanya	-10096
▁bulunmak	-10097
▁fikrimiz	-10098
▁ilişkisi	-10099
▁kendiniz	-10100
▁peşinden	-10101
▁türlerin	-10102
▁Üzerinde	-10103
▁şehrinde	-10104
▁şirketin	-10105
lamazsınız	-10106
▁beyindeki	-10107
▁düzenleme	-10108
▁farklıdır	-10109
▁geçiriyor	-10110
▁olmasaydı	-10111
▁sessizlik	-10112
▁verilerin	-10113
▁yerlerden	-10114
▁büyüklükte	-10115
▁uzaklaştır	-10116
▁gerektiriyor	-10117
by	-10118
chi	-10119
ida	-10120
ink	-10121
luq	-10122
sis	-10123
yaz	-10124
▁AM	-10125
▁Eh	-10126
▁Ex	-10127
▁Na	-10128
▁Of	-10129
▁Üz	-10130
▁öd	-10131
▁İr	-10132
▁Şi	-10133
dola	-10134
iden	-10135
ikan	-10136
jant	-10137
seyi	-10138
tara	-10139
ırıq	-10140
▁Can	-10141
▁Dağ	-10142
▁Mel	-10143
▁Tab	-10144
▁bən	-10145
▁fok	-10146
▁ikl	-10147
▁köt	-10148
▁maç	-10149
▁zaf	-10150
ğımız	-10151
ısına	-10152
▁Ekim	-10153
▁Hawa	-10154
▁Leon	-10155
▁Tali	-10156
▁Viet	-10157
▁alar	-10158
▁azın	-10159
▁cüml	-10160
▁ihra	-10161
▁ikil	-10162
▁okum	-10163
▁sans	-10164
▁əlaq	-10165
caktır	-10166
ceğimi	-10167
duğumu	-10168
üyorum	-10169
▁Brook	-10170
▁Flori	-10171
▁Kongo	-10172
▁Lider	-10173
▁adama	-10174
▁anten	-10175
▁giyin	-10176
▁hansı	-10177
▁işine	-10178
▁paraş	-10179
▁pound	-10180
▁qadın	-10181
▁soğut	-10182
▁sudan	-10183
▁yankı	-10184
▁yitir	-10185
▁çanta	-10186
lemenin	-10187
madılar	-10188
mamızın	-10189
▁Benzer	-10190
▁Oxford	-10191
▁Suriye	-10192
▁benliğ	-10193
▁dilini	-10194
▁donmuş	-10195
▁geçtim	-10196
▁iyilik	-10197
▁kızgın	-10198
▁süreli	-10199
▁tanımı	-10200
▁yapıya	-10201
▁çektim	-10202
ceğimizi	-10203
▁Haziran	-10204
▁Program	-10205
▁ağırlık	-10206
▁bebeğin	-10207
▁cinayet	-10208
▁eğitime	-10209
▁getirip	-10210
▁muhafaz	-10211
▁müziğin	-10212
▁peşinde	-10213
▁robotun	-10214
▁salınım	-10215
▁sizleri	-10216
▁önemini	-10217
▁İtalyan	-10218
eceğimizi	-10219
▁Atlantik	-10220
▁Ekonomik	-10221
▁bebekler	-10222
▁bölgenin	-10223
▁büyümeye	-10224
▁bıraktım	-10225
▁gezegeni	-10226
▁referans	-10227
▁yapıları	-10228
▁üretiyor	-10229
▁şiddetin	-10230
▁alanların	-10231
▁anlıyoruz	-10232
▁hastalığa	-10233
▁olasılığı	-10234
▁Antarktika	-10235
▁duyduğunuz	-10236
▁politikacı	-10237
▁tanımlamak	-10238
▁özellikler	-10239
▁istemiyoruz	-10240
▁parçalarını	-10241
▁telefonları	-10242
▁yaşındaydım	-10243
▁geliştirmeye	-10244
▁konuştuğumuz	-10245
▁davranışlarını	-10246
ji	-10247
ğü	-10248
dok	-10249
orp	-10250
veç	-10251
ıza	-10252
▁Sn	-10253
▁oh	-10254
▁əh	-10255
agos	-10256
bola	-10257
laka	-10258
opat	-10259
▁Yağ	-10260
▁sün	-10261
▁ucu	-10262
▁yuk	-10263
▁çif	-10264
atura	-10265
halde	-10266
inson	-10267
izmin	-10268
işimi	-10269
ridge	-10270
tular	-10271
üsünü	-10272
▁Bush	-10273
▁Matt	-10274
▁Niye	-10275
▁Saat	-10276
▁ayni	-10277
▁bira	-10278
▁bəzi	-10279
▁ihla	-10280
▁məni	-10281
▁sağa	-10282
▁çant	-10283
▁ödev	-10284
esifik	-10285
maması	-10286
▁Afgan	-10287
▁Bilgi	-10288
▁Hazır	-10289
▁Mənim	-10290
▁Orman	-10291
▁adımı	-10292
▁anlık	-10293
▁derim	-10294
▁favor	-10295
▁haric	-10296
▁inkar	-10297
▁kaste	-10298
▁kavga	-10299
▁küçüm	-10300
▁mizah	-10301
▁roket	-10302
▁siber	-10303
▁sipar	-10304
▁ölüme	-10305
eceğine	-10306
memizin	-10307
▁Kendis	-10308
▁Newton	-10309
▁Petrol	-10310
▁Yanlış	-10311
▁Yukarı	-10312
▁acayip	-10313
▁içində	-10314
▁içiniz	-10315
▁korsan	-10316
▁onemli	-10317
▁rüşvet	-10318
▁yüzeyi	-10319
lamasını	-10320
liyorlar	-10321
lığımızı	-10322
▁Florida	-10323
▁Gülüşme	-10324
▁Vietnam	-10325
▁alınmış	-10326
▁başlıca	-10327
▁birimiz	-10328
▁birşeyi	-10329
▁dağınık	-10330
▁geçmişi	-10331
▁istemem	-10332
▁mıknatı	-10333
▁sınıfta	-10334
▁yazdığı	-10335
▁öncülük	-10336
▁İspanya	-10337
istematik	-10338
larınızla	-10339
▁Mükemmel	-10340
▁alkışlar	-10341
▁ayrılmış	-10342
▁bayanlar	-10343
▁feminist	-10344
▁gereksin	-10345
▁hakkinda	-10346
▁ilaçları	-10347
▁kaldırın	-10348
▁metrelik	-10349
▁çizgiler	-10350
▁ışıkları	-10351
▁anlamında	-10352
▁ağaçların	-10353
▁defalarca	-10354
▁düşündüğü	-10355
▁Bilmiyorum	-10356
▁kahverengi	-10357
▁kelimeleri	-10358
▁Öğrenciler	-10359
▁başladığında	-10360
▁değiştirerek	-10361
▁hatırlatıyor	-10362
▁görebiliyorum	-10363
gn	-10364
mo	-10365
alk	-10366
bra	-10367
car	-10368
isy	-10369
ova	-10370
rap	-10371
sül	-10372
üel	-10373
ünə	-10374
▁LG	-10375
▁ho	-10376
▁öp	-10377
▁şe	-10378
ozof	-10379
▁FBI	-10380
▁For	-10381
▁Gan	-10382
▁Net	-10383
▁Sov	-10384
▁Tez	-10385
▁hiz	-10386
▁yon	-10387
▁çen	-10388
aliba	-10389
▁Hâlâ	-10390
▁Iste	-10391
▁Olay	-10392
▁akla	-10393
▁alem	-10394
▁kova	-10395
▁texn	-10396
▁təbi	-10397
▁öfke	-10398
larlar	-10399
▁Balık	-10400
▁Belli	-10401
▁Makin	-10402
▁Siyah	-10403
▁artıq	-10404
▁asılı	-10405
▁atlet	-10406
▁eline	-10407
▁hediy	-10408
▁isyan	-10409
▁klini	-10410
▁metod	-10411
▁meyil	-10412
▁ogren	-10413
▁soyle	-10414
▁Örnek	-10415
diğinin	-10416
liğiyle	-10417
▁Arjant	-10418
▁Enerji	-10419
▁Kongre	-10420
▁Sizden	-10421
▁altyap	-10422
▁havayı	-10423
▁kandır	-10424
▁kanıtı	-10425
▁riskli	-10426
▁simetr	-10427
▁tabiki	-10428
▁zekice	-10429
binlerce	-10430
▁Bunlara	-10431
▁Dijital	-10432
▁canavar	-10433
▁elinizi	-10434
▁erişimi	-10435
▁gitgide	-10436
▁güneşin	-10437
▁konunun	-10438
▁kumanda	-10439
▁milyard	-10440
▁nadiren	-10441
▁olsalar	-10442
▁sayısal	-10443
▁ulaştık	-10444
▁çabucak	-10445
▁arkasına	-10446
▁bakarken	-10447
▁canlılar	-10448
▁edildiği	-10449
▁ilgisini	-10450
▁koşullar	-10451
▁kurulmuş	-10452
▁maddenin	-10453
▁mikrofon	-10454
▁mutluyum	-10455
▁yerleşim	-10456
▁yükselen	-10457
▁yürürken	-10458
▁çocukluğ	-10459
▁Microsoft	-10460
▁başlattık	-10461
▁büyüklüğü	-10462
▁gidebilir	-10463
▁hakikaten	-10464
▁hiçbirşey	-10465
▁olayların	-10466
▁oluşturdu	-10467
▁önemliydi	-10468
▁başlamadan	-10469
▁etkilerini	-10470
▁interaktif	-10471
▁olmalarını	-10472
▁popülasyon	-10473
▁sorunların	-10474
▁yapıyordum	-10475
▁alıyorsunuz	-10476
▁bilmiyorduk	-10477
▁birilerinin	-10478
▁fikirlerini	-10479
▁oluşturduğu	-10480
▁hikayelerini	-10481
▁organizmalar	-10482
▁kaynaklanıyor	-10483
▁başladığımızda	-10484
▁düşünüyorsanız	-10485
▁bilgisayarların	-10486
-2	-10487
çu	-10488
İH	-10489
arş	-10490
bət	-10491
fre	-10492
igh	-10493
ike	-10494
ita	-10495
ləy	-10496
mun	-10497
nen	-10498
sək	-10499
▁Qu	-10500
▁xə	-10501
ansa	-10502
ecik	-10503
ibya	-10504
isan	-10505
izof	-10506
roid	-10507
ıltı	-10508
ələn	-10509
▁800	-10510
▁Diy	-10511
▁Dör	-10512
▁Win	-10513
▁Yaz	-10514
▁ked	-10515
▁lak	-10516
▁lob	-10517
▁yla	-10518
piyat	-10519
sitos	-10520
▁Beat	-10521
▁Buda	-10522
▁Konu	-10523
▁Kula	-10524
▁Olim	-10525
▁Whit	-10526
▁elit	-10527
▁hani	-10528
▁muay	-10529
▁sırf	-10530
▁tepe	-10531
elerce	-10532
▁GSYİH	-10533
▁Wikip	-10534
▁alına	-10535
▁basar	-10536
▁basla	-10537
▁deyim	-10538
▁düğüm	-10539
▁ekibi	-10540
▁evlat	-10541
▁fiber	-10542
▁gruba	-10543
▁görüp	-10544
▁hamil	-10545
▁iyiye	-10546
▁izler	-10547
▁kısal	-10548
▁masum	-10549
▁mühen	-10550
▁olsam	-10551
▁sandv	-10552
▁vasıt	-10553
▁xüsus	-10554
▁çalan	-10555
dığının	-10556
mediler	-10557
▁Yorker	-10558
▁anlatı	-10559
▁büyüdü	-10560
▁düzine	-10561
▁ertesi	-10562
▁fırlat	-10563
▁halini	-10564
▁kabaca	-10565
▁kuralı	-10566
▁person	-10567
▁sitesi	-10568
▁uzanan	-10569
▁vücudu	-10570
▁yaşadı	-10571
▁çiftçi	-10572
acağımız	-10573
ebilmesi	-10574
ilerimiz	-10575
▁Kişisel	-10576
▁Kontrol	-10577
▁alakası	-10578
▁alırlar	-10579
▁biyolog	-10580
▁bizleri	-10581
▁bugünün	-10582
▁estetik	-10583
▁hipotez	-10584
▁inceler	-10585
▁savaşta	-10586
▁varoluş	-10587
▁anlamını	-10588
▁bildirim	-10589
▁bulaşıcı	-10590
▁durumdan	-10591
▁durumlar	-10592
▁duygular	-10593
▁elinizde	-10594
▁faydalan	-10595
▁maddeler	-10596
▁medyanın	-10597
▁olsaydım	-10598
▁sandalye	-10599
▁çekirdek	-10600
▁İspanyol	-10601
landığında	-10602
▁Başlangıç	-10603
▁Wikipedia	-10604
▁bütünüyle	-10605
▁gercekten	-10606
▁ilgilenen	-10607
▁mümkündür	-10608
▁vericiydi	-10609
▁yaşıyorum	-10610
▁yıldızlar	-10611
▁alışkanlık	-10612
▁arkadaşlar	-10613
▁bağlantısı	-10614
▁değilsiniz	-10615
▁düşündüler	-10616
▁endüstrisi	-10617
▁davranışlar	-10618
▁öğrencilere	-10619
▁hastalıklara	-10620
▁teknolojiyle	-10621
des	-10622
low	-10623
oni	-10624
əmə	-10625
▁CD	-10626
▁Ho	-10627
▁Oy	-10628
alır	-10629
işaf	-10630
sler	-10631
ətli	-10632
▁190	-10633
▁Bol	-10634
▁Kay	-10635
▁Yax	-10636
▁Yet	-10637
▁eşi	-10638
▁gev	-10639
▁goz	-10640
▁twe	-10641
▁ufa	-10642
başka	-10643
cağın	-10644
eleme	-10645
eliğe	-10646
jinal	-10647
ledim	-10648
onald	-10649
▁Brun	-10650
▁Etiy	-10651
▁Gore	-10652
▁Sing	-10653
▁Yaşa	-10654
▁dövr	-10655
▁fena	-10656
▁hələ	-10657
▁kası	-10658
▁mali	-10659
▁müsa	-10660
▁peyn	-10661
▁sülf	-10662
▁yaşı	-10663
▁yönü	-10664
▁yüze	-10665
əsində	-10666
▁Arist	-10667
▁Kutbu	-10668
▁Sahra	-10669
▁arşiv	-10670
▁bedel	-10671
▁biten	-10672
▁edebi	-10673
▁evcil	-10674
▁içsel	-10675
▁iğren	-10676
▁krist	-10677
▁kömək	-10678
▁metro	-10679
▁musiq	-10680
▁türün	-10681
▁çokça	-10682
leşiyor	-10683
olojisi	-10684
▁Ruanda	-10685
▁adamla	-10686
▁arıyor	-10687
▁baskın	-10688
▁etməyə	-10689
▁oranla	-10690
▁ulaştı	-10691
▁vardık	-10692
▁yoluna	-10693
▁şablon	-10694
cağından	-10695
lemesine	-10696
▁arabaya	-10697
▁batarya	-10698
▁başardı	-10699
▁beyinde	-10700
▁buzdola	-10701
▁dayanan	-10702
▁doların	-10703
▁enfekte	-10704
▁gözüken	-10705
▁müşteri	-10706
▁nelerin	-10707
▁partner	-10708
▁yapının	-10709
▁yöneten	-10710
ildiğinde	-10711
landırmak	-10712
▁büyükbab	-10713
▁gelmeden	-10714
▁götürmek	-10715
▁isterler	-10716
▁kalmayıp	-10717
▁okuduğum	-10718
▁paylaşım	-10719
▁sordular	-10720
▁çalışmam	-10721
▁çikolata	-10722
▁Cambridge	-10723
▁beceriler	-10724
▁birbirini	-10725
▁erkeklere	-10726
▁gidiyorum	-10727
▁götürüyor	-10728
▁laboratuv	-10729
▁liderleri	-10730
▁saldırgan	-10731
tırabiliriz	-10732
▁aralarında	-10733
▁baktığımız	-10734
▁dünyasının	-10735
▁eğiliminde	-10736
▁görülmemiş	-10737
▁Çocukların	-10738
▁bilgisayarı	-10739
▁düşünmenizi	-10740
▁başarısızlık	-10741
▁düşünmeliyiz	-10742
▁mühendisliği	-10743
▁düşünebiliriz	-10744
▁özelliklerini	-10745
cud	-10746
hia	-10747
önt	-10748
▁29	-10749
▁Bi	-10750
▁nü	-10751
drom	-10752
irik	-10753
liyi	-10754
yolu	-10755
ışık	-10756
▁Bor	-10757
▁Kir	-10758
▁Mad	-10759
▁Mis	-10760
▁Pal	-10761
▁Ray	-10762
▁Seb	-10763
▁fed	-10764
▁gun	-10765
▁hom	-10766
▁ill	-10767
▁çiğ	-10768
▁çır	-10769
etiği	-10770
lemiş	-10771
memin	-10772
meyle	-10773
tayız	-10774
▁2050	-10775
▁Bron	-10776
▁Gece	-10777
▁Nick	-10778
▁elma	-10779
▁güne	-10780
▁idim	-10781
▁kozm	-10782
▁köle	-10783
▁ları	-10784
▁maya	-10785
▁meyv	-10786
▁olub	-10787
▁uzaq	-10788
▁vakt	-10789
eksüel	-10790
elerek	-10791
muştum	-10792
seydim	-10793
ulması	-10794
ılacak	-10795
▁Insan	-10796
▁Zaten	-10797
▁aleti	-10798
▁andır	-10799
▁dəqiq	-10800
▁günəş	-10801
▁iplik	-10802
▁işken	-10803
▁komut	-10804
▁kıyaf	-10805
▁lamba	-10806
▁sakat	-10807
▁süpür	-10808
▁yüzen	-10809
▁çapta	-10810
▁çukur	-10811
mesinde	-10812
▁arayan	-10813
▁birimi	-10814
▁derine	-10815
▁fiyatı	-10816
▁gürült	-10817
▁icinde	-10818
▁ilacın	-10819
▁iseniz	-10820
▁kirlet	-10821
▁otorit	-10822
▁oturur	-10823
▁stüdyo	-10824
▁yaratı	-10825
▁yaraya	-10826
▁zorlan	-10827
▁Şirket	-10828
abilirim	-10829
sınızdır	-10830
▁Doğrusu	-10831
▁Oradaki	-10832
▁almadan	-10833
▁anneler	-10834
▁bilgisi	-10835
▁biləcəy	-10836
▁duyduğu	-10837
▁esinlen	-10838
▁gerçeğe	-10839
▁kalması	-10840
▁koyarak	-10841
▁tarihin	-10842
▁vermeyi	-10843
▁Arjantin	-10844
▁Onlardan	-10845
▁bahsetti	-10846
▁birisini	-10847
▁böcekler	-10848
▁geçmeden	-10849
▁geçtikçe	-10850
▁gittiler	-10851
▁savaştan	-10852
▁sıradaki	-10853
▁üzərində	-10854
▁aldıkları	-10855
▁duyuyoruz	-10856
▁hareketin	-10857
▁hepinizin	-10858
▁interneti	-10859
▁konuşması	-10860
▁olduğuydu	-10861
▁sürecinde	-10862
▁toplumlar	-10863
▁yaklaşımı	-10864
ebiliyorlar	-10865
▁bakıyorlar	-10866
▁başkasının	-10867
▁edildiğini	-10868
▁geldiğimde	-10869
▁hareketler	-10870
▁kapasitesi	-10871
▁olanlardan	-10872
▁sahipsiniz	-10873
▁sistematik	-10874
▁tekerlekli	-10875
▁yapıyorsun	-10876
▁bulabiliriz	-10877
▁diğerlerine	-10878
▁ülkelerdeki	-10879
▁düşünürsünüz	-10880
▁bulunmaktadır	-10881
▁duymuşsunuzdur	-10882
▁düşündüğünüzde	-10883
cam	-10884
dom	-10885
mət	-10886
ənə	-10887
▁üs	-10888
izme	-10889
reti	-10890
sili	-10891
▁Boş	-10892
▁Dir	-10893
▁His	-10894
▁Van	-10895
▁Zih	-10896
▁hus	-10897
▁kən	-10898
▁yur	-10899
bilme	-10900
deniz	-10901
masın	-10902
ologi	-10903
ordin	-10904
rimat	-10905
tedir	-10906
▁Günü	-10907
▁Katı	-10908
▁Kong	-10909
▁bomb	-10910
▁həya	-10911
▁çağr	-10912
artesi	-10913
lamalı	-10914
ısının	-10915
▁1.000	-10916
▁Gates	-10917
▁Kural	-10918
▁beyne	-10919
▁cadde	-10920
▁dilek	-10921
▁dilin	-10922
▁evvel	-10923
▁kibar	-10924
▁kurma	-10925
▁salgı	-10926
▁sağla	-10927
▁ölçül	-10928
▁şeyde	-10929
▁akıntı	-10930
▁azaldı	-10931
▁düşmüş	-10932
▁goster	-10933
▁görüşü	-10934
▁hoşuma	-10935
▁misyon	-10936
▁odaklı	-10937
▁parası	-10938
▁sanayi	-10939
▁satmak	-10940
▁tadını	-10941
▁veriye	-10942
▁yararı	-10943
ilmesini	-10944
▁Kendini	-10945
▁akışını	-10946
▁bilərik	-10947
▁faydası	-10948
▁genleri	-10949
▁görmeyi	-10950
▁olduğun	-10951
▁oynuyor	-10952
▁sayısız	-10953
▁yaparım	-10954
amazsınız	-10955
ebilirsek	-10956
▁Binlerce	-10957
▁Maalesef	-10958
▁Sıradaki	-10959
▁anlayışı	-10960
▁büyürken	-10961
▁etkiledi	-10962
▁etmeleri	-10963
▁gütmeyen	-10964
▁kaybeden	-10965
▁sanatsal	-10966
▁spesifik	-10967
▁söylenen	-10968
▁yayılmış	-10969
▁öldürücü	-10970
▁üstünden	-10971
▁açıklıyor	-10972
▁binaların	-10973
▁güzelliği	-10974
▁minnettar	-10975
▁nesneleri	-10976
▁olduğunca	-10977
▁biliyorsun	-10978
▁edebilirim	-10979
▁etkileşime	-10980
▁olsaydınız	-10981
▁oluştuğunu	-10982
▁Laboratuvar	-10983
▁diyebilirim	-10984
▁konuşmaları	-10985
▁kırıklığına	-10986
▁molekülleri	-10987
▁uygulamalar	-10988
▁yapmalarını	-10989
▁yaptığımızı	-10990
▁yapabileceği	-10991
day	-10992
ect	-10993
gaz	-10994
kim	-10995
sün	-10996
uel	-10997
umi	-10998
▁kg	-10999
ciye	-11000
ilin	-11001
imet	-11002
plan	-11003
ızda	-11004
▁Dün	-11005
▁Hər	-11006
▁LED	-11007
▁Tut	-11008
▁Yat	-11009
▁dus	-11010
▁fet	-11011
▁lev	-11012
▁Çoc	-11013
▁şak	-11014
ammed	-11015
canın	-11016
elson	-11017
eğimi	-11018
inler	-11019
lülüğ	-11020
siyle	-11021
tının	-11022
ville	-11023
▁Gana	-11024
▁boyn	-11025
▁farz	-11026
▁fizy	-11027
▁işıq	-11028
▁kazı	-11029
▁kira	-11030
▁kola	-11031
▁razı	-11032
▁simg	-11033
▁zekâ	-11034
deleri	-11035
ılırsa	-11036
▁Kelim	-11037
▁Sanal	-11038
▁akışı	-11039
▁amaca	-11040
▁felci	-11041
▁perde	-11042
▁umudu	-11043
▁yaşar	-11044
▁yolcu	-11045
▁çalın	-11046
bilirdi	-11047
lamadan	-11048
▁Birçoğ	-11049
▁dizisi	-11050
▁emekli	-11051
▁hergün	-11052
▁işimiz	-11053
▁karşın	-11054
▁kestir	-11055
▁kimliğ	-11056
▁kortek	-11057
▁mucize	-11058
▁nəticə	-11059
▁sadəcə	-11060
▁sevdim	-11061
▁tarama	-11062
▁təhsil	-11063
▁vermem	-11064
▁yarasa	-11065
▁yönelt	-11066
▁çelişk	-11067
▁özünde	-11068
tiğimizi	-11069
▁Bankası	-11070
▁Sizinle	-11071
▁başkası	-11072
▁bilerek	-11073
▁etmişti	-11074
▁görecek	-11075
▁haliyle	-11076
▁kristal	-11077
▁mobilya	-11078
▁noktayı	-11079
▁yapısal	-11080
▁yarışma	-11081
▁yerdeki	-11082
▁Çalışma	-11083
▁çevrede	-11084
▁çıkması	-11085
▁bambaşka	-11086
▁beklemek	-11087
▁evlerine	-11088
▁hayvanın	-11089
▁kirlilik	-11090
▁kişileri	-11091
▁kültürün	-11092
▁qaranlıq	-11093
▁söylemiş	-11094
▁söylendi	-11095
▁tarayıcı	-11096
▁yaşamını	-11097
▁Çocukken	-11098
▁örneğini	-11099
oteknoloji	-11100
▁böylesine	-11101
▁düşünmeyi	-11102
▁ellerinde	-11103
▁evrendeki	-11104
▁fırsatlar	-11105
▁gençlerin	-11106
▁hareketli	-11107
▁hükümetin	-11108
▁karşılaya	-11109
▁sonuçlara	-11110
▁tepesinde	-11111
▁yapıldığı	-11112
▁birdenbire	-11113
▁dalgalanma	-11114
▁çalışanlar	-11115
▁çalışmamız	-11116
▁elektriksel	-11117
▁ettiklerini	-11118
▁internetten	-11119
▁konuşuyorum	-11120
▁kullanılmış	-11121
▁mühendisler	-11122
▁öğreniyoruz	-11123
▁söyleyebiliriz	-11124
▁karşılaştığımız	-11125
PA	-11126
SP	-11127
öh	-11128
ese	-11129
lop	-11130
mut	-11131
rey	-11132
▁0.	-11133
▁4.	-11134
▁br	-11135
▁iv	-11136
▁sk	-11137
cere	-11138
esti	-11139
veti	-11140
zbol	-11141
çisi	-11142
▁Siv	-11143
▁Soğ	-11144
▁bac	-11145
▁eks	-11146
▁eti	-11147
▁huy	-11148
▁izi	-11149
▁kis	-11150
▁sop	-11151
▁Çöz	-11152
attle	-11153
fikir	-11154
onsor	-11155
▁2020	-11156
▁Olan	-11157
▁alev	-11158
▁eşiğ	-11159
▁hükû	-11160
▁kodu	-11161
▁traf	-11162
▁ısır	-11163
▁şeri	-11164
abilen	-11165
anızın	-11166
eyefen	-11167
eğiniz	-11168
tiğine	-11169
▁Değer	-11170
▁Ebola	-11171
▁Ekran	-11172
▁Liber	-11173
▁Model	-11174
▁Motor	-11175
▁ampul	-11176
▁baska	-11177
▁bilet	-11178
▁diken	-11179
▁duruş	-11180
▁etnik	-11181
▁halle	-11182
▁işimi	-11183
▁olduq	-11184
▁rakip	-11185
▁sevin	-11186
▁tartı	-11187
▁Çoğun	-11188
▁Ödülü	-11189
▁çalar	-11190
▁çekme	-11191
▁üçgen	-11192
ansiyel	-11193
lerimle	-11194
▁Hintli	-11195
▁Müzesi	-11196
▁Nelson	-11197
▁ayıran	-11198
▁bastır	-11199
▁başlık	-11200
▁bildik	-11201
▁binayı	-11202
▁evreni	-11203
▁fərqli	-11204
▁mecbur	-11205
▁olanın	-11206
▁rezerv	-11207
▁senede	-11208
▁soruna	-11209
▁yetmez	-11210
▁Projesi	-11211
▁Taliban	-11212
▁Yeniden	-11213
▁arabası	-11214
▁dinleme	-11215
▁dönüşür	-11216
▁evrimin	-11217
▁eşdeğer	-11218
▁gelerek	-11219
▁günümüz	-11220
▁odasına	-11221
▁olurken	-11222
▁patates	-11223
▁sanatın	-11224
▁santral	-11225
▁satıyor	-11226
▁takıntı	-11227
▁trajedi	-11228
▁örnekte	-11229
lanmıştır	-11230
▁Bayanlar	-11231
▁anahtarı	-11232
▁astronot	-11233
▁belgesel	-11234
▁coğrafya	-11235
▁dediğini	-11236
▁doğuştan	-11237
▁etmektir	-11238
▁haftalık	-11239
▁sağladık	-11240
▁temizlik	-11241
▁transfer	-11242
▁umuyoruz	-11243
▁yapacağı	-11244
▁çevirmek	-11245
▁çoğunluk	-11246
▁duyguları	-11247
▁düşünecek	-11248
▁düşünürüz	-11249
▁eksikliği	-11250
▁gelmesini	-11251
▁gerçekler	-11252
▁haricinde	-11253
▁kavramsal	-11254
▁pişmanlık	-11255
▁elimizdeki	-11256
▁görünmeyen	-11257
▁savunmasız	-11258
▁sorunlarla	-11259
▁tanımlayan	-11260
▁yöntemleri	-11261
▁görülebilir	-11262
▁konuşuyoruz	-11263
▁malzemeleri	-11264
▁oluşturmaya	-11265
▁yöneticiler	-11266
▁özelliklere	-11267
▁bağlantıları	-11268
▁değişiklikleri	-11269
odu	-11270
orn	-11271
ots	-11272
raz	-11273
uri	-11274
ğun	-11275
əbi	-11276
▁Ke	-11277
▁Os	-11278
▁İm	-11279
apur	-11280
bani	-11281
cede	-11282
ette	-11283
mişə	-11284
ptom	-11285
ünce	-11286
ışma	-11287
əyin	-11288
▁Fer	-11289
▁Gök	-11290
▁Hap	-11291
▁Kos	-11292
▁NSA	-11293
▁Nes	-11294
▁Oda	-11295
▁Zel	-11296
▁arg	-11297
▁asi	-11298
▁hil	-11299
▁kot	-11300
▁mum	-11301
▁püs	-11302
▁ran	-11303
▁vit	-11304
▁vəz	-11305
▁Özg	-11306
iklik	-11307
lanın	-11308
osunu	-11309
yalım	-11310
▁Jack	-11311
▁Jane	-11312
▁bela	-11313
▁dörd	-11314
▁ipek	-11315
▁kurş	-11316
▁mask	-11317
▁port	-11318
▁ruhu	-11319
▁zira	-11320
▁şarj	-11321
▁Green	-11322
▁Hawai	-11323
▁Kızıl	-11324
▁Simdi	-11325
▁bakma	-11326
▁bitti	-11327
▁butun	-11328
▁cocuk	-11329
▁doğaç	-11330
▁hətta	-11331
▁kasab	-11332
▁kuşak	-11333
▁trend	-11334
▁təsir	-11335
▁ucuza	-11336
▁yerle	-11337
▁yosun	-11338
▁ürküt	-11339
▁üzücü	-11340
▁Arapça	-11341
▁Michel	-11342
▁azalma	-11343
▁duvarı	-11344
▁etkiyi	-11345
▁etrafa	-11346
▁imalat	-11347
▁olmama	-11348
▁püskür	-11349
▁yüzüne	-11350
▁çağdaş	-11351
eleriyle	-11352
emizdeki	-11353
▁Charlie	-11354
▁Düşünün	-11355
▁Hükümet	-11356
▁filozof	-11357
▁gelişti	-11358
▁gününde	-11359
▁onlarda	-11360
▁solucan	-11361
▁uzaklık	-11362
▁yaşandı	-11363
▁yırtıcı	-11364
▁zorunlu	-11365
▁çıkarma	-11366
▁önceydi	-11367
▁üyeleri	-11368
▁İsviçre	-11369
▁Avrupalı	-11370
▁Kütüphan	-11371
▁Yaratıcı	-11372
▁başımıza	-11373
▁cevabını	-11374
▁denemeye	-11375
▁edilecek	-11376
▁etkileye	-11377
▁fikirləş	-11378
▁gazeteci	-11379
▁genlerin	-11380
▁illüzyon	-11381
▁katılmak	-11382
▁sezgisel	-11383
▁tekerlek	-11384
▁üretmeye	-11385
▁aldığınız	-11386
▁anlamamız	-11387
▁dışarıdan	-11388
▁göründüğü	-11389
▁unutmayın	-11390
▁yaptığına	-11391
▁şehirleri	-11392
▁araştırmak	-11393
▁açıklamaya	-11394
▁bilimciler	-11395
▁değillerdi	-11396
▁değiştirme	-11397
▁itibariyle	-11398
▁nesnelerin	-11399
▁olmaksızın	-11400
▁topluluğun	-11401
▁yaratıklar	-11402
▁çalışmıyor	-11403
▁Bazılarınız	-11404
▁bağlantılar	-11405
▁yaşadıkları	-11406
▁yetenekleri	-11407
▁sorabilirsiniz	-11408
-4	-11409
ET	-11410
bik	-11411
bit	-11412
cal	-11413
cus	-11414
dat	-11415
dər	-11416
eld	-11417
erm	-11418
lab	-11419
leğ	-11420
til	-11421
vat	-11422
örü	-11423
▁Ja	-11424
▁cm	-11425
▁ız	-11426
adin	-11427
erin	-11428
kron	-11429
lası	-11430
okol	-11431
oyol	-11432
tran	-11433
uyum	-11434
▁193	-11435
▁Cal	-11436
▁Fil	-11437
▁Hes	-11438
▁Kuş	-11439
▁Lif	-11440
▁Nan	-11441
▁Ted	-11442
▁Zen	-11443
▁eli	-11444
iymiş	-11445
leşen	-11446
tecek	-11447
çının	-11448
▁Devr	-11449
▁Kapı	-11450
▁Mola	-11451
▁Otur	-11452
▁Yedi	-11453
▁arın	-11454
▁eger	-11455
▁flor	-11456
▁kort	-11457
▁pant	-11458
▁proq	-11459
▁sade	-11460
▁taze	-11461
▁usta	-11462
evkala	-11463
eğiyle	-11464
isiydi	-11465
▁Black	-11466
▁Brian	-11467
▁Gazet	-11468
▁Moore	-11469
▁Teles	-11470
▁deriz	-11471
▁evsiz	-11472
▁geçin	-11473
▁müzak	-11474
▁olgun	-11475
▁sapta	-11476
▁verit	-11477
▁yatay	-11478
▁yazın	-11479
▁zorla	-11480
▁Örgüt	-11481
▁çamur	-11482
▁ödünç	-11483
larıydı	-11484
liliğin	-11485
▁Bangla	-11486
▁Milyon	-11487
▁Ortaya	-11488
▁aktarı	-11489
▁doğdum	-11490
▁dönemi	-11491
▁eleman	-11492
▁girmiş	-11493
▁gündüz	-11494
▁hedefi	-11495
▁isteği	-11496
▁kurulu	-11497
▁kutusu	-11498
▁kuyruğ	-11499
▁masada	-11500
▁masaya	-11501
▁yabani	-11502
▁yarıya	-11503
▁yerçek	-11504
▁yoxdur	-11505
▁yılını	-11506
▁ölçmek	-11507
▁şahane	-11508
amayacak	-11509
▁Görünüş	-11510
▁Hayatta	-11511
▁Hepsini	-11512
▁Nihayet	-11513
▁anlayan	-11514
▁aslinda	-11515
▁dersler	-11516
▁düşünüp	-11517
▁filmler	-11518
▁gösteri	-11519
▁hangisi	-11520
▁hayvanı	-11521
▁isterse	-11522
▁işleyiş	-11523
▁kimseye	-11524
▁kuruyor	-11525
▁muhabir	-11526
▁uygulan	-11527
▁yürüyen	-11528
▁National	-11529
▁Okyanusu	-11530
▁asteroid	-11531
▁bölgesel	-11532
▁etkinlik	-11533
▁etmenizi	-11534
▁gelirler	-11535
▁geçirmiş	-11536
▁güvercin	-11537
▁konusuna	-11538
▁romantik	-11539
▁toprağın	-11540
▁öldürmek	-11541
▁benzersiz	-11542
▁cihazları	-11543
▁devletler	-11544
▁gidiyordu	-11545
▁görüldüğü	-11546
▁hastaları	-11547
▁kaybettik	-11548
▁stratejik	-11549
▁uzmanları	-11550
▁yolsuzluk	-11551
▁bağlantıyı	-11552
▁başlamıştı	-11553
▁bulunmakta	-11554
▁dikkatlice	-11555
▁engellemek	-11556
▁fotoğrafta	-11557
▁hayırsever	-11558
▁hükümetler	-11559
▁kalitesini	-11560
▁kullanacak	-11561
▁söylüyordu	-11562
▁tartışmaya	-11563
▁hayatımızın	-11564
▁programlama	-11565
▁sistemlerin	-11566
▁bakterilerin	-11567
▁hayatlarının	-11568
▁kullanılması	-11569
▁getirebiliriz	-11570
▁bakabilirsiniz	-11571
▁düşündüğümüzde	-11572
buk	-11573
lyn	-11574
unt	-11575
▁85	-11576
▁LT	-11577
▁me	-11578
akal	-11579
lumb	-11580
tası	-11581
tüğü	-11582
üloz	-11583
▁1.5	-11584
▁Jen	-11585
▁enz	-11586
▁hor	-11587
▁mat	-11588
▁təl	-11589
ansal	-11590
ciydi	-11591
ektör	-11592
uther	-11593
ərdim	-11594
▁Halk	-11595
▁Tanı	-11596
▁akan	-11597
▁avuç	-11598
▁gene	-11599
▁hırs	-11600
▁orig	-11601
▁tran	-11602
▁ünit	-11603
▁şuan	-11604
avallı	-11605
ekleri	-11606
letmek	-11607
lileri	-11608
ünüzde	-11609
▁Delhi	-11610
▁Deney	-11611
▁Kamer	-11612
▁Mutlu	-11613
▁Sokak	-11614
▁Yaxşı	-11615
▁Yaşlı	-11616
▁aylar	-11617
▁biyol	-11618
▁boyle	-11619
▁dışkı	-11620
▁garaj	-11621
▁ihlal	-11622
▁kuzen	-11623
▁küçül	-11624
▁makul	-11625
▁misaf	-11626
▁mıdır	-11627
▁nihai	-11628
▁olaya	-11629
▁sebze	-11630
▁sezon	-11631
▁torba	-11632
▁Çünki	-11633
▁ırkçı	-11634
▁ışığa	-11635
▁Şarkı	-11636
▁Şubat	-11637
▁Berlin	-11638
▁Dahası	-11639
▁Norveç	-11640
▁Steven	-11641
▁antrop	-11642
▁görüle	-11643
▁kalkış	-11644
▁kapıyı	-11645
▁kağıdı	-11646
▁mağdur	-11647
▁motoru	-11648
▁paraya	-11649
▁uzayın	-11650
▁volkan	-11651
▁yanıma	-11652
▁yatkın	-11653
▁İhtiya	-11654
▁şeylər	-11655
amıyorum	-11656
leşmenin	-11657
▁Seattle	-11658
▁anlaşıl	-11659
▁başlığı	-11660
▁beyefen	-11661
▁bölgeyi	-11662
▁büyümüş	-11663
▁durumla	-11664
▁duymaya	-11665
▁elinden	-11666
▁filmini	-11667
▁gelmedi	-11668
▁görülür	-11669
▁görüşme	-11670
▁hastaya	-11671
▁incelen	-11672
▁inkişaf	-11673
▁isteriz	-11674
▁koordin	-11675
▁kölelik	-11676
▁metabol	-11677
▁oksitos	-11678
▁renkler	-11679
▁sayılar	-11680
▁seninle	-11681
▁sinyali	-11682
▁söyleme	-11683
▁tesadüf	-11684
▁yavaşla	-11685
▁yıldızı	-11686
▁önlemek	-11687
▁öğleden	-11688
dakilerin	-11689
ladığınız	-11690
tıklarını	-11691
▁başarmak	-11692
▁bizlerin	-11693
▁elektrot	-11694
▁ellerini	-11695
▁eğitimin	-11696
▁havaalan	-11697
▁hayatına	-11698
▁hemfikir	-11699
▁inceleye	-11700
▁kainatın	-11701
▁kaldırıp	-11702
▁konusunu	-11703
▁paylaşma	-11704
▁savaşmak	-11705
▁tükenmiş	-11706
▁vermeden	-11707
▁yazılımı	-11708
▁yerlerin	-11709
▁şansımız	-11710
lıyorsunuz	-11711
▁Kendimizi	-11712
▁Parkinson	-11713
▁adamların	-11714
▁anlattığı	-11715
▁arabaları	-11716
▁buradayız	-11717
▁gözlerini	-11718
▁katılımcı	-11719
▁kazanıyor	-11720
▁okyanusta	-11721
▁ortamında	-11722
▁qalaktika	-11723
▁tarihinin	-11724
▁Seyirciler	-11725
▁açıklaması	-11726
▁değiştirir	-11727
▁harcıyoruz	-11728
▁hayatımızı	-11729
▁işlediğini	-11730
▁koyarsanız	-11731
▁makineleri	-11732
▁seviyesine	-11733
▁sisteminde	-11734
▁söylemişti	-11735
▁yaşındaydı	-11736
▁zorundadır	-11737
abileceğimiz	-11738
▁bakabiliriz	-11739
▁başkalarına	-11740
▁birbirimizi	-11741
▁düşünmüştüm	-11742
▁toplumların	-11743
▁anlayabilmek	-11744
▁gösteriyorum	-11745
▁söyledikleri	-11746
▁yerleştirdik	-11747
▁bahsettiğimiz	-11748
ja	-11749
öl	-11750
ain	-11751
mus	-11752
org	-11753
uck	-11754
zle	-11755
▁II	-11756
▁Lo	-11757
izma	-11758
mail	-11759
ollo	-11760
raph	-11761
rağı	-11762
uver	-11763
vana	-11764
çesi	-11765
▁GSM	-11766
▁Moz	-11767
▁ank	-11768
▁coş	-11769
▁lay	-11770
▁zem	-11771
aniel	-11772
arada	-11773
ardım	-11774
ceğin	-11775
deral	-11776
dildi	-11777
lüsin	-11778
▁Eric	-11779
▁Josh	-11780
▁Psik	-11781
▁Rock	-11782
▁Tony	-11783
▁aksi	-11784
▁halı	-11785
▁izah	-11786
▁lere	-11787
▁resm	-11788
▁çalı	-11789
caklar	-11790
illeri	-11791
tistik	-11792
ydınız	-11793
▁Durum	-11794
▁Terör	-11795
▁Yaban	-11796
▁başlı	-11797
▁burun	-11798
▁filme	-11799
▁gecik	-11800
▁hissə	-11801
▁hiyer	-11802
▁inana	-11803
▁izole	-11804
▁içini	-11805
▁katil	-11806
▁katlı	-11807
▁pamuk	-11808
▁sesle	-11809
▁sıçra	-11810
▁tabir	-11811
▁taşır	-11812
▁tweet	-11813
▁yerdi	-11814
▁çizel	-11815
▁şizof	-11816
lilerin	-11817
ptasyon	-11818
usundan	-11819
▁Akadem	-11820
▁Bahset	-11821
▁Yıldız	-11822
▁ağacın	-11823
▁bayrak	-11824
▁dinler	-11825
▁ehtiya	-11826
▁filmde	-11827
▁geliri	-11828
▁gülüms	-11829
▁karşıt	-11830
▁kaynaş	-11831
▁sansür	-11832
▁sindir	-11833
▁sinema	-11834
▁sınıfa	-11835
▁teması	-11836
▁timsah	-11837
▁ufacık	-11838
▁vermez	-11839
▁çekimi	-11840
▁üstlen	-11841
evkalade	-11842
▁Ebeveyn	-11843
▁Seyirci	-11844
▁açısını	-11845
▁belkide	-11846
▁cerrahi	-11847
▁diyerek	-11848
▁doğrult	-11849
▁enjekte	-11850
▁erkeğin	-11851
▁ettiniz	-11852
▁geçtiği	-11853
▁görelim	-11854
▁görevli	-11855
▁halüsin	-11856
▁havanın	-11857
▁incelem	-11858
▁içeride	-11859
▁kurtarı	-11860
▁mineral	-11861
▁mutlaka	-11862
▁oranını	-11863
▁seferde	-11864
▁senedir	-11865
▁senkron	-11866
▁sponsor	-11867
▁çekirde	-11868
▁üzgünüm	-11869
▁şartlar	-11870
labilecek	-11871
▁Erkekler	-11872
▁Etiyopya	-11873
▁aramızda	-11874
▁birlikdə	-11875
▁geçirdik	-11876
▁haberdar	-11877
▁istihdam	-11878
▁kaliteli	-11879
▁konuları	-11880
▁mıknatıs	-11881
▁olmuştum	-11882
▁renkleri	-11883
▁sorulara	-11884
▁toplayıp	-11885
▁tüketimi	-11886
▁yapmakla	-11887
▁yaşamayı	-11888
▁yaşından	-11889
▁şekliyle	-11890
eticilerin	-11891
tıklarında	-11892
▁başkaları	-11893
▁gerçeğini	-11894
▁gökyüzüne	-11895
▁harikaydı	-11896
▁hissetmek	-11897
▁kenarında	-11898
▁süpermark	-11899
▁əhəmiyyət	-11900
▁Geçenlerde	-11901
▁düşünmenin	-11902
▁gereklidir	-11903
▁giderseniz	-11904
▁istiyorsun	-11905
▁kurumların	-11906
▁alanlarında	-11907
▁bulunduğunu	-11908
▁görevlendir	-11909
▁çocuklarına	-11910
▁bilgisayarda	-11911
▁kaynaklarını	-11912
▁araştırmacılar	-11913
EC	-11914
au	-11915
bre	-11916
dug	-11917
itt	-11918
lüt	-11919
yak	-11920
əsə	-11921
▁JH	-11922
▁əy	-11923
məsi	-11924
ırsa	-11925
əbul	-11926
▁Aşk	-11927
▁Boy	-11928
▁Giz	-11929
▁Köy	-11930
▁Mem	-11931
▁Pap	-11932
▁Wor	-11933
▁nöq	-11934
▁rot	-11935
▁təx	-11936
▁yuv	-11937
emedi	-11938
liyim	-11939
ogram	-11940
ustur	-11941
yasal	-11942
ünüze	-11943
▁2015	-11944
▁Eger	-11945
▁Gene	-11946
▁Grön	-11947
▁Male	-11948
▁attı	-11949
▁hidr	-11950
▁nötr	-11951
▁rady	-11952
▁vaci	-11953
▁şamp	-11954
etroit	-11955
iyetle	-11956
saydık	-11957
tığına	-11958
▁Gelin	-11959
▁Henry	-11960
▁Kevin	-11961
▁Niçin	-11962
▁Sekiz	-11963
▁Silah	-11964
▁Yemen	-11965
▁bahar	-11966
▁barda	-11967
▁dogru	-11968
▁həmin	-11969
▁keçir	-11970
▁lakin	-11971
▁mütev	-11972
▁olsak	-11973
▁seksi	-11974
▁tahıl	-11975
▁tören	-11976
iyseniz	-11977
leridir	-11978
lərində	-11979
malısın	-11980
muyorum	-11981
ologiya	-11982
▁Meydan	-11983
▁Pekâlâ	-11984
▁aradım	-11985
▁arılar	-11986
▁dindar	-11987
▁doğaya	-11988
▁doğayı	-11989
▁editör	-11990
▁ekrana	-11991
▁fatura	-11992
▁geleni	-11993
▁konsan	-11994
▁mövcud	-11995
▁primat	-11996
▁profil	-11997
▁sevdik	-11998
▁seçmek	-11999
▁sınırı	-12000
▁varmak	-12001
▁yaşana	-12002
▁yetkil	-12003
▁örüntü	-12004
ebilirdi	-12005
unuzdaki	-12006
▁Detroit	-12007
▁Onlarla	-12008
▁alanını	-12009
▁bırakın	-12010
▁dilerim	-12011
▁duyulan	-12012
▁federal	-12013
▁fizikçi	-12014
▁gitmesi	-12015
▁istemek	-12016
▁karışım	-12017
▁məlumat	-12018
▁olsanız	-12019
▁pencere	-12020
▁salgını	-12021
▁sandviç	-12022
▁toprağı	-12023
▁verilir	-12024
▁videoda	-12025
▁çoğunda	-12026
▁şiddete	-12027
▁Əslində	-12028
duğumuzda	-12029
melerinin	-12030
▁Singapur	-12031
▁Yaptığım	-12032
▁bağlamak	-12033
▁bağlılık	-12034
▁cihazlar	-12035
▁duydunuz	-12036
▁kalanını	-12037
▁nöronlar	-12038
▁omurilik	-12039
▁oradaydı	-12040
▁taşıyıcı	-12041
▁yıldızın	-12042
▁çalışmış	-12043
eceklerini	-12044
▁Biliyoruz	-12045
▁alırsanız	-12046
▁belirtmek	-12047
▁böcekleri	-12048
▁bölgedeki	-12049
▁edeceğini	-12050
▁fazlasına	-12051
▁gösterdim	-12052
▁ilginçtir	-12053
▁kurtulmak	-12054
▁mikroskob	-12055
▁seviyoruz	-12056
▁yakalanma	-12057
▁yayılıyor	-12058
▁zamanımız	-12059
▁zenginlik	-12060
▁başlayarak	-12061
▁belirlemek	-12062
▁bilmiyordu	-12063
▁diyorsunuz	-12064
▁gördüğünde	-12065
▁kapitalizm	-12066
▁karıncalar	-12067
▁keşfediyor	-12068
▁programlar	-12069
▁sonlarında	-12070
▁araştırmayı	-12071
▁edeceksiniz	-12072
▁etkileyecek	-12073
▁halihazırda	-12074
▁ilgileniyor	-12075
▁ilgilenmeye	-12076
▁sebeplerden	-12077
▁vasıtasıyla	-12078
▁birbirimizle	-12079
▁davranışları	-12080
▁demokrasinin	-12081
▁girişimciler	-12082
▁iyileştirmek	-12083
▁çalıştıkları	-12084
▁üniversitede	-12085
ld	-12086
so	-12087
şu	-12088
koç	-12089
▁31	-12090
▁48	-12091
▁SP	-12092
▁SS	-12093
aklı	-12094
asal	-12095
enti	-12096
lini	-12097
ukla	-12098
utin	-12099
önül	-12100
▁Air	-12101
▁Diz	-12102
▁Hoş	-12103
▁Joe	-12104
▁Sav	-12105
▁Tat	-12106
▁Taş	-12107
▁Yön	-12108
▁tər	-12109
logan	-12110
maşık	-12111
▁Aile	-12112
▁Endü	-12113
▁anıt	-12114
▁aslı	-12115
▁aşik	-12116
▁eyal	-12117
▁fren	-12118
▁iPod	-12119
▁keyf	-12120
▁kliş	-12121
▁tipi	-12122
▁tsun	-12123
▁tırn	-12124
▁şişe	-12125
amızın	-12126
larini	-12127
laşdır	-12128
ograph	-12129
öntgen	-12130
▁Afrik	-12131
▁Bronx	-12132
▁Stasi	-12133
▁bahçe	-12134
▁banyo	-12135
▁israf	-12136
▁karad	-12137
▁karan	-12138
▁kumaş	-12139
▁köyde	-12140
▁sizde	-12141
▁sunul	-12142
▁sürün	-12143
▁talih	-12144
▁tutma	-12145
▁uygul	-12146
▁uçağı	-12147
▁yağış	-12148
▁İskoç	-12149
▁İçeri	-12150
lanmayı	-12151
▁Aralık	-12152
▁Geriye	-12153
▁Koruma	-12154
▁Yoksul	-12155
▁aracın	-12156
▁arayıp	-12157
▁dönmüş	-12158
▁içerir	-12159
▁mağaza	-12160
▁metrek	-12161
▁oldugu	-12162
▁piyano	-12163
▁ülkesi	-12164
elerimiz	-12165
lıkların	-12166
meliydim	-12167
▁anlatım	-12168
▁ardında	-12169
▁ayrılan	-12170
▁bireyin	-12171
▁bürokra	-12172
▁coğrafi	-12173
▁desteği	-12174
▁okullar	-12175
▁olursam	-12176
▁parayla	-12177
▁sahibim	-12178
▁sipariş	-12179
▁solunum	-12180
▁soracak	-12181
▁vücudum	-12182
▁öğretir	-12183
lerinizin	-12184
▁Normalde	-12185
▁balıklar	-12186
▁beklenen	-12187
▁bilmeyen	-12188
▁birazdan	-12189
▁birisine	-12190
▁kısmının	-12191
▁oynamaya	-12192
▁rakamlar	-12193
▁seçilmiş	-12194
▁sizlerin	-12195
▁takdirde	-12196
▁çıktılar	-12197
▁ürkütücü	-12198
diklerinde	-12199
▁anlatacak	-12200
▁biliniyor	-12201
▁dedikleri	-12202
▁durdurmak	-12203
▁erkekleri	-12204
▁hayattaki	-12205
▁imparator	-12206
▁inceledik	-12207
▁ormanları	-12208
▁psikiyatr	-12209
▁sorunlara	-12210
▁yolculuğu	-12211
▁yoğunluğu	-12212
▁çıkabilir	-12213
▁çıkardığı	-12214
▁geldiğimiz	-12215
▁geçirdiğim	-12216
▁parçaların	-12217
▁uygulaması	-12218
▁yapmıyoruz	-12219
▁yaradığını	-12220
▁yarısından	-12221
▁belirsizlik	-12222
▁erkeklerden	-12223
▁kullandığım	-12224
▁olduklarına	-12225
▁yetiştirmek	-12226
▁olabileceğine	-12227
▁olduklarından	-12228
MS	-12229
nə	-12230
dön	-12231
hoş	-12232
miy	-12233
əyy	-12234
əşf	-12235
▁42	-12236
▁My	-12237
▁SW	-12238
iger	-12239
lavə	-12240
reni	-12241
ward	-12242
əbər	-12243
▁Gec	-12244
▁Pop	-12245
▁Rad	-12246
▁Söy	-12247
▁döş	-12248
▁fan	-12249
▁sad	-12250
▁teb	-12251
ağına	-12252
ağını	-12253
oları	-12254
sizce	-12255
▁1900	-12256
▁City	-12257
▁Mayı	-12258
▁Veri	-12259
▁bası	-12260
▁erim	-12261
▁etdi	-12262
▁insa	-12263
▁leri	-12264
▁lüks	-12265
▁sürt	-12266
▁yelp	-12267
▁Şili	-12268
amayan	-12269
lərinə	-12270
siklop	-12271
tıktan	-12272
uncusu	-12273
▁Asker	-12274
▁Derin	-12275
▁Korku	-12276
▁Okulu	-12277
▁Ortak	-12278
▁Soğuk	-12279
▁artar	-12280
▁dergi	-12281
▁devir	-12282
▁dürtü	-12283
▁etdir	-12284
▁filan	-12285
▁irade	-12286
▁midir	-12287
▁olmay	-12288
▁otura	-12289
▁qeyri	-12290
▁qəbul	-12291
▁satan	-12292
▁uyğun	-12293
laşmaya	-12294
mamıştı	-12295
remiyet	-12296
▁Beynin	-12297
▁Lester	-12298
▁Watson	-12299
▁Yahudi	-12300
▁amacım	-12301
▁açılış	-12302
▁bakıcı	-12303
▁başken	-12304
▁bilime	-12305
▁defter	-12306
▁içindi	-12307
▁kollek	-12308
▁müddət	-12309
▁olardı	-12310
▁ormanı	-12311
▁patern	-12312
▁piksel	-12313
▁çatlak	-12314
▁çeşidi	-12315
▁üretic	-12316
▁şeytan	-12317
antastik	-12318
lanırken	-12319
ographic	-12320
▁Başkanı	-12321
▁Hepiniz	-12322
▁Kaçınız	-12323
▁analizi	-12324
▁bakabil	-12325
▁birşeye	-12326
▁bulmayı	-12327
▁dayanır	-12328
▁denizin	-12329
▁ekledik	-12330
▁eklemek	-12331
▁etiketi	-12332
▁fikirle	-12333
▁gitmeyi	-12334
▁götüren	-12335
▁güzeldi	-12336
▁hatalar	-12337
▁ifadesi	-12338
▁kadınla	-12339
▁katıldı	-12340
▁müəllim	-12341
▁ormanın	-12342
▁paraşüt	-12343
▁savaşçı	-12344
▁semptom	-12345
▁sendrom	-12346
▁sözleri	-12347
▁verinin	-12348
▁yürümek	-12349
▁çözümün	-12350
▁Bilimsel	-12351
▁Grönland	-12352
▁Profesör	-12353
▁dersleri	-12354
▁doğrusal	-12355
▁fazladır	-12356
▁kitabını	-12357
▁seçeneği	-12358
▁sistemde	-12359
▁yakalaya	-12360
▁yasadışı	-12361
▁İzleyici	-12362
▁şeylerde	-12363
▁Bangladeş	-12364
▁birimizin	-12365
▁cevapları	-12366
▁durumları	-12367
▁emeklilik	-12368
▁getirerek	-12369
▁gösterdik	-12370
▁hikâyeler	-12371
▁içlerinde	-12372
▁sayısının	-12373
▁silahları	-12374
▁sıralarda	-12375
▁yaptıktan	-12376
▁yerindeki	-12377
▁yüzeyinde	-12378
▁Cumhuriyet	-12379
▁adaptasyon	-12380
▁bağımlılık	-12381
▁görüyorlar	-12382
▁göstererek	-12383
▁koşullarda	-12384
▁robotların	-12385
▁söyleyerek	-12386
▁bayılıyorum	-12387
▁bilgilerini	-12388
▁dikkatinizi	-12389
▁göründüğünü	-12390
▁olmadığımız	-12391
▁sorunlarını	-12392
▁sınıflandır	-12393
bileceklerini	-12394
▁olmayacaktır	-12395
▁yaptığımızda	-12396
▁uygulanabilir	-12397
▁çalışmalarını	-12398
▁adlandırdığımız	-12399
ıç	-12400
bay	-12401
emb	-12402
fat	-12403
mad	-12404
nel	-12405
rol	-12406
zat	-12407
▁44	-12408
▁Bl	-12409
▁Va	-12410
briy	-12411
dela	-12412
ence	-12413
icim	-12414
iver	-12415
onim	-12416
ower	-12417
vvür	-12418
▁350	-12419
▁Acı	-12420
▁Dil	-12421
▁Rüz	-12422
▁Sha	-12423
▁Təş	-12424
▁Yür	-12425
▁duş	-12426
▁niş	-12427
▁tiş	-12428
▁xər	-12429
▁zır	-12430
▁üçü	-12431
▁şək	-12432
ektom	-12433
lülük	-12434
saniz	-12435
ımlar	-12436
▁Ağaç	-12437
▁Gand	-12438
▁Hans	-12439
▁ekme	-12440
▁elli	-12441
▁izni	-12442
▁klip	-12443
▁sese	-12444
▁spek	-12445
▁xəst	-12446
▁çırp	-12447
ecekti	-12448
eciler	-12449
eliler	-12450
ilerek	-12451
memesi	-12452
tikten	-12453
ğından	-12454
ınızla	-12455
▁Bruno	-12456
▁Cunku	-12457
▁Engel	-12458
▁Medya	-12459
▁duman	-12460
▁edine	-12461
▁ezber	-12462
▁hamur	-12463
▁hasat	-12464
▁hopar	-12465
▁kesip	-12466
▁korum	-12467
▁krali	-12468
▁metan	-12469
▁oyunc	-12470
▁seçil	-12471
▁seçme	-12472
▁sizce	-12473
▁soruş	-12474
▁tələb	-12475
▁vacib	-12476
▁yanaş	-12477
▁Çince	-12478
▁çaplı	-12479
▁çıxar	-12480
▁İncil	-12481
▁əlavə	-12482
luğunun	-12483
ıyorduk	-12484
▁Bilinç	-12485
▁birsey	-12486
▁dansçı	-12487
▁eninde	-12488
▁entrop	-12489
▁evrimi	-12490
▁hatıra	-12491
▁iğrenç	-12492
▁koloni	-12493
▁otoyol	-12494
▁seçtim	-12495
▁ölümün	-12496
▁şaşkın	-12497
▁Benimle	-12498
▁Diyelim	-12499
▁Stephen	-12500
▁Türkiye	-12501
▁Zelanda	-12502
▁ayırmak	-12503
▁geçerek	-12504
▁gücümüz	-12505
▁havadan	-12506
▁hissini	-12507
▁içindir	-12508
▁katılan	-12509
▁kaydede	-12510
▁masanın	-12511
▁taraflı	-12512
▁İrlanda	-12513
▁şarkıcı	-12514
tiğimizde	-12515
tırabilir	-12516
▁Kendiler	-12517
▁ağırlığı	-12518
▁baloncuk	-12519
▁bilirsin	-12520
▁doğrudur	-12521
▁esasında	-12522
▁herhalde	-12523
▁kanserin	-12524
▁katıldım	-12525
▁kolaydır	-12526
▁molekülü	-12527
▁psikolog	-12528
▁riskleri	-12529
▁sayılmaz	-12530
▁sürecini	-12531
▁tansiyon	-12532
▁Üçüncüsü	-12533
▁ailesinin	-12534
▁araçların	-12535
▁bozukluğu	-12536
▁fikirlere	-12537
▁fiyatları	-12538
▁geliyorum	-12539
▁gerekirdi	-12540
▁tasarlama	-12541
▁yayılması	-12542
▁yollardan	-12543
▁üstündeki	-12544
▁şeffaflık	-12545
▁arkasından	-12546
▁cezalandır	-12547
▁istihbarat	-12548
▁parçasıdır	-12549
bileceğimize	-12550
ebilecekleri	-12551
▁Hindistanda	-12552
▁gerçekleşir	-12553
▁karmaşıklık	-12554
▁kaynaklanan	-12555
▁konuşmasını	-12556
▁nedenlerden	-12557
▁yaratıyoruz	-12558
▁başlamalıyız	-12559
▁bilmediğimiz	-12560
▁karmaşıklığı	-12561
▁söylemiyorum	-12562
▁yarattığımız	-12563
▁çocuklarımız	-12564
▁cesaretlendir	-12565
▁çocuklarımıza	-12566
▁bilgisayarları	-12567
IS	-12568
LA	-12569
ləm	-12570
off	-12571
tiş	-12572
top	-12573
üvv	-12574
▁55	-12575
▁gr	-12576
▁ər	-12577
atıl	-12578
burg	-12579
tive	-12580
ulur	-12581
uluş	-12582
▁Fri	-12583
▁Fır	-12584
▁Lan	-12585
▁Mev	-12586
▁RNA	-12587
▁Sir	-12588
▁Tep	-12589
▁Tok	-12590
▁cek	-12591
▁cüz	-12592
▁enk	-12593
▁fes	-12594
▁güz	-12595
▁mız	-12596
▁məq	-12597
▁ota	-12598
▁tik	-12599
▁uyk	-12600
▁Öte	-12601
esans	-12602
eydim	-12603
peten	-12604
teydi	-12605
ulade	-12606
ılmak	-12607
▁2030	-12608
▁Arab	-12609
▁Just	-12610
▁Mahk	-12611
▁Nike	-12612
▁Sayı	-12613
▁buda	-12614
▁ipuç	-12615
▁kesi	-12616
▁kıym	-12617
▁kəşf	-12618
▁mily	-12619
▁muam	-12620
▁otuz	-12621
▁payı	-12622
▁veda	-12623
▁çöpe	-12624
▁öğüt	-12625
▁İlaç	-12626
▁Şans	-12627
ülemez	-12628
▁Ailem	-12629
▁Aynen	-12630
▁Endiş	-12631
▁Fazla	-12632
▁Kolay	-12633
▁Sıcak	-12634
▁Sınır	-12635
▁aklın	-12636
▁açtım	-12637
▁batak	-12638
▁dinin	-12639
▁efekt	-12640
▁hattı	-12641
▁kemer	-12642
▁kesiş	-12643
▁keşfi	-12644
▁lanet	-12645
▁saklı	-12646
▁satıl	-12647
▁tıkan	-12648
▁yönlü	-12649
▁Çocuğ	-12650
▁ötesi	-12651
▁İleri	-12652
▁şifre	-12653
▁şirin	-12654
bildiği	-12655
olojiyi	-12656
▁Apollo	-12657
▁Diğeri	-12658
▁Ertesi	-12659
▁Kulağa	-12660
▁Teksas	-12661
▁açacak	-12662
▁bağdaş	-12663
▁bozucu	-12664
▁dörtte	-12665
▁inancı	-12666
▁karide	-12667
▁köşede	-12668
▁manzar	-12669
▁mevsim	-12670
▁montaj	-12671
▁seçkin	-12672
▁tarzda	-12673
▁trajik	-12674
▁təşkil	-12675
▁yumurt	-12676
▁öngörü	-12677
▁örtüsü	-12678
ceksiniz	-12679
ileriyle	-12680
lemesini	-12681
maktansa	-12682
mamıştım	-12683
▁Görünen	-12684
▁Herkese	-12685
▁Neander	-12686
▁Ticaret	-12687
▁alırsak	-12688
▁eğitmek	-12689
▁fedakar	-12690
▁izleyin	-12691
▁kamusal	-12692
▁korkusu	-12693
▁korteks	-12694
▁olmamış	-12695
▁ormanda	-12696
▁parazit	-12697
▁sayfası	-12698
▁talimat	-12699
▁tekniği	-12700
▁temelli	-12701
▁tutarak	-12702
▁ulaştır	-12703
▁uğramış	-12704
▁verelim	-12705
▁yılları	-12706
▁şarkıyı	-12707
abileceği	-12708
tabiliriz	-12709
▁Elektrik	-12710
▁Karanlık	-12711
▁Muhammed	-12712
▁aklınıza	-12713
▁anlaşmaz	-12714
▁beslemek	-12715
▁büyümeyi	-12716
▁hikayeye	-12717
▁hoşlanma	-12718
▁mesafede	-12719
▁nedenden	-12720
▁okyanusa	-12721
▁ortasına	-12722
▁sınırlar	-12723
▁yöntemle	-12724
▁Hristiyan	-12725
▁Olimpiyat	-12726
▁diyebilir	-12727
▁fevkalade	-12728
▁iletişimi	-12729
▁kendinden	-12730
▁kişilerle	-12731
▁köşesinde	-12732
▁maddeleri	-12733
▁saatlerce	-12734
▁sıcaklığı	-12735
▁tasarrufu	-12736
▁temelinde	-12737
▁zamanları	-12738
▁zorluklar	-12739
▁alabiliriz	-12740
▁anlarsınız	-12741
▁gerçekleri	-12742
▁hareketini	-12743
▁kadınlarla	-12744
▁karanlıkta	-12745
▁olduğumuza	-12746
▁zorundalar	-12747
▁öğrenmenin	-12748
▁düşünebilir	-12749
▁hissettiğim	-12750
▁gittiğinizde	-12751
▁göremezsiniz	-12752
▁halüsinasyon	-12753
▁kullanacağım	-12754
▁paylaşacağım	-12755
▁uygulamaları	-12756
▁geldiklerinde	-12757
▁hareketlerini	-12758
BA	-12759
DA	-12760
ER	-12761
po	-12762
▁â	-12763
abı	-12764
bie	-12765
cıl	-12766
gam	-12767
gas	-12768
hüc	-12769
lej	-12770
mir	-12771
pos	-12772
rew	-12773
sol	-12774
üce	-12775
▁EM	-12776
▁Ti	-12777
▁We	-12778
asın	-12779
atar	-12780
bedi	-12781
brek	-12782
buki	-12783
elem	-12784
illa	-12785
tezi	-12786
uysa	-12787
ısal	-12788
ışın	-12789
▁2.5	-12790
▁Alk	-12791
▁Alp	-12792
▁CRI	-12793
▁Cok	-12794
▁Ele	-12795
▁Lar	-12796
▁Mec	-12797
▁Say	-12798
▁Tük	-12799
▁Yiy	-12800
▁buğ	-12801
▁dop	-12802
▁inf	-12803
▁izn	-12804
▁lık	-12805
▁miy	-12806
▁piz	-12807
▁sof	-12808
▁süs	-12809
▁yah	-12810
irsin	-12811
leşti	-12812
liyiz	-12813
tival	-12814
çinin	-12815
▁2002	-12816
▁Long	-12817
▁Mike	-12818
▁akar	-12819
▁atın	-12820
▁ehti	-12821
▁eğri	-12822
▁gübr	-12823
▁hoca	-12824
▁icra	-12825
▁içme	-12826
▁yalı	-12827
▁zarf	-12828
▁Ülke	-12829
akları	-12830
amızda	-12831
düğüne	-12832
etleri	-12833
ketbol	-12834
üyordu	-12835
əsinin	-12836
▁Danim	-12837
▁Hukuk	-12838
▁Kolom	-12839
▁Mayıs	-12840
▁Mesel	-12841
▁Nefes	-12842
▁Nehri	-12843
▁Neler	-12844
▁Polis	-12845
▁World	-12846
▁aksan	-12847
▁boşal	-12848
▁denli	-12849
▁eşlik	-12850
▁galer	-12851
▁gələn	-12852
▁hadis	-12853
▁ikili	-12854
▁istir	-12855
▁kabar	-12856
▁manev	-12857
▁muyuz	-12858
▁müfre	-12859
▁mühim	-12860
▁panik	-12861
▁pompa	-12862
▁sağda	-12863
▁sırrı	-12864
▁tuttu	-12865
▁xatır	-12866
▁yedek	-12867
▁yetim	-12868
▁Çinli	-12869
▁çekin	-12870
▁önlem	-12871
masıydı	-12872
muyoruz	-12873
▁Disney	-12874
▁Kısaca	-12875
▁Nereye	-12876
▁Tanzan	-12877
▁bilmez	-12878
▁edəcək	-12879
▁format	-12880
▁genler	-12881
▁gömülü	-12882
▁hızını	-12883
▁izleye	-12884
▁işinde	-12885
▁kadarı	-12886
▁kurşun	-12887
▁mahrum	-12888
▁okuyan	-12889
▁ortama	-12890
▁oturma	-12891
▁randev	-12892
▁samimi	-12893
▁servet	-12894
▁sonrak	-12895
▁sunucu	-12896
▁uğultu	-12897
▁yapıda	-12898
▁yüzgeç	-12899
▁Örgütü	-12900
mayacağı	-12901
▁Dediğim	-12902
▁Konuşma	-12903
▁aydınla	-12904
▁becerik	-12905
▁beyzbol	-12906
▁bilinci	-12907
▁biriyim	-12908
▁döngüsü	-12909
▁günleri	-12910
▁okuldan	-12911
▁olmazsa	-12912
▁yolunun	-12913
▁çekerek	-12914
larınızda	-12915
lendiğini	-12916
uyorlardı	-12917
▁Leonardo	-12918
▁Mühendis	-12919
▁aletleri	-12920
▁göremeye	-12921
▁ilişkiyi	-12922
▁izlemeye	-12923
▁kafatası	-12924
▁koydular	-12925
▁lezzetli	-12926
▁merkezli	-12927
▁müslüman	-12928
▁nelerdir	-12929
▁sinirsel	-12930
▁ticareti	-12931
▁yaşlanma	-12932
▁İnsanlık	-12933
▁atmosferi	-12934
▁bağlanmış	-12935
▁doğaçlama	-12936
▁düşünürüm	-12937
▁ekonomiye	-12938
▁ilerleyen	-12939
▁kameralar	-12940
▁koşulları	-12941
▁yaşıyordu	-12942
▁Şaşırtıcı	-12943
▁alanlarını	-12944
▁anlattığım	-12945
▁baktığınız	-12946
▁deneyimler	-12947
▁olabilirim	-12948
▁seçenekler	-12949
▁verdiğiniz	-12950
▁verimlilik	-12951
▁yenilikler	-12952
▁yeteneğine	-12953
▁çalıştılar	-12954
▁başlarsınız	-12955
▁ediyorlardı	-12956
▁parçacıklar	-12957
▁sağlıyorlar	-12958
▁versiyonunu	-12959
▁dinleyiciler	-12960
▁geldiğimizde	-12961
▁gördüğünüzde	-12962
▁hayatlarında	-12963
▁etrafımızdaki	-12964
▁teknolojisini	-12965
▁arkadaşlarımın	-12966
▁sağlayabiliriz	-12967
▁çocuklarımızın	-12968
▁hissediyorsunuz	-12969
qq	-12970
aha	-12971
aps	-12972
cın	-12973
ebe	-12974
ero	-12975
ses	-12976
uth	-12977
▁38	-12978
▁72	-12979
▁kü	-12980
bilg	-12981
kins	-12982
leki	-12983
unma	-12984
ğine	-12985
ıkır	-12986
▁Alg	-12987
▁Ata	-12988
▁Nüf	-12989
▁Saç	-12990
▁Tra	-12991
▁aff	-12992
▁alb	-12993
▁bık	-12994
▁döl	-12995
▁həl	-12996
▁lek	-12997
▁pre	-12998
▁təc	-12999
▁xoş	-13000
▁yığ	-13001
▁zah	-13002
▁ını	-13003
mates	-13004
çeşit	-13005
ötesi	-13006
əyyən	-13007
▁1998	-13008
▁Bell	-13009
▁Clin	-13010
▁Coca	-13011
▁Hong	-13012
▁Masa	-13013
▁Renk	-13014
▁dışa	-13015
▁geni	-13016
▁hâli	-13017
▁kılı	-13018
▁mide	-13019
▁məşğ	-13020
▁nota	-13021
▁qüvv	-13022
▁sars	-13023
▁soya	-13024
▁tema	-13025
▁uğur	-13026
▁yeme	-13027
dilmiş	-13028
usuyla	-13029
▁Altın	-13030
▁Bağım	-13031
▁Köpek	-13032
▁Sudan	-13033
▁altta	-13034
▁anaya	-13035
▁biziz	-13036
▁cihad	-13037
▁diger	-13038
▁gereç	-13039
▁gümüş	-13040
▁ilave	-13041
▁kalbi	-13042
▁koyan	-13043
▁kucuk	-13044
▁param	-13045
▁pürüz	-13046
▁resep	-13047
▁sergi	-13048
▁seçer	-13049
▁sürer	-13050
▁vardi	-13051
▁zafer	-13052
▁çağda	-13053
▁öteye	-13054
▁şekle	-13055
▁şunun	-13056
iyorduk	-13057
▁Batılı	-13058
▁Davran	-13059
▁Somali	-13060
▁Sonsuz	-13061
▁amatör	-13062
▁açıldı	-13063
▁bizzat	-13064
▁böceği	-13065
▁büyülü	-13066
▁dengel	-13067
▁formül	-13068
▁həmişə	-13069
▁iyiler	-13070
▁kaplan	-13071
▁neleri	-13072
▁planet	-13073
▁robotu	-13074
▁ruhsal	-13075
▁seçtik	-13076
▁slogan	-13077
▁teorik	-13078
▁websit	-13079
▁yarışı	-13080
▁Dünyaya	-13081
▁Körfezi	-13082
▁birkaçı	-13083
▁bırakan	-13084
▁eğilimi	-13085
▁farkede	-13086
▁fazlaca	-13087
▁getirme	-13088
▁görüldü	-13089
▁hakkını	-13090
▁hükumet	-13091
▁kaplumb	-13092
▁kardeşi	-13093
▁kimseyi	-13094
▁kitapta	-13095
▁koymaya	-13096
▁kılıyor	-13097
▁kızlara	-13098
▁niyetli	-13099
▁sembolü	-13100
▁senenin	-13101
▁tutmaya	-13102
▁uçaklar	-13103
▁verebil	-13104
▁çekmeye	-13105
▁çıkarın	-13106
▁üstelik	-13107
laştırmak	-13108
▁aklımıza	-13109
▁alacağım	-13110
▁almaları	-13111
▁apartman	-13112
▁aranızda	-13113
▁arıyoruz	-13114
▁beynimiz	-13115
▁beyniniz	-13116
▁dinliyor	-13117
▁dönersek	-13118
▁gerekmez	-13119
▁gönderdi	-13120
▁harcadım	-13121
▁hayalini	-13122
▁hazırlık	-13123
▁hikâyeyi	-13124
▁istismar	-13125
▁lazımdır	-13126
▁modelini	-13127
▁muhafaza	-13128
▁nerdeyse	-13129
▁odasında	-13130
▁olmamalı	-13131
▁tanıştır	-13132
▁titreşim	-13133
▁topladık	-13134
▁transist	-13135
▁verilmiş	-13136
▁verirler	-13137
▁vermişti	-13138
▁yararlan	-13139
▁yazdığım	-13140
▁çektiğim	-13141
▁ürettiği	-13142
▁anlaşılır	-13143
▁atmosfere	-13144
▁ayrıntılı	-13145
▁denizaltı	-13146
▁değerinde	-13147
▁dünyamızı	-13148
▁hastalara	-13149
▁herkesten	-13150
▁ilerledik	-13151
▁konuşmamı	-13152
▁milyardan	-13153
▁olduğuyla	-13154
▁soruyorum	-13155
▁varlıklar	-13156
▁vücudunun	-13157
▁yaramıyor	-13158
▁çıkarmaya	-13159
▁ürünlerin	-13160
▁bahsettiği	-13161
▁belirtiler	-13162
▁duydukları	-13163
▁hatırlamak	-13164
▁moleküller	-13165
▁sorarsanız	-13166
▁anlaşılması	-13167
▁bahsederken	-13168
▁demokrasiyi	-13169
▁gerçekliğin	-13170
▁insanlardır	-13171
▁izleyiciler	-13172
▁oluşturacak	-13173
▁toplumlarda	-13174
▁zorundaydık	-13175
▁insanoğlunun	-13176
▁olduklarında	-13177
▁sistemlerini	-13178
▁araştırmaları	-13179
▁politikacılar	-13180
Bu	-13181
OL	-13182
cy	-13183
dr	-13184
ahh	-13185
eph	-13186
ett	-13187
fez	-13188
fır	-13189
gra	-13190
lüy	-13191
nes	-13192
pon	-13193
uzu	-13194
▁AL	-13195
▁AT	-13196
▁IB	-13197
▁IM	-13198
▁JF	-13199
▁Pi	-13200
amam	-13201
esse	-13202
etli	-13203
ezya	-13204
idin	-13205
inip	-13206
kton	-13207
uğla	-13208
▁Cap	-13209
▁Cra	-13210
▁Dip	-13211
▁Kem	-13212
▁Koc	-13213
▁Nok	-13214
▁Val	-13215
▁Zim	-13216
▁ast	-13217
▁biş	-13218
▁muk	-13219
▁viz	-13220
▁Çek	-13221
erkel	-13222
incil	-13223
luydu	-13224
manya	-13225
organ	-13226
takım	-13227
teyiz	-13228
ustos	-13229
yarak	-13230
ğinin	-13231
▁1930	-13232
▁Brad	-13233
▁Hang	-13234
▁Vücu	-13235
▁atıp	-13236
▁dert	-13237
▁itfa	-13238
▁kuşk	-13239
▁mamm	-13240
▁matr	-13241
▁otop	-13242
▁reha	-13243
▁site	-13244
▁umud	-13245
▁vadi	-13246
▁yağı	-13247
▁çare	-13248
▁ürem	-13249
landım	-13250
ünüzün	-13251
▁Brown	-13252
▁Düzen	-13253
▁Görev	-13254
▁Kazan	-13255
▁Kuran	-13256
▁Kurum	-13257
▁Parça	-13258
▁Yapay	-13259
▁aşina	-13260
▁bilem	-13261
▁cisim	-13262
▁denek	-13263
▁dilde	-13264
▁etdik	-13265
▁izlem	-13266
▁iştir	-13267
▁kurut	-13268
▁mıyım	-13269
▁oyuna	-13270
▁rejim	-13271
▁sağdu	-13272
▁solda	-13273
▁tutup	-13274
▁xəbər	-13275
▁yanda	-13276
▁çıkma	-13277
▁ölçer	-13278
eceğimi	-13279
iydiler	-13280
lamayan	-13281
liğimiz	-13282
ılmamış	-13283
▁Aristo	-13284
▁Bakter	-13285
▁Göster	-13286
▁Hawaii	-13287
▁adıyla	-13288
▁bağlar	-13289
▁fırtın	-13290
▁genomu	-13291
▁hedefe	-13292
▁izleyi	-13293
▁işitme	-13294
▁kalmaz	-13295
▁kolunu	-13296
▁kurucu	-13297
▁lerden	-13298
▁lideri	-13299
▁manşet	-13300
▁renkte	-13301
▁sözünü	-13302
▁sınıfı	-13303
▁travma	-13304
▁yaptın	-13305
isyenler	-13306
ılmasını	-13307
▁Adaları	-13308
▁Bakalım	-13309
▁Bugünkü	-13310
▁Johnson	-13311
▁birbiri	-13312
▁bitiyor	-13313
▁deneyin	-13314
▁doktoru	-13315
▁dokunul	-13316
▁dolaşan	-13317
▁doldura	-13318
▁dönecek	-13319
▁dönmeye	-13320
▁eşittir	-13321
▁içeriye	-13322
▁korktuğ	-13323
▁kutunun	-13324
▁medyada	-13325
▁okuyucu	-13326
▁sadakat	-13327
▁sahiden	-13328
▁sağdaki	-13329
▁temsili	-13330
▁varolan	-13331
▁çelişki	-13332
▁çıkarır	-13333
▁ölümüne	-13334
lerinizle	-13335
▁Brooklyn	-13336
▁Hastalık	-13337
▁Kısacası	-13338
▁Yüzlerce	-13339
▁alıyordu	-13340
▁açıkladı	-13341
▁başlattı	-13342
▁ettirmek	-13343
▁görünüşü	-13344
▁hayattan	-13345
▁inanmaya	-13346
▁kanıtlar	-13347
▁karışımı	-13348
▁kuşların	-13349
▁pantolon	-13350
▁petrolün	-13351
▁ulaşacak	-13352
▁uzmanlar	-13353
▁yarısına	-13354
▁yükseldi	-13355
▁öğrenmiş	-13356
▁şansınız	-13357
▁bakılırsa	-13358
▁büyümenin	-13359
▁hücrelere	-13360
▁kaldığını	-13361
▁karakteri	-13362
▁konuşalım	-13363
▁kurallara	-13364
▁patlaması	-13365
▁yapmanızı	-13366
▁yarısının	-13367
▁çoğunuzun	-13368
▁çözümleri	-13369
layabilirim	-13370
▁Bugünlerde	-13371
▁Geographic	-13372
▁getirdiler	-13373
▁gittiğinde	-13374
▁hareketsiz	-13375
▁hayatınızı	-13376
▁hayvanlara	-13377
▁olağandışı	-13378
▁türlerinin	-13379
▁yayınlandı	-13380
▁yıldızları	-13381
▁çevreleyen	-13382
▁Şimdilerde	-13383
biliyorsunuz	-13384
▁araştırması	-13385
▁düşünceleri	-13386
▁düşündüğünü	-13387
▁getirebilir	-13388
▁gösterdiler	-13389
▁kaynakların	-13390
▁kelimesinin	-13391
▁kuruluşları	-13392
▁tartışmalar	-13393
▁topluluklar	-13394
▁yaptığınızı	-13395
▁yetişkinler	-13396
▁başlayacağız	-13397
▁edebiliyoruz	-13398
▁istemezsiniz	-13399
▁kullanılarak	-13400
▁televizyonda	-13401
▁yerleştirmek	-13402
▁bahsetmiyorum	-13403
▁ihtiyaçlarını	-13404
▁yapacaklarını	-13405
▁yapılabilecek	-13406
▁yeteneklerini	-13407
▁arkadaşlarının	-13408
-6	-13409
bə	-13410
çü	-13411
SPR	-13412
rüb	-13413
sür	-13414
xtə	-13415
üşü	-13416
▁ED	-13417
▁MT	-13418
▁Op	-13419
anik	-13420
arka	-13421
arth	-13422
ayol	-13423
dist	-13424
sinə	-13425
ston	-13426
▁Aya	-13427
▁Heç	-13428
▁Hip	-13429
▁Kav	-13430
▁Kaz	-13431
▁Müş	-13432
▁Nep	-13433
▁Pay	-13434
▁Sky	-13435
▁Teh	-13436
▁dub	-13437
▁img	-13438
▁koç	-13439
▁mün	-13440
▁ney	-13441
▁nor	-13442
▁pig	-13443
▁tom	-13444
▁yır	-13445
▁Şüp	-13446
asiya	-13447
bleme	-13448
burgh	-13449
ikler	-13450
kiler	-13451
laşan	-13452
leket	-13453
right	-13454
ümden	-13455
▁1999	-13456
▁Ateş	-13457
▁Dağı	-13458
▁Life	-13459
▁Umut	-13460
▁Uzak	-13461
▁West	-13462
▁açıq	-13463
▁boşa	-13464
▁hack	-13465
▁kâğı	-13466
▁onca	-13467
▁riya	-13468
▁stok	-13469
▁yiye	-13470
ecilik	-13471
luğuna	-13472
xtəlif	-13473
▁Aşama	-13474
▁Bebek	-13475
▁Bunda	-13476
▁Saray	-13477
▁Vakfı	-13478
▁Yunus	-13479
▁bilmə	-13480
▁borsa	-13481
▁boğul	-13482
▁deyin	-13483
▁deyir	-13484
▁ekler	-13485
▁gübre	-13486
▁ikram	-13487
▁inşaa	-13488
▁izini	-13489
▁kafes	-13490
▁katal	-13491
▁konut	-13492
▁koyma	-13493
▁manip	-13494
▁maşın	-13495
▁nazar	-13496
▁qayda	-13497
▁rutin	-13498
▁rəqəm	-13499
▁samim	-13500
▁sağır	-13501
▁selam	-13502
▁seven	-13503
▁soluk	-13504
▁yaras	-13505
▁öncek	-13506
▁özünü	-13507
▁şükür	-13508
digimiz	-13509
eticede	-13510
lektüel	-13511
tiğimde	-13512
ılmadık	-13513
▁Akıllı	-13514
▁CRISPR	-13515
▁Maldiv	-13516
▁Temmuz	-13517
▁Yağmur	-13518
▁Yeryüz	-13519
▁anladı	-13520
▁açılan	-13521
▁bakımı	-13522
▁belgel	-13523
▁benims	-13524
▁demeye	-13525
▁dondur	-13526
▁gayret	-13527
▁güçsüz	-13528
▁hatalı	-13529
▁hormon	-13530
▁hukuki	-13531
▁ikimiz	-13532
▁isabet	-13533
▁mahkem	-13534
▁partik	-13535
▁tişört	-13536
▁tuttur	-13537
▁uzaylı	-13538
▁yazmış	-13539
▁çarpan	-13540
▁çeyrek	-13541
▁çizelg	-13542
lanırlar	-13543
▁Android	-13544
▁Clinton	-13545
▁Devrimi	-13546
▁ailemin	-13547
▁aksiyon	-13548
▁almamız	-13549
▁beynine	-13550
▁bulanık	-13551
▁bulunma	-13552
▁bırakma	-13553
▁bırakır	-13554
▁doluydu	-13555
▁gelirli	-13556
▁kuruldu	-13557
▁mantığı	-13558
▁maraqlı	-13559
▁okumayı	-13560
▁oturdum	-13561
▁saatler	-13562
▁seyirci	-13563
▁toprağa	-13564
▁turuncu	-13565
▁çekilen	-13566
▁çocuğum	-13567
▁ölümsüz	-13568
bileceğin	-13569
edersiniz	-13570
ladıkları	-13571
lamayacak	-13572
▁Karmaşık	-13573
▁alandaki	-13574
▁binaları	-13575
▁edemeyiz	-13576
▁filmleri	-13577
▁gizlilik	-13578
▁gördüler	-13579
▁halkının	-13580
▁herkesle	-13581
▁hoparlör	-13582
▁izlerken	-13583
▁kalmıştı	-13584
▁kapsayan	-13585
▁ortaklık	-13586
▁sorusunu	-13587
▁söylenir	-13588
▁tedaviyi	-13589
▁uzmanlık	-13590
▁vermiyor	-13591
▁yaşlarda	-13592
▁Şehirler	-13593
▁şiddetle	-13594
elerindeki	-13595
larınızdan	-13596
▁Kendinizi	-13597
▁anlamanın	-13598
▁bahsettim	-13599
▁bitkileri	-13600
▁bölgesine	-13601
▁deneyelim	-13602
▁deneyleri	-13603
▁diğerinin	-13604
▁düzeltmek	-13605
▁ettiğinde	-13606
▁evlerinde	-13607
▁inandığım	-13608
▁kavramını	-13609
▁kayıtları	-13610
▁olabilmek	-13611
▁robotları	-13612
▁soruların	-13613
▁zorlaştır	-13614
▁Şirketler	-13615
▁şehirdeki	-13616
▁durumdayız	-13617
▁gelecektir	-13618
▁hazırlamak	-13619
▁isimlerini	-13620
▁keşfetmeye	-13621
▁konuşmadan	-13622
▁odaklanmak	-13623
▁odaklanmış	-13624
▁seyirciler	-13625
▁süreliğine	-13626
▁teknikleri	-13627
▁verilerini	-13628
▁yetenekler	-13629
▁Çoğunlukla	-13630
▁öncesinden	-13631
▁hastalığına	-13632
▁kullanmadan	-13633
▁kullanımını	-13634
▁meslektaşım	-13635
▁miktarlarda	-13636
▁rahatsızlık	-13637
▁resimlerini	-13638
▁yaşamlarını	-13639
▁çocuklardan	-13640
▁bakıldığında	-13641
▁bulundukları	-13642
▁genişliğinde	-13643
▁hayvanlardan	-13644
▁yapacağımızı	-13645
▁yapamazsınız	-13646
▁yaptığınızda	-13647
▁yapabiliyoruz	-13648
▁çocuklarımızı	-13649
BC	-13650
yə	-13651
ake	-13652
bai	-13653
bor	-13654
fab	-13655
gie	-13656
hag	-13657
ibe	-13658
irt	-13659
lət	-13660
riz	-13661
sor	-13662
vin	-13663
▁96	-13664
▁Bh	-13665
▁CR	-13666
▁Hy	-13667
▁Nə	-13668
▁Ph	-13669
▁ec	-13670
▁nu	-13671
cela	-13672
este	-13673
ight	-13674
iyla	-13675
king	-13676
okim	-13677
ydik	-13678
önük	-13679
ümin	-13680
üzün	-13681
ıtma	-13682
▁Etk	-13683
▁Lou	-13684
▁Rek	-13685
▁deş	-13686
▁haş	-13687
▁hij	-13688
▁inç	-13689
▁nar	-13690
▁Çiz	-13691
eceli	-13692
iddet	-13693
ilmek	-13694
kırım	-13695
lamam	-13696
lamaq	-13697
layış	-13698
lığım	-13699
tatör	-13700
▁2014	-13701
▁Eğit	-13702
▁Gran	-13703
▁Homo	-13704
▁Snow	-13705
▁Sını	-13706
▁asal	-13707
▁ayık	-13708
▁feet	-13709
▁gözü	-13710
▁kade	-13711
▁kaça	-13712
▁kitl	-13713
▁kost	-13714
▁mahv	-13715
▁okun	-13716
▁reng	-13717
▁sörf	-13718
▁ısıt	-13719
▁Şuna	-13720
çileri	-13721
▁Duvar	-13722
▁Hızlı	-13723
▁akımı	-13724
▁aralı	-13725
▁dördü	-13726
▁evler	-13727
▁ihtiy	-13728
▁kopar	-13729
▁kuran	-13730
▁moral	-13731
▁mütte	-13732
▁oynan	-13733
▁retin	-13734
▁ritim	-13735
▁simdi	-13736
▁stüdy	-13737
▁sözcü	-13738
▁sözde	-13739
▁tehdi	-13740
▁yüzme	-13741
▁yüzyı	-13742
▁Üzgün	-13743
▁ölmek	-13744
dükleri	-13745
dıracak	-13746
emezler	-13747
▁Görsel	-13748
▁Müşter	-13749
▁Rüzgar	-13750
▁Yapmak	-13751
▁basmak	-13752
▁canına	-13753
▁dokusu	-13754
▁embriy	-13755
▁fakült	-13756
▁fiziki	-13757
▁füzyon	-13758
▁gezdir	-13759
▁güçlük	-13760
▁implan	-13761
▁kıskan	-13762
▁lardan	-13763
▁məşğul	-13764
▁oturdu	-13765
▁pekçok	-13766
▁ritüel	-13767
▁sarhoş	-13768
▁yazısı	-13769
▁yemeğe	-13770
▁çektik	-13771
lediğini	-13772
seydiniz	-13773
▁100,000	-13774
▁Aslinda	-13775
▁Atlanta	-13776
▁Basitçe	-13777
▁Görüntü	-13778
▁aklımda	-13779
▁asansör	-13780
▁dilinde	-13781
▁edirlər	-13782
▁etkisiz	-13783
▁geçmeye	-13784
▁harcaya	-13785
▁konserv	-13786
▁konuştu	-13787
▁reaktör	-13788
▁sevgili	-13789
▁soldaki	-13790
▁sızıntı	-13791
▁tarafın	-13792
▁tersini	-13793
▁yazmayı	-13794
▁zavallı	-13795
▁çiftleş	-13796
▁öldüren	-13797
Amerikalı	-13798
abilirler	-13799
amıyorlar	-13800
lanıyordu	-13801
▁Carolina	-13802
▁Dördüncü	-13803
▁Elimizde	-13804
▁Kendiniz	-13805
▁Politika	-13806
▁amacımız	-13807
▁ayakları	-13808
▁bilmeden	-13809
▁dengesiz	-13810
▁düzenlen	-13811
▁iyileşme	-13812
▁kapatmak	-13813
▁nispeten	-13814
▁paylaşan	-13815
▁temelini	-13816
▁toplamda	-13817
▁uğraşmak	-13818
▁verirken	-13819
▁şuradaki	-13820
▁başarıyla	-13821
▁buluyoruz	-13822
▁dalgaları	-13823
▁durumlara	-13824
▁dünyasını	-13825
▁gelişiyor	-13826
▁görüntüyü	-13827
▁gürültülü	-13828
▁isteyecek	-13829
▁içerisine	-13830
▁oluşturma	-13831
▁otururken	-13832
▁psikoloji	-13833
▁sağlamaya	-13834
▁seçimleri	-13835
▁sürecinin	-13836
▁tanıdığım	-13837
▁taraftaki	-13838
▁yöntemler	-13839
▁arabaların	-13840
▁başlıyorum	-13841
▁beynimizin	-13842
▁bugünlerde	-13843
▁demografik	-13844
▁edeceğiniz	-13845
▁enerjisini	-13846
▁gözlerinin	-13847
▁istenmeyen	-13848
▁sevdikleri	-13849
▁sevdiğiniz	-13850
▁tecrübeler	-13851
▁yapılmıştı	-13852
▁yayınlanan	-13853
▁öğrencinin	-13854
▁ülkelerden	-13855
abileceğiniz	-13856
▁deneyimleri	-13857
▁karakterler	-13858
▁söylediğini	-13859
▁sınırlarını	-13860
▁yaşlandıkça	-13861
▁başlayacağım	-13862
▁heyecanlıyım	-13863
▁istediğinizi	-13864
▁oluşturulmuş	-13865
▁yaratıcılığı	-13866
▁çalışmaların	-13867
▁açıklayacağım	-13868
▁değiştirilmiş	-13869
▁yapabileceğim	-13870
-3	-13871
▁#	-13872
box	-13873
dor	-13874
esa	-13875
kun	-13876
not	-13877
oto	-13878
via	-13879
▁64	-13880
▁DV	-13881
▁Fo	-13882
▁cı	-13883
▁eh	-13884
▁gu	-13885
▁ək	-13886
adel	-13887
alın	-13888
biye	-13889
cini	-13890
ekiz	-13891
erry	-13892
etle	-13893
gası	-13894
gelo	-13895
omer	-13896
sama	-13897
stil	-13898
ulus	-13899
üsün	-13900
ətlə	-13901
▁18.	-13902
▁192	-13903
▁IBM	-13904
▁təq	-13905
▁şəx	-13906
bahar	-13907
bilit	-13908
ginia	-13909
isten	-13910
lının	-13911
mazdı	-13912
muşum	-13913
neyse	-13914
osuna	-13915
urlar	-13916
▁Carl	-13917
▁Gala	-13918
▁Ordu	-13919
▁Stor	-13920
▁Uçak	-13921
▁edib	-13922
▁eksi	-13923
▁gore	-13924
▁lens	-13925
▁ster	-13926
▁stil	-13927
▁təsə	-13928
▁yavr	-13929
ağının	-13930
latmak	-13931
üsünün	-13932
▁Milli	-13933
▁Selam	-13934
▁Seçim	-13935
▁Tesla	-13936
▁Tunus	-13937
▁aradı	-13938
▁basıl	-13939
▁cikar	-13940
▁dansı	-13941
▁fırın	-13942
▁ipucu	-13943
▁işsiz	-13944
▁kaşif	-13945
▁kopuk	-13946
▁levha	-13947
▁milim	-13948
▁mucit	-13949
▁reçet	-13950
▁suyla	-13951
▁uçağa	-13952
▁vuruş	-13953
▁yüklü	-13954
▁yüküm	-13955
▁zanne	-13956
▁önder	-13957
celadus	-13958
lamanız	-13959
mayalım	-13960
▁50.000	-13961
▁Edward	-13962
▁Ortada	-13963
▁Saturn	-13964
▁Sekoya	-13965
▁Zimbab	-13966
▁adamdı	-13967
▁alışık	-13968
▁anları	-13969
▁başbak	-13970
▁berber	-13971
▁büyüte	-13972
▁dahası	-13973
▁düzlem	-13974
▁elleri	-13975
▁etdiyi	-13976
▁etkiye	-13977
▁etmeli	-13978
▁gelene	-13979
▁kafası	-13980
▁kardiy	-13981
▁kaydır	-13982
▁kendin	-13983
▁kozmik	-13984
▁kökten	-13985
▁manevi	-13986
▁memeli	-13987
▁saygın	-13988
▁seçmen	-13989
▁söylem	-13990
▁tanrım	-13991
▁tasvir	-13992
▁yelken	-13993
▁yorucu	-13994
▁ödemek	-13995
amıyoruz	-13996
▁amaçlar	-13997
▁anlatıl	-13998
▁açısına	-13999
▁birikim	-14000
▁bulmaca	-14001
▁dolaylı	-14002
▁gecenin	-14003
▁görüşlü	-14004
▁ilerlet	-14005
▁işletim	-14006
▁kızları	-14007
▁nasılsa	-14008
▁obezite	-14009
▁oranına	-14010
▁oğlunun	-14011
▁proqram	-14012
▁riskini	-14013
▁sayının	-14014
▁simetri	-14015
▁takılıp	-14016
▁ucundan	-14017
▁virüsün	-14018
▁zamanım	-14019
▁çektiği	-14020
▁öğrenim	-14021
lamıyorum	-14022
▁Portekiz	-14023
▁Təşəkkür	-14024
▁Virginia	-14025
▁belirler	-14026
▁beyninde	-14027
▁bulmamız	-14028
▁doğruluk	-14029
▁durmadan	-14030
▁düzensiz	-14031
▁eşitliği	-14032
▁festival	-14033
▁genetiği	-14034
▁görmemiş	-14035
▁hedefler	-14036
▁içimizde	-14037
▁kafasını	-14038
▁kalkınma	-14039
▁konferan	-14040
▁kullanıp	-14041
▁mesajlar	-14042
▁olsaydık	-14043
▁oluyorum	-14044
▁parçanın	-14045
▁probleme	-14046
▁sayısına	-14047
▁sınırsız	-14048
▁yaptığın	-14049
▁yazarken	-14050
▁yılların	-14051
▁zihniyet	-14052
▁çarpışma	-14053
▁önümüzde	-14054
▁Alexander	-14055
▁Demokrasi	-14056
▁birincisi	-14057
▁boyutunda	-14058
▁geçtiğini	-14059
▁hissettik	-14060
▁kaldırmak	-14061
▁kararları	-14062
▁karşımıza	-14063
▁konuşabil	-14064
▁konuşmacı	-14065
▁makinenin	-14066
▁mantıksız	-14067
▁odaklanma	-14068
▁okullarda	-14069
▁teknikler	-14070
▁uygulamak	-14071
▁yaratabil	-14072
▁yukarıdan	-14073
▁çalışmada	-14074
▁çoğumuzun	-14075
▁Bildiğimiz	-14076
▁birbirleri	-14077
▁bulursunuz	-14078
▁döndüğümde	-14079
▁fırsatları	-14080
▁harikulade	-14081
▁kaynaklara	-14082
▁kıyafetler	-14083
▁olduğumdan	-14084
▁problemini	-14085
▁sağlayarak	-14086
▁sağlıyoruz	-14087
▁sevdiğimiz	-14088
▁tasarladık	-14089
▁telefonlar	-14090
▁yapacağımı	-14091
▁yetiştiric	-14092
▁çalışırlar	-14093
▁şimdilerde	-14094
▁Başlangıçta	-14095
▁edemezsiniz	-14096
▁ettiğimizde	-14097
▁getiriyoruz	-14098
▁hayvanlarda	-14099
▁matematikçi	-14100
▁matematiğin	-14101
▁tüketiciler	-14102
▁vatandaşlar	-14103
▁verebilecek	-14104
▁biliyorlardı	-14105
▁görselleştir	-14106
▁hücrelerinin	-14107
▁kastediyorum	-14108
▁söylediğimde	-14109
▁toplulukları	-14110
▁çevresindeki	-14111
▁öğreniyorlar	-14112
▁başlıyorsunuz	-14113
▁paylaştığımız	-14114
▁öğretmenlerin	-14115
▁düşündüklerini	-14116
▁kullanıldığını	-14117
▁oluşturuyorlar	-14118
▁teknolojisinin	-14119
▁yapabileceğini	-14120
▁oluşturabiliriz	-14121
ee	-14122
ath	-14123
edy	-14124
etk	-14125
kon	-14126
obo	-14127
oda	-14128
ois	-14129
osa	-14130
own	-14131
rof	-14132
sha	-14133
way	-14134
▁43	-14135
▁Du	-14136
▁Sw	-14137
▁Tu	-14138
▁ök	-14139
edin	-14140
elle	-14141
ende	-14142
like	-14143
osen	-14144
redi	-14145
süne	-14146
usuf	-14147
uzel	-14148
well	-14149
▁1,5	-14150
▁Haw	-14151
▁Kep	-14152
▁Kök	-14153
▁Red	-14154
▁STK	-14155
▁Sak	-14156
▁Sec	-14157
▁cən	-14158
▁gey	-14159
▁inş	-14160
▁olg	-14161
▁rep	-14162
▁sir	-14163
▁sis	-14164
▁çan	-14165
▁çit	-14166
▁üye	-14167
duğun	-14168
landi	-14169
mekti	-14170
mezdi	-14171
mezse	-14172
qları	-14173
rojen	-14174
sayan	-14175
senin	-14176
yerde	-14177
ərkəz	-14178
▁Alas	-14179
▁Cuma	-14180
▁Pren	-14181
▁afet	-14182
▁arke	-14183
▁ayın	-14184
▁dərə	-14185
▁gram	-14186
▁idam	-14187
▁kont	-14188
▁serp	-14189
▁seti	-14190
▁soyu	-14191
▁teyz	-14192
▁yakı	-14193
▁Şura	-14194
amayız	-14195
bildik	-14196
duğuna	-14197
eliydi	-14198
larsak	-14199
mezsek	-14200
miştik	-14201
tığımı	-14202
▁Birey	-14203
▁Craig	-14204
▁Düşük	-14205
▁Endon	-14206
▁Eğlen	-14207
▁Fakir	-14208
▁Günde	-14209
▁Incil	-14210
▁Suudi	-14211
▁Temiz	-14212
▁alfab	-14213
▁axtar	-14214
▁boşan	-14215
▁bütçe	-14216
▁bəlkə	-14217
▁düzin	-14218
▁etdim	-14219
▁gözya	-14220
▁günah	-14221
▁habit	-14222
▁hekim	-14223
▁kasır	-14224
▁kurca	-14225
▁kürek	-14226
▁liman	-14227
▁motif	-14228
▁nakli	-14229
▁sürüş	-14230
▁taciz	-14231
▁tavır	-14232
▁tuğla	-14233
▁yemin	-14234
▁yetki	-14235
▁yürür	-14236
cağının	-14237
laşması	-14238
lərinin	-14239
madığım	-14240
meliler	-14241
ıntılar	-14242
▁Aksine	-14243
▁Esasen	-14244
▁aklına	-14245
▁aslına	-14246
▁bebeği	-14247
▁cazibe	-14248
▁derdim	-14249
▁egemen	-14250
▁garant	-14251
▁kalori	-14252
▁kilise	-14253
▁kimler	-14254
▁kutuya	-14255
▁küçült	-14256
▁okuyor	-14257
▁sokmak	-14258
▁terket	-14259
▁vücuda	-14260
▁yelpaz	-14261
▁yetkin	-14262
▁yorgun	-14263
▁yönünü	-14264
▁çarpma	-14265
lərindən	-14266
▁Avustur	-14267
▁Ağustos	-14268
▁Everest	-14269
▁alttaki	-14270
▁açıklık	-14271
▁boyunda	-14272
▁denetim	-14273
▁elimden	-14274
▁elveriş	-14275
▁etmekle	-14276
▁ettikçe	-14277
▁firması	-14278
▁gençlik	-14279
▁gidebil	-14280
▁işkence	-14281
▁kurulan	-14282
▁muayene	-14283
▁müəyyən	-14284
▁paradok	-14285
▁pigment	-14286
▁röntgen	-14287
▁savaşan	-14288
▁sektörü	-14289
▁ulaştım	-14290
▁çevrili	-14291
▁çizgisi	-14292
lamalıyız	-14293
landırıcı	-14294
lanmasını	-14295
▁Afrikada	-14296
▁Tanzanya	-14297
▁anlatıcı	-14298
▁becerisi	-14299
▁bilmeniz	-14300
▁birtakım	-14301
▁bulundum	-14302
▁dakikalı	-14303
▁değildik	-14304
▁dirençli	-14305
▁dünyayla	-14306
▁geldiğim	-14307
▁gönderme	-14308
▁gündelik	-14309
▁haftanın	-14310
▁inceleme	-14311
▁iskeleti	-14312
▁kadarını	-14313
▁olduktan	-14314
▁protokol	-14315
▁sessizce	-14316
▁sofistik	-14317
▁tepesine	-14318
▁terörizm	-14319
▁təsəvvür	-14320
▁yaradıcı	-14321
▁zararsız	-14322
▁ziyarete	-14323
▁şimdilik	-14324
▁ailelerin	-14325
▁alabilmek	-14326
▁ameliyatı	-14327
▁anlaşıldı	-14328
▁bilgilere	-14329
▁buralarda	-14330
▁duruyordu	-14331
▁düşününce	-14332
▁farklıydı	-14333
▁geçiyoruz	-14334
▁gördüğünü	-14335
▁istemedim	-14336
▁karadelik	-14337
▁karşılığı	-14338
▁kirliliği	-14339
▁koyuyoruz	-14340
▁kurumları	-14341
▁kısıtlama	-14342
▁maymunlar	-14343
▁oksitosin	-14344
▁organları	-14345
▁programcı	-14346
▁sahipliği	-14347
▁verilerle	-14348
▁veritaban	-14349
▁yapmıştım	-14350
▁yapısının	-14351
▁Yunanistan	-14352
▁becerileri	-14353
▁buldukları	-14354
▁bulunduğum	-14355
▁ellerinden	-14356
▁geliştirdi	-14357
▁gönderiyor	-14358
▁hazırladık	-14359
▁kalmayacak	-14360
▁kurduğumuz	-14361
▁laboratuar	-14362
▁sanatçılar	-14363
▁seviyesini	-14364
▁sokaklarda	-14365
▁yapardınız	-14366
▁zorlukları	-14367
▁zorundaydı	-14368
bileceğinden	-14369
▁arkadaşımın	-14370
▁biçimlendir	-14371
▁gezegenleri	-14372
▁görünebilir	-14373
▁hayatımızda	-14374
▁hayatınızda	-14375
▁kelimelerin	-14376
▁kombinasyon	-14377
▁kullandılar	-14378
▁kullanırlar	-14379
▁taşınabilir	-14380
▁verebiliriz	-14381
▁yapacağınız	-14382
▁yaşadığınız	-14383
▁görünüyorlar	-14384
▁olduğumuzdan	-14385
▁teknolojimiz	-14386
▁değiştirmemiz	-14387
▁yaratabiliriz	-14388
▁hastalıklardan	-14389
CA	-14390
IA	-14391
ct	-14392
ph	-14393
bek	-14394
ena	-14395
fay	-14396
giz	-14397
hop	-14398
ily	-14399
itz	-14400
sar	-14401
slü	-14402
tic	-14403
yıq	-14404
çıl	-14405
ısa	-14406
şan	-14407
▁37	-14408
▁AG	-14409
▁fə	-14410
▁ut	-14411
hild	-14412
üsüz	-14413
şete	-14414
ədən	-14415
▁Buy	-14416
▁Gro	-14417
▁Hum	-14418
▁Kel	-14419
▁Kuv	-14420
▁McC	-14421
▁Mum	-14422
▁Pol	-14423
▁Rah	-14424
▁Tip	-14425
▁Tıb	-14426
▁Vik	-14427
▁Yum	-14428
▁ate	-14429
▁dax	-14430
▁egz	-14431
▁qan	-14432
▁ret	-14433
▁val	-14434
▁yin	-14435
▁Çık	-14436
▁öyk	-14437
istan	-14438
ləyir	-14439
opher	-14440
▁Aran	-14441
▁Bali	-14442
▁Benj	-14443
▁GSMH	-14444
▁Lego	-14445
▁bağı	-14446
▁deza	-14447
▁giys	-14448
▁hası	-14449
▁kabl	-14450
▁müze	-14451
▁real	-14452
▁rəng	-14453
▁seyr	-14454
▁takv	-14455
▁vaat	-14456
▁üzüm	-14457
▁Şiir	-14458
ceğine	-14459
dükten	-14460
landık	-14461
lüğüne	-14462
muştur	-14463
tasyon	-14464
tiğimi	-14465
tüğünü	-14466
tırlar	-14467
ımızla	-14468
▁Alkis	-14469
▁Kutup	-14470
▁Mesaj	-14471
▁Yargı	-14472
▁Yarın	-14473
▁abart	-14474
▁akust	-14475
▁aygıt	-14476
▁daimi	-14477
▁dizil	-14478
▁formu	-14479
▁haydi	-14480
▁huylu	-14481
▁ihmal	-14482
▁klavy	-14483
▁kukla	-14484
▁kütlə	-14485
▁mağar	-14486
▁nakit	-14487
▁penis	-14488
▁periy	-14489
▁piyas	-14490
▁sevme	-14491
▁sperm	-14492
▁süreg	-14493
▁sıkça	-14494
▁telek	-14495
▁çözme	-14496
▁İkisi	-14497
diyiniz	-14498
lamıştı	-14499
lemeler	-14500
malılar	-14501
▁Alaska	-14502
▁Bakanı	-14503
▁Kardeş	-14504
▁Monter	-14505
▁anımsa	-14506
▁bedeli	-14507
▁beyine	-14508
▁binaya	-14509
▁böbrek	-14510
▁dersin	-14511
▁dostum	-14512
▁elbise	-14513
▁farkli	-14514
▁gecede	-14515
▁hekayə	-14516
▁hırsız	-14517
▁kafama	-14518
▁kalktı	-14519
▁karmaş	-14520
▁katıla	-14521
▁kondom	-14522
▁metrop	-14523
▁pekala	-14524
▁planda	-14525
▁sokağa	-14526
▁sıraya	-14527
▁tabiat	-14528
▁tablet	-14529
▁taslak	-14530
▁tepeye	-14531
▁ulaşma	-14532
▁yüzler	-14533
▁zahmet	-14534
▁üretme	-14535
ilerinde	-14536
ilmesine	-14537
saydınız	-14538
yacaktır	-14539
▁Kariyer	-14540
▁Mandela	-14541
▁Patlama	-14542
▁argüman	-14543
▁ayrılır	-14544
▁davrana	-14545
▁denizde	-14546
▁direnci	-14547
▁diyabet	-14548
▁domates	-14549
▁farenin	-14550
▁gidişat	-14551
▁gündeme	-14552
▁herşeye	-14553
▁kadarki	-14554
▁karmaşa	-14555
▁kültüre	-14556
▁orjinal	-14557
▁prostat	-14558
▁sorduğu	-14559
▁sorulan	-14560
▁sorunla	-14561
▁sunduğu	-14562
▁sıkışık	-14563
▁tabanlı	-14564
▁türünün	-14565
▁videosu	-14566
▁yazılan	-14567
▁yeraltı	-14568
▁Önceden	-14569
▁çizgili	-14570
▁İzlanda	-14571
lanmasına	-14572
▁Davranış	-14573
▁Vatandaş	-14574
▁askerler	-14575
▁avantajı	-14576
▁büyüktür	-14577
▁destekle	-14578
▁dinleyen	-14579
▁diğerini	-14580
▁gelirken	-14581
▁gerçeğin	-14582
▁giderler	-14583
▁gittiğim	-14584
▁hepimize	-14585
▁kolektif	-14586
▁müttefik	-14587
▁okyanusu	-14588
▁olmaktır	-14589
▁olmamıza	-14590
▁olmamızı	-14591
▁oynarken	-14592
▁sebebini	-14593
▁simetrik	-14594
▁sıfırdan	-14595
▁yapışkan	-14596
▁şartları	-14597
bilecekler	-14598
lanıyorlar	-14599
▁Enceladus	-14600
▁Sanıyorum	-14601
▁başlaması	-14602
▁boyutları	-14603
▁bölümleri	-14604
▁büyüdükçe	-14605
▁detayları	-14606
▁edilmişti	-14607
▁fantastik	-14608
▁grupların	-14609
▁götürecek	-14610
▁hepsinden	-14611
▁içgüdüsel	-14612
▁kalabilir	-14613
▁mikroplar	-14614
▁nörolojik	-14615
▁ortalıkta	-14616
▁sofistike	-14617
▁tartışmak	-14618
▁yakınında	-14619
▁yerlerini	-14620
▁öldürüyor	-14621
ladığımızda	-14622
▁ayrımcılık	-14623
▁bağlamında	-14624
▁başlayınca	-14625
▁benziyordu	-14626
▁biliminsan	-14627
▁dezavantaj	-14628
▁düzenlemek	-14629
▁gereksinim	-14630
▁incelemeye	-14631
▁işaretleri	-14632
▁mahremiyet	-14633
▁paylaşmaya	-14634
▁soruyorlar	-14635
▁tartışmalı	-14636
▁yaptığında	-14637
▁yükseliyor	-14638
▁çocuklarım	-14639
▁öğretmenin	-14640
▁alanlarının	-14641
▁anlatıyorum	-14642
▁görüntüsünü	-14643
▁tarihindeki	-14644
▁yaşımdayken	-14645
▁dakikalığına	-14646
▁düzenlemeler	-14647
▁endişelendir	-14648
▁gösterebilir	-14649
▁ilgilendiren	-14650
▁kullanacağız	-14651
▁parçacıkları	-14652
▁zamanlarında	-14653
▁oluşturduğumuz	-14654
▁=	-14655
all	-14656
boy	-14657
ebb	-14658
kuş	-14659
lap	-14660
nan	-14661
ure	-14662
üğü	-14663
▁52	-14664
▁AK	-14665
▁Ir	-14666
▁Ri	-14667
▁dı	-14668
▁om	-14669
▁Ən	-14670
▁əm	-14671
edür	-14672
isim	-14673
iylə	-14674
laşa	-14675
lesi	-14676
liya	-14677
phia	-14678
tion	-14679
ülür	-14680
ırıl	-14681
▁900	-14682
▁Ang	-14683
▁Beb	-14684
▁Bru	-14685
▁Had	-14686
[...]
