<unk>	0
<s>	0
</s>	0
▁t	-0
▁th	-1
▁a	-2
in	-3
▁,	-4
▁w	-5
er	-6
▁the	-7
▁o	-8
▁.	-9
▁s	-10
at	-11
nd	-12
re	-13
ou	-14
▁&	-15
▁c	-16
is	-17
it	-18
▁b	-19
os	-20
en	-21
ing	-22
▁m	-23
▁h	-24
on	-25
ap	-26
▁to	-27
▁p	-28
es	-29
▁f	-30
an	-31
▁d	-32
▁of	-33
or	-34
apos	-35
ot	-36
ll	-37
▁in	-38
▁I	-39
ed	-40
▁and	-41
▁l	-42
ar	-43
▁that	-44
▁y	-45
om	-46
▁g	-47
as	-48
ic	-49
le	-50
qu	-51
ve	-52
▁you	-53
al	-54
▁n	-55
us	-56
▁wh	-57
▁A	-58
▁e	-59
ow	-60
▁is	-61
ut	-62
▁be	-63
▁we	-64
ion	-65
quot	-66
▁it	-67
et	-68
ent	-69
▁T	-70
ere	-71
▁re	-72
ct	-73
▁on	-74
ver	-75
ld	-76
gh	-77
ay	-78
id	-79
▁Th	-80
▁ha	-81
▁And	-82
all	-83
im	-84
▁this	-85
ur	-86
▁S	-87
ly	-88
▁st	-89
ch	-90
ke	-91
ro	-92
ce	-93
ter	-94
▁for	-95
▁W	-96
if	-97
se	-98
▁was	-99
ir	-100
am	-101
▁an	-102
op	-103
▁are	-104
ith	-105
▁do	-106
ally	-107
th	-108
▁with	-109
oo	-110
▁have	-111
▁ab	-112
▁u	-113
▁se	-114
st	-115
ra	-116
▁they	-117
▁li	-118
▁can	-119
▁k	-120
ri	-121
▁—	-122
ation	-123
▁B	-124
▁as	-125
out	-126
▁so	-127
ght	-128
use	-129
▁com	-130
▁wor	-131
ad	-132
▁go	-133
very	-134
ould	-135
▁So	-136
▁what	-137
▁?	-138
▁he	-139
▁me	-140
▁at	-141
▁ne	-142
ill	-143
▁sh	-144
▁about	-145
▁not	-146
ant	-147
ge	-148
ol	-149
il	-150
ust	-151
ul	-152
ore	-153
▁ex	-154
▁all	-155
▁j	-156
▁The	-157
ers	-158
est	-159
▁ch	-160
▁my	-161
▁de	-162
ause	-163
▁som	-164
▁pro	-165
▁fr	-166
▁or	-167
ear	-168
▁We	-169
▁pe	-170
um	-171
▁there	-172
art	-173
ople	-174
▁con	-175
ig	-176
ck	-177
▁like	-178
ure	-179
ess	-180
▁L	-181
ate	-182
▁It	-183
ity	-184
▁people	-185
▁one	-186
▁N	-187
ect	-188
▁from	-189
▁our	-190
ist	-191
ble	-192
▁)	-193
▁(	-194
▁kn	-195
▁ma	-196
▁us	-197
▁but	-198
ive	-199
▁bec	-200
▁M	-201
rou	-202
ind	-203
ies	-204
▁al	-205
un	-206
▁v	-207
▁out	-208
ink	-209
▁:	-210
▁te	-211
▁H	-212
▁just	-213
pl	-214
▁C	-215
ook	-216
▁know	-217
ide	-218
▁see	-219
▁thing	-220
▁But	-221
▁them	-222
▁sp	-223
and	-224
her	-225
▁these	-226
▁if	-227
▁up	-228
od	-229
▁very	-230
ort	-231
▁think	-232
▁pl	-233
▁who	-234
▁by	-235
▁Y	-236
ci	-237
▁get	-238
el	-239
▁when	-240
ich	-241
one	-242
▁act	-243
ain	-244
▁1	-245
▁r	-246
▁more	-247
▁int	-248
▁going	-249
▁had	-250
▁some	-251
▁because	-252
em	-253
▁year	-254
▁im	-255
ost	-256
og	-257
▁tim	-258
▁Wh	-259
▁your	-260
▁would	-261
au	-262
ie	-263
▁tr	-264
ose	-265
▁were	-266
▁O	-267
our	-268
ine	-269
▁their	-270
ame	-271
▁sa	-272
ment	-273
▁how	-274
nt	-275
▁look	-276
ast	-277
ous	-278
▁which	-279
ually	-280
▁su	-281
act	-282
▁work	-283
▁want	-284
▁really	-285
ack	-286
▁E	-287
▁en	-288
iz	-289
ight	-290
ard	-291
augh	-292
▁comp	-293
are	-294
ood	-295
iv	-296
reat	-297
ence	-298
hing	-299
▁ta	-300
▁way	-301
▁world	-302
▁time	-303
aughter	-304
▁le	-305
ans	-306
▁has	-307
ag	-308
ther	-309
ab	-310
▁You	-311
▁This	-312
▁every	-313
▁then	-314
▁here	-315
ions	-316
▁Laughter	-317
▁per	-318
▁D	-319
ong	-320
▁P	-321
▁ev	-322
▁could	-323
▁will	-324
▁man	-325
ace	-326
▁fe	-327
▁into	-328
fer	-329
▁actually	-330
▁qu	-331
▁G	-332
res	-333
app	-334
▁don	-335
ild	-336
per	-337
▁years	-338
▁ag	-339
▁now	-340
itt	-341
▁where	-342
nder	-343
▁did	-344
▁say	-345
▁things	-346
▁other	-347
age	-348
pp	-349
ud	-350
king	-351
▁F	-352
▁In	-353
ach	-354
▁ri	-355
▁somet	-356
▁Now	-357
00	-358
▁co	-359
ical	-360
▁been	-361
▁un	-362
ice	-363
▁They	-364
▁make	-365
▁than	-366
▁any	-367
▁cl	-368
▁no	-369
▁dif	-370
ff	-371
▁need	-372
▁tw	-373
▁2	-374
▁happ	-375
▁start	-376
pt	-377
irst	-378
so	-379
▁right	-380
▁part	-381
ome	-382
▁over	-383
round	-384
▁dis	-385
▁R	-386
ree	-387
own	-388
ry	-389
ign	-390
ia	-391
orm	-392
▁ar	-393
▁something	-394
▁mu	-395
ory	-396
▁bu	-397
olog	-398
▁said	-399
ite	-400
▁pr	-401
▁much	-402
▁back	-403
ife	-404
▁inter	-405
ount	-406
▁those	-407
▁call	-408
▁first	-409
▁chan	-410
ens	-411
▁mo	-412
ac	-413
▁two	-414
▁differ	-415
▁new	-416
ber	-417
ass	-418
ple	-419
ving	-420
▁ro	-421
sel	-422
end	-423
▁kind	-424
▁also	-425
ound	-426
ater	-427
ittle	-428
ire	-429
▁got	-430
▁po	-431
cent	-432
▁imp	-433
ves	-434
▁little	-435
▁lot	-436
ue	-437
ult	-438
way	-439
▁she	-440
ppl	-441
▁cont	-442
▁ac	-443
oss	-444
▁most	-445
▁ph	-446
▁under	-447
▁That	-448
▁bet	-449
▁des	-450
▁tal	-451
ell	-452
vel	-453
▁pre	-454
▁even	-455
▁only	-456
able	-457
ated	-458
▁life	-459
▁res	-460
▁hum	-461
ep	-462
ations	-463
ru	-464
rain	-465
▁ad	-466
ip	-467
▁am	-468
▁lo	-469
▁day	-470
ec	-471
▁J	-472
rough	-473
▁his	-474
ody	-475
▁take	-476
▁bl	-477
▁her	-478
▁What	-479
▁sy	-480
other	-481
▁many	-482
▁different	-483
ict	-484
pplause	-485
▁real	-486
▁Applause	-487
▁around	-488
ick	-489
▁comm	-490
ob	-491
ase	-492
co	-493
du	-494
int	-495
ish	-496
▁ide	-497
▁through	-498
ank	-499
▁down	-500
▁There	-501
▁does	-502
▁good	-503
cess	-504
form	-505
ms	-506
▁sc	-507
▁put	-508
▁U	-509
▁♫	-510
ents	-511
▁He	-512
▁show	-513
ning	-514
als	-515
ether	-516
▁being	-517
ars	-518
▁tell	-519
ress	-520
▁use	-521
ade	-522
▁gr	-523
ors	-524
igh	-525
ject	-526
ary	-527
▁same	-528
chn	-529
▁too	-530
▁em	-531
▁inc	-532
ance	-533
ark	-534
▁thou	-535
ak	-536
▁happen	-537
xt	-538
day	-539
▁sm	-540
wn	-541
▁fl	-542
ved	-543
ons	-544
▁come	-545
▁may	-546
▁count	-547
▁fact	-548
▁gen	-549
ower	-550
▁try	-551
stem	-552
▁proble	-553
ys	-554
▁techn	-555
ting	-556
ord	-557
ful	-558
▁human	-559
ric	-560
▁Well	-561
ne	-562
ible	-563
ath	-564
▁If	-565
▁wr	-566
ces	-567
fter	-568
ool	-569
ile	-570
ang	-571
▁off	-572
urn	-573
▁;	-574
▁big	-575
▁doing	-576
▁great	-577
▁pers	-578
be	-579
▁sur	-580
vers	-581
▁find	-582
ology	-583
▁three	-584
▁dec	-585
▁talk	-586
red	-587
▁percent	-588
▁system	-589
fore	-590
▁tra	-591
▁called	-592
thing	-593
ically	-594
▁exper	-595
▁again	-596
▁let	-597
self	-598
▁child	-599
ib	-600
▁Ch	-601
▁quest	-602
▁inv	-603
▁sim	-604
illion	-605
▁made	-606
ities	-607
▁build	-608
▁lear	-609
▁well	-610
ial	-611
▁rem	-612
cial	-613
▁own	-614
ition	-615
▁bel	-616
▁ind	-617
▁ra	-618
ious	-619
ual	-620
▁wom	-621
oc	-622
mer	-623
▁stud	-624
▁long	-625
ating	-626
▁after	-627
▁underst	-628
ren	-629
▁end	-630
ics	-631
▁gu	-632
we	-633
▁today	-634
▁hel	-635
body	-636
▁import	-637
▁St	-638
▁K	-639
▁should	-640
▁change	-641
▁feel	-642
ty	-643
▁why	-644
av	-645
▁br	-646
ew	-647
▁didn	-648
ction	-649
ates	-650
▁Thank	-651
ize	-652
▁design	-653
▁rel	-654
▁ask	-655
▁brain	-656
▁cr	-657
▁ob	-658
tern	-659
▁creat	-660
▁idea	-661
▁inst	-662
les	-663
▁gl	-664
ft	-665
▁started	-666
▁its	-667
▁ins	-668
▁thought	-669
ub	-670
▁car	-671
he	-672
gan	-673
▁person	-674
▁high	-675
000	-676
ope	-677
▁exp	-678
ian	-679
con	-680
▁important	-681
▁understand	-682
old	-683
▁help	-684
▁might	-685
▁trans	-686
▁cour	-687
▁exam	-688
▁3	-689
▁coll	-690
ail	-691
▁last	-692
▁sch	-693
ull	-694
▁sci	-695
▁him	-696
▁mean	-697
ution	-698
▁bas	-699
▁interest	-700
▁app	-701
ily	-702
ists	-703
ility	-704
▁better	-705
▁before	-706
ise	-707
▁spe	-708
▁tog	-709
▁together	-710
▁never	-711
te	-712
▁able	-713
▁went	-714
▁plan	-715
▁turn	-716
▁cons	-717
▁bit	-718
▁play	-719
▁another	-720
▁fam	-721
▁few	-722
▁story	-723
,000	-724
ven	-725
▁belie	-726
▁point	-727
ave	-728
und	-729
▁ke	-730
▁commun	-731
▁produ	-732
▁power	-733
ular	-734
▁ele	-735
▁problem	-736
▁ext	-737
▁sol	-738
▁imag	-739
▁pol	-740
▁give	-741
▁bo	-742
▁still	-743
▁found	-744
ather	-745
kes	-746
ough	-747
▁course	-748
▁art	-749
▁ago	-750
▁ent	-751
▁next	-752
▁kid	-753
▁came	-754
▁hand	-755
▁mon	-756
▁mod	-757
ert	-758
erg	-759
▁sl	-760
▁When	-761
oth	-762
ph	-763
gin	-764
▁learn	-765
▁school	-766
▁each	-767
#9	-768
▁20	-769
▁&#9	-770
▁Af	-771
▁num	-772
ese	-773
▁rec	-774
ix	-775
▁used	-776
velop	-777
▁sort	-778
ng	-779
▁pat	-780
▁V	-781
ited	-782
▁19	-783
▁place	-784
iss	-785
ness	-786
▁technology	-787
ork	-788
ense	-789
az	-790
▁att	-791
▁comple	-792
ween	-793
read	-794
▁dat	-795
ward	-796
▁ter	-797
ures	-798
ience	-799
ized	-800
▁cell	-801
▁question	-802
alth	-803
▁develop	-804
▁cre	-805
atch	-806
ets	-807
meric	-808
▁water	-809
▁small	-810
▁tri	-811
▁How	-812
▁between	-813
▁10	-814
▁ser	-815
ific	-816
ways	-817
▁di	-818
uc	-819
▁med	-820
▁met	-821
▁comput	-822
arch	-823
▁old	-824
▁grow	-825
▁women	-826
▁love	-827
▁example	-828
▁rep	-829
formation	-830
▁expl	-831
▁data	-832
cond	-833
▁fin	-834
ings	-835
ah	-836
ram	-837
▁op	-838
▁Americ	-839
ced	-840
▁gra	-841
cept	-842
ger	-843
ute	-844
▁partic	-845
▁str	-846
▁wanted	-847
▁looking	-848
▁ever	-849
▁four	-850
▁far	-851
▁nat	-852
▁mom	-853
▁eff	-854
▁Bec	-855
ond	-856
▁doesn	-857
aph	-858
▁Because	-859
▁read	-860
▁cent	-861
▁done	-862
▁word	-863
▁chang	-864
▁move	-865
▁live	-866
▁light	-867
atter	-868
▁care	-869
▁Afric	-870
ism	-871
▁min	-872
riend	-873
cy	-874
conom	-875
▁hard	-876
▁second	-877
ands	-878
▁always	-879
▁whole	-880
ably	-881
▁away	-882
▁poss	-883
ative	-884
selves	-885
▁uni	-886
▁lar	-887
ments	-888
▁bi	-889
▁children	-890
aw	-891
▁ed	-892
▁less	-893
iness	-894
ational	-895
▁econom	-896
yp	-897
▁cap	-898
▁5	-899
▁ear	-900
▁beh	-901
▁reas	-902
▁giv	-903
▁trying	-904
▁believe	-905
ries	-906
▁million	-907
▁gener	-908
▁using	-909
▁el	-910
▁working	-911
oney	-912
▁information	-913
▁stu	-914
▁As	-915
▁space	-916
nect	-917
▁pict	-918
ubl	-919
ruct	-920
▁vis	-921
▁Un	-922
ks	-923
ital	-924
▁friend	-925
▁book	-926
▁prot	-927
hip	-928
▁sk	-929
▁means	-930
▁resp	-931
▁country	-932
▁organ	-933
▁project	-934
▁compan	-935
▁bus	-936
li	-937
▁cor	-938
▁4	-939
▁thinking	-940
ock	-941
ird	-942
vern	-943
ale	-944
▁create	-945
▁!	-946
ural	-947
▁lead	-948
ines	-949
cer	-950
ten	-951
▁process	-952
usic	-953
▁sub	-954
▁home	-955
air	-956
▁took	-957
oll	-958
ont	-959
▁mind	-960
▁everything	-961
▁health	-962
led	-963
▁open	-964
▁money	-965
▁maybe	-966
aut	-967
pport	-968
▁fut	-969
▁kids	-970
▁One	-971
aces	-972
▁anim	-973
▁become	-974
▁My	-975
▁reg	-976
▁sing	-977
ract	-978
▁prog	-979
its	-980
▁spec	-981
▁inf	-982
▁run	-983
iron	-984
▁cou	-985
▁number	-986
▁doll	-987
ories	-988
▁future	-989
ied	-990
▁Ind	-991
roup	-992
▁prob	-993
ues	-994
wh	-995
ergy	-996
▁publ	-997
ident	-998
▁govern	-999
▁acc	-1000
gg	-1001
alf	-1002
▁month	-1003
▁enough	-1004
▁She	-1005
▁eng	-1006
▁five	-1007
oy	-1008
▁cle	-1009
▁teach	-1010
▁dem	-1011
▁best	-1012
▁form	-1013
▁connect	-1014
▁left	-1015
▁making	-1016
iew	-1017
▁wal	-1018
▁food	-1019
▁group	-1020
irl	-1021
▁times	-1022
▁pret	-1023
▁elect	-1024
▁glob	-1025
ember	-1026
▁fun	-1027
▁social	-1028
ouse	-1029
▁comes	-1030
▁These	-1031
▁quite	-1032
▁interesting	-1033
▁getting	-1034
▁cur	-1035
▁without	-1036
▁energy	-1037
iting	-1038
▁add	-1039
▁pass	-1040
▁sense	-1041
▁matter	-1042
sw	-1043
ention	-1044
ross	-1045
▁set	-1046
▁war	-1047
der	-1048
▁happened	-1049
▁dri	-1050
aps	-1051
▁wo	-1052
ices	-1053
imes	-1054
▁sign	-1055
▁pres	-1056
▁head	-1057
ake	-1058
▁begin	-1059
▁phys	-1060
ety	-1061
ately	-1062
ever	-1063
▁countries	-1064
ts	-1065
ner	-1066
▁def	-1067
▁answ	-1068
▁young	-1069
▁lives	-1070
▁room	-1071
▁beaut	-1072
▁Let	-1073
arth	-1074
▁body	-1075
▁sound	-1076
▁env	-1077
▁pie	-1078
▁probably	-1079
lf	-1080
ertain	-1081
▁hist	-1082
▁across	-1083
▁soci	-1084
▁No	-1085
▁cho	-1086
ead	-1087
▁told	-1088
▁For	-1089
▁coming	-1090
▁wee	-1091
reen	-1092
▁talking	-1093
▁job	-1094
▁stuff	-1095
▁pretty	-1096
▁contro	-1097
ideo	-1098
▁men	-1099
▁moment	-1100
▁dist	-1101
uring	-1102
▁family	-1103
▁allow	-1104
▁Is	-1105
most	-1106
▁model	-1107
▁wonder	-1108
▁dollars	-1109
verse	-1110
▁keep	-1111
▁such	-1112
ogr	-1113
▁pop	-1114
▁stop	-1115
▁dep	-1116
▁mark	-1117
▁saw	-1118
▁Africa	-1119
▁Earth	-1120
rib	-1121
▁col	-1122
▁environ	-1123
▁reason	-1124
▁half	-1125
▁air	-1126
▁anything	-1127
▁New	-1128
▁else	-1129
▁building	-1130
▁Here	-1131
▁share	-1132
▁educ	-1133
▁asked	-1134
▁Why	-1135
idd	-1136
▁ey	-1137
▁having	-1138
▁An	-1139
▁All	-1140
olution	-1141
▁stand	-1142
▁hope	-1143
ided	-1144
ective	-1145
rop	-1146
▁side	-1147
gs	-1148
▁det	-1149
▁bring	-1150
▁experience	-1151
ince	-1152
▁200	-1153
▁phot	-1154
▁living	-1155
▁simple	-1156
▁scient	-1157
▁global	-1158
▁eas	-1159
allen	-1160
arent	-1161
ient	-1162
work	-1163
▁cam	-1164
▁planet	-1165
▁conf	-1166
ying	-1167
▁top	-1168
▁rese	-1169
▁mach	-1170
▁amaz	-1171
ote	-1172
▁val	-1173
▁fig	-1174
▁ways	-1175
▁business	-1176
▁makes	-1177
▁days	-1178
▁later	-1179
▁billion	-1180
ality	-1181
ef	-1182
▁computer	-1183
▁aut	-1184
▁picture	-1185
▁seen	-1186
▁science	-1187
ization	-1188
ime	-1189
▁fore	-1190
ream	-1191
▁case	-1192
▁almost	-1193
io	-1194
▁inside	-1195
▁particular	-1196
ters	-1197
▁thous	-1198
▁single	-1199
▁remember	-1200
▁hour	-1201
kay	-1202
ots	-1203
▁cult	-1204
▁girl	-1205
iter	-1206
▁list	-1207
ken	-1208
med	-1209
▁equ	-1210
▁happens	-1211
▁complete	-1212
▁dise	-1213
orn	-1214
▁polit	-1215
ences	-1216
▁research	-1217
ograph	-1218
man	-1219
▁self	-1220
ilt	-1221
▁bad	-1222
▁answer	-1223
▁pain	-1224
pr	-1225
▁hear	-1226
▁environment	-1227
▁mem	-1228
▁challen	-1229
▁goes	-1230
▁amazing	-1231
▁while	-1232
uge	-1233
▁cells	-1234
▁typ	-1235
ape	-1236
▁sit	-1237
ready	-1238
▁char	-1239
where	-1240
less	-1241
▁says	-1242
▁city	-1243
▁sure	-1244
▁often	-1245
▁dev	-1246
▁suc	-1247
cover	-1248
▁prof	-1249
ants	-1250
▁rob	-1251
▁possible	-1252
▁public	-1253
▁community	-1254
ulation	-1255
▁loc	-1256
▁contin	-1257
ash	-1258
ange	-1259
▁watch	-1260
▁order	-1261
ott	-1262
row	-1263
▁Al	-1264
▁myself	-1265
▁bre	-1266
▁already	-1267
▁nothing	-1268
1;	-1269
▁&#91;	-1270
▁6	-1271
▁yet	-1272
3;	-1273
▁&#93;	-1274
▁looked	-1275
ury	-1276
▁level	-1277
▁problems	-1278
ron	-1279
▁six	-1280
▁age	-1281
▁product	-1282
▁months	-1283
▁exc	-1284
▁unt	-1285
ivid	-1286
▁beautif	-1287
▁program	-1288
▁test	-1289
▁saying	-1290
osed	-1291
▁someone	-1292
▁both	-1293
▁rest	-1294
imate	-1295
▁certain	-1296
no	-1297
▁cost	-1298
ee	-1299
▁mag	-1300
▁whether	-1301
▁sw	-1302
up	-1303
ases	-1304
▁adv	-1305
▁history	-1306
▁ass	-1307
ins	-1308
rem	-1309
side	-1310
▁wa	-1311
unch	-1312
undred	-1313
▁dire	-1314
▁ideas	-1315
ield	-1316
▁imagine	-1317
▁mor	-1318
▁par	-1319
▁wrong	-1320
ina	-1321
▁sec	-1322
itive	-1323
▁exact	-1324
▁15	-1325
▁lab	-1326
▁fund	-1327
▁large	-1328
ush	-1329
▁looks	-1330
▁face	-1331
▁Intern	-1332
▁once	-1333
▁incred	-1334
angu	-1335
▁net	-1336
▁aff	-1337
▁entire	-1338
▁9	-1339
▁mater	-1340
▁ref	-1341
▁object	-1342
▁hundred	-1343
▁within	-1344
▁mil	-1345
ling	-1346
▁music	-1347
▁result	-1348
▁30	-1349
▁control	-1350
ages	-1351
▁news	-1352
▁incre	-1353
▁night	-1354
▁figure	-1355
pe	-1356
▁beautiful	-1357
▁heart	-1358
ED	-1359
▁words	-1360
▁heard	-1361
▁treat	-1362
▁friends	-1363
ware	-1364
▁built	-1365
bers	-1366
▁50	-1367
▁Or	-1368
iddle	-1369
ivity	-1370
▁individ	-1371
▁che	-1372
▁langu	-1373
▁100	-1374
ior	-1375
▁pri	-1376
▁works	-1377
▁vir	-1378
▁const	-1379
▁government	-1380
▁7	-1381
ier	-1382
ully	-1383
▁guy	-1384
ected	-1385
▁piece	-1386
▁basically	-1387
▁fil	-1388
ollow	-1389
▁land	-1390
▁true	-1391
▁Do	-1392
ider	-1393
▁dra	-1394
▁class	-1395
▁video	-1396
▁iss	-1397
▁pay	-1398
▁until	-1399
uck	-1400
eah	-1401
ired	-1402
oot	-1403
plic	-1404
▁past	-1405
▁must	-1406
▁wasn	-1407
▁places	-1408
atic	-1409
utes	-1410
ret	-1411
acter	-1412
▁kill	-1413
▁learned	-1414
▁stories	-1415
▁universe	-1416
etic	-1417
▁tool	-1418
▁experim	-1419
▁education	-1420
▁United	-1421
▁nature	-1422
▁woman	-1423
▁walk	-1424
▁On	-1425
ined	-1426
▁against	-1427
▁cond	-1428
▁though	-1429
▁happening	-1430
▁..	-1431
▁law	-1432
▁became	-1433
▁decided	-1434
▁...	-1435
▁trad	-1436
▁completely	-1437
▁mar	-1438
cing	-1439
▁isn	-1440
▁Internet	-1441
▁z	-1442
ental	-1443
▁state	-1444
get	-1445
omes	-1446
▁parent	-1447
ex	-1448
cle	-1449
▁knew	-1450
▁Every	-1451
▁ris	-1452
vious	-1453
▁follow	-1454
outh	-1455
aster	-1456
▁engine	-1457
▁At	-1458
▁front	-1459
▁Fr	-1460
▁couple	-1461
▁taking	-1462
▁line	-1463
▁species	-1464
omet	-1465
▁quick	-1466
▁pos	-1467
▁spend	-1468
▁success	-1469
bs	-1470
▁team	-1471
▁TED	-1472
▁struct	-1473
▁questions	-1474
▁ret	-1475
▁study	-1476
▁8	-1477
▁meas	-1478
eg	-1479
ision	-1480
▁view	-1481
ane	-1482
ats	-1483
aper	-1484
▁India	-1485
▁sometimes	-1486
▁themselves	-1487
ogn	-1488
▁discover	-1489
▁America	-1490
▁free	-1491
▁black	-1492
▁ones	-1493
dd	-1494
▁society	-1495
ared	-1496
▁invest	-1497
land	-1498
▁since	-1499
▁abs	-1500
▁itself	-1501
vation	-1502
▁diff	-1503
br	-1504
▁name	-1505
▁company	-1506
▁everybody	-1507
ians	-1508
▁av	-1509
▁huge	-1510
▁everyone	-1511
▁close	-1512
▁exactly	-1513
haps	-1514
ives	-1515
ability	-1516
▁ourselves	-1517
to	-1518
▁fly	-1519
itting	-1520
▁oce	-1521
▁disease	-1522
▁relations	-1523
▁house	-1524
▁created	-1525
face	-1526
gest	-1527
▁kinds	-1528
▁States	-1529
ump	-1530
▁mess	-1531
icult	-1532
▁train	-1533
pportun	-1534
▁animals	-1535
▁meet	-1536
▁mother	-1537
▁somebody	-1538
▁clear	-1539
▁cancer	-1540
▁inno	-1541
▁instead	-1542
▁cra	-1543
▁dig	-1544
▁gets	-1545
ional	-1546
▁deal	-1547
▁opportun	-1548
▁exist	-1549
▁along	-1550
ones	-1551
▁neur	-1552
▁thousands	-1553
▁rad	-1554
line	-1555
illions	-1556
▁language	-1557
▁Can	-1558
▁hold	-1559
▁complex	-1560
ming	-1561
▁least	-1562
cc	-1563
ator	-1564
ctor	-1565
▁God	-1566
▁dru	-1567
▁worked	-1568
▁supp	-1569
thers	-1570
▁rather	-1571
aking	-1572
ished	-1573
▁behav	-1574
versity	-1575
▁Eur	-1576
▁network	-1577
▁difficult	-1578
▁arch	-1579
▁Ar	-1580
▁hours	-1581
▁market	-1582
▁mass	-1583
lud	-1584
▁ca	-1585
▁prov	-1586
▁red	-1587
▁Some	-1588
▁deep	-1589
▁couldn	-1590
▁indust	-1591
▁’	-1592
▁recent	-1593
▁Okay	-1594
▁jour	-1595
▁OK	-1596
▁mot	-1597
▁wind	-1598
▁var	-1599
▁colle	-1600
ential	-1601
osp	-1602
▁Then	-1603
▁extra	-1604
▁pred	-1605
▁systems	-1606
▁miss	-1607
▁listen	-1608
▁middle	-1609
▁ill	-1610
▁liter	-1611
fort	-1612
ocus	-1613
▁cir	-1614
▁sex	-1615
▁field	-1616
▁York	-1617
▁speak	-1618
▁outside	-1619
ibly	-1620
ature	-1621
▁appro	-1622
▁others	-1623
▁amount	-1624
▁interact	-1625
wards	-1626
▁taken	-1627
ral	-1628
ples	-1629
ption	-1630
ination	-1631
ially	-1632
cul	-1633
▁math	-1634
▁ve	-1635
▁students	-1636
▁Oh	-1637
ted	-1638
uss	-1639
▁pot	-1640
▁machine	-1641
▁reality	-1642
▁communic	-1643
utions	-1644
ented	-1645
▁learning	-1646
▁relationship	-1647
▁focus	-1648
urs	-1649
▁mic	-1650
▁minutes	-1651
ames	-1652
istic	-1653
▁step	-1654
▁record	-1655
sy	-1656
▁es	-1657
aring	-1658
▁seeing	-1659
▁early	-1660
iol	-1661
▁death	-1662
not	-1663
▁norm	-1664
ients	-1665
▁bab	-1666
ological	-1667
▁won	-1668
▁lots	-1669
▁takes	-1670
▁Europe	-1671
▁companies	-1672
olved	-1673
▁changed	-1674
▁bott	-1675
▁turns	-1676
▁difference	-1677
▁vo	-1678
▁gave	-1679
▁beginning	-1680
ects	-1681
▁fail	-1682
▁Pe	-1683
▁sens	-1684
▁Br	-1685
▁cut	-1686
▁oper	-1687
ax	-1688
▁pick	-1689
▁third	-1690
▁intell	-1691
▁pattern	-1692
ides	-1693
▁aud	-1694
cious	-1695
▁cities	-1696
▁natural	-1697
jor	-1698
▁Sh	-1699
▁century	-1700
elt	-1701
▁explain	-1702
▁parents	-1703
▁sent	-1704
ither	-1705
▁moving	-1706
NA	-1707
▁lim	-1708
▁leave	-1709
▁needed	-1710
▁perhaps	-1711
ror	-1712
rew	-1713
▁Be	-1714
▁bro	-1715
▁full	-1716
▁support	-1717
▁Man	-1718
▁eyes	-1719
▁phone	-1720
▁super	-1721
inary	-1722
▁dream	-1723
▁happy	-1724
▁access	-1725
▁tre	-1726
▁To	-1727
els	-1728
era	-1729
orth	-1730
▁reach	-1731
▁stre	-1732
▁short	-1733
▁common	-1734
ased	-1735
▁hands	-1736
▁culture	-1737
itions	-1738
▁image	-1739
▁enc	-1740
▁turned	-1741
ove	-1742
▁fear	-1743
fect	-1744
▁stay	-1745
▁press	-1746
astic	-1747
verage	-1748
year	-1749
▁began	-1750
▁American	-1751
olute	-1752
▁jo	-1753
▁major	-1754
▁cannot	-1755
▁ge	-1756
▁grand	-1757
▁Not	-1758
▁area	-1759
▁behind	-1760
ney	-1761
▁rev	-1762
▁easy	-1763
▁terms	-1764
att	-1765
ode	-1766
▁40	-1767
▁humans	-1768
▁ident	-1769
▁low	-1770
▁ess	-1771
▁famil	-1772
ency	-1773
▁realized	-1774
▁size	-1775
▁needs	-1776
ium	-1777
▁dr	-1778
▁green	-1779
▁population	-1780
▁12	-1781
▁seven	-1782
▁during	-1783
▁economic	-1784
▁powerful	-1785
▁guys	-1786
▁finally	-1787
hood	-1788
▁game	-1789
▁given	-1790
▁serv	-1791
▁leg	-1792
ering	-1793
gle	-1794
▁parts	-1795
▁behavior	-1796
erm	-1797
ern	-1798
▁wonderful	-1799
que	-1800
▁travel	-1801
ges	-1802
▁occ	-1803
▁saf	-1804
▁fre	-1805
▁la	-1806
▁sym	-1807
▁send	-1808
▁ocean	-1809
▁ben	-1810
▁chem	-1811
▁felt	-1812
▁dark	-1813
▁disc	-1814
▁impro	-1815
▁poor	-1816
▁extrem	-1817
▁emb	-1818
▁break	-1819
▁local	-1820
▁perform	-1821
▁Eng	-1822
▁week	-1823
▁recogn	-1824
▁ant	-1825
▁insp	-1826
▁China	-1827
▁father	-1828
▁mov	-1829
▁Just	-1830
rought	-1831
▁longer	-1832
ply	-1833
ison	-1834
▁bri	-1835
▁surv	-1836
▁strong	-1837
▁measure	-1838
▁surface	-1839
itch	-1840
▁Our	-1841
▁viol	-1842
▁media	-1843
ony	-1844
ource	-1845
▁includ	-1846
▁repres	-1847
▁ability	-1848
▁scale	-1849
▁protect	-1850
▁quickly	-1851
rodu	-1852
▁tot	-1853
▁special	-1854
fully	-1855
idence	-1856
▁blue	-1857
▁challenge	-1858
▁Chr	-1859
oh	-1860
avor	-1861
▁non	-1862
▁key	-1863
▁ori	-1864
▁fall	-1865
▁democ	-1866
ising	-1867
ibility	-1868
▁yourself	-1869
bor	-1870
▁simply	-1871
port	-1872
▁feed	-1873
▁Right	-1874
ton	-1875
anger	-1876
▁direct	-1877
▁growth	-1878
▁leaders	-1879
bo	-1880
ilar	-1881
▁event	-1882
▁People	-1883
ised	-1884
▁tried	-1885
sych	-1886
▁near	-1887
▁expect	-1888
▁physical	-1889
▁political	-1890
▁wall	-1891
▁fight	-1892
▁absolute	-1893
▁personal	-1894
▁DNA	-1895
▁mult	-1896
amp	-1897
▁Yeah	-1898
▁priv	-1899
▁eight	-1900
▁robot	-1901
▁perfect	-1902
▁approach	-1903
iny	-1904
▁desc	-1905
▁sitting	-1906
▁tem	-1907
ledge	-1908
▁born	-1909
▁lost	-1910
▁ground	-1911
▁obvious	-1912
ev	-1913
ards	-1914
▁yes	-1915
▁emot	-1916
▁gone	-1917
▁neigh	-1918
lt	-1919
▁caus	-1920
▁surpr	-1921
▁archit	-1922
▁Yes	-1923
▁oil	-1924
▁vers	-1925
▁requ	-1926
▁pract	-1927
▁whatever	-1928
acy	-1929
cially	-1930
▁Tw	-1931
izing	-1932
▁known	-1933
▁changes	-1934
ouch	-1935
ources	-1936
▁spent	-1937
▁buy	-1938
▁respons	-1939
oph	-1940
uth	-1941
rand	-1942
ged	-1943
▁sun	-1944
▁interested	-1945
▁opportunity	-1946
▁box	-1947
▁obs	-1948
▁relig	-1949
▁present	-1950
▁Music	-1951
▁weeks	-1952
gen	-1953
▁color	-1954
ologies	-1955
▁ple	-1956
▁draw	-1957
▁white	-1958
▁value	-1959
▁climate	-1960
▁blood	-1961
lect	-1962
▁May	-1963
▁wouldn	-1964
▁hundreds	-1965
▁eat	-1966
aught	-1967
▁shows	-1968
▁economy	-1969
▁predict	-1970
▁consum	-1971
▁consider	-1972
▁cy	-1973
rent	-1974
ried	-1975
▁lif	-1976
▁based	-1977
▁psych	-1978
▁ap	-1979
▁dest	-1980
ze	-1981
▁conv	-1982
▁images	-1983
▁impact	-1984
▁instit	-1985
ole	-1986
ows	-1987
▁fish	-1988
▁anal	-1989
▁alone	-1990
▁paper	-1991
▁structure	-1992
▁18	-1993
▁fast	-1994
▁photograph	-1995
▁understanding	-1996
zy	-1997
ule	-1998
▁cal	-1999
▁brought	-2000
▁convers	-2001
▁experiment	-2002
▁books	-2003
lish	-2004
▁fundam	-2005
▁material	-2006
oun	-2007
room	-2008
▁evolution	-2009
arr	-2010
▁squ	-2011
▁feet	-2012
▁feeling	-2013
▁ball	-2014
▁circ	-2015
▁either	-2016
▁numbers	-2017
▁soft	-2018
entially	-2019
▁sum	-2020
▁giving	-2021
▁intern	-2022
▁extreme	-2023
cl	-2024
▁die	-2025
▁har	-2026
▁opt	-2027
▁write	-2028
▁morning	-2029
▁individual	-2030
ified	-2031
▁slow	-2032
▁areas	-2033
▁millions	-2034
bon	-2035
▁arg	-2036
▁ice	-2037
▁cool	-2038
▁developed	-2039
▁scientists	-2040
ades	-2041
ains	-2042
▁seems	-2043
ateg	-2044
ators	-2045
▁prin	-2046
▁incredible	-2047
com	-2048
ustain	-2049
▁tools	-2050
ored	-2051
▁sil	-2052
▁risk	-2053
ials	-2054
▁bar	-2055
▁imm	-2056
▁camp	-2057
▁road	-2058
▁situ	-2059
▁average	-2060
orld	-2061
▁profess	-2062
▁pur	-2063
ging	-2064
▁growing	-2065
▁patients	-2066
▁pull	-2067
▁telling	-2068
▁intellig	-2069
urb	-2070
▁civ	-2071
ument	-2072
▁mole	-2073
ression	-2074
▁25	-2075
▁text	-2076
▁technologies	-2077
chie	-2078
▁win	-2079
▁cars	-2080
▁Sp	-2081
▁fac	-2082
▁girls	-2083
▁digital	-2084
▁realize	-2085
▁starting	-2086
aged	-2087
imens	-2088
▁60	-2089
▁rock	-2090
▁bottom	-2091
▁literally	-2092
▁comb	-2093
▁experi	-2094
bit	-2095
ery	-2096
▁foot	-2097
▁favor	-2098
▁tradition	-2099
eed	-2100
▁rul	-2101
▁nice	-2102
▁medic	-2103
▁plant	-2104
ploy	-2105
▁attention	-2106
▁trust	-2107
chan	-2108
dden	-2109
▁spread	-2110
▁forward	-2111
ills	-2112
▁similar	-2113
▁knowledge	-2114
▁prom	-2115
▁sudden	-2116
of	-2117
ler	-2118
ike	-2119
▁film	-2120
▁flo	-2121
▁miles	-2122
▁proper	-2123
▁development	-2124
▁wrote	-2125
ales	-2126
oud	-2127
▁fem	-2128
ext	-2129
▁hosp	-2130
▁theory	-2131
▁Z	-2132
▁CA	-2133
ites	-2134
vent	-2135
▁vol	-2136
ilities	-2137
▁vac	-2138
▁touch	-2139
▁animal	-2140
▁serious	-2141
▁ste	-2142
ensive	-2143
▁architect	-2144
▁recently	-2145
rad	-2146
▁electric	-2147
lu	-2148
urity	-2149
▁redu	-2150
ero	-2151
▁eye	-2152
▁clos	-2153
▁rele	-2154
▁thank	-2155
▁movement	-2156
ances	-2157
▁soon	-2158
▁truth	-2159
▁anyone	-2160
▁depend	-2161
pecially	-2162
▁creating	-2163
por	-2164
▁tiny	-2165
▁worth	-2166
▁compet	-2167
par	-2168
▁map	-2169
▁main	-2170
▁center	-2171
sh	-2172
▁11	-2173
asing	-2174
▁appl	-2175
▁mathem	-2176
▁hy	-2177
▁achie	-2178
▁gives	-2179
▁voice	-2180
▁forest	-2181
▁origin	-2182
▁With	-2183
▁generation	-2184
▁deli	-2185
▁vill	-2186
▁polic	-2187
▁sustain	-2188
eng	-2189
▁Goo	-2190
▁poll	-2191
▁avail	-2192
▁deg	-2193
▁sea	-2194
▁concept	-2195
ug	-2196
ify	-2197
▁sn	-2198
▁smart	-2199
▁current	-2200
iant	-2201
▁opp	-2202
▁changing	-2203
▁block	-2204
▁emerg	-2205
iod	-2206
▁By	-2207
ister	-2208
▁path	-2209
light	-2210
▁collect	-2211
ny	-2212
▁carbon	-2213
▁visual	-2214
ned	-2215
▁div	-2216
▁asking	-2217
▁industry	-2218
amed	-2219
uals	-2220
▁crit	-2221
ration	-2222
▁solve	-2223
▁guess	-2224
▁modern	-2225
▁discovered	-2226
▁hor	-2227
▁lay	-2228
▁Mars	-2229
▁benef	-2230
yond	-2231
▁gal	-2232
ai	-2233
▁World	-2234
▁stage	-2235
▁solution	-2236
asc	-2237
ift	-2238
▁arm	-2239
▁Am	-2240
▁dead	-2241
▁tele	-2242
▁dou	-2243
▁putting	-2244
▁pictures	-2245
▁computers	-2246
▁especially	-2247
erv	-2248
omen	-2249
▁201	-2250
▁sever	-2251
▁attack	-2252
▁English	-2253
▁produce	-2254
ipp	-2255
▁hon	-2256
▁fire	-2257
▁prop	-2258
▁rate	-2259
▁seem	-2260
abor	-2261
ggest	-2262
▁device	-2263
▁track	-2264
▁bur	-2265
▁est	-2266
▁ult	-2267
▁South	-2268
▁transform	-2269
▁hot	-2270
▁mechan	-2271
▁suggest	-2272
ma	-2273
apt	-2274
▁cop	-2275
▁meaning	-2276
▁running	-2277
▁subject	-2278
▁among	-2279
▁force	-2280
▁period	-2281
▁showed	-2282
head	-2283
▁civil	-2284
▁likely	-2285
▁lived	-2286
▁available	-2287
▁conscious	-2288
▁absolutely	-2289
racy	-2290
▁aren	-2291
▁Google	-2292
▁chance	-2293
▁choice	-2294
▁normal	-2295
▁search	-2296
▁sounds	-2297
ously	-2298
▁bacter	-2299
oid	-2300
▁Inst	-2301
▁solar	-2302
▁effect	-2303
▁several	-2304
▁fur	-2305
▁journey	-2306
▁issue	-2307
▁neighbor	-2308
vert	-2309
▁auth	-2310
▁drive	-2311
▁baby	-2312
▁Where	-2313
▁defin	-2314
▁shape	-2315
▁beyond	-2316
▁aw	-2317
▁er	-2318
▁save	-2319
iction	-2320
▁groups	-2321
▁innovation	-2322
▁Ph	-2323
▁tend	-2324
▁rain	-2325
▁developing	-2326
▁becomes	-2327
▁mob	-2328
phere	-2329
▁died	-2330
▁safe	-2331
▁galax	-2332
▁designed	-2333
▁incredibly	-2334
like	-2335
▁post	-2336
▁cause	-2337
▁persp	-2338
▁capital	-2339
▁playing	-2340
▁micro	-2341
▁rules	-2342
▁audience	-2343
▁Look	-2344
▁action	-2345
▁danger	-2346
▁medical	-2347
▁bed	-2348
▁bigger	-2349
▁talked	-2350
▁patient	-2351
▁towards	-2352
▁resources	-2353
▁emp	-2354
▁sle	-2355
▁song	-2356
▁haven	-2357
ival	-2358
▁hun	-2359
oring	-2360
▁reasons	-2361
▁Im	-2362
▁movie	-2363
▁objects	-2364
itiz	-2365
▁flu	-2366
▁son	-2367
▁activ	-2368
▁cover	-2369
▁plants	-2370
▁extraord	-2371
▁log	-2372
arily	-2373
▁rece	-2374
▁stru	-2375
▁online	-2376
▁evidence	-2377
▁function	-2378
ude	-2379
▁Se	-2380
▁code	-2381
▁speed	-2382
▁showing	-2383
▁potential	-2384
▁ep	-2385
▁sell	-2386
▁react	-2387
▁issues	-2388
▁fa	-2389
rast	-2390
▁Com	-2391
▁fair	-2392
▁nine	-2393
▁First	-2394
▁except	-2395
▁communities	-2396
▁particularly	-2397
oes	-2398
▁stat	-2399
▁basic	-2400
▁involved	-2401
ein	-2402
oon	-2403
▁table	-2404
▁software	-2405
verty	-2406
▁necess	-2407
▁message	-2408
by	-2409
view	-2410
▁dom	-2411
▁magn	-2412
ived	-2413
▁din	-2414
▁character	-2415
▁type	-2416
iar	-2417
▁ce	-2418
lict	-2419
▁flow	-2420
▁breat	-2421
iet	-2422
ners	-2423
cient	-2424
assion	-2425
▁clean	-2426
▁virt	-2427
unately	-2428
uit	-2429
▁sold	-2430
▁camera	-2431
▁vision	-2432
▁account	-2433
▁connected	-2434
▁bird	-2435
▁After	-2436
▁African	-2437
▁fundamental	-2438
▁80	-2439
ffer	-2440
▁lea	-2441
▁Maybe	-2442
▁screen	-2443
▁situation	-2444
ray	-2445
uly	-2446
umb	-2447
medi	-2448
▁hit	-2449
istan	-2450
ey	-2451
put	-2452
ires	-2453
▁prim	-2454
▁princi	-2455
▁report	-2456
▁199	-2457
▁citiz	-2458
plicated	-2459
▁progress	-2460
une	-2461
ffic	-2462
▁knows	-2463
▁detail	-2464
ps	-2465
▁Who	-2466
ishing	-2467
▁trees	-2468
▁walking	-2469
▁ec	-2470
▁syn	-2471
usion	-2472
▁push	-2473
▁role	-2474
▁minds	-2475
▁examples	-2476
▁security	-2477
ference	-2478
▁starts	-2479
▁schools	-2480
▁adm	-2481
▁meant	-2482
▁poverty	-2483
▁creative	-2484
▁violence	-2485
eter	-2486
rate	-2487
▁dam	-2488
▁apart	-2489
▁drugs	-2490
▁moved	-2491
▁results	-2492
▁writing	-2493
▁effective	-2494
book	-2495
▁street	-2496
▁colleag	-2497
▁ast	-2498
▁represent	-2499
ene	-2500
▁da	-2501
▁fu	-2502
come	-2503
▁Don	-2504
▁sat	-2505
lo	-2506
▁Of	-2507
▁onto	-2508
▁crazy	-2509
▁further	-2510
▁virus	-2511
▁choose	-2512
▁continue	-2513
▁scientific	-2514
pre	-2515
▁drug	-2516
▁stars	-2517
▁biggest	-2518
▁certainly	-2519
amm	-2520
inal	-2521
▁farm	-2522
▁national	-2523
osphere	-2524
▁revolution	-2525
ox	-2526
ask	-2527
ought	-2528
▁Most	-2529
▁anybody	-2530
icle	-2531
irth	-2532
▁fix	-2533
ressed	-2534
▁ready	-2535
▁check	-2536
▁offer	-2537
▁mus	-2538
▁rich	-2539
▁aware	-2540
▁wants	-2541
▁faster	-2542
▁materials	-2543
▁compassion	-2544
ground	-2545
yn	-2546
▁Joh	-2547
▁wish	-2548
▁mount	-2549
▁vari	-2550
▁carry	-2551
▁print	-2552
▁stick	-2553
▁North	-2554
▁notice	-2555
▁perspective	-2556
lear	-2557
antly	-2558
▁democracy	-2559
for	-2560
oms	-2561
more	-2562
sect	-2563
▁boy	-2564
▁skin	-2565
isions	-2566
▁multi	-2567
▁higher	-2568
▁threat	-2569
▁exciting	-2570
▁Go	-2571
▁accept	-2572
▁capt	-2573
▁conc	-2574
▁door	-2575
▁introdu	-2576
▁genes	-2577
▁rights	-2578
▁improve	-2579
▁projects	-2580
oke	-2581
▁fill	-2582
▁tree	-2583
▁general	-2584
▁families	-2585
osing	-2586
▁college	-2587
▁machines	-2588
▁mathemat	-2589
▁Cl	-2590
▁Re	-2591
▁Brit	-2592
▁grew	-2593
▁terror	-2594
▁totally	-2595
▁conflict	-2596
nal	-2597
ores	-2598
right	-2599
▁models	-2600
▁favorite	-2601
ran	-2602
idge	-2603
▁okay	-2604
▁blind	-2605
▁effic	-2606
▁prison	-2607
▁suffer	-2608
▁obviously	-2609
▁extraordinary	-2610
how	-2611
▁led	-2612
▁mis	-2613
oming	-2614
▁immedi	-2615
iversity	-2616
▁conversation	-2617
agn	-2618
▁Ge	-2619
itten	-2620
rible	-2621
▁daughter	-2622
▁Even	-2623
▁assum	-2624
▁cross	-2625
▁taught	-2626
▁collabor	-2627
enn	-2628
▁village	-2629
akes	-2630
erve	-2631
▁Are	-2632
▁Tod	-2633
itary	-2634
odies	-2635
▁repl	-2636
▁wife	-2637
▁largest	-2638
▁particip	-2639
▁everywhere	-2640
▁complicated	-2641
rage	-2642
▁birth	-2643
▁shown	-2644
▁source	-2645
izations	-2646
▁context	-2647
▁chemical	-2648
▁meth	-2649
▁eventually	-2650
▁essentially	-2651
cape	-2652
onse	-2653
▁Video	-2654
▁passion	-2655
▁quality	-2656
rated	-2657
▁increase	-2658
ured	-2659
▁tar	-2660
▁John	-2661
ruction	-2662
▁individuals	-2663
bol	-2664
ims	-2665
▁fle	-2666
▁kil	-2667
▁nuc	-2668
▁fell	-2669
▁adult	-2670
▁separ	-2671
▁student	-2672
▁hospital	-2673
▁patterns	-2674
▁standing	-2675
▁teachers	-2676
▁watching	-2677
anc	-2678
ped	-2679
▁16	-2680
▁Pro	-2681
▁asp	-2682
ently	-2683
▁fing	-2684
▁lose	-2685
▁spir	-2686
▁lower	-2687
▁strateg	-2688
▁bacteria	-2689
cise	-2690
rest	-2691
▁stra	-2692
ik	-2693
ama	-2694
▁70	-2695
▁Le	-2696
▁War	-2697
▁buildings	-2698
▁intelligence	-2699
▁fant	-2700
▁mine	-2701
▁launch	-2702
▁office	-2703
▁activity	-2704
▁supposed	-2705
▁Bl	-2706
▁Car	-2707
▁atm	-2708
ctors	-2709
ission	-2710
▁worse	-2711
▁including	-2712
▁traditional	-2713
aur	-2714
▁named	-2715
▁extremely	-2716
apan	-2717
fact	-2718
▁cart	-2719
▁cold	-2720
▁labor	-2721
▁older	-2722
▁tells	-2723
▁robots	-2724
▁thousand	-2725
isms	-2726
▁Cal	-2727
▁ann	-2728
▁goal	-2729
▁peace	-2730
ining	-2731
▁Today	-2732
▁sleep	-2733
▁Christ	-2734
▁imposs	-2735
▁nobody	-2736
▁allowed	-2737
▁decision	-2738
ros	-2739
▁Ger	-2740
▁Sec	-2741
▁above	-2742
▁response	-2743
▁neg	-2744
▁cris	-2745
▁sequ	-2746
▁Japan	-2747
▁graph	-2748
▁truly	-2749
▁doctor	-2750
▁products	-2751
▁90	-2752
▁star	-2753
others	-2754
▁brains	-2755
▁neurons	-2756
eth	-2757
rum	-2758
rial	-2759
▁link	-2760
▁Those	-2761
▁earli	-2762
▁games	-2763
▁usually	-2764
sequ	-2765
▁bunch	-2766
▁finan	-2767
▁larger	-2768
▁hop	-2769
▁discuss	-2770
aid	-2771
ued	-2772
edom	-2773
iding	-2774
▁fasc	-2775
▁lands	-2776
▁waste	-2777
▁appear	-2778
▁disapp	-2779
▁14	-2780
ulate	-2781
▁West	-2782
▁lines	-2783
▁region	-2784
▁increasing	-2785
▁bom	-2786
▁suddenly	-2787
▁successful	-2788
▁doc	-2789
▁jump	-2790
▁late	-2791
▁purp	-2792
▁effort	-2793
▁achieve	-2794
▁allows	-2795
▁manage	-2796
▁pieces	-2797
▁remind	-2798
▁respond	-2799
▁painting	-2800
▁signific	-2801
xy	-2802
▁rap	-2803
ologists	-2804
▁teacher	-2805
50	-2806
pan	-2807
▁earth	-2808
▁excited	-2809
▁conditions	-2810
▁impossible	-2811
▁mal	-2812
atory	-2813
▁afford	-2814
▁secret	-2815
▁temper	-2816
▁service	-2817
▁medicine	-2818
▁recognize	-2819
▁Sw	-2820
▁influ	-2821
▁governments	-2822
▁Any	-2823
▁wait	-2824
▁forms	-2825
▁indeed	-2826
▁architecture	-2827
▁deb	-2828
▁wild	-2829
▁points	-2830
▁finding	-2831
▁electricity	-2832
▁sou	-2833
thern	-2834
▁address	-2835
▁deliver	-2836
▁specific	-2837
let	-2838
▁De	-2839
onst	-2840
▁gas	-2841
urban	-2842
▁Afgh	-2843
▁concer	-2844
▁happiness	-2845
eren	-2846
▁198	-2847
agine	-2848
ounds	-2849
▁term	-2850
▁vacc	-2851
▁cases	-2852
▁memory	-2853
▁17	-2854
▁luck	-2855
▁German	-2856
▁return	-2857
▁smaller	-2858
joy	-2859
ered	-2860
epend	-2861
▁upon	-2862
▁minute	-2863
▁anymore	-2864
ech	-2865
iced	-2866
ring	-2867
▁fine	-2868
▁kept	-2869
▁mist	-2870
▁phen	-2871
▁corre	-2872
▁enorm	-2873
▁spect	-2874
▁unique	-2875
▁distrib	-2876
▁Mar	-2877
aging	-2878
estern	-2879
▁killed	-2880
imb	-2881
▁dro	-2882
▁alive	-2883
▁sorts	-2884
▁decades	-2885
urt	-2886
▁cry	-2887
▁exh	-2888
▁fra	-2889
▁jobs	-2890
▁pack	-2891
inated	-2892
▁genetic	-2893
▁solutions	-2894
▁institutions	-2895
▁Act	-2896
▁bank	-2897
▁contrib	-2898
▁univers	-2899
▁somewhere	-2900
▁stri	-2901
though	-2902
▁ended	-2903
▁Q	-2904
alk	-2905
rab	-2906
ively	-2907
▁port	-2908
▁loved	-2909
▁biology	-2910
▁planets	-2911
▁positive	-2912
fortunately	-2913
zz	-2914
▁/	-2915
rom	-2916
▁arri	-2917
▁card	-2918
▁phil	-2919
▁Somet	-2920
▁weren	-2921
▁Afghan	-2922
▁policy	-2923
▁healthy	-2924
▁somehow	-2925
▁citizens	-2926
▁neighborhood	-2927
▁organization	-2928
▁descri	-2929
▁employ	-2930
▁remark	-2931
ips	-2932
ises	-2933
▁sky	-2934
▁series	-2935
▁societ	-2936
▁reading	-2937
▁Americans	-2938
▁decisions	-2939
▁interview	-2940
mb	-2941
▁Sc	-2942
▁drop	-2943
▁bodies	-2944
▁mention	-2945
▁version	-2946
▁greatest	-2947
▁roll	-2948
▁enjoy	-2949
▁famous	-2950
ana	-2951
men	-2952
ube	-2953
ceed	-2954
oles	-2955
ster	-2956
▁fit	-2957
▁laws	-2958
▁apply	-2959
▁worry	-2960
▁crisis	-2961
▁strugg	-2962
▁position	-2963
iti	-2964
▁Har	-2965
▁bal	-2966
▁cloud	-2967
▁innov	-2968
▁occur	-2969
▁quant	-2970
itation	-2971
▁detect	-2972
▁square	-2973
▁colleagues	-2974
enced	-2975
▁heav	-2976
▁autom	-2977
▁costs	-2978
▁dimens	-2979
▁insect	-2980
▁phenomen	-2981
▁treatment	-2982
mic	-2983
▁pu	-2984
ball	-2985
ended	-2986
▁actual	-2987
▁strange	-2988
▁13	-2989
▁Chin	-2990
imately	-2991
▁becoming	-2992
▁diseases	-2993
▁dangerous	-2994
▁Ag	-2995
▁Ex	-2996
useum	-2997
atives	-2998
inating	-2999
▁clearly	-3000
▁consequ	-3001
met	-3002
▁21	-3003
orrow	-3004
▁determ	-3005
▁transl	-3006
▁provide	-3007
time	-3008
▁cust	-3009
▁email	-3010
▁store	-3011
▁trick	-3012
▁written	-3013
▁challenges	-3014
▁swe	-3015
▁floor	-3016
▁weight	-3017
▁Imagine	-3018
▁seconds	-3019
▁studies	-3020
▁military	-3021
▁expensive	-3022
SA	-3023
▁TV	-3024
cope	-3025
▁pen	-3026
▁veh	-3027
acity	-3028
▁cook	-3029
▁throw	-3030
▁beings	-3031
▁freedom	-3032
▁private	-3033
▁pressure	-3034
▁straight	-3035
ops	-3036
▁oxy	-3037
▁tiss	-3038
▁zero	-3039
▁Which	-3040
▁artist	-3041
▁calcul	-3042
▁physics	-3043
▁mir	-3044
▁page	-3045
▁site	-3046
▁webs	-3047
▁range	-3048
▁mobile	-3049
IV	-3050
▁alg	-3051
erson	-3052
itude	-3053
ufact	-3054
▁East	-3055
▁clin	-3056
▁trou	-3057
▁yeah	-3058
▁author	-3059
▁police	-3060
▁skills	-3061
▁slight	-3062
▁international	-3063
sc	-3064
lebr	-3065
used	-3066
▁ign	-3067
▁coun	-3068
▁desp	-3069
▁shared	-3070
iger	-3071
inct	-3072
▁park	-3073
▁glass	-3074
▁urban	-3075
▁humanity	-3076
soci	-3077
▁Like	-3078
▁prep	-3079
▁Chinese	-3080
▁himself	-3081
▁waiting	-3082
▁willing	-3083
▁training	-3084
▁collective	-3085
▁environmental	-3086
▁Ad	-3087
itor	-3088
▁cat	-3089
▁molec	-3090
▁price	-3091
▁surve	-3092
▁female	-3093
▁saving	-3094
▁describ	-3095
▁familiar	-3096
▁immediately	-3097
airs	-3098
▁HIV	-3099
▁types	-3100
▁please	-3101
▁values	-3102
▁driving	-3103
▁anywhere	-3104
▁therefore	-3105
▁af	-3106
▁Per	-3107
▁lad	-3108
▁web	-3109
▁earlier	-3110
▁organizations	-3111
go	-3112
ches	-3113
iling	-3114
▁moral	-3115
ervation	-3116
▁manufact	-3117
▁fantastic	-3118
▁transport	-3119
▁atmosphere	-3120
▁throughout	-3121
ung	-3122
apes	-3123
▁jud	-3124
atell	-3125
▁final	-3126
▁offic	-3127
▁radio	-3128
▁engage	-3129
▁mental	-3130
▁techni	-3131
de	-3132
▁i	-3133
back	-3134
▁Isl	-3135
eless	-3136
itted	-3137
▁magic	-3138
▁celebr	-3139
▁invent	-3140
▁content	-3141
▁electron	-3142
▁following	-3143
dom	-3144
▁drink	-3145
▁flying	-3146
▁devices	-3147
▁University	-3148
unk	-3149
▁scan	-3150
▁encou	-3151
ologist	-3152
▁beauty	-3153
▁various	-3154
ios	-3155
ables	-3156
▁Cent	-3157
covery	-3158
▁forth	-3159
▁Another	-3160
▁plastic	-3161
▁eth	-3162
ained	-3163
ystem	-3164
▁board	-3165
▁optim	-3166
▁choices	-3167
▁nuclear	-3168
▁critical	-3169
▁societies	-3170
▁engineering	-3171
▁hair	-3172
▁rise	-3173
▁decade	-3174
▁wealth	-3175
▁workers	-3176
▁communicate	-3177
▁pan	-3178
anced	-3179
▁Many	-3180
▁walked	-3181
▁Instead	-3182
▁greater	-3183
▁direction	-3184
▁financial	-3185
▁connection	-3186
▁24	-3187
oint	-3188
▁Bra	-3189
▁Two	-3190
▁rid	-3191
▁sand	-3192
▁brand	-3193
▁satell	-3194
▁spirit	-3195
owd	-3196
uted	-3197
apped	-3198
ement	-3199
▁City	-3200
resh	-3201
▁ran	-3202
▁town	-3203
▁whose	-3204
▁method	-3205
▁religion	-3206
▁services	-3207
▁Ken	-3208
▁dog	-3209
▁vict	-3210
urning	-3211
ructure	-3212
▁politics	-3213
▁performance	-3214
▁relationships	-3215
eral	-3216
▁sus	-3217
attle	-3218
▁match	-3219
ondon	-3220
▁Arab	-3221
▁legs	-3222
▁custom	-3223
▁understood	-3224
bb	-3225
ids	-3226
▁Your	-3227
▁London	-3228
▁helped	-3229
▁comfort	-3230
▁directly	-3231
▁speaking	-3232
pped	-3233
▁rand	-3234
▁commer	-3235
▁honest	-3236
▁enormous	-3237
fl	-3238
▁shot	-3239
▁swim	-3240
▁ahead	-3241
▁forget	-3242
▁massive	-3243
▁invented	-3244
▁X	-3245
ancy	-3246
▁broad	-3247
▁catch	-3248
▁integ	-3249
▁Western	-3250
▁purpose	-3251
▁relative	-3252
amic	-3253
wise	-3254
▁whe	-3255
▁Aust	-3256
iation	-3257
▁oppos	-3258
▁closer	-3259
▁random	-3260
▁explore	-3261
▁journal	-3262
▁experiments	-3263
olve	-3264
aries	-3265
▁Think	-3266
▁anyway	-3267
▁levels	-3268
▁nation	-3269
▁speech	-3270
atically	-3271
▁infrast	-3272
▁programs	-3273
▁listening	-3274
▁production	-3275
▁sal	-3276
istics	-3277
▁destro	-3278
▁hyd	-3279
▁uses	-3280
▁Chris	-3281
▁express	-3282
▁consciousness	-3283
cies	-3284
▁doub	-3285
▁stem	-3286
▁liber	-3287
▁decide	-3288
▁income	-3289
▁ancient	-3290
▁instance	-3291
ays	-3292
▁Aud	-3293
▁mut	-3294
itter	-3295
▁dram	-3296
▁belief	-3297
▁useful	-3298
▁teaching	-3299
af	-3300
aly	-3301
rees	-3302
iring	-3303
▁quot	-3304
▁trem	-3305
▁effects	-3306
uct	-3307
▁Dav	-3308
phone	-3309
▁Char	-3310
▁race	-3311
vision	-3312
▁feels	-3313
▁mostly	-3314
▁summer	-3315
▁doctors	-3316
▁meeting	-3317
▁experiences	-3318
▁♪	-3319
aff	-3320
key	-3321
udd	-3322
▁AI	-3323
▁Mus	-3324
▁corner	-3325
▁physic	-3326
orry	-3327
otyp	-3328
▁197	-3329
arian	-3330
cules	-3331
▁male	-3332
▁worst	-3333
▁career	-3334
▁meters	-3335
▁resist	-3336
▁Afghanistan	-3337
na	-3338
▁Pr	-3339
▁500	-3340
▁contact	-3341
▁demonst	-3342
▁reflect	-3343
▁stopped	-3344
▁streets	-3345
▁designers	-3346
▁En	-3347
raid	-3348
rench	-3349
▁base	-3350
▁rule	-3351
▁Indian	-3352
▁expand	-3353
ils	-3354
gery	-3355
▁loss	-3356
▁affect	-3357
▁afraid	-3358
▁profound	-3359
▁terrible	-3360
pro	-3361
yle	-3362
aign	-3363
▁hole	-3364
▁flight	-3365
▁seemed	-3366
▁noticed	-3367
▁popular	-3368
▁infrastructure	-3369
▁Dr	-3370
aced	-3371
ashing	-3372
▁smell	-3373
▁causes	-3374
▁histor	-3375
▁symbol	-3376
▁capacity	-3377
▁standard	-3378
▁surround	-3379
▁His	-3380
inate	-3381
▁gent	-3382
▁mamm	-3383
▁diagn	-3384
▁laugh	-3385
▁tough	-3386
▁associ	-3387
▁states	-3388
aim	-3389
amb	-3390
ript	-3391
▁hus	-3392
▁survive	-3393
▁addition	-3394
▁although	-3395
▁remarkable	-3396
ica	-3397
ulf	-3398
▁nut	-3399
▁tum	-3400
iforn	-3401
▁From	-3402
▁Russ	-3403
▁hous	-3404
icking	-3405
▁below	-3406
▁motiv	-3407
▁highly	-3408
▁evolved	-3409
▁Californ	-3410
▁networks	-3411
▁possibly	-3412
anda	-3413
oper	-3414
antic	-3415
orith	-3416
▁raise	-3417
▁algorith	-3418
▁communication	-3419
arm	-3420
eal	-3421
▁196	-3422
prene	-3423
▁Take	-3424
▁vast	-3425
▁displ	-3426
reprene	-3427
▁altern	-3428
▁prevent	-3429
▁practice	-3430
▁Ro	-3431
▁sam	-3432
▁tax	-3433
▁Cong	-3434
▁gold	-3435
▁dance	-3436
▁photo	-3437
ometers	-3438
▁respect	-3439
▁slightly	-3440
band	-3441
icon	-3442
lled	-3443
▁tens	-3444
▁Thanks	-3445
▁mission	-3446
▁inspired	-3447
▁creativity	-3448
reg	-3449
val	-3450
▁Face	-3451
▁grav	-3452
▁paid	-3453
▁susp	-3454
▁wire	-3455
ifying	-3456
▁basis	-3457
▁gradu	-3458
▁rough	-3459
▁visit	-3460
▁genome	-3461
▁missing	-3462
▁California	-3463
▁ut	-3464
empt	-3465
iber	-3466
▁dad	-3467
▁sad	-3468
▁coff	-3469
▁fuel	-3470
▁sick	-3471
anging	-3472
ricult	-3473
▁Second	-3474
▁supply	-3475
▁artists	-3476
▁sustainable	-3477
▁seas	-3478
▁task	-3479
▁dying	-3480
▁myster	-3481
▁nearly	-3482
▁matters	-3483
▁campaign	-3484
▁galaxies	-3485
▁molecules	-3486
edd	-3487
▁Par	-3488
▁ske	-3489
▁lack	-3490
▁terr	-3491
▁Great	-3492
▁total	-3493
▁trade	-3494
▁babies	-3495
▁gentle	-3496
▁justice	-3497
ification	-3498
▁independ	-3499
▁mix	-3500
▁ord	-3501
▁Mich	-3502
▁plat	-3503
▁airpl	-3504
▁switch	-3505
▁hearing	-3506
▁original	-3507
▁television	-3508
off	-3509
▁ir	-3510
aria	-3511
▁bra	-3512
▁mid	-3513
istry	-3514
▁bord	-3515
▁rare	-3516
▁gotten	-3517
▁differently	-3518
ees	-3519
gth	-3520
▁300	-3521
ellow	-3522
house	-3523
iving	-3524
rength	-3525
▁demand	-3526
▁tremend	-3527
▁Pl	-3528
▁Te	-3529
wood	-3530
▁join	-3531
▁crowd	-3532
▁transm	-3533
▁entreprene	-3534
▁surprising	-3535
cr	-3536
iles	-3537
▁tom	-3538
board	-3539
▁heat	-3540
▁analy	-3541
▁fully	-3542
▁applic	-3543
▁bought	-3544
▁compon	-3545
▁gather	-3546
▁infect	-3547
▁cultural	-3548
▁responsibility	-3549
kn	-3550
cks	-3551
the	-3552
▁iP	-3553
▁Ira	-3554
▁Musl	-3555
▁wide	-3556
▁target	-3557
▁sharing	-3558
▁website	-3559
▁published	-3560
▁temperature	-3561
gy	-3562
▁Hey	-3563
▁Sch	-3564
▁tun	-3565
▁copy	-3566
▁held	-3567
▁moon	-3568
▁agree	-3569
▁invis	-3570
▁shock	-3571
▁forces	-3572
▁played	-3573
▁forever	-3574
▁strength	-3575
▁efficient	-3576
▁significant	-3577
zen	-3578
ties	-3579
uing	-3580
▁ban	-3581
arter	-3582
▁host	-3583
▁none	-3584
▁ther	-3585
▁giant	-3586
▁parad	-3587
▁easily	-3588
▁members	-3589
ened	-3590
iers	-3591
rael	-3592
▁dyn	-3593
▁sexual	-3594
▁virtual	-3595
▁structures	-3596
▁imagination	-3597
cop	-3598
oses	-3599
rupt	-3600
▁San	-3601
▁faith	-3602
▁frame	-3603
▁habit	-3604
ography	-3605
▁phones	-3606
▁National	-3607
▁agricult	-3608
nel	-3609
vest	-3610
▁gun	-3611
▁Iraq	-3612
▁boys	-3613
ashion	-3614
▁birds	-3615
▁slide	-3616
▁refuge	-3617
▁tissue	-3618
▁percept	-3619
▁trouble	-3620
▁particles	-3621
nds	-3622
ening	-3623
▁seed	-3624
atures	-3625
▁easier	-3626
▁produced	-3627
▁biological	-3628
ya	-3629
mon	-3630
▁Gl	-3631
ques	-3632
▁bag	-3633
▁oxygen	-3634
▁philos	-3635
▁central	-3636
▁markets	-3637
ked	-3638
omy	-3639
▁Ab	-3640
▁et	-3641
▁ang	-3642
idden	-3643
▁Will	-3644
▁beat	-3645
▁pros	-3646
▁wear	-3647
▁David	-3648
▁accom	-3649
▁rapid	-3650
▁twice	-3651
▁brother	-3652
▁moments	-3653
▁surgery	-3654
▁entirely	-3655
▁partners	-3656
▁platform	-3657
▁condition	-3658
▁scientist	-3659
ky	-3660
▁$	-3661
▁Su	-3662
▁unc	-3663
▁vot	-3664
water	-3665
▁climb	-3666
▁coffee	-3667
▁creates	-3668
▁helping	-3669
▁Actually	-3670
▁billions	-3671
▁bringing	-3672
▁importantly	-3673
zil	-3674
otic	-3675
ping	-3676
▁hom	-3677
▁inj	-3678
▁funny	-3679
▁spaces	-3680
▁turning	-3681
▁landscape	-3682
▁background	-3683
▁Ob	-3684
adem	-3685
▁Did	-3686
▁pig	-3687
▁exer	-3688
▁gene	-3689
▁10,000	-3690
▁Brazil	-3691
▁answers	-3692
▁degrees	-3693
▁Facebook	-3694
▁emotional	-3695
▁industrial	-3696
▁leadership	-3697
▁differences	-3698
▁opportunities	-3699
irt	-3700
esis	-3701
▁hall	-3702
▁teen	-3703
cience	-3704
thetic	-3705
▁legal	-3706
osystem	-3707
▁passed	-3708
▁window	-3709
unt	-3710
itely	-3711
▁Over	-3712
▁ends	-3713
▁fold	-3714
▁weap	-3715
▁magaz	-3716
▁Israel	-3717
▁broken	-3718
▁correct	-3719
▁ble	-3720
▁wood	-3721
ording	-3722
▁eating	-3723
▁electr	-3724
equ	-3725
ume	-3726
term	-3727
▁cru	-3728
▁blog	-3729
▁forg	-3730
▁explor	-3731
▁spending	-3732
▁investment	-3733
yl	-3734
▁Ed	-3735
cell	-3736
itan	-3737
quit	-3738
reci	-3739
▁French	-3740
▁lights	-3741
▁reduce	-3742
▁1.	-3743
▁oh	-3744
cest	-3745
here	-3746
▁Fin	-3747
▁fab	-3748
antage	-3749
▁adapt	-3750
▁despite	-3751
▁distance	-3752
▁elements	-3753
▁reb	-3754
▁1,000	-3755
▁calls	-3756
▁mouth	-3757
▁batter	-3758
▁letter	-3759
▁majority	-3760
▁ecosystem	-3761
▁kilometers	-3762
hy	-3763
▁cos	-3764
ander	-3765
riage	-3766
▁More	-3767
▁bone	-3768
▁hack	-3769
▁mort	-3770
▁narr	-3771
▁photos	-3772
▁attract	-3773
▁Audience	-3774
▁describe	-3775
▁opposite	-3776
▁engineers	-3777
▁definition	-3778
win	-3779
▁vul	-3780
stein	-3781
▁Have	-3782
▁Niger	-3783
▁cheap	-3784
▁shoot	-3785
▁ancest	-3786
▁astron	-3787
▁desire	-3788
▁childhood	-3789
▁complexity	-3790
ius	-3791
▁Gu	-3792
▁Mr	-3793
▁Good	-3794
▁avoid	-3795
▁enter	-3796
▁shift	-3797
▁colors	-3798
ulations	-3799
▁figured	-3800
▁invisible	-3801
▁religious	-3802
oe	-3803
aul	-3804
▁Asia	-3805
▁cred	-3806
▁holding	-3807
▁traffic	-3808
▁fighting	-3809
▁previous	-3810
▁NA	-3811
reet	-3812
ysis	-3813
▁Nob	-3814
aling	-3815
icles	-3816
ulous	-3817
elling	-3818
ulated	-3819
▁gender	-3820
▁failure	-3821
▁believed	-3822
▁creation	-3823
▁institution	-3824
edic	-3825
▁400	-3826
▁Sun	-3827
▁fort	-3828
▁mill	-3829
▁brill	-3830
▁remain	-3831
▁leading	-3832
▁regular	-3833
▁possibility	-3834
DS	-3835
ager	-3836
▁aid	-3837
▁adop	-3838
▁stuck	-3839
▁breath	-3840
▁double	-3841
▁European	-3842
▁mountain	-3843
edia	-3844
celer	-3845
print	-3846
▁reve	-3847
▁embra	-3848
▁active	-3849
▁brings	-3850
▁artific	-3851
▁husband	-3852
▁benefits	-3853
▁identity	-3854
▁construct	-3855
▁CO	-3856
▁Dan	-3857
▁del	-3858
▁fat	-3859
based	-3860
eness	-3861
▁pleas	-3862
▁master	-3863
ifically	-3864
▁attempt	-3865
▁everyday	-3866
▁diversity	-3867
▁tremendous	-3868
▁ur	-3869
eper	-3870
▁ing	-3871
▁mos	-3872
▁ver	-3873
apers	-3874
▁core	-3875
apping	-3876
▁indic	-3877
▁party	-3878
▁recon	-3879
▁cooper	-3880
▁damage	-3881
▁grandm	-3882
▁inform	-3883
▁opened	-3884
▁vulner	-3885
▁However	-3886
▁necessary	-3887
▁ultimately	-3888
▁consequences	-3889
ada	-3890
ami	-3891
tle	-3892
exic	-3893
orge	-3894
ront	-3895
roud	-3896
▁Dar	-3897
plant	-3898
▁bomb	-3899
▁tast	-3900
▁Again	-3901
▁hydro	-3902
ruption	-3903
▁galaxy	-3904
▁therap	-3905
▁British	-3906
▁knowing	-3907
▁studying	-3908
▁classroom	-3909
▁creatures	-3910
aker	-3911
▁fol	-3912
▁nor	-3913
▁disp	-3914
▁shop	-3915
▁epide	-3916
▁Austral	-3917
▁appreci	-3918
▁foreign	-3919
▁Sometimes	-3920
▁depression	-3921
ears	-3922
load	-3923
▁den	-3924
▁repe	-3925
▁accur	-3926
▁dinos	-3927
▁helps	-3928
▁lucky	-3929
▁weird	-3930
▁dreams	-3931
▁stress	-3932
▁benefit	-3933
▁succeed	-3934
imensional	-3935
▁mathematics	-3936
▁Bang	-3937
▁bound	-3938
▁novel	-3939
▁desert	-3940
▁lesson	-3941
▁focused	-3942
▁commercial	-3943
gn	-3944
▁Mc	-3945
▁Her	-3946
▁harm	-3947
▁raised	-3948
▁Germany	-3949
▁destroy	-3950
▁managed	-3951
▁politic	-3952
▁dimensions	-3953
lex	-3954
▁Tr	-3955
izes	-3956
▁amb	-3957
▁etc	-3958
▁rot	-3959
▁wis	-3960
iable	-3961
▁Mexic	-3962
▁noise	-3963
▁walls	-3964
▁corpor	-3965
▁notion	-3966
▁necessarily	-3967
vere	-3968
wide	-3969
▁AIDS	-3970
▁agre	-3971
▁chim	-3972
itable	-3973
▁paint	-3974
▁proud	-3975
▁belong	-3976
▁motion	-3977
▁remote	-3978
▁farmers	-3979
▁insects	-3980
▁malaria	-3981
▁compared	-3982
▁document	-3983
▁phenomenon	-3984
▁unf	-3985
▁Once	-3986
▁subst	-3987
▁closed	-3988
▁museum	-3989
▁signal	-3990
▁wearing	-3991
▁strategy	-3992
▁fascinating	-3993
▁responsible	-3994
gypt	-3995
▁Con	-3996
▁See	-3997
▁odd	-3998
uries	-3999
▁Iran	-4000
▁cand	-4001
▁fresh	-4002
▁maint	-4003
▁newsp	-4004
▁finger	-4005
▁metaph	-4006
▁Twitter	-4007
▁discovery	-4008
▁existence	-4009
ief	-4010
aped	-4011
raft	-4012
▁hyp	-4013
▁cogn	-4014
▁foss	-4015
▁iron	-4016
▁spot	-4017
▁Egypt	-4018
entally	-4019
▁limited	-4020
▁signals	-4021
dimensional	-4022
▁unfortunately	-4023
ley	-4024
▁150	-4025
▁bud	-4026
▁gar	-4027
▁org	-4028
known	-4029
▁tour	-4030
▁river	-4031
▁acceler	-4032
▁negative	-4033
bes	-4034
cil	-4035
now	-4036
iver	-4037
▁Big	-4038
▁burn	-4039
▁tons	-4040
▁Would	-4041
▁bread	-4042
▁adults	-4043
▁fairly	-4044
▁yellow	-4045
▁capable	-4046
▁empower	-4047
▁conference	-4048
▁professional	-4049
▁fir	-4050
▁nan	-4051
▁intu	-4052
▁breast	-4053
▁deeply	-4054
▁fashion	-4055
▁studied	-4056
▁university	-4057
RI	-4058
▁US	-4059
mark	-4060
▁App	-4061
▁due	-4062
ratic	-4063
▁Park	-4064
▁cycle	-4065
▁caused	-4066
▁movies	-4067
▁require	-4068
▁finished	-4069
care	-4070
enty	-4071
▁smo	-4072
itute	-4073
▁bear	-4074
▁note	-4075
uments	-4076
lection	-4077
▁leader	-4078
▁counter	-4079
▁emotion	-4080
▁related	-4081
▁constantly	-4082
do	-4083
cles	-4084
ford	-4085
▁Ste	-4086
▁mig	-4087
urally	-4088
▁chick	-4089
▁sport	-4090
▁events	-4091
▁harder	-4092
▁stream	-4093
▁insight	-4094
▁suffering	-4095
rel	-4096
▁Me	-4097
bert	-4098
hand	-4099
vant	-4100
word	-4101
▁Des	-4102
alled	-4103
force	-4104
▁hell	-4105
▁rout	-4106
encing	-4107
▁faces	-4108
▁reward	-4109
▁married	-4110
▁otherwise	-4111
▁increasingly	-4112
inist	-4113
▁hate	-4114
▁Three	-4115
▁coast	-4116
▁exhib	-4117
▁north	-4118
issions	-4119
▁illust	-4120
▁transp	-4121
▁multiple	-4122
▁organisms	-4123
▁businesses	-4124
rim	-4125
son	-4126
▁Ha	-4127
urch	-4128
encies	-4129
itness	-4130
▁frequ	-4131
▁pregn	-4132
▁simpl	-4133
▁disord	-4134
▁oceans	-4135
▁slowly	-4136
▁brilliant	-4137
▁artificial	-4138
▁interaction	-4139
set	-4140
iest	-4141
▁Col	-4142
▁Mal	-4143
throp	-4144
▁arms	-4145
forest	-4146
▁round	-4147
▁pounds	-4148
▁calling	-4149
ibilities	-4150
▁advantage	-4151
▁Fl	-4152
▁Ne	-4153
▁Min	-4154
▁Bill	-4155
▁frag	-4156
▁lock	-4157
▁poet	-4158
▁puzz	-4159
▁soil	-4160
ancing	-4161
ctions	-4162
ushing	-4163
▁argue	-4164
▁scene	-4165
▁sorry	-4166
▁south	-4167
artment	-4168
▁caught	-4169
ographic	-4170
▁trained	-4171
▁emotions	-4172
▁planning	-4173
▁surprise	-4174
▁president	-4175
▁coal	-4176
▁thri	-4177
rating	-4178
▁motor	-4179
▁sector	-4180
▁select	-4181
▁precise	-4182
▁quantum	-4183
▁vehicle	-4184
▁accident	-4185
▁sentence	-4186
▁competition	-4187
iff	-4188
eras	-4189
resp	-4190
▁Web	-4191
▁joy	-4192
▁tor	-4193
craft	-4194
▁gard	-4195
▁pages	-4196
▁stood	-4197
▁bright	-4198
▁dollar	-4199
▁sister	-4200
▁balance	-4201
▁compare	-4202
▁equival	-4203
▁mothers	-4204
▁weather	-4205
▁designing	-4206
▁mentioned	-4207
▁satellite	-4208
anes	-4209
ulpt	-4210
uous	-4211
▁pun	-4212
▁bits	-4213
▁opin	-4214
idents	-4215
▁grown	-4216
▁homes	-4217
▁leads	-4218
iration	-4219
▁bridge	-4220
▁sculpt	-4221
▁argument	-4222
▁marriage	-4223
ests	-4224
unte	-4225
lands	-4226
▁boat	-4227
▁steps	-4228
▁teles	-4229
▁trill	-4230
▁convin	-4231
▁failed	-4232
▁picked	-4233
▁curious	-4234
▁invited	-4235
▁normally	-4236
▁sequence	-4237
▁intellect	-4238
bi	-4239
osh	-4240
▁Bu	-4241
▁egg	-4242
▁Each	-4243
▁hero	-4244
▁frust	-4245
▁begins	-4246
▁degree	-4247
▁factory	-4248
▁replace	-4249
▁restaur	-4250
▁engineer	-4251
▁magazine	-4252
▁principles	-4253
oom	-4254
▁Je	-4255
▁Rem	-4256
▁era	-4257
▁ship	-4258
▁compl	-4259
▁daily	-4260
▁equal	-4261
▁grass	-4262
▁mouse	-4263
▁shark	-4264
▁commit	-4265
▁unlike	-4266
▁drawing	-4267
▁organic	-4268
▁typical	-4269
▁separate	-4270
▁described	-4271
ugg	-4272
uls	-4273
athy	-4274
hold	-4275
olly	-4276
▁trip	-4277
▁whom	-4278
▁brief	-4279
▁eleph	-4280
▁plane	-4281
▁skill	-4282
▁Middle	-4283
▁charge	-4284
▁exists	-4285
▁prefer	-4286
▁concent	-4287
▁designer	-4288
▁survival	-4289
▁influence	-4290
▁generations	-4291
pid	-4292
▁1,	-4293
▁Em	-4294
▁GD	-4295
oman	-4296
▁Ein	-4297
▁ten	-4298
ength	-4299
estic	-4300
▁Paul	-4301
▁myth	-4302
▁categ	-4303
▁claim	-4304
▁hidden	-4305
▁partner	-4306
▁watched	-4307
▁property	-4308
▁received	-4309
▁struggle	-4310
▁philosoph	-4311
▁technical	-4312
▁considered	-4313
rict	-4314
esome	-4315
▁abst	-4316
▁scen	-4317
acters	-4318
▁quote	-4319
▁leaving	-4320
▁tomorrow	-4321
▁seriously	-4322
▁Everything	-4323
▁manufacturing	-4324
IT	-4325
ux	-4326
lin	-4327
▁Nor	-4328
▁Very	-4329
▁grad	-4330
▁liqu	-4331
▁Franc	-4332
▁names	-4333
▁quiet	-4334
▁sites	-4335
▁surge	-4336
▁deeper	-4337
▁filled	-4338
▁finish	-4339
▁cameras	-4340
▁launched	-4341
▁techniques	-4342
▁transformation	-4343
ino	-4344
▁Sy	-4345
ener	-4346
rete	-4347
▁Ant	-4348
▁dry	-4349
▁fro	-4350
akers	-4351
alley	-4352
▁vide	-4353
▁Green	-4354
▁lunch	-4355
▁truck	-4356
▁attach	-4357
▁circle	-4358
▁wisdom	-4359
▁highest	-4360
▁shouldn	-4361
▁volunte	-4362
▁advanced	-4363
▁followed	-4364
▁processes	-4365
▁characters	-4366
ae	-4367
▁GDP	-4368
▁spl	-4369
essed	-4370
▁NASA	-4371
▁Pres	-4372
▁bull	-4373
▁meat	-4374
▁pock	-4375
▁stim	-4376
ending	-4377
ildren	-4378
▁limit	-4379
▁moves	-4380
▁trial	-4381
▁expert	-4382
▁safety	-4383
▁unless	-4384
▁versus	-4385
▁experts	-4386
▁protein	-4387
▁Einstein	-4388
▁prototyp	-4389
▁currently	-4390
▁equivalent	-4391
ett	-4392
▁ali	-4393
▁dol	-4394
▁vib	-4395
lling	-4396
ortex	-4397
▁Does	-4398
▁Life	-4399
▁drag	-4400
▁hadn	-4401
▁seat	-4402
▁shel	-4403
▁soul	-4404
▁vote	-4405
▁colon	-4406
▁layer	-4407
▁prior	-4408
▁saved	-4409
connect	-4410
▁circum	-4411
▁implic	-4412
▁100,000	-4413
▁Francis	-4414
▁Washing	-4415
▁arrived	-4416
▁worried	-4417
▁identify	-4418
▁investig	-4419
▁Everybody	-4420
▁conversations	-4421
bl	-4422
odes	-4423
▁Ple	-4424
▁scr	-4425
▁tit	-4426
▁ton	-4427
▁cave	-4428
▁exch	-4429
▁flat	-4430
▁poem	-4431
▁click	-4432
▁leaves	-4433
▁concerned	-4434
▁principle	-4435
hi	-4436
gar	-4437
apse	-4438
uses	-4439
▁lat	-4440
tered	-4441
▁Gree	-4442
▁edge	-4443
▁libr	-4444
▁nerv	-4445
▁rein	-4446
▁warm	-4447
▁sight	-4448
▁wheel	-4449
▁battle	-4450
▁fields	-4451
▁hopefully	-4452
▁Washington	-4453
▁civilization	-4454
exp	-4455
▁Tom	-4456
▁gap	-4457
agers	-4458
eared	-4459
othes	-4460
▁Last	-4461
▁Rich	-4462
▁anti	-4463
▁crim	-4464
ensity	-4465
terday	-4466
▁Could	-4467
▁lifet	-4468
▁risks	-4469
▁talks	-4470
▁advert	-4471
▁micros	-4472
▁analysis	-4473
▁ordinary	-4474
▁perfectly	-4475
▁connections	-4476
▁experienced	-4477
gl	-4478
▁Sm	-4479
cast	-4480
semb	-4481
asion	-4482
▁hasn	-4483
▁tall	-4484
▁crime	-4485
▁spoke	-4486
▁users	-4487
▁dinner	-4488
▁shapes	-4489
▁letters	-4490
▁treated	-4491
▁contract	-4492
▁exercise	-4493
▁agriculture	-4494
▁comfortable	-4495
ara	-4496
aked	-4497
iors	-4498
rian	-4499
▁Res	-4500
umber	-4501
▁purs	-4502
▁tick	-4503
▁weak	-4504
▁Times	-4505
▁chain	-4506
▁dolph	-4507
▁folks	-4508
▁waves	-4509
▁Darwin	-4510
▁voices	-4511
▁dealing	-4512
▁promise	-4513
▁airplane	-4514
▁continent	-4515
▁essential	-4516
▁grandmother	-4517
▁researchers	-4518
ns	-4519
ocol	-4520
▁pil	-4521
▁tap	-4522
abled	-4523
place	-4524
▁roof	-4525
▁wake	-4526
▁inner	-4527
▁rates	-4528
▁tumor	-4529
▁incent	-4530
▁article	-4531
▁radical	-4532
▁emerging	-4533
▁messages	-4534
▁metaphor	-4535
▁Australia	-4536
▁surprised	-4537
▁corruption	-4538
ads	-4539
cend	-4540
▁pet	-4541
▁rat	-4542
ivers	-4543
▁King	-4544
▁bare	-4545
▁refer	-4546
▁organs	-4547
▁symmet	-4548
▁wondering	-4549
▁intelligent	-4550
▁Bar	-4551
▁alt	-4552
▁Swed	-4553
▁empt	-4554
▁soph	-4555
▁valu	-4556
angers	-4557
▁Their	-4558
▁coral	-4559
▁rural	-4560
▁shoes	-4561
▁paying	-4562
▁contain	-4563
▁details	-4564
▁nervous	-4565
▁roughly	-4566
▁molecule	-4567
▁cognitive	-4568
aters	-4569
olves	-4570
owers	-4571
▁remo	-4572
ession	-4573
▁heavy	-4574
▁encoun	-4575
▁fossil	-4576
▁fourth	-4577
▁liquid	-4578
▁medium	-4579
▁stupid	-4580
▁opening	-4581
▁sending	-4582
▁expected	-4583
▁feelings	-4584
▁operating	-4585
▁management	-4586
▁alternative	-4587
▁effectively	-4588
my	-4589
▁Mo	-4590
▁Ben	-4591
ublic	-4592
▁lies	-4593
▁qual	-4594
▁Kenya	-4595
▁concl	-4596
▁stock	-4597
▁toile	-4598
itarian	-4599
▁neuros	-4600
▁specifically	-4601
ij	-4602
icy	-4603
▁35	-4604
▁Co	-4605
▁2000	-4606
▁ants	-4607
▁king	-4608
▁perm	-4609
▁shut	-4610
▁subm	-4611
▁user	-4612
▁heads	-4613
▁input	-4614
▁perce	-4615
vention	-4616
▁announ	-4617
▁thinks	-4618
▁forests	-4619
▁setting	-4620
▁epidemic	-4621
▁feedback	-4622
▁reaction	-4623
▁chemistry	-4624
20	-4625
▁CE	-4626
▁Pal	-4627
owing	-4628
▁Amaz	-4629
▁recy	-4630
▁2,000	-4631
▁losing	-4632
▁illness	-4633
▁variety	-4634
▁emissions	-4635
▁movements	-4636
▁importance	-4637
ok	-4638
fish	-4639
▁Atl	-4640
organ	-4641
▁Kore	-4642
▁Phil	-4643
▁arts	-4644
▁isol	-4645
▁Since	-4646
▁equip	-4647
▁estab	-4648
▁holes	-4649
▁academ	-4650
▁muscle	-4651
▁gravity	-4652
▁testing	-4653
▁according	-4654
hab	-4655
ogen	-4656
uman	-4657
▁ens	-4658
▁pal	-4659
ropri	-4660
▁dots	-4661
▁exec	-4662
mented	-4663
▁infin	-4664
▁facing	-4665
▁forced	-4666
▁thoughts	-4667
▁carefully	-4668
cut	-4669
▁II	-4670
mber	-4671
▁MIT	-4672
▁fed	-4673
▁thr	-4674
neath	-4675
▁Come	-4676
▁init	-4677
▁snow	-4678
▁debate	-4679
▁houses	-4680
▁toward	-4681
▁worlds	-4682
▁actions	-4683
▁covered	-4684
▁display	-4685
▁keeping	-4686
▁location	-4687
▁resource	-4688
▁President	-4689
▁75	-4690
zing	-4691
lying	-4692
usive	-4693
▁broke	-4694
▁veget	-4695
▁Street	-4696
▁autism	-4697
abilities	-4698
▁printing	-4699
▁construction	-4700
▁evolutionary	-4701
box	-4702
iat	-4703
pet	-4704
onom	-4705
vard	-4706
▁Art	-4707
▁fal	-4708
▁san	-4709
pping	-4710
▁diet	-4711
▁hurt	-4712
▁pray	-4713
▁puts	-4714
▁crash	-4715
ressive	-4716
▁Mexico	-4717
▁explan	-4718
▁conduct	-4719
▁consist	-4720
▁courage	-4721
▁dynamic	-4722
▁vaccine	-4723
▁professor	-4724
▁collection	-4725
▁electrical	-4726
▁independent	-4727
ha	-4728
bel	-4729
rig	-4730
bors	-4731
life	-4732
uits	-4733
▁agg	-4734
▁cup	-4735
▁Mart	-4736
▁gain	-4737
▁wave	-4738
ension	-4739
▁season	-4740
▁videos	-4741
▁cutting	-4742
▁killing	-4743
▁election	-4744
▁trillion	-4745
▁valuable	-4746
▁disappear	-4747
▁economics	-4748
▁sophistic	-4749
▁worldwide	-4750
ams	-4751
▁Ap	-4752
osis	-4753
▁Sim	-4754
▁gay	-4755
▁enem	-4756
father	-4757
▁manip	-4758
▁obser	-4759
▁analog	-4760
▁fellow	-4761
▁interp	-4762
▁scared	-4763
▁privile	-4764
▁sources	-4765
▁witness	-4766
▁properties	-4767
▁protection	-4768
▁relatively	-4769
▁underneath	-4770
▁vulnerable	-4771
ih	-4772
ael	-4773
▁ves	-4774
▁crop	-4775
▁pure	-4776
▁vent	-4777
▁chair	-4778
▁France	-4779
▁assist	-4780
▁Nigeria	-4781
▁element	-4782
▁extract	-4783
▁mosquit	-4784
▁weapons	-4785
▁spectrum	-4786
▁interface	-4787
▁neighbors	-4788
▁associated	-4789
▁healthcare	-4790
▁El	-4791
egal	-4792
▁Bas	-4793
▁cow	-4794
▁uns	-4795
▁bees	-4796
▁pump	-4797
▁shif	-4798
▁antib	-4799
▁goals	-4800
▁height	-4801
▁reform	-4802
▁reveal	-4803
▁awesome	-4804
▁factors	-4805
▁station	-4806
▁convinced	-4807
▁equipment	-4808
▁gentlemen	-4809
▁languages	-4810
▁yesterday	-4811
▁processing	-4812
▁exploration	-4813
▁distribution	-4814
inc	-4815
uary	-4816
▁Red	-4817
itals	-4818
▁Ange	-4819
▁desk	-4820
▁hide	-4821
▁goods	-4822
▁signs	-4823
▁blocks	-4824
▁driver	-4825
▁replic	-4826
▁battery	-4827
▁reached	-4828
▁release	-4829
▁reprodu	-4830
▁victims	-4831
▁warming	-4832
▁consumer	-4833
▁required	-4834
▁requires	-4835
▁encourage	-4836
▁producing	-4837
▁transition	-4838
▁possibilities	-4839
bal	-4840
mas	-4841
new	-4842
▁phr	-4843
▁und	-4844
icing	-4845
▁band	-4846
▁pair	-4847
urance	-4848
▁keeps	-4849
▁kitch	-4850
▁minim	-4851
▁prove	-4852
▁credit	-4853
▁Harvard	-4854
▁regions	-4855
▁affected	-4856
▁Francisco	-4857
▁universal	-4858
▁components	-4859
▁politicians	-4860
ago	-4861
van	-4862
hyth	-4863
rant	-4864
▁lie	-4865
▁cure	-4866
▁jail	-4867
▁factor	-4868
▁vessel	-4869
▁accompl	-4870
▁rapidly	-4871
▁visible	-4872
▁lifetime	-4873
▁password	-4874
▁naturally	-4875
▁organized	-4876
▁perception	-4877
bre	-4878
acle	-4879
rary	-4880
▁Cam	-4881
▁Gen	-4882
▁Yet	-4883
▁mel	-4884
▁bath	-4885
▁dial	-4886
▁flex	-4887
▁sees	-4888
▁summ	-4889
▁unit	-4890
ipping	-4891
▁inher	-4892
▁metal	-4893
▁uncle	-4894
osition	-4895
▁School	-4896
▁assign	-4897
▁define	-4898
▁island	-4899
▁England	-4900
▁capture	-4901
▁nations	-4902
▁primary	-4903
▁Japanese	-4904
▁hydrogen	-4905
▁recorded	-4906
▁whenever	-4907
▁entertain	-4908
▁environments	-4909
▁mathematical	-4910
PS	-4911
▁45	-4912
▁Ke	-4913
bble	-4914
▁Sat	-4915
ipped	-4916
▁bill	-4917
▁lens	-4918
▁suit	-4919
▁ideal	-4920
▁prote	-4921
▁reven	-4922
▁George	-4923
▁option	-4924
▁encoura	-4925
▁instrum	-4926
▁Congress	-4927
▁circumst	-4928
▁organism	-4929
▁behaviors	-4930
▁profession	-4931
▁transportation	-4932
▁Qu	-4933
Tube	-4934
gets	-4935
icip	-4936
▁Pac	-4937
▁Rep	-4938
▁nav	-4939
▁tow	-4940
▁gift	-4941
▁lady	-4942
▁lawy	-4943
icious	-4944
iosity	-4945
▁empty	-4946
▁clever	-4947
▁compar	-4948
▁conver	-4949
▁forgot	-4950
▁member	-4951
▁Richard	-4952
▁YouTube	-4953
▁falling	-4954
▁abstract	-4955
▁generate	-4956
▁ancestors	-4957
▁employees	-4958
▁mortality	-4959
▁definitely	-4960
▁introduced	-4961
▁statistics	-4962
▁combination	-4963
▁intellectual	-4964
▁fundamentally	-4965
30	-4966
▁ax	-4967
cred	-4968
down	-4969
▁Dis	-4970
▁iPh	-4971
isher	-4972
retch	-4973
▁Coll	-4974
▁inev	-4975
▁kick	-4976
▁maps	-4977
▁Apple	-4978
▁serve	-4979
▁sides	-4980
▁deploy	-4981
▁length	-4982
▁severe	-4983
▁outcome	-4984
▁increased	-4985
▁radiation	-4986
▁activities	-4987
▁represents	-4988
▁challenging	-4989
▁entrepreneurs	-4990
ov	-4991
sp	-4992
add	-4993
whel	-4994
▁anx	-4995
ament	-4996
▁2008	-4997
▁Also	-4998
▁Five	-4999
▁bran	-5000
▁orch	-5001
▁Islam	-5002
▁awful	-5003
▁roads	-5004
▁solid	-5005
▁Please	-5006
▁formed	-5007
▁concrete	-5008
▁confront	-5009
▁pleasure	-5010
▁introduce	-5011
▁invention	-5012
▁traveling	-5013
▁conservation	-5014
ker	-5015
xim	-5016
atin	-5017
rade	-5018
▁Lad	-5019
▁hur	-5020
▁mer	-5021
lines	-5022
▁Alex	-5023
▁busy	-5024
▁clus	-5025
▁date	-5026
▁reci	-5027
▁ride	-5028
▁thin	-5029
rument	-5030
▁flies	-5031
▁polar	-5032
▁advice	-5033
fficient	-5034
▁Britain	-5035
▁Perhaps	-5036
▁cartoon	-5037
▁install	-5038
▁soldiers	-5039
▁terrorism	-5040
za	-5041
▁Ah	-5042
cipl	-5043
▁Wow	-5044
▁tox	-5045
etics	-5046
▁Four	-5047
▁cere	-5048
▁peak	-5049
▁silk	-5050
▁surf	-5051
▁cards	-5052
▁estim	-5053
▁steel	-5054
▁sugar	-5055
▁teeth	-5056
▁Muslim	-5057
▁acting	-5058
▁budget	-5059
▁buying	-5060
▁hoping	-5061
▁repair	-5062
▁applied	-5063
▁overwhel	-5064
▁Institute	-5065
▁instrument	-5066
car	-5067
orb	-5068
rog	-5069
heim	-5070
onym	-5071
▁god	-5072
icide	-5073
iency	-5074
ograp	-5075
▁loud	-5076
▁reef	-5077
▁resc	-5078
▁aging	-5079
▁curve	-5080
▁inequ	-5081
▁initi	-5082
▁orbit	-5083
ulating	-5084
▁Canada	-5085
▁advent	-5086
▁contem	-5087
▁explos	-5088
▁former	-5089
▁kitchen	-5090
▁mystery	-5091
▁silence	-5092
▁cultures	-5093
▁refugees	-5094
▁wireless	-5095
▁interests	-5096
▁convention	-5097
▁democratic	-5098
igm	-5099
▁22	-5100
roll	-5101
▁Rob	-5102
▁cha	-5103
▁gri	-5104
▁hung	-5105
▁spin	-5106
▁tail	-5107
isters	-5108
▁Frank	-5109
▁Women	-5110
▁occup	-5111
▁traum	-5112
▁Center	-5113
▁regard	-5114
▁survey	-5115
▁winter	-5116
chnology	-5117
▁closely	-5118
▁depends	-5119
▁recover	-5120
▁existing	-5121
▁rational	-5122
▁molecular	-5123
▁algorithms	-5124
▁foundation	-5125
ait	-5126
▁99	-5127
olds	-5128
over	-5129
▁Gal	-5130
▁ped	-5131
▁rit	-5132
erves	-5133
▁Bank	-5134
▁fert	-5135
▁hang	-5136
▁ment	-5137
▁ring	-5138
▁shad	-5139
▁doubt	-5140
▁honor	-5141
▁Michael	-5142
▁centers	-5143
▁dropped	-5144
▁include	-5145
▁lessons	-5146
▁singing	-5147
▁unknown	-5148
▁Anderson	-5149
▁swimming	-5150
▁transfer	-5151
▁centuries	-5152
▁chemicals	-5153
▁explained	-5154
▁newspaper	-5155
▁resistance	-5156
▁Ac	-5157
aurs	-5158
berg	-5159
irty	-5160
▁mur	-5161
power	-5162
▁2010	-5163
▁grid	-5164
▁scar	-5165
porary	-5166
▁added	-5167
▁facts	-5168
▁navig	-5169
▁Amazon	-5170
▁player	-5171
▁pulled	-5172
▁script	-5173
▁Charles	-5174
▁quarter	-5175
▁equation	-5176
▁awareness	-5177
▁computing	-5178
▁narrative	-5179
▁underwater	-5180
▁consumption	-5181
▁participate	-5182
oice	-5183
oons	-5184
▁Ber	-5185
▁eld	-5186
▁nar	-5187
▁Comm	-5188
▁Inter	-5189
▁court	-5190
▁status	-5191
▁however	-5192
▁sensors	-5193
▁features	-5194
▁mistakes	-5195
▁occurred	-5196
▁mountains	-5197
▁expression	-5198
▁innovative	-5199
▁potentially	-5200
▁sophisticated	-5201
aj	-5202
iot	-5203
zed	-5204
aren	-5205
ault	-5206
gent	-5207
▁Sil	-5208
gment	-5209
scale	-5210
vable	-5211
▁root	-5212
▁unus	-5213
▁vert	-5214
lation	-5215
▁Other	-5216
▁dedic	-5217
▁false	-5218
▁grant	-5219
▁imple	-5220
▁uncom	-5221
▁driven	-5222
▁flower	-5223
▁feature	-5224
▁players	-5225
▁clinical	-5226
▁internal	-5227
▁released	-5228
▁hospitals	-5229
▁pollution	-5230
la	-5231
can	-5232
▁2.	-5233
▁poo	-5234
ternal	-5235
▁James	-5236
▁grain	-5237
▁shall	-5238
▁sweet	-5239
▁cortex	-5240
▁evolve	-5241
▁joined	-5242
▁sports	-5243
▁volume	-5244
▁funding	-5245
▁options	-5246
▁exchange	-5247
▁stronger	-5248
▁mechanism	-5249
▁protected	-5250
▁physically	-5251
▁restaurant	-5252
ria	-5253
asks	-5254
lock	-5255
olic	-5256
▁Pri	-5257
▁Wal	-5258
▁que	-5259
▁row	-5260
flies	-5261
orous	-5262
▁clip	-5263
▁gall	-5264
▁lapt	-5265
▁tack	-5266
▁boxes	-5267
▁cyber	-5268
▁horiz	-5269
▁mirror	-5270
▁engaged	-5271
▁theater	-5272
▁appropri	-5273
▁maintain	-5274
▁generally	-5275
▁interpret	-5276
▁meaningful	-5277
engu	-5278
foot	-5279
▁GPS	-5280
▁Pat	-5281
▁cord	-5282
▁cosm	-5283
▁zoom	-5284
olving	-5285
▁While	-5286
▁chart	-5287
▁fears	-5288
▁label	-5289
▁negot	-5290
rations	-5291
▁button	-5292
▁ingred	-5293
▁Pacific	-5294
▁clothes	-5295
▁selling	-5296
▁carrying	-5297
▁disaster	-5298
▁imagined	-5299
▁pregnant	-5300
▁grandfather	-5301
uh	-5302
esh	-5303
rat	-5304
▁23	-5305
thes	-5306
▁194	-5307
▁Jan	-5308
▁Pol	-5309
▁lic	-5310
▁rub	-5311
aming	-5312
▁golf	-5313
▁lect	-5314
▁nurs	-5315
▁pool	-5316
making	-5317
▁Obama	-5318
▁Paris	-5319
▁satis	-5320
▁staff	-5321
▁sympt	-5322
▁thick	-5323
illance	-5324
▁boring	-5325
▁desper	-5326
▁pollen	-5327
▁secure	-5328
▁solved	-5329
▁attacks	-5330
▁balloon	-5331
▁borders	-5332
▁chimpan	-5333
▁constant	-5334
▁relevant	-5335
▁dinosaurs	-5336
▁operation	-5337
▁discussion	-5338
▁passionate	-5339
uff	-5340
omas	-5341
▁adj	-5342
▁voc	-5343
▁diam	-5344
▁dogs	-5345
▁glam	-5346
athers	-5347
▁Space	-5348
▁Steve	-5349
▁admit	-5350
▁alien	-5351
▁atoms	-5352
▁guide	-5353
▁memor	-5354
▁topic	-5355
aneously	-5356
▁opinion	-5357
▁viruses	-5358
▁younger	-5359
▁apparent	-5360
▁graduate	-5361
▁memories	-5362
▁prepared	-5363
▁constrain	-5364
▁destruction	-5365
▁inspiration	-5366
▁photographs	-5367
fit	-5368
och	-5369
abet	-5370
arct	-5371
gged	-5372
look	-5373
▁Get	-5374
▁toy	-5375
▁1980	-5376
▁Only	-5377
▁Sept	-5378
▁acqu	-5379
▁biom	-5380
▁mere	-5381
▁liked	-5382
▁logic	-5383
▁resil	-5384
▁teams	-5385
akistan	-5386
▁arrest	-5387
▁bubble	-5388
▁iPhone	-5389
▁reject	-5390
▁sample	-5391
▁defined	-5392
▁privacy	-5393
▁pushing	-5394
▁unusual	-5395
▁allowing	-5396
▁domestic	-5397
▁dramatic	-5398
▁equality	-5399
▁economies	-5400
▁providing	-5401
▁Unfortunately	-5402
▁technological	-5403
ola	-5404
uel	-5405
aser	-5406
hips	-5407
▁CEO	-5408
▁Los	-5409
▁dot	-5410
▁sla	-5411
entic	-5412
inter	-5413
▁1990	-5414
▁2009	-5415
▁Mary	-5416
▁Part	-5417
▁eggs	-5418
▁flew	-5419
▁plus	-5420
▁zone	-5421
▁dress	-5422
▁hyper	-5423
▁prime	-5424
▁trend	-5425
▁unexp	-5426
▁upper	-5427
▁Health	-5428
▁bottle	-5429
▁enable	-5430
▁garden	-5431
▁struck	-5432
▁thanks	-5433
ollywood	-5434
▁Antarct	-5435
▁Finally	-5436
▁aspects	-5437
▁efforts	-5438
▁evening	-5439
▁mistake	-5440
▁convince	-5441
▁appreciate	-5442
▁unexpected	-5443
sem	-5444
ula	-5445
▁Tur	-5446
▁ack	-5447
▁pip	-5448
▁cast	-5449
▁decl	-5450
▁tank	-5451
▁wash	-5452
▁beach	-5453
▁cents	-5454
▁coord	-5455
▁dozen	-5456
▁expon	-5457
▁frank	-5458
▁rocks	-5459
▁smile	-5460
▁storm	-5461
respond	-5462
▁Anyway	-5463
▁Russia	-5464
▁fabric	-5465
▁genius	-5466
▁string	-5467
▁chicken	-5468
▁circuit	-5469
▁harvest	-5470
▁receive	-5471
▁reverse	-5472
▁September	-5473
▁statement	-5474
▁greenhouse	-5475
▁collaboration	-5476
▁sustainability	-5477
aci	-5478
ita	-5479
lly	-5480
aded	-5481
iate	-5482
▁Hig	-5483
▁Mil	-5484
▁rom	-5485
▁Stan	-5486
▁dish	-5487
ptions	-5488
▁3,000	-5489
▁aster	-5490
▁chose	-5491
▁pengu	-5492
▁recom	-5493
▁renew	-5494
▁Nobody	-5495
▁Valley	-5496
▁limits	-5497
▁whales	-5498
▁writer	-5499
▁amounts	-5500
▁burning	-5501
▁causing	-5502
▁electro	-5503
▁fingers	-5504
▁musical	-5505
▁remains	-5506
▁Pakistan	-5507
▁proteins	-5508
▁recording	-5509
▁distributed	-5510
▁explanation	-5511
▁implications	-5512
▁surveillance	-5513
GO	-5514
500	-5515
ris	-5516
iday	-5517
ingu	-5518
▁gut	-5519
▁sne	-5520
acing	-5521
point	-5522
▁1960	-5523
▁army	-5524
▁runs	-5525
▁tape	-5526
▁wars	-5527
Americ	-5528
phones	-5529
▁Black	-5530
▁barri	-5531
▁fewer	-5532
▁taste	-5533
itution	-5534
▁Number	-5535
▁agreed	-5536
▁drives	-5537
▁perman	-5538
▁rising	-5539
▁studio	-5540
etically	-5541
▁breathe	-5542
▁embrace	-5543
▁fiction	-5544
▁Everyone	-5545
▁measured	-5546
▁wondered	-5547
ologically	-5548
▁curiosity	-5549
▁framework	-5550
▁sensitive	-5551
▁correspond	-5552
▁literature	-5553
itz	-5554
lym	-5555
ums	-5556
▁ju	-5557
rors	-5558
▁Jew	-5559
▁bul	-5560
▁High	-5561
friend	-5562
▁Higgs	-5563
▁Titan	-5564
▁depth	-5565
▁ridic	-5566
▁rooms	-5567
▁tests	-5568
▁theme	-5569
▁critic	-5570
▁deaths	-5571
▁extent	-5572
▁puzzle	-5573
▁remove	-5574
▁storyt	-5575
onscious	-5576
▁instruct	-5577
▁customers	-5578
▁technique	-5579
▁conclusion	-5580
▁mathematic	-5581
▁productive	-5582
▁situations	-5583
▁instruments	-5584
aint	-5585
cont	-5586
keys	-5587
obal	-5588
▁raw	-5589
▁Fort	-5590
arrass	-5591
stream	-5592
▁flood	-5593
inction	-5594
▁divide	-5595
▁immune	-5596
▁dancing	-5597
▁operate	-5598
▁stretch	-5599
▁tonight	-5600
▁contrast	-5601
▁creature	-5602
▁download	-5603
▁tracking	-5604
▁ultimate	-5605
▁collected	-5606
▁surrounded	-5607
▁applications	-5608
ka	-5609
▁Gh	-5610
▁Ma	-5611
kers	-5612
▁Dem	-5613
▁Haw	-5614
▁esc	-5615
▁fan	-5616
▁wel	-5617
agram	-5618
▁Sing	-5619
▁flag	-5620
▁prem	-5621
▁wine	-5622
heimer	-5623
▁Grand	-5624
▁angry	-5625
▁bones	-5626
▁globe	-5627
▁grade	-5628
▁notes	-5629
▁prize	-5630
▁youth	-5631
▁Before	-5632
▁acknow	-5633
▁monkey	-5634
▁review	-5635
▁trials	-5636
▁carried	-5637
▁empathy	-5638
▁criminal	-5639
▁hardware	-5640
▁magnetic	-5641
▁policies	-5642
▁embarrass	-5643
▁exploring	-5644
▁electronic	-5645
▁27	-5646
appy	-5647
iano	-5648
rets	-5649
▁aim	-5650
itors	-5651
▁acts	-5652
▁evil	-5653
▁hits	-5654
▁mile	-5655
source	-5656
▁State	-5657
▁pitch	-5658
▁weigh	-5659
▁Thomas	-5660
▁placed	-5661
▁cooking	-5662
▁feeding	-5663
▁figures	-5664
▁records	-5665
▁asteroid	-5666
▁vehicles	-5667
▁functions	-5668
▁confidence	-5669
▁personally	-5670
▁circumstances	-5671
cean	-5672
east	-5673
roph	-5674
▁Bro	-5675
▁Che	-5676
uting	-5677
▁bicy	-5678
▁diss	-5679
▁icon	-5680
▁datab	-5681
▁faced	-5682
▁plate	-5683
▁scary	-5684
▁barely	-5685
▁handle	-5686
▁inject	-5687
▁patent	-5688
▁command	-5689
▁largely	-5690
▁violent	-5691
▁accurate	-5692
▁combined	-5693
▁infected	-5694
▁practical	-5695
▁connecting	-5696
gly	-5697
ught	-5698
▁Alz	-5699
▁Law	-5700
▁bes	-5701
▁2007	-5702
▁gras	-5703
▁ours	-5704
▁breed	-5705
▁crack	-5706
▁grows	-5707
▁candid	-5708
inations	-5709
▁Central	-5710
▁afterno	-5711
▁flowers	-5712
▁frankly	-5713
▁removed	-5714
▁robotic	-5715
▁Remember	-5716
▁provided	-5717
▁vaccines	-5718
▁Alzheimer	-5719
▁emergency	-5720
▁collecting	-5721
▁inequality	-5722
▁mechanical	-5723
▁recognition	-5724
aud	-5725
tery	-5726
▁600	-5727
▁Lib	-5728
▁spo	-5729
acles	-5730
comes	-5731
using	-5732
▁bias	-5733
▁biod	-5734
▁firm	-5735
▁obst	-5736
▁sets	-5737
▁5,000	-5738
▁explo	-5739
▁schol	-5740
▁songs	-5741
▁Sweden	-5742
▁clinic	-5743
▁lifest	-5744
▁Project	-5745
▁combine	-5746
▁illegal	-5747
▁Africans	-5748
▁director	-5749
▁engaging	-5750
▁marketing	-5751
▁spreading	-5752
▁microscope	-5753
▁percentage	-5754
▁psychology	-5755
▁resolution	-5756
▁educational	-5757
vey	-5758
bage	-5759
▁Int	-5760
▁Mon	-5761
▁meg	-5762
▁mim	-5763
▁sem	-5764
earch	-5765
icago	-5766
orter	-5767
▁Bost	-5768
▁Girl	-5769
▁Wall	-5770
▁bike	-5771
▁chap	-5772
▁gest	-5773
▁adopt	-5774
▁decre	-5775
▁error	-5776
▁films	-5777
▁judge	-5778
▁pharm	-5779
▁aspect	-5780
▁embedd	-5781
▁senses	-5782
▁stayed	-5783
▁Angeles	-5784
▁January	-5785
▁equally	-5786
▁presence	-5787
▁determine	-5788
▁controlled	-5789
ym	-5790
ald	-5791
ato	-5792
bur	-5793
ille	-5794
plom	-5795
▁bee	-5796
▁pin	-5797
▁sen	-5798
▁twe	-5799
anish	-5800
iment	-5801
▁chip	-5802
▁item	-5803
▁pill	-5804
▁advoc	-5805
▁split	-5806
▁style	-5807
▁assume	-5808
▁border	-5809
▁church	-5810
▁crying	-5811
▁parall	-5812
▁phrase	-5813
▁signed	-5814
▁spring	-5815
ographer	-5816
▁Chicago	-5817
▁fishing	-5818
▁overall	-5819
▁solving	-5820
▁therapy	-5821
▁horrible	-5822
▁Something	-5823
▁selection	-5824
▁typically	-5825
▁recognized	-5826
▁populations	-5827
▁transformed	-5828
▁x	-5829
hol	-5830
top	-5831
anta	-5832
elly	-5833
ifth	-5834
▁Tal	-5835
▁rig	-5836
eline	-5837
▁stro	-5838
▁Latin	-5839
▁fruit	-5840
▁immig	-5841
▁knock	-5842
▁seeds	-5843
▁Museum	-5844
▁escape	-5845
▁poetry	-5846
▁worker	-5847
▁library	-5848
▁nowhere	-5849
▁subjects	-5850
▁committed	-5851
▁reference	-5852
▁telescope	-5853
▁efficiency	-5854
▁laboratory	-5855
alu	-5856
ari	-5857
oft	-5858
rit	-5859
▁65	-5860
rous	-5861
what	-5862
▁Air	-5863
▁Mic	-5864
unate	-5865
▁Star	-5866
▁dign	-5867
▁joke	-5868
▁Woman	-5869
▁dense	-5870
▁score	-5871
▁shame	-5872
▁extend	-5873
▁fisher	-5874
▁linked	-5875
▁pocket	-5876
▁pushed	-5877
▁discipl	-5878
▁inspire	-5879
▁intense	-5880
▁opposed	-5881
▁concepts	-5882
▁drinking	-5883
▁outcomes	-5884
▁Christmas	-5885
▁footprint	-5886
▁insurance	-5887
▁paintings	-5888
▁interacting	-5889
alt	-5890
vas	-5891
▁Es	-5892
▁Jes	-5893
▁Rev	-5894
agger	-5895
iders	-5896
leton	-5897
oxide	-5898
range	-5899
▁1970	-5900
▁Adam	-5901
▁June	-5902
▁blow	-5903
▁leap	-5904
▁nest	-5905
▁nose	-5906
▁rely	-5907
called	-5908
▁fixed	-5909
▁title	-5910
ogether	-5911
▁Boston	-5912
▁clouds	-5913
▁colony	-5914
▁ladies	-5915
▁papers	-5916
▁recomm	-5917
▁Science	-5918
▁anticip	-5919
▁cheaper	-5920
▁monkeys	-5921
▁savings	-5922
▁suppose	-5923
▁collapse	-5924
▁embedded	-5925
▁paradigm	-5926
▁suggests	-5927
▁afternoon	-5928
▁authority	-5929
ige	-5930
min	-5931
ras	-5932
rol	-5933
icit	-5934
illy	-5935
ione	-5936
ogue	-5937
omic	-5938
uild	-5939
▁250	-5940
▁Oct	-5941
▁Pan	-5942
▁mat	-5943
aving	-5944
hythm	-5945
night	-5946
▁Gold	-5947
▁Mont	-5948
▁cock	-5949
▁grab	-5950
▁loop	-5951
imeter	-5952
▁Found	-5953
▁maxim	-5954
▁plans	-5955
▁Palest	-5956
▁ignore	-5957
▁latest	-5958
▁scenar	-5959
▁spinal	-5960
▁tested	-5961
▁advance	-5962
▁airport	-5963
▁conserv	-5964
▁extinct	-5965
▁offered	-5966
▁painful	-5967
▁poorest	-5968
▁floating	-5969
▁infinite	-5970
▁apartment	-5971
▁authentic	-5972
▁continued	-5973
▁spiritual	-5974
▁department	-5975
▁psychological	-5976
han	-5977
oly	-5978
rey	-5979
▁Fe	-5980
gger	-5981
▁Dep	-5982
▁Wik	-5983
▁fib	-5984
▁shr	-5985
ogram	-5986
pring	-5987
▁dust	-5988
▁ears	-5989
▁lung	-5990
▁prec	-5991
acular	-5992
▁brown	-5993
▁drove	-5994
▁humor	-5995
▁polio	-5996
▁skull	-5997
century	-5998
through	-5999
▁herself	-6000
▁parking	-6001
▁somewhat	-6002
▁consumers	-6003
▁destroyed	-6004
▁precisely	-6005
▁application	-6006
▁interactive	-6007
▁expectations	-6008
rav	-6009
cers	-6010
▁Del	-6011
▁Jul	-6012
▁Mom	-6013
▁Next	-6014
▁Port	-6015
▁Talk	-6016
▁fake	-6017
▁gray	-6018
▁pink	-6019
▁rush	-6020
arency	-6021
asters	-6022
▁chrom	-6023
▁fuels	-6024
▁imper	-6025
▁ought	-6026
▁proof	-6027
▁recyc	-6028
▁vital	-6029
raction	-6030
▁relate	-6031
▁rocket	-6032
▁toilet	-6033
▁decline	-6034
▁dioxide	-6035
▁existed	-6036
▁wanting	-6037
connected	-6038
▁football	-6039
▁occasion	-6040
▁searching	-6041
▁automatically	-6042
▁0	-6043
aks	-6044
aws	-6045
adic	-6046
icks	-6047
lymp	-6048
▁ath	-6049
▁gig	-6050
ingly	-6051
opher	-6052
oster	-6053
▁anat	-6054
▁neut	-6055
▁ugly	-6056
▁House	-6057
▁metab	-6058
▁plays	-6059
▁prost	-6060
▁stack	-6061
▁whist	-6062
▁assemb	-6063
▁devast	-6064
▁invite	-6065
▁owners	-6066
▁Muslims	-6067
▁comment	-6068
▁proport	-6069
▁reconst	-6070
▁suicide	-6071
▁birthday	-6072
▁breaking	-6073
▁particle	-6074
▁properly	-6075
▁reaching	-6076
▁algorithm	-6077
▁uncomfort	-6078
▁fascinated	-6079
▁electronics	-6080
▁conventional	-6081
▁dramatically	-6082
▁experiencing	-6083
ata	-6084
▁Op	-6085
▁py	-6086
aust	-6087
iety	-6088
nels	-6089
raph	-6090
rill	-6091
▁Day	-6092
▁cab	-6093
icted	-6094
▁Ever	-6095
▁Step	-6096
▁elim	-6097
▁lets	-6098
▁milk	-6099
▁Count	-6100
▁Olymp	-6101
▁abuse	-6102
▁anger	-6103
▁aston	-6104
▁colum	-6105
▁enemy	-6106
▁horse	-6107
▁presc	-6108
▁lovely	-6109
▁murder	-6110
▁neuron	-6111
▁portra	-6112
▁proced	-6113
▁stands	-6114
▁appears	-6115
▁classic	-6116
▁methods	-6117
▁astronom	-6118
▁choosing	-6119
▁estimate	-6120
▁wherever	-6121
▁depending	-6122
▁dimension	-6123
▁uncertain	-6124
▁satellites	-6125
▁productivity	-6126
▁communications	-6127
-1	-6128
wr	-6129
nes	-6130
▁36	-6131
oded	-6132
opia	-6133
▁Ten	-6134
▁sed	-6135
belie	-6136
stand	-6137
▁hook	-6138
▁stone	-6139
ushroom	-6140
▁Really	-6141
▁appeal	-6142
▁frozen	-6143
▁hunger	-6144
▁output	-6145
▁careful	-6146
▁classes	-6147
▁continu	-6148
▁diagram	-6149
▁disrupt	-6150
▁essence	-6151
▁passing	-6152
▁accepted	-6153
▁captured	-6154
▁organize	-6155
▁symptoms	-6156
▁traveled	-6157
▁household	-6158
▁privilege	-6159
▁accessible	-6160
▁behavioral	-6161
▁mechanisms	-6162
▁personality	-6163
▁entrepreneur	-6164
▁interactions	-6165
▁entertainment	-6166
▁uncomfortable	-6167
ali	-6168
ias	-6169
nam	-6170
nic	-6171
▁BG	-6172
ares	-6173
oned	-6174
▁spr	-6175
▁Cons	-6176
▁Pole	-6177
▁club	-6178
▁mice	-6179
▁Bible	-6180
▁brave	-6181
▁domin	-6182
▁hotel	-6183
▁recru	-6184
▁toler	-6185
▁hungry	-6186
▁mainly	-6187
▁stable	-6188
▁chromos	-6189
▁disturb	-6190
▁orchest	-6191
▁regener	-6192
▁whereas	-6193
▁elephant	-6194
▁meetings	-6195
▁obsessed	-6196
▁overcome	-6197
▁reported	-6198
▁vertical	-6199
▁conflicts	-6200
▁elections	-6201
▁practices	-6202
▁presented	-6203
▁capitalism	-6204
▁commitment	-6205
▁contribute	-6206
▁philosophy	-6207
▁advertising	-6208
▁International	-6209
gun	-6210
ket	-6211
vis	-6212
▁DH	-6213
▁PM	-6214
▁Jer	-6215
▁Jim	-6216
▁ate	-6217
▁bat	-6218
▁bow	-6219
arity	-6220
attan	-6221
being	-6222
iance	-6223
▁Hell	-6224
inking	-6225
profit	-6226
▁About	-6227
▁Peter	-6228
▁bombs	-6229
▁falls	-6230
▁lying	-6231
▁pilot	-6232
▁tired	-6233
▁walks	-6234
▁wings	-6235
plicity	-6236
▁Global	-6237
▁heroes	-6238
▁needle	-6239
▁surely	-6240
▁designs	-6241
▁achieved	-6242
▁brothers	-6243
▁distinct	-6244
▁Christian	-6245
▁celebrate	-6246
▁elsewhere	-6247
▁intuitive	-6248
▁lifestyle	-6249
▁Antarctica	-6250
▁exhibition	-6251
▁globalization	-6252
iac	-6253
iam	-6254
sec	-6255
▁Hi	-6256
▁id	-6257
erge	-6258
fall	-6259
iled	-6260
irds	-6261
ulse	-6262
▁Ros	-6263
▁lit	-6264
level	-6265
while	-6266
▁Manh	-6267
▁Tell	-6268
▁boss	-6269
▁emph	-6270
▁pace	-6271
▁Korea	-6272
▁Union	-6273
▁disag	-6274
▁flash	-6275
▁males	-6276
▁phase	-6277
▁shell	-6278
▁stere	-6279
▁tasks	-6280
onymous	-6281
▁Martin	-6282
▁absorb	-6283
▁expans	-6284
▁geomet	-6285
▁hearts	-6286
▁hypoth	-6287
▁layers	-6288
▁orange	-6289
▁scream	-6290
▁traged	-6291
▁Nothing	-6292
▁channel	-6293
▁conclud	-6294
▁diction	-6295
▁picking	-6296
▁section	-6297
▁surgeon	-6298
▁minister	-6299
▁Manhattan	-6300
▁backwards	-6301
▁disorders	-6302
▁documents	-6303
▁standards	-6304
▁variation	-6305
▁architects	-6306
▁economists	-6307
▁incentives	-6308
me	-6309
ta	-6310
anz	-6311
cel	-6312
▁Bab	-6313
▁Bon	-6314
▁Eth	-6315
▁bon	-6316
▁unp	-6317
allow	-6318
angle	-6319
arant	-6320
ollar	-6321
▁cute	-6322
▁incl	-6323
▁plot	-6324
▁trop	-6325
▁Voice	-6326
▁abund	-6327
▁accum	-6328
▁chaos	-6329
▁laser	-6330
▁minor	-6331
▁tight	-6332
▁usual	-6333
▁whale	-6334
▁fright	-6335
▁sphere	-6336
▁citizen	-6337
▁distant	-6338
▁imaging	-6339
▁prosper	-6340
▁scratch	-6341
▁visited	-6342
▁Stanford	-6343
▁illusion	-6344
▁villages	-6345
▁responses	-6346
▁strangers	-6347
▁directions	-6348
▁transplant	-6349
▁appropriate	-6350
▁represented	-6351
▁neighborhoods	-6352
tech	-6353
▁Ice	-6354
copes	-6355
otion	-6356
▁2005	-6357
▁2011	-6358
▁ages	-6359
▁cash	-6360
▁pour	-6361
▁rice	-6362
▁sacr	-6363
▁tube	-6364
rition	-6365
▁Ocean	-6366
▁manif	-6367
▁suppl	-6368
▁landed	-6369
▁legacy	-6370
▁marine	-6371
▁narrow	-6372
▁rating	-6373
▁beliefs	-6374
▁divided	-6375
▁exposed	-6376
▁windows	-6377
▁Atlantic	-6378
▁Republic	-6379
▁attached	-6380
▁dolphins	-6381
▁stations	-6382
▁sunlight	-6383
▁Basically	-6384
▁breathing	-6385
▁colleague	-6386
▁component	-6387
▁corporate	-6388
▁identical	-6389
▁capability	-6390
▁historical	-6391
▁protecting	-6392
ani	-6393
tes	-6394
case	-6395
ober	-6396
▁Bob	-6397
▁Cop	-6398
▁upl	-6399
iform	-6400
worth	-6401
▁Arch	-6402
▁Give	-6403
▁Jeff	-6404
▁Mark	-6405
▁bend	-6406
▁bind	-6407
▁blank	-6408
▁exped	-6409
▁fluid	-6410
▁pyram	-6411
▁spark	-6412
▁tries	-6413
anthrop	-6414
▁attrib	-6415
▁borrow	-6416
▁fertil	-6417
▁retire	-6418
▁silent	-6419
▁thrown	-6420
▁anxiety	-6421
▁crucial	-6422
▁dignity	-6423
▁earthqu	-6424
▁mammals	-6425
▁raising	-6426
▁samples	-6427
▁academic	-6428
▁globally	-6429
▁parallel	-6430
▁animation	-6431
▁dedicated	-6432
▁exception	-6433
▁virtually	-6434
▁Foundation	-6435
▁optimistic	-6436
▁universities	-6437
dri	-6438
org	-6439
▁32	-6440
▁BF	-6441
▁MS	-6442
etch	-6443
▁Cor	-6444
▁Fre	-6445
▁Hom	-6446
▁NGO	-6447
▁enh	-6448
▁lun	-6449
▁van	-6450
▁furn	-6451
▁mail	-6452
▁Nobel	-6453
▁Scott	-6454
▁Super	-6455
▁champ	-6456
▁chest	-6457
▁doors	-6458
iveness	-6459
uration	-6460
▁diplom	-6461
▁filter	-6462
▁sacred	-6463
▁October	-6464
▁immense	-6465
▁sisters	-6466
▁speaker	-6467
▁trigger	-6468
▁southern	-6469
▁treating	-6470
▁generated	-6471
▁investing	-6472
▁measuring	-6473
▁permission	-6474
▁controlling	-6475
azz	-6476
nda	-6477
ague	-6478
aret	-6479
icop	-6480
pled	-6481
udes	-6482
▁Bur	-6483
▁Mad	-6484
▁Rio	-6485
▁orb	-6486
enger	-6487
itory	-6488
iture	-6489
tical	-6490
▁1950	-6491
▁2004	-6492
▁Rome	-6493
▁cous	-6494
▁elev	-6495
▁flip	-6496
▁tent	-6497
dollar	-6498
▁Wikip	-6499
▁aband	-6500
▁drawn	-6501
▁drill	-6502
▁fract	-6503
▁glaci	-6504
▁holds	-6505
▁march	-6506
▁pione	-6507
▁screw	-6508
▁smoke	-6509
▁units	-6510
▁utter	-6511
▁Nature	-6512
▁adjust	-6513
▁capita	-6514
▁laptop	-6515
▁locked	-6516
▁neural	-6517
▁satisf	-6518
▁subtle	-6519
▁ceiling	-6520
▁collaps	-6521
▁concert	-6522
▁housing	-6523
▁letting	-6524
▁liberal	-6525
▁Research	-6526
▁microbes	-6527
▁Hollywood	-6528
▁calculate	-6529
▁confident	-6530
▁highlight	-6531
▁religions	-6532
▁apparently	-6533
▁integrated	-6534
▁cooperation	-6535
▁presentation	-6536
wl	-6537
den	-6538
gic	-6539
ini	-6540
rah	-6541
▁Rw	-6542
▁Up	-6543
ctic	-6544
ilit	-6545
onna	-6546
▁Med	-6547
▁wip	-6548
▁dive	-6549
▁kiss	-6550
▁knee	-6551
▁laid	-6552
▁suck	-6553
abetes	-6554
lessly	-6555
▁Prize	-6556
▁banks	-6557
▁elder	-6558
▁Things	-6559
▁behave	-6560
▁fought	-6561
▁hardly	-6562
▁oldest	-6563
▁shadow	-6564
▁spider	-6565
▁volcan	-6566
▁autonom	-6567
▁density	-6568
▁finance	-6569
▁granted	-6570
▁habitat	-6571
▁hanging	-6572
▁publish	-6573
▁agencies	-6574
▁disorder	-6575
▁external	-6576
▁focusing	-6577
▁provides	-6578
▁shoulder	-6579
▁Wikipedia	-6580
▁additional	-6581
▁governance	-6582
▁rainforest	-6583
▁underlying	-6584
▁probability	-6585
▁breakthrough	-6586
BI	-6587
ala	-6588
bed	-6589
▁Ug	-6590
hour	-6591
▁Tor	-6592
▁excl	-6593
▁mold	-6594
▁Mount	-6595
▁balls	-6596
▁crops	-6597
▁nutri	-6598
▁piano	-6599
▁purch	-6600
eration	-6601
forward	-6602
ocolate	-6603
section	-6604
▁Arabic	-6605
▁adding	-6606
▁curren	-6607
▁dragon	-6608
▁farmer	-6609
▁missed	-6610
▁prices	-6611
▁profit	-6612
▁victim	-6613
▁entered	-6614
▁license	-6615
▁mindset	-6616
▁neither	-6617
▁refugee	-6618
▁vessels	-6619
▁Children	-6620
▁artistic	-6621
▁involves	-6622
▁northern	-6623
▁reminded	-6624
▁continues	-6625
▁delivered	-6626
▁Revolution	-6627
▁affordable	-6628
▁ecosystems	-6629
▁functional	-6630
▁simulation	-6631
▁strategies	-6632
▁consequence	-6633
▁underground	-6634
▁transparency	-6635
AR	-6636
aled	-6637
arsh	-6638
fold	-6639
▁120	-6640
▁Boy	-6641
▁Put	-6642
▁Ven	-6643
▁tag	-6644
▁tip	-6645
gging	-6646
going	-6647
rates	-6648
reens	-6649
▁blah	-6650
▁bump	-6651
▁caps	-6652
▁debt	-6653
▁rent	-6654
▁stun	-6655
▁tied	-6656
arters	-6657
▁persu	-6658
▁seats	-6659
unction	-6660
▁eradic	-6661
▁excell	-6662
▁poster	-6663
▁circles	-6664
▁contrad	-6665
▁pointed	-6666
▁touched	-6667
▁unbelie	-6668
▁confused	-6669
▁controls	-6670
▁educated	-6671
▁produces	-6672
▁increases	-6673
▁infection	-6674
▁intention	-6675
▁mechanics	-6676
▁disability	-6677
▁journalist	-6678
▁performing	-6679
▁ingredients	-6680
▁spectacular	-6681
ua	-6682
hop	-6683
▁ru	-6684
bola	-6685
exas	-6686
lete	-6687
oust	-6688
pass	-6689
▁Nat	-6690
▁cub	-6691
▁lin	-6692
▁mad	-6693
class	-6694
▁Cont	-6695
▁earn	-6696
▁fool	-6697
▁poly	-6698
▁writ	-6699
makers	-6700
orking	-6701
▁aside	-6702
▁burst	-6703
▁conce	-6704
▁fiber	-6705
▁liver	-6706
▁marry	-6707
▁sales	-6708
▁thumb	-6709
▁toxic	-6710
▁unpre	-6711
▁views	-6712
▁yield	-6713
▁Saturn	-6714
▁emphas	-6715
▁rarely	-6716
▁recept	-6717
▁rivers	-6718
▁simult	-6719
American	-6720
▁guarant	-6721
▁helicop	-6722
▁instant	-6723
▁painted	-6724
▁administ	-6725
▁mushroom	-6726
▁repeated	-6727
▁encounter	-6728
▁objective	-6729
▁discoveries	-6730
▁improvement	-6731
▁photography	-6732
des	-6733
▁La	-6734
agon	-6735
ihad	-6736
rich	-6737
viol	-6738
well	-6739
west	-6740
▁Eas	-6741
▁Lab	-6742
▁Les	-6743
▁Mod	-6744
▁Net	-6745
▁Vir	-6746
▁der	-6747
eters	-6748
icher	-6749
▁alco	-6750
▁disg	-6751
▁prev	-6752
▁tech	-6753
usions	-6754
▁Ghana	-6755
▁Haiti	-6756
▁Italy	-6757
▁Texas	-6758
▁White	-6759
▁naked	-6760
▁roots	-6761
▁shake	-6762
▁skept	-6763
ishment	-6764
▁Indeed	-6765
▁Micros	-6766
▁Robert	-6767
▁ensure	-6768
▁plenty	-6769
▁repeat	-6770
▁scales	-6771
▁smooth	-6772
▁trends	-6773
▁Through	-6774
▁amongst	-6775
▁defense	-6776
▁implant	-6777
▁lecture	-6778
▁aircraft	-6779
▁diabetes	-6780
▁fabulous	-6781
▁includes	-6782
▁manifest	-6783
▁official	-6784
▁returned	-6785
▁inspiring	-6786
▁telephone	-6787
▁ridiculous	-6788
▁demonstrate	-6789
hus	-6790
lar	-6791
ora	-6792
spe	-6793
▁Hel	-6794
▁Sea	-6795
▁Unt	-6796
▁Was	-6797
▁hol	-6798
▁lux	-6799
▁tea	-6800
ading	-6801
alian	-6802
cence	-6803
▁Gand	-6804
▁Stud	-6805
▁dump	-6806
▁hire	-6807
▁limb	-6808
▁nets	-6809
arents	-6810
▁array	-6811
▁blame	-6812
▁coach	-6813
▁mixed	-6814
▁monit	-6815
▁opens	-6816
▁50,000	-6817
▁basket	-6818
▁bother	-6819
▁conven	-6820
▁facial	-6821
▁powers	-6822
▁regret	-6823
▁slides	-6824
▁anthrop	-6825
▁consume	-6826
▁diverse	-6827
▁failing	-6828
▁monitor	-6829
▁tragedy	-6830
▁appeared	-6831
▁programm	-6832
▁shooting	-6833
▁textbook	-6834
▁forgotten	-6835
▁permanent	-6836
forestation	-6837
▁boundaries	-6838
▁controvers	-6839
▁determined	-6840
▁simplicity	-6841
▁programming	-6842
▁transparent	-6843
▁neuroscience	-6844
tw	-6845
sey	-6846
war	-6847
▁28	-6848
▁fo	-6849
ahar	-6850
iece	-6851
ulum	-6852
utch	-6853
▁Som	-6854
inson	-6855
isted	-6856
▁Turn	-6857
▁axis	-6858
▁bags	-6859
▁bond	-6860
▁corn	-6861
▁seek	-6862
▁begun	-6863
▁diver	-6864
▁encry	-6865
▁trail	-6866
▁Design	-6867
▁Friday	-6868
▁actors	-6869
▁establ	-6870
▁richer	-6871
▁scores	-6872
▁served	-6873
▁voting	-6874
▁Islamic	-6875
▁cluster	-6876
▁millenn	-6877
▁prepare	-6878
▁printer	-6879
▁rebuild	-6880
▁slavery	-6881
▁darkness	-6882
▁database	-6883
▁theories	-6884
▁expansion	-6885
▁passwords	-6886
▁synthetic	-6887
▁terrorist	-6888
▁afterwards	-6889
▁assumptions	-6890
▁genetically	-6891
▁characteristics	-6892
eda	-6893
hib	-6894
▁gh	-6895
agos	-6896
▁Jon	-6897
▁Sou	-6898
▁aer	-6899
▁bio	-6900
▁hat	-6901
▁rac	-6902
esity	-6903
iated	-6904
inals	-6905
rones	-6906
under	-6907
▁Blue	-6908
▁crew	-6909
▁horm	-6910
▁neat	-6911
▁odds	-6912
▁peer	-6913
▁quad	-6914
iously	-6915
utical	-6916
▁Charl	-6917
▁Congo	-6918
▁Democ	-6919
▁Ebola	-6920
▁chief	-6921
▁digit	-6922
▁dirty	-6923
▁dynam	-6924
▁finds	-6925
▁gases	-6926
▁reson	-6927
▁shout	-6928
▁wound	-6929
▁Uganda	-6930
▁agency	-6931
▁agenda	-6932
▁partly	-6933
▁shaped	-6934
▁waters	-6935
children	-6936
▁concern	-6937
▁consult	-6938
▁deserve	-6939
▁fastest	-6940
▁magical	-6941
▁muscles	-6942
▁paradox	-6943
▁printed	-6944
▁session	-6945
▁symbols	-6946
▁answered	-6947
▁bathroom	-6948
▁extended	-6949
▁instinct	-6950
▁sleeping	-6951
▁symmetry	-6952
▁copyright	-6953
▁daughters	-6954
▁expanding	-6955
▁primarily	-6956
▁reduction	-6957
▁disappoint	-6958
▁engagement	-6959
▁inevitable	-6960
▁observation	-6961
ls	-6962
arp	-6963
hen	-6964
ida	-6965
lyn	-6966
obs	-6967
▁SS	-6968
▁Us	-6969
▁195	-6970
▁Acc	-6971
▁Leg	-6972
▁pra	-6973
oding	-6974
▁Jack	-6975
▁Move	-6976
ometer	-6977
▁Carol	-6978
▁Never	-6979
▁angle	-6980
▁gonna	-6981
▁joint	-6982
▁links	-6983
▁nerve	-6984
▁arrive	-6985
▁attend	-6986
▁killer	-6987
▁lawyer	-6988
▁nurses	-6989
▁regime	-6990
▁sticks	-6991
▁affects	-6992
▁bicycle	-6993
▁closest	-6994
▁compete	-6995
▁deliber	-6996
▁elected	-6997
▁obesity	-6998
▁parties	-6999
▁promote	-7000
▁protest	-7001
aceutical	-7002
▁crossing	-7003
▁incident	-7004
▁scholars	-7005
▁abilities	-7006
▁accidents	-7007
▁dependent	-7008
▁diagnosed	-7009
▁predicted	-7010
▁sculpture	-7011
▁teenagers	-7012
▁originally	-7013
▁struggling	-7014
▁treatments	-7015
▁instructions	-7016
MS	-7017
ek	-7018
elf	-7019
imp	-7020
ixt	-7021
▁95	-7022
▁Ox	-7023
▁Po	-7024
▁Sk	-7025
apor	-7026
zees	-7027
▁10-	-7028
▁Bay	-7029
▁Mag	-7030
▁Six	-7031
▁cro	-7032
▁obl	-7033
▁tab	-7034
archy	-7035
cript	-7036
quare	-7037
rants	-7038
ureau	-7039
▁Back	-7040
▁Narr	-7041
▁Time	-7042
▁beer	-7043
▁bold	-7044
▁boom	-7045
▁brut	-7046
▁dict	-7047
▁lift	-7048
▁sits	-7049
▁till	-7050
bridge	-7051
mingly	-7052
▁Human	-7053
▁bored	-7054
▁clock	-7055
▁craft	-7056
▁flows	-7057
▁stops	-7058
▁defend	-7059
▁strand	-7060
▁unable	-7061
▁Silicon	-7062
▁analyze	-7063
▁emerged	-7064
▁enforce	-7065
▁initial	-7066
▁smoking	-7067
▁unclear	-7068
▁Southern	-7069
▁district	-7070
▁figuring	-7071
▁flexible	-7072
▁romantic	-7073
▁skeleton	-7074
▁Microsoft	-7075
▁announced	-7076
▁physician	-7077
▁prototype	-7078
▁recommend	-7079
▁operations	-7080
▁terrorists	-7081
▁contemporary	-7082
▁photographer	-7083
cip	-7084
opy	-7085
ota	-7086
ason	-7087
izer	-7088
▁Sam	-7089
▁Sur	-7090
▁gro	-7091
inity	-7092
opard	-7093
osure	-7094
riger	-7095
▁List	-7096
▁asks	-7097
▁guns	-7098
▁whis	-7099
▁Jesus	-7100
▁River	-7101
▁elite	-7102
▁jihad	-7103
▁prose	-7104
▁tears	-7105
▁yours	-7106
▁Virgin	-7107
▁confir	-7108
▁render	-7109
▁rescue	-7110
▁sharks	-7111
▁spoken	-7112
▁stages	-7113
▁tackle	-7114
▁trauma	-7115
▁briefly	-7116
▁delight	-7117
▁founded	-7118
▁garbage	-7119
▁officer	-7120
▁pyramid	-7121
▁reports	-7122
▁Palestin	-7123
▁dialogue	-7124
▁isolated	-7125
▁strongly	-7126
▁transact	-7127
▁airplanes	-7128
▁arguments	-7129
▁chocolate	-7130
▁explosion	-7131
▁immediate	-7132
▁implement	-7133
▁physicist	-7134
▁positions	-7135
▁primitive	-7136
▁frustrated	-7137
▁volunteers	-7138
▁journalists	-7139
▁biodiversity	-7140
IS	-7141
ctu	-7142
rix	-7143
▁26	-7144
ardo	-7145
osal	-7146
zens	-7147
▁700	-7148
▁Cur	-7149
▁Det	-7150
▁Lar	-7151
▁Sir	-7152
▁unh	-7153
▁Coun	-7154
▁Gulf	-7155
▁Make	-7156
▁Viet	-7157
▁east	-7158
▁gang	-7159
▁quit	-7160
erable	-7161
iology	-7162
ospher	-7163
▁bears	-7164
▁edges	-7165
▁incom	-7166
▁meter	-7167
▁nucle	-7168
▁pairs	-7169
▁route	-7170
▁sheet	-7171
▁spots	-7172
▁threw	-7173
▁During	-7174
▁Should	-7175
▁adoles	-7176
▁corals	-7177
▁observ	-7178
▁surviv	-7179
▁tumors	-7180
▁default	-7181
▁exhaust	-7182
▁hackers	-7183
▁methane	-7184
▁traject	-7185
▁contains	-7186
▁dinosaur	-7187
▁invested	-7188
▁refriger	-7189
▁elephants	-7190
▁translate	-7191
▁biologists	-7192
▁facilities	-7193
▁disappeared	-7194
▁philanthrop	-7195
▁interestingly	-7196
▁pharmaceutical	-7197
▁Hy	-7198
ails	-7199
airo	-7200
arre	-7201
atar	-7202
born	-7203
osen	-7204
▁Mac	-7205
▁Ter	-7206
lings	-7207
▁2003	-7208
▁2012	-7209
▁Budd	-7210
▁Moon	-7211
▁adap	-7212
▁cats	-7213
▁eleg	-7214
▁file	-7215
▁pile	-7216
▁rail	-7217
cember	-7218
edding	-7219
▁Child	-7220
▁Smith	-7221
▁arrow	-7222
▁audio	-7223
▁cryst	-7224
▁legis	-7225
▁likes	-7226
▁lungs	-7227
▁silly	-7228
▁trash	-7229
▁Island	-7230
▁athlet	-7231
▁branch	-7232
▁enthus	-7233
▁ethnic	-7234
▁funded	-7235
▁golden	-7236
▁merely	-7237
▁senior	-7238
▁Nations	-7239
▁Vietnam	-7240
▁alcohol	-7241
▁charity	-7242
▁federal	-7243
▁imagery	-7244
▁pretend	-7245
▁secrets	-7246
▁smarter	-7247
▁channels	-7248
▁detailed	-7249
▁fraction	-7250
▁laughing	-7251
▁measures	-7252
▁mosquito	-7253
▁penguins	-7254
▁speakers	-7255
▁depressed	-7256
▁factories	-7257
▁magnitude	-7258
▁earthquake	-7259
▁explaining	-7260
▁identified	-7261
▁industries	-7262
▁medication	-7263
▁exponential	-7264
▁interviewed	-7265
▁humanitarian	-7266
▁institutional	-7267
▁participation	-7268
▁representation	-7269
ye	-7270
low	-7271
ril	-7272
emen	-7273
emic	-7274
wich	-7275
▁MRI	-7276
▁Tim	-7277
▁aes	-7278
▁tro	-7279
▁wet	-7280
field	-7281
isons	-7282
▁2001	-7283
▁2006	-7284
▁Ethi	-7285
▁Long	-7286
▁fulf	-7287
▁lone	-7288
▁sulf	-7289
▁wing	-7290
ortion	-7291
▁apple	-7292
▁intim	-7293
▁20,000	-7294
▁Mother	-7295
▁Rwanda	-7296
▁Within	-7297
▁cosmic	-7298
▁decent	-7299
▁gravit	-7300
▁settle	-7301
▁weapon	-7302
cedented	-7303
▁Whether	-7304
▁enterpr	-7305
▁periods	-7306
▁pulling	-7307
▁December	-7308
▁mobility	-7309
▁surfaces	-7310
▁survived	-7311
▁versions	-7312
▁activists	-7313
▁separated	-7314
▁suggesting	-7315
▁innovations	-7316
▁successfully	-7317
ET	-7318
SP	-7319
mm	-7320
che	-7321
ups	-7322
agen	-7323
amin	-7324
enly	-7325
ocin	-7326
onds	-7327
reme	-7328
▁191	-7329
▁Aug	-7330
▁Den	-7331
▁Hen	-7332
▁Met	-7333
▁Tes	-7334
▁ash	-7335
▁caf	-7336
▁hey	-7337
aning	-7338
ellig	-7339
erved	-7340
kward	-7341
obile	-7342
puter	-7343
▁bars	-7344
▁clim	-7345
▁defe	-7346
▁dism	-7347
▁leaf	-7348
▁load	-7349
▁meal	-7350
▁mode	-7351
▁orig	-7352
▁pand	-7353
▁pigs	-7354
▁tort	-7355
▁vacu	-7356
itudes	-7357
izarre	-7358
market	-7359
▁Greek	-7360
▁Trans	-7361
▁chips	-7362
▁comet	-7363
▁excit	-7364
▁upset	-7365
▁curric	-7366
▁dozens	-7367
▁ending	-7368
▁grandp	-7369
▁intrig	-7370
▁robust	-7371
▁tricks	-7372
▁trucks	-7373
▁Russian	-7374
▁Without	-7375
▁drivers	-7376
▁females	-7377
▁forming	-7378
▁sensory	-7379
▁targets	-7380
▁threats	-7381
▁Narrator	-7382
▁currency	-7383
▁customer	-7384
▁friendly	-7385
▁leverage	-7386
▁restrict	-7387
▁nutrients	-7388
▁radically	-7389
▁consistent	-7390
▁astonishing	-7391
▁chimpanzees	-7392
▁unprecedented	-7393
rid	-7394
sum	-7395
urd	-7396
zes	-7397
▁LG	-7398
,500	-7399
eart	-7400
eday	-7401
fess	-7402
▁Mor	-7403
▁Pet	-7404
▁hip	-7405
ammed	-7406
ifice	-7407
▁Bush	-7408
▁Cour	-7409
▁Ford	-7410
▁bats	-7411
▁cert	-7412
▁clot	-7413
▁hill	-7414
▁lamp	-7415
▁pige	-7416
aching	-7417
iatric	-7418
thesis	-7419
▁cable	-7420
▁comed	-7421
▁fifth	-7422
▁honey	-7423
▁jelly	-7424
▁reefs	-7425
▁sheep	-7426
▁therm	-7427
angible	-7428
▁Jewish	-7429
▁chosen	-7430
▁degrad	-7431
▁emerge	-7432
▁adopted	-7433
▁awkward	-7434
▁chances	-7435
▁ethical	-7436
▁fulfill	-7437
▁happier	-7438
▁islands	-7439
▁observe	-7440
▁origami	-7441
▁reduced	-7442
▁soldier	-7443
▁baseball	-7444
▁comments	-7445
▁complain	-7446
▁listened	-7447
▁throwing	-7448
▁Cambridge	-7449
▁establish	-7450
▁intuition	-7451
▁prisoners	-7452
▁suggested	-7453
▁excitement	-7454
▁motivation	-7455
▁threatened	-7456
▁achievement	-7457
▁competitive	-7458
▁collectively	-7459
▁collaborative	-7460
▁33	-7461
▁CD	-7462
ilty	-7463
onic	-7464
▁Abs	-7465
▁Isn	-7466
▁Mah	-7467
▁Tel	-7468
▁jun	-7469
▁pir	-7470
▁sew	-7471
capes	-7472
elled	-7473
mates	-7474
think	-7475
▁Brun	-7476
▁Flor	-7477
▁acid	-7478
▁butt	-7479
▁intr	-7480
▁pale	-7481
▁sail	-7482
▁tear	-7483
iotics	-7484
▁4,000	-7485
▁Power	-7486
▁brows	-7487
▁chron	-7488
▁outer	-7489
▁punch	-7490
▁weeke	-7491
▁Arctic	-7492
▁Oxford	-7493
▁injury	-7494
▁skelet	-7495
▁theore	-7496
changing	-7497
▁anatomy	-7498
▁bizarre	-7499
▁elderly	-7500
▁farming	-7501
▁fragile	-7502
▁graphic	-7503
▁hitting	-7504
▁request	-7505
▁warning	-7506
▁welcome	-7507
▁category	-7508
▁transmit	-7509
▁astronaut	-7510
▁frequency	-7511
▁motivated	-7512
▁qualities	-7513
▁reactions	-7514
▁categories	-7515
▁resilience	-7516
▁terrifying	-7517
▁translated	-7518
▁transmission	-7519
▁deforestation	-7520
▁grandchildren	-7521
bru	-7522
▁Ok	-7523
▁RB	-7524
play	-7525
urse	-7526
▁Far	-7527
▁aug	-7528
▁dim	-7529
▁inn	-7530
▁tub	-7531
▁ubi	-7532
▁wid	-7533
eller	-7534
ensus	-7535
ilize	-7536
tocin	-7537
▁Beat	-7538
▁Dere	-7539
▁Jane	-7540
▁Sure	-7541
▁buck	-7542
▁cott	-7543
▁dies	-7544
▁drew	-7545
▁hier	-7546
▁salt	-7547
▁toys	-7548
▁March	-7549
▁Sorry	-7550
▁Third	-7551
▁Until	-7552
▁armed	-7553
▁flour	-7554
▁immun	-7555
▁probe	-7556
▁relax	-7557
inarily	-7558
liament	-7559
▁Newton	-7560
▁Yorker	-7561
▁catast	-7562
▁combat	-7563
▁linear	-7564
▁perpet	-7565
▁poison	-7566
▁stores	-7567
▁arrange	-7568
▁convert	-7569
▁dolphin	-7570
▁involve	-7571
▁revenue	-7572
▁routine	-7573
▁winning	-7574
▁Minister	-7575
▁arrested	-7576
▁gathered	-7577
▁improved	-7578
▁magnific	-7579
▁peaceful	-7580
▁perceive	-7581
▁scenario	-7582
▁shopping	-7583
▁gathering	-7584
▁improving	-7585
▁musicians	-7586
▁comparison	-7587
▁structural	-7588
▁telescopes	-7589
▁beautifully	-7590
▁reconstruct	-7591
▁connectivity	-7592
▁corporations	-7593
mod	-7594
reh	-7595
ype	-7596
rome	-7597
uity	-7598
▁gam	-7599
andel	-7600
anged	-7601
aping	-7602
asses	-7603
ribly	-7604
rover	-7605
ushed	-7606
ville	-7607
▁cong	-7608
▁dear	-7609
▁dile	-7610
▁glad	-7611
▁melt	-7612
▁mood	-7613
▁subs	-7614
▁uplo	-7615
ateful	-7616
engine	-7617
▁Gates	-7618
▁Spain	-7619
▁caves	-7620
▁mayor	-7621
▁owner	-7622
▁schiz	-7623
▁August	-7624
▁burden	-7625
▁buried	-7626
▁garage	-7627
▁margin	-7628
▁multip	-7629
▁stroke	-7630
▁trains	-7631
▁tunnel	-7632
▁vacuum	-7633
▁widely	-7634
andering	-7635
▁Florida	-7636
▁Spanish	-7637
▁chapter	-7638
▁demands	-7639
▁enabled	-7640
▁fathers	-7641
▁impacts	-7642
▁reminds	-7643
▁rituals	-7644
▁staying	-7645
▁tissues	-7646
▁Northern	-7647
▁attitude	-7648
▁climbing	-7649
▁delivery	-7650
▁disabled	-7651
▁homework	-7652
▁navigate	-7653
▁precious	-7654
▁socially	-7655
▁stranger	-7656
▁suffered	-7657
▁furniture	-7658
▁initially	-7659
▁sentences	-7660
▁stability	-7661
▁autonomous	-7662
▁mysterious	-7663
▁physicists	-7664
▁previously	-7665
▁profoundly	-7666
▁predictions	-7667
▁photographed	-7668
▁storytelling	-7669
▁demonstration	-7670
DA	-7671
ca	-7672
bow	-7673
lim	-7674
olf	-7675
see	-7676
yal	-7677
▁3.	-7678
itro	-7679
outs	-7680
▁Bel	-7681
▁Sen	-7682
▁Sov	-7683
▁fet	-7684
▁les	-7685
▁lon	-7686
igned	-7687
itage	-7688
▁Eric	-7689
▁Josh	-7690
▁Miss	-7691
▁None	-7692
▁deaf	-7693
▁sexy	-7694
▁tuna	-7695
iences	-7696
▁Asian	-7697
▁Brown	-7698
▁badly	-7699
▁bucks	-7700
▁dilem	-7701
▁funds	-7702
▁ignor	-7703
▁nurse	-7704
▁sharp	-7705
▁viral	-7706
▁Argent	-7707
▁Little	-7708
▁burned	-7709
▁cheese	-7710
▁intent	-7711
▁jumped	-7712
▁paraly	-7713
▁stones	-7714
▁subway	-7715
▁clients	-7716
▁comprom	-7717
▁enables	-7718
▁miracle	-7719
▁screens	-7720
▁cartoons	-7721
▁drawings	-7722
▁entering	-7723
▁honestly	-7724
▁lighting	-7725
▁optimism	-7726
▁oxytocin	-7727
▁preserve	-7728
▁recovery	-7729
▁reliable	-7730
▁sandwich	-7731
▁sciences	-7732
▁adventure	-7733
▁broadcast	-7734
▁estimated	-7735
▁replicate	-7736
▁expectancy	-7737
▁spacecraft	-7738
▁antibiotics	-7739
▁constructed	-7740
▁description	-7741
▁established	-7742
▁capabilities	-7743
▁simultaneously	-7744
agh	-7745
aze	-7746
▁rh	-7747
half	-7748
mate	-7749
oted	-7750
part	-7751
umes	-7752
umin	-7753
▁Bet	-7754
▁hem	-7755
▁sel	-7756
▁upd	-7757
▁via	-7758
chron	-7759
oning	-7760
rical	-7761
state	-7762
▁Gore	-7763
▁Tony	-7764
▁damn	-7765
▁irre	-7766
▁sink	-7767
▁stom	-7768
▁wise	-7769
aharan	-7770
aneous	-7771
bruary	-7772
iberia	-7773
rained	-7774
semble	-7775
▁Arist	-7776
▁Hello	-7777
▁Organ	-7778
▁agent	-7779
▁eaten	-7780
▁hated	-7781
▁hopes	-7782
▁incor	-7783
▁paras	-7784
▁realm	-7785
▁shirt	-7786
▁spont	-7787
▁tooth	-7788
▁wider	-7789
looking	-7790
related	-7791
ustrial	-7792
▁commod	-7793
▁editor	-7794
▁halluc	-7795
▁infant	-7796
▁interf	-7797
▁luxury	-7798
▁talent	-7799
▁ticket	-7800
▁discrim	-7801
▁profile	-7802
▁washing	-7803
▁February	-7804
▁applying	-7805
▁circuits	-7806
▁conclude	-7807
▁distingu	-7808
▁homeless	-7809
▁insights	-7810
▁schizoph	-7811
▁extension	-7812
▁healthier	-7813
▁instantly	-7814
▁investors	-7815
▁remaining	-7816
▁supported	-7817
▁workforce	-7818
▁curriculum	-7819
▁ecological	-7820
▁extinction	-7821
▁proportion	-7822
▁supporting	-7823
▁experimental	-7824
▁surprisingly	-7825
▁unbelievable	-7826
▁professionals	-7827
ais	-7828
ann	-7829
bra	-7830
erd	-7831
ona	-7832
▁0.	-7833
▁Mu	-7834
ache	-7835
eath	-7836
mony	-7837
uine	-7838
utan	-7839
▁Hum	-7840
▁LED	-7841
▁Ray	-7842
▁ain	-7843
▁gee	-7844
▁pix	-7845
▁tie	-7846
front	-7847
itzer	-7848
▁2050	-7849
▁Both	-7850
▁Leon	-7851
▁bubb	-7852
▁soap	-7853
▁vary	-7854
▁west	-7855
mental	-7856
ospect	-7857
▁actor	-7858
▁evalu	-7859
▁	-7860
e	-7861
t	-7862
o	-7863
a	-7864
n	-7865
s	-7866
i	-7867
r	-7868
h	-7869
l	-7870
d	-7871
u	-7872
c	-7873
p	-7874
m	-7875
y	-7876
w	-7877
g	-7878
f	-7879
,	-7880
b	-7881
.	-7882
v	-7883
;	-7884
&	-7885
k	-7886
I	-7887
q	-7888
A	-7889
T	-7890
S	-7891
x	-7892
W	-7893
0	-7894
j	-7895
B	-7896
—	-7897
-	-7898
?	-7899
z	-7900
N	-7901
L	-7902
M	-7903
)	-7904
(	-7905
1	-7906
C	-7907
H	-7908
:	-7909
Y	-7910
E	-7911
O	-7912
D	-7913
P	-7914
2	-7915
G	-7916
F	-7917
R	-7918
9	-7919
5	-7920
3	-7921
J	-7922
K	-7923
U	-7924
♫	-7925
4	-7926
V	-7927
8	-7928
6	-7929
7	-7930
#	-7931
!	-7932
’	-7933
Z	-7934
Q	-7935
X	-7936
/	-7937
♪	-7938
$	-7939
é	-7940
+	-7941
ó	-7942
=	-7943
í	-7944
_	-7945
@	-7946
ö	-7947
á	-7948
ã	-7949
%	-7950
^	-7951
ç	-7952
è	-7953
ü	-7954
–	-7955
ñ	-7956
à	-7957
ä	-7958
ï	-7959
ō	-7960
อ	-7961
*	-7962
É	-7963
ø	-7964
£	-7965
Á	-7966
ê	-7967
ô	-7968
ù	-7969
ā	-7970
ย	-7971
ร	-7972
่	-7973
•	-7974
\	-7975
¢	-7976
¿	-7977
Ç	-7978
Ö	-7979
â	-7980
æ	-7981
ë	-7982
ì	-7983
ú	-7984
û	-7985
Ă	-7986
ć	-7987
Č	-7988
ē	-7989
Ō	-7990
Ť	-7991
̊	-7992
τ	-7993
”	-7994
€	-7995
∇	-7996
