<unk>	0
<s>	0
</s>	0
▁t	-0
▁th	-1
▁a	-2
in	-3
▁,	-4
▁w	-5
er	-6
▁the	-7
▁o	-8
▁s	-9
▁.	-10
at	-11
nd	-12
re	-13
ou	-14
▁&	-15
▁c	-16
is	-17
▁b	-18
it	-19
en	-20
▁m	-21
os	-22
ing	-23
on	-24
▁h	-25
▁to	-26
▁p	-27
ap	-28
es	-29
▁f	-30
an	-31
or	-32
ot	-33
▁d	-34
▁of	-35
al	-36
▁in	-37
apos	-38
▁and	-39
ed	-40
▁I	-41
▁l	-42
ar	-43
▁that	-44
om	-45
▁y	-46
as	-47
ic	-48
qu	-49
▁g	-50
le	-51
ve	-52
▁n	-53
us	-54
ll	-55
▁wh	-56
▁you	-57
▁e	-58
ly	-59
▁be	-60
quot	-61
ion	-62
▁we	-63
ow	-64
ut	-65
▁A	-66
▁is	-67
▁it	-68
ent	-69
et	-70
▁re	-71
ct	-72
ere	-73
ld	-74
▁on	-75
ver	-76
▁T	-77
gh	-78
id	-79
ay	-80
▁ha	-81
im	-82
ur	-83
▁Th	-84
▁this	-85
▁st	-86
ch	-87
▁And	-88
▁S	-89
op	-90
ke	-91
ter	-92
ce	-93
▁for	-94
if	-95
se	-96
ir	-97
▁was	-98
▁W	-99
ro	-100
▁an	-101
ith	-102
▁are	-103
am	-104
ol	-105
th	-106
▁with	-107
▁do	-108
▁have	-109
ally	-110
▁u	-111
ra	-112
st	-113
▁se	-114
▁ab	-115
ri	-116
▁as	-117
▁they	-118
▁can	-119
ation	-120
▁li	-121
▁go	-122
▁B	-123
▁k	-124
use	-125
out	-126
▁—	-127
▁me	-128
ght	-129
▁com	-130
▁wor	-131
ould	-132
▁he	-133
ad	-134
▁ne	-135
▁at	-136
▁what	-137
ge	-138
il	-139
ill	-140
very	-141
ul	-142
▁sh	-143
▁not	-144
od	-145
▁so	-146
▁So	-147
ore	-148
ant	-149
ers	-150
ust	-151
▁about	-152
▁?	-153
▁ex	-154
▁my	-155
est	-156
▁ch	-157
▁j	-158
▁de	-159
▁all	-160
ause	-161
▁or	-162
ear	-163
▁fr	-164
▁pe	-165
▁The	-166
um	-167
▁som	-168
▁con	-169
ople	-170
ate	-171
art	-172
ess	-173
ck	-174
▁people	-175
ity	-176
▁L	-177
ure	-178
▁our	-179
▁pro	-180
▁there	-181
▁like	-182
▁We	-183
ist	-184
▁from	-185
ig	-186
▁)	-187
▁one	-188
▁(	-189
ok	-190
▁us	-191
ble	-192
▁N	-193
▁but	-194
ect	-195
▁al	-196
rou	-197
▁bec	-198
▁lo	-199
▁v	-200
ive	-201
ies	-202
▁te	-203
all	-204
un	-205
▁It	-206
ind	-207
▁M	-208
▁out	-209
▁ma	-210
▁kn	-211
pl	-212
▁:	-213
▁just	-214
▁H	-215
ink	-216
ide	-217
▁C	-218
her	-219
▁sp	-220
and	-221
▁But	-222
▁if	-223
▁see	-224
ci	-225
▁who	-226
▁by	-227
▁them	-228
▁these	-229
el	-230
ort	-231
▁know	-232
▁when	-233
▁im	-234
▁think	-235
▁up	-236
▁more	-237
▁pl	-238
▁r	-239
ain	-240
▁thing	-241
one	-242
▁their	-243
▁get	-244
au	-245
ost	-246
▁1	-247
▁had	-248
▁because	-249
ich	-250
em	-251
▁act	-252
▁would	-253
▁very	-254
▁year	-255
▁some	-256
▁your	-257
▁tim	-258
▁int	-259
▁tr	-260
ose	-261
ment	-262
▁Wh	-263
og	-264
▁were	-265
nt	-266
ine	-267
▁sa	-268
▁Y	-269
▁su	-270
ie	-271
▁going	-272
ame	-273
ous	-274
▁how	-275
act	-276
ast	-277
iz	-278
our	-279
augh	-280
ack	-281
are	-282
ag	-283
▁O	-284
iv	-285
aughter	-286
▁look	-287
▁which	-288
▁en	-289
▁E	-290
ight	-291
ence	-292
▁work	-293
▁comp	-294
▁world	-295
ually	-296
ard	-297
ans	-298
▁want	-299
reat	-300
▁time	-301
▁le	-302
ab	-303
ions	-304
▁way	-305
▁Laughter	-306
ther	-307
▁really	-308
▁every	-309
▁ta	-310
▁ev	-311
▁man	-312
▁has	-313
ong	-314
hing	-315
▁could	-316
▁fe	-317
▁per	-318
▁will	-319
fer	-320
nder	-321
ace	-322
ild	-323
res	-324
▁then	-325
▁P	-326
▁into	-327
ud	-328
▁pr	-329
▁where	-330
ach	-331
▁other	-332
▁D	-333
▁G	-334
age	-335
▁ag	-336
▁qu	-337
▁F	-338
▁years	-339
▁actually	-340
pp	-341
▁don	-342
pen	-343
king	-344
ical	-345
▁here	-346
▁In	-347
▁now	-348
▁un	-349
per	-350
▁did	-351
itt	-352
▁You	-353
ff	-354
▁say	-355
▁Now	-356
pt	-357
ice	-358
▁dis	-359
▁been	-360
▁This	-361
▁cl	-362
▁ri	-363
00	-364
▁2	-365
▁than	-366
so	-367
▁need	-368
▁dif	-369
▁somet	-370
▁no	-371
ry	-372
▁any	-373
▁things	-374
▁make	-375
▁start	-376
▁part	-377
▁those	-378
round	-379
▁tw	-380
ome	-381
ac	-382
▁over	-383
irst	-384
ree	-385
orm	-386
▁chan	-387
ass	-388
ife	-389
ount	-390
▁hap	-391
▁right	-392
▁said	-393
ory	-394
sel	-395
▁imp	-396
▁ar	-397
▁co	-398
▁po	-399
▁They	-400
own	-401
ite	-402
end	-403
▁mu	-404
▁new	-405
ves	-406
ound	-407
▁under	-408
▁also	-409
olog	-410
ia	-411
ult	-412
ber	-413
▁call	-414
▁back	-415
▁much	-416
▁first	-417
cent	-418
ign	-419
▁bu	-420
ru	-421
▁something	-422
▁ac	-423
▁two	-424
vel	-425
▁differ	-426
▁inter	-427
ire	-428
ving	-429
▁even	-430
▁res	-431
able	-432
▁hum	-433
ater	-434
▁mo	-435
ple	-436
▁R	-437
ppl	-438
▁bet	-439
▁only	-440
▁day	-441
▁cont	-442
rain	-443
oss	-444
lo	-445
way	-446
▁his	-447
▁ro	-448
▁she	-449
▁most	-450
▁life	-451
▁ph	-452
▁ad	-453
ue	-454
ations	-455
ated	-456
ittle	-457
▁lot	-458
▁pre	-459
▁tal	-460
▁many	-461
rough	-462
ep	-463
▁got	-464
▁little	-465
▁am	-466
▁happen	-467
▁J	-468
▁her	-469
▁take	-470
▁kind	-471
▁comm	-472
co	-473
▁real	-474
▁sy	-475
ell	-476
other	-477
▁What	-478
pplause	-479
▁Applause	-480
ody	-481
ase	-482
▁des	-483
ip	-484
ents	-485
▁around	-486
ict	-487
▁through	-488
▁spe	-489
▁different	-490
▁fo	-491
ath	-492
int	-493
ish	-494
▁tell	-495
cre	-496
cess	-497
▁em	-498
ether	-499
du	-500
ors	-501
▁♫	-502
▁That	-503
ark	-504
▁U	-505
▁being	-506
ress	-507
ick	-508
ning	-509
form	-510
ank	-511
ak	-512
ms	-513
▁bo	-514
ons	-515
▁does	-516
▁human	-517
als	-518
igh	-519
ance	-520
▁gr	-521
▁gen	-522
ful	-523
ved	-524
▁ide	-525
fter	-526
ord	-527
wn	-528
▁same	-529
▁count	-530
▁use	-531
▁good	-532
▁down	-533
ade	-534
▁wr	-535
xt	-536
▁may	-537
▁There	-538
▁pers	-539
day	-540
ens	-541
ject	-542
ang	-543
▁find	-544
▁thou	-545
ary	-546
ne	-547
ys	-548
▁sm	-549
stem	-550
▁He	-551
▁sur	-552
ile	-553
▁lear	-554
be	-555
▁tra	-556
ower	-557
ting	-558
▁fact	-559
ces	-560
▁child	-561
vers	-562
▁proble	-563
▁come	-564
ars	-565
lect	-566
▁show	-567
▁bl	-568
ric	-569
urn	-570
▁percent	-571
fore	-572
ible	-573
▁put	-574
self	-575
▁If	-576
cial	-577
ib	-578
chn	-579
▁system	-580
▁Well	-581
ren	-582
▁ind	-583
▁underst	-584
ition	-585
▁off	-586
▁exper	-587
▁let	-588
▁sim	-589
ating	-590
▁stud	-591
▁after	-592
▁dec	-593
▁own	-594
▁try	-595
▁three	-596
ics	-597
ious	-598
▁wom	-599
▁sc	-600
▁cr	-601
▁long	-602
▁great	-603
ial	-604
▁rem	-605
▁ra	-606
▁col	-607
ities	-608
▁techn	-609
▁bel	-610
thing	-611
▁quest	-612
ically	-613
▁well	-614
we	-615
ual	-616
▁big	-617
▁called	-618
▁brain	-619
▁inv	-620
mer	-621
▁hel	-622
▁talk	-623
▁change	-624
▁doing	-625
▁build	-626
▁made	-627
▁feel	-628
ology	-629
ize	-630
ates	-631
▁again	-632
illion	-633
con	-634
ew	-635
▁person	-636
▁St	-637
▁ask	-638
▁;	-639
ub	-640
▁import	-641
▁understand	-642
ope	-643
▁Ch	-644
▁today	-645
#9	-646
▁&#9	-647
▁ob	-648
ail	-649
▁br	-650
cho	-651
▁ins	-652
▁end	-653
les	-654
▁inst	-655
av	-656
▁help	-657
▁might	-658
▁pol	-659
▁rel	-660
▁should	-661
▁sci	-662
ty	-663
▁started	-664
▁why	-665
ily	-666
olut	-667
▁its	-668
▁gu	-669
body	-670
ds	-671
▁trans	-672
chool	-673
▁important	-674
▁commun	-675
▁creat	-676
▁him	-677
▁cons	-678
▁didn	-679
▁before	-680
▁high	-681
▁fam	-682
▁never	-683
tern	-684
▁thought	-685
▁tog	-686
▁together	-687
ft	-688
▁ke	-689
ility	-690
▁app	-691
ular	-692
▁better	-693
he	-694
▁bas	-695
ction	-696
▁able	-697
▁idea	-698
ists	-699
▁cour	-700
ian	-701
▁exam	-702
ise	-703
▁belie	-704
▁learn	-705
▁still	-706
te	-707
▁last	-708
▁story	-709
uc	-710
ness	-711
▁car	-712
ull	-713
▁few	-714
000	-715
▁Be	-716
▁K	-717
▁imag	-718
▁turn	-719
gan	-720
▁found	-721
▁fl	-722
▁Thank	-723
▁point	-724
▁hand	-725
▁mean	-726
▁3	-727
▁When	-728
▁another	-729
▁school	-730
▁each	-731
ave	-732
und	-733
ng	-734
velop	-735
ob	-736
ather	-737
pect	-738
ert	-739
▁att	-740
alth	-741
▁kid	-742
▁pat	-743
ven	-744
▁20	-745
▁ent	-746
,000	-747
▁ext	-748
▁went	-749
▁power	-750
▁problem	-751
▁cre	-752
▁interest	-753
▁develop	-754
▁ago	-755
▁produ	-756
▁med	-757
gin	-758
kes	-759
ween	-760
▁di	-761
erg	-762
▁place	-763
pe	-764
▁rec	-765
oc	-766
▁bit	-767
▁between	-768
ized	-769
read	-770
▁course	-771
ork	-772
▁mon	-773
▁num	-774
▁comple	-775
ited	-776
ough	-777
▁give	-778
▁dat	-779
▁eff	-780
▁women	-781
arch	-782
oth	-783
▁sl	-784
▁next	-785
▁used	-786
▁too	-787
atch	-788
▁came	-789
▁incre	-790
▁ter	-791
old	-792
cept	-793
▁art	-794
▁cell	-795
meric	-796
▁plan	-797
▁met	-798
▁mom	-799
▁19	-800
▁care	-801
ix	-802
riend	-803
ger	-804
cond	-805
▁small	-806
ese	-807
▁old	-808
▁design	-809
▁mod	-810
conom	-811
ced	-812
ood	-813
ways	-814
ific	-815
▁data	-816
iss	-817
ience	-818
▁question	-819
▁far	-820
▁partic	-821
▁gra	-822
▁ed	-823
▁ser	-824
▁How	-825
▁water	-826
az	-827
▁tri	-828
ets	-829
ments	-830
ings	-831
ures	-832
▁example	-833
▁children	-834
▁grow	-835
ward	-836
ative	-837
▁fin	-838
▁V	-839
▁play	-840
cy	-841
▁10	-842
ism	-843
▁read	-844
▁Americ	-845
formation	-846
▁friend	-847
▁rep	-848
ense	-849
▁Af	-850
▁econom	-851
selves	-852
ands	-853
ubl	-854
▁technology	-855
▁expl	-856
▁health	-857
cl	-858
▁ear	-859
▁str	-860
▁chang	-861
▁country	-862
▁live	-863
▁looking	-864
aw	-865
▁ever	-866
▁beh	-867
▁cent	-868
▁lar	-869
▁less	-870
▁reas	-871
▁teach	-872
▁always	-873
ram	-874
▁away	-875
▁uni	-876
▁believe	-877
▁cap	-878
▁done	-879
▁prot	-880
ital	-881
▁giv	-882
▁love	-883
▁comput	-884
▁light	-885
ks	-886
▁means	-887
atter	-888
▁compan	-889
▁Un	-890
vern	-891
▁hard	-892
▁poss	-893
ah	-894
▁using	-895
▁doesn	-896
▁Bec	-897
▁sort	-898
▁wanted	-899
air	-900
cer	-901
▁home	-902
▁Because	-903
ural	-904
▁nat	-905
ale	-906
▁second	-907
oney	-908
ruct	-909
▁vis	-910
ident	-911
▁publ	-912
▁gener	-913
▁bi	-914
here	-915
pport	-916
▁space	-917
▁As	-918
ries	-919
▁four	-920
nect	-921
▁information	-922
▁maybe	-923
▁everything	-924
▁min	-925
▁open	-926
▁5	-927
ational	-928
li	-929
▁million	-930
▁pass	-931
ably	-932
▁social	-933
▁move	-934
ten	-935
▁inf	-936
▁create	-937
▁govern	-938
▁fut	-939
bal	-940
▁sub	-941
aph	-942
aces	-943
ract	-944
▁cle	-945
▁thinking	-946
hip	-947
its	-948
ories	-949
▁trying	-950
▁Afric	-951
▁el	-952
▁glo	-953
ues	-954
▁dri	-955
▁reg	-956
rug	-957
▁acc	-958
▁future	-959
usic	-960
▁cor	-961
roup	-962
iness	-963
▁money	-964
▁working	-965
▁My	-966
▁book	-967
▁whole	-968
olution	-969
▁become	-970
led	-971
▁project	-972
▁best	-973
ices	-974
imate	-975
▁took	-976
▁run	-977
▁kids	-978
iting	-979
ety	-980
▁bus	-981
▁times	-982
▁4	-983
▁group	-984
▁month	-985
ond	-986
▁resp	-987
▁without	-988
▁wal	-989
▁soci	-990
▁sing	-991
oy	-992
▁cur	-993
▁young	-994
▁lives	-995
▁sk	-996
▁spec	-997
ont	-998
▁told	-999
▁organ	-1000
▁war	-1001
▁mind	-1002
▁left	-1003
aut	-1004
iron	-1005
▁lead	-1006
▁process	-1007
▁number	-1008
rop	-1009
▁cou	-1010
▁phys	-1011
▁pres	-1012
▁stop	-1013
▁moment	-1014
ross	-1015
▁blo	-1016
▁sol	-1017
ied	-1018
▁One	-1019
▁sound	-1020
▁add	-1021
▁eng	-1022
▁dem	-1023
▁pict	-1024
▁For	-1025
▁energ	-1026
▁connect	-1027
iew	-1028
▁enough	-1029
gest	-1030
▁such	-1031
sw	-1032
▁family	-1033
▁set	-1034
▁wee	-1035
▁educ	-1036
▁sign	-1037
▁room	-1038
ake	-1039
▁anim	-1040
▁elect	-1041
alf	-1042
▁pop	-1043
ner	-1044
ts	-1045
med	-1046
▁det	-1047
▁head	-1048
▁exp	-1049
▁matter	-1050
ention	-1051
▁job	-1052
▁conf	-1053
▁five	-1054
▁keep	-1055
ines	-1056
▁!	-1057
uring	-1058
▁across	-1059
1;	-1060
▁stu	-1061
▁&#91;	-1062
▁comes	-1063
▁share	-1064
3;	-1065
▁&#93;	-1066
ember	-1067
▁answ	-1068
▁effect	-1069
▁prog	-1070
▁body	-1071
▁energy	-1072
aps	-1073
▁countries	-1074
ever	-1075
▁talking	-1076
▁def	-1077
▁begin	-1078
▁contro	-1079
▁while	-1080
▁She	-1081
der	-1082
▁food	-1083
▁mark	-1084
▁prob	-1085
▁wo	-1086
▁dist	-1087
▁rese	-1088
most	-1089
▁allow	-1090
ead	-1091
▁polit	-1092
▁making	-1093
▁reason	-1094
ying	-1095
▁days	-1096
imes	-1097
ouse	-1098
irl	-1099
▁getting	-1100
ph	-1101
▁side	-1102
pr	-1103
angu	-1104
▁hist	-1105
▁doll	-1106
▁asked	-1107
▁dise	-1108
▁global	-1109
▁dep	-1110
▁science	-1111
rib	-1112
ided	-1113
arent	-1114
▁happened	-1115
allen	-1116
ertain	-1117
▁These	-1118
verse	-1119
▁stand	-1120
▁research	-1121
▁pret	-1122
▁env	-1123
ality	-1124
▁cult	-1125
▁interesting	-1126
▁200	-1127
▁public	-1128
▁list	-1129
▁pain	-1130
▁No	-1131
ient	-1132
▁langu	-1133
▁sense	-1134
ideo	-1135
▁ways	-1136
▁scient	-1137
▁Is	-1138
▁fun	-1139
▁sel	-1140
work	-1141
▁hope	-1142
ote	-1143
cus	-1144
iter	-1145
▁Let	-1146
▁aut	-1147
cover	-1148
▁eas	-1149
llow	-1150
ences	-1151
▁living	-1152
▁cho	-1153
▁saw	-1154
▁makes	-1155
▁beaut	-1156
▁almost	-1157
▁simple	-1158
▁environ	-1159
▁later	-1160
▁New	-1161
▁test	-1162
less	-1163
▁ey	-1164
▁words	-1165
▁unt	-1166
▁form	-1167
▁quite	-1168
▁sit	-1169
▁else	-1170
▁half	-1171
idd	-1172
▁val	-1173
orn	-1174
▁prop	-1175
▁men	-1176
ince	-1177
▁equ	-1178
▁experience	-1179
▁age	-1180
▁pie	-1181
▁thous	-1182
▁particular	-1183
ters	-1184
▁wonder	-1185
▁complete	-1186
▁ref	-1187
ef	-1188
▁probably	-1189
▁bring	-1190
▁challen	-1191
▁friends	-1192
▁often	-1193
▁myself	-1194
▁aff	-1195
▁level	-1196
▁having	-1197
ime	-1198
ases	-1199
▁self	-1200
▁gre	-1201
▁fore	-1202
ization	-1203
▁someone	-1204
▁case	-1205
▁prof	-1206
▁ty	-1207
▁neur	-1208
▁past	-1209
▁building	-1210
▁All	-1211
▁bad	-1212
▁cells	-1213
▁coming	-1214
▁Why	-1215
▁hour	-1216
arth	-1217
▁lab	-1218
▁pretty	-1219
ream	-1220
▁ass	-1221
▁exact	-1222
▁inside	-1223
▁dev	-1224
ulation	-1225
▁community	-1226
▁An	-1227
▁cam	-1228
▁anything	-1229
where	-1230
▁phot	-1231
▁sure	-1232
▁mem	-1233
▁pri	-1234
▁single	-1235
osed	-1236
▁char	-1237
▁watch	-1238
ash	-1239
▁computer	-1240
red	-1241
row	-1242
ivid	-1243
ready	-1244
▁remember	-1245
▁business	-1246
▁drug	-1247
▁seen	-1248
▁billion	-1249
▁dollars	-1250
▁top	-1251
▁answer	-1252
▁suc	-1253
▁treat	-1254
▁Al	-1255
▁girl	-1256
▁happens	-1257
▁wrong	-1258
bo	-1259
▁fig	-1260
▁class	-1261
ird	-1262
ately	-1263
▁months	-1264
ages	-1265
▁model	-1266
▁looked	-1267
▁Here	-1268
▁wa	-1269
▁says	-1270
▁both	-1271
▁until	-1272
ury	-1273
ield	-1274
▁adv	-1275
▁cond	-1276
▁Earth	-1277
ute	-1278
▁control	-1279
▁imagine	-1280
▁hund	-1281
erm	-1282
▁amaz	-1283
▁nothing	-1284
ilt	-1285
▁Se	-1286
▁face	-1287
▁already	-1288
▁yet	-1289
▁government	-1290
▁environment	-1291
▁whether	-1292
osp	-1293
uge	-1294
▁net	-1295
▁once	-1296
▁education	-1297
▁bre	-1298
▁cost	-1299
▁9	-1300
ron	-1301
▁mic	-1302
▁ris	-1303
▁entire	-1304
▁learned	-1305
▁language	-1306
ider	-1307
▁Ind	-1308
▁goes	-1309
ins	-1310
▁loc	-1311
▁possible	-1312
ken	-1313
▁gl	-1314
ogr	-1315
▁ret	-1316
▁hear	-1317
▁saying	-1318
bers	-1319
▁rest	-1320
kay	-1321
▁pay	-1322
▁knew	-1323
▁contin	-1324
▁stuff	-1325
ape	-1326
▁On	-1327
omes	-1328
unch	-1329
▁Africa	-1330
▁order	-1331
ange	-1332
▁individ	-1333
▁problems	-1334
up	-1335
iol	-1336
▁trad	-1337
ental	-1338
▁incred	-1339
▁night	-1340
▁mor	-1341
acter	-1342
▁within	-1343
▁picture	-1344
▁city	-1345
▁wasn	-1346
▁United	-1347
▁history	-1348
▁dire	-1349
▁const	-1350
▁mater	-1351
▁certain	-1352
ior	-1353
▁15	-1354
ants	-1355
ional	-1356
▁product	-1357
ots	-1358
▁mach	-1359
▁became	-1360
▁cancer	-1361
rem	-1362
▁air	-1363
thers	-1364
▁par	-1365
▁must	-1366
▁amazing	-1367
▁parent	-1368
▁planet	-1369
uck	-1370
▁full	-1371
▁black	-1372
▁stories	-1373
ined	-1374
▁large	-1375
ped	-1376
▁beautif	-1377
io	-1378
ely	-1379
▁iss	-1380
▁news	-1381
▁heart	-1382
cul	-1383
▁math	-1384
▁mar	-1385
vious	-1386
▁vir	-1387
▁places	-1388
ott	-1389
▁100	-1390
▁che	-1391
▁happ	-1392
▁colle	-1393
▁Intern	-1394
▁law	-1395
▁follow	-1396
▁result	-1397
▁mag	-1398
itive	-1399
▁heard	-1400
▁decided	-1401
▁program	-1402
no	-1403
side	-1404
▁others	-1405
▁society	-1406
▁sw	-1407
▁tool	-1408
▁taking	-1409
▁discover	-1410
etic	-1411
▁diff	-1412
▁mess	-1413
cing	-1414
▁learning	-1415
▁themselves	-1416
ush	-1417
ired	-1418
▁7	-1419
▁Fr	-1420
▁free	-1421
atic	-1422
▁though	-1423
▁exactly	-1424
ision	-1425
▁name	-1426
▁leg	-1427
▁invest	-1428
cur	-1429
▁50	-1430
▁object	-1431
ared	-1432
ling	-1433
▁works	-1434
▁questions	-1435
iddle	-1436
▁video	-1437
▁study	-1438
line	-1439
ients	-1440
ograph	-1441
▁..	-1442
▁clear	-1443
ogn	-1444
▁speak	-1445
▁States	-1446
▁30	-1447
▁...	-1448
▁disease	-1449
▁walk	-1450
▁music	-1451
▁company	-1452
▁success	-1453
▁6	-1454
clud	-1455
ians	-1456
▁six	-1457
aster	-1458
ier	-1459
▁pos	-1460
▁woman	-1461
▁students	-1462
▁collect	-1463
ex	-1464
▁Eur	-1465
▁indust	-1466
aking	-1467
▁fund	-1468
▁behav	-1469
get	-1470
▁av	-1471
▁train	-1472
▁completely	-1473
▁exc	-1474
▁listen	-1475
▁true	-1476
▁built	-1477
▁beautiful	-1478
▁ones	-1479
▁viol	-1480
▁word	-1481
▁vo	-1482
icult	-1483
▁jour	-1484
▁At	-1485
▁gets	-1486
▁Every	-1487
▁8	-1488
aper	-1489
▁Chin	-1490
▁ideas	-1491
▁network	-1492
▁protect	-1493
▁universe	-1494
▁basically	-1495
▁Do	-1496
▁exist	-1497
▁sex	-1498
▁everyone	-1499
ished	-1500
▁figure	-1501
▁ourselves	-1502
▁es	-1503
▁early	-1504
▁norm	-1505
▁death	-1506
pportun	-1507
▁against	-1508
▁experim	-1509
▁isn	-1510
ivity	-1511
▁state	-1512
illions	-1513
▁aw	-1514
▁since	-1515
▁opportun	-1516
sy	-1517
ane	-1518
▁abs	-1519
▁mother	-1520
▁kill	-1521
▁♪	-1522
haps	-1523
▁meas	-1524
▁instead	-1525
▁spend	-1526
ability	-1527
▁complex	-1528
▁difficult	-1529
to	-1530
omet	-1531
▁struct	-1532
▁thousands	-1533
itut	-1534
▁somebody	-1535
bs	-1536
▁Or	-1537
▁mil	-1538
▁Internet	-1539
▁Can	-1540
▁trust	-1541
plic	-1542
▁America	-1543
▁Go	-1544
versity	-1545
▁changed	-1546
▁reality	-1547
outh	-1548
▁stre	-1549
▁piece	-1550
ged	-1551
▁cra	-1552
▁dig	-1553
▁prov	-1554
ctor	-1555
▁rev	-1556
▁view	-1557
▁liter	-1558
ED	-1559
▁meet	-1560
▁front	-1561
▁recent	-1562
▁relations	-1563
ock	-1564
ming	-1565
▁kinds	-1566
▁field	-1567
▁market	-1568
▁itself	-1569
▁sometimes	-1570
ives	-1571
▁bab	-1572
▁Europe	-1573
ral	-1574
▁z	-1575
elt	-1576
▁guy	-1577
▁house	-1578
cle	-1579
ones	-1580
▁team	-1581
ination	-1582
ological	-1583
▁communic	-1584
▁arch	-1585
ibly	-1586
itions	-1587
▁looks	-1588
▁turns	-1589
NA	-1590
▁dra	-1591
▁coll	-1592
▁nature	-1593
▁mass	-1594
▁support	-1595
▁companies	-1596
▁ca	-1597
▁fear	-1598
▁couldn	-1599
▁appro	-1600
dd	-1601
▁couple	-1602
▁deep	-1603
▁fail	-1604
▁sent	-1605
▁expect	-1606
▁species	-1607
ilar	-1608
▁priv	-1609
▁fil	-1610
ption	-1611
▁stay	-1612
▁created	-1613
▁powerful	-1614
ats	-1615
que	-1616
▁red	-1617
▁close	-1618
▁animals	-1619
br	-1620
▁dream	-1621
ither	-1622
▁hours	-1623
▁happening	-1624
land	-1625
▁parents	-1626
ror	-1627
ples	-1628
utes	-1629
ature	-1630
▁var	-1631
fort	-1632
cious	-1633
▁hold	-1634
▁given	-1635
▁culture	-1636
acy	-1637
eah	-1638
ien	-1639
ides	-1640
▁aud	-1641
▁mot	-1642
▁supp	-1643
▁ident	-1644
▁land	-1645
▁record	-1646
▁gave	-1647
▁rather	-1648
▁cir	-1649
▁access	-1650
▁includ	-1651
▁worked	-1652
▁engine	-1653
not	-1654
▁natural	-1655
▁TED	-1656
▁pot	-1657
▁eyes	-1658
▁step	-1659
▁takes	-1660
ator	-1661
ised	-1662
▁line	-1663
itting	-1664
▁ill	-1665
▁impro	-1666
▁bro	-1667
aring	-1668
▁York	-1669
▁deal	-1670
▁felt	-1671
▁least	-1672
▁systems	-1673
▁economic	-1674
els	-1675
▁along	-1676
▁quick	-1677
▁population	-1678
ted	-1679
▁ele	-1680
▁surv	-1681
▁Ar	-1682
▁mole	-1683
▁blood	-1684
▁lim	-1685
▁focus	-1686
▁surpr	-1687
▁yourself	-1688
▁everybody	-1689
ges	-1690
▁Br	-1691
▁ant	-1692
ially	-1693
▁pred	-1694
▁saf	-1695
▁present	-1696
ply	-1697
ential	-1698
▁relationship	-1699
▁Eng	-1700
istic	-1701
▁super	-1702
▁amount	-1703
erv	-1704
hood	-1705
▁rad	-1706
▁extra	-1707
ode	-1708
ased	-1709
ping	-1710
▁poor	-1711
▁famil	-1712
▁inc	-1713
▁common	-1714
▁behavior	-1715
ney	-1716
ully	-1717
▁inno	-1718
▁God	-1719
▁low	-1720
▁huge	-1721
ug	-1722
▁week	-1723
▁event	-1724
▁leave	-1725
▁pract	-1726
▁taken	-1727
▁fre	-1728
▁began	-1729
▁image	-1730
▁century	-1731
▁desc	-1732
▁lots	-1733
ove	-1734
▁enc	-1735
▁imm	-1736
▁break	-1737
▁media	-1738
▁explain	-1739
▁outside	-1740
▁perhaps	-1741
▁simply	-1742
▁finally	-1743
▁American	-1744
ames	-1745
▁Then	-1746
▁patients	-1747
▁rob	-1748
▁middle	-1749
▁To	-1750
▁dark	-1751
▁known	-1752
▁hy	-1753
▁cannot	-1754
▁ground	-1755
▁recogn	-1756
▁ge	-1757
▁flo	-1758
▁political	-1759
bor	-1760
▁pur	-1761
▁miss	-1762
▁longer	-1763
▁convers	-1764
▁realized	-1765
▁Our	-1766
▁oce	-1767
▁during	-1768
▁impact	-1769
▁needed	-1770
▁difference	-1771
▁Oh	-1772
fect	-1773
▁bir	-1774
▁oper	-1775
▁wind	-1776
▁grand	-1777
▁oil	-1778
▁size	-1779
ony	-1780
year	-1781
▁easy	-1782
▁near	-1783
▁strong	-1784
▁travel	-1785
▁turned	-1786
▁interact	-1787
ging	-1788
orth	-1789
ising	-1790
jor	-1791
▁201	-1792
▁minutes	-1793
▁similar	-1794
era	-1795
▁feed	-1796
▁risk	-1797
▁press	-1798
▁humans	-1799
eg	-1800
▁DNA	-1801
▁ve	-1802
reds	-1803
wards	-1804
▁emot	-1805
oph	-1806
vent	-1807
ledge	-1808
▁Just	-1809
▁Okay	-1810
▁Some	-1811
▁behind	-1812
▁ability	-1813
▁personal	-1814
▁beginning	-1815
▁Sh	-1816
▁jo	-1817
ison	-1818
▁sil	-1819
▁scre	-1820
▁democ	-1821
ze	-1822
▁tre	-1823
inary	-1824
▁chem	-1825
▁innov	-1826
▁short	-1827
▁climate	-1828
▁pattern	-1829
▁ben	-1830
anger	-1831
▁requ	-1832
▁local	-1833
▁neigh	-1834
ern	-1835
man	-1836
▁Pe	-1837
ively	-1838
▁emb	-1839
▁non	-1840
▁won	-1841
▁lost	-1842
▁serv	-1843
cially	-1844
▁tot	-1845
▁medic	-1846
ps	-1847
▁cut	-1848
▁key	-1849
▁psy	-1850
▁seeing	-1851
▁har	-1852
▁obs	-1853
▁born	-1854
▁reach	-1855
▁mult	-1856
▁absolut	-1857
ium	-1858
▁green	-1859
▁hands	-1860
▁seven	-1861
▁terms	-1862
▁third	-1863
▁extrem	-1864
uth	-1865
face	-1866
lish	-1867
▁cal	-1868
▁bott	-1869
▁Music	-1870
▁alone	-1871
▁based	-1872
▁physical	-1873
▁challenge	-1874
▁bri	-1875
idence	-1876
▁ori	-1877
rought	-1878
ibility	-1879
▁father	-1880
iny	-1881
room	-1882
▁fight	-1883
▁needs	-1884
▁opportunity	-1885
mb	-1886
▁hosp	-1887
▁road	-1888
▁images	-1889
▁mathem	-1890
▁perform	-1891
▁respons	-1892
▁hundreds	-1893
▁Tw	-1894
▁la	-1895
fully	-1896
▁path	-1897
▁send	-1898
▁weeks	-1899
▁institut	-1900
▁fac	-1901
▁sug	-1902
ource	-1903
ression	-1904
▁dr	-1905
▁oc	-1906
ured	-1907
izing	-1908
▁major	-1909
▁ess	-1910
▁map	-1911
olved	-1912
▁cities	-1913
▁machine	-1914
▁obvious	-1915
▁realize	-1916
att	-1917
ains	-1918
▁pick	-1919
▁rele	-1920
▁wall	-1921
▁block	-1922
▁eight	-1923
ering	-1924
▁caus	-1925
▁text	-1926
▁either	-1927
▁approach	-1928
▁consider	-1929
ources	-1930
▁psych	-1931
lt	-1932
cum	-1933
itch	-1934
▁tem	-1935
▁cars	-1936
▁insp	-1937
▁sens	-1938
▁attack	-1939
▁growth	-1940
bon	-1941
▁40	-1942
▁ap	-1943
verage	-1944
▁phone	-1945
▁write	-1946
▁12	-1947
▁dest	-1948
▁18	-1949
▁Man	-1950
▁micro	-1951
▁profess	-1952
gen	-1953
ton	-1954
▁development	-1955
aged	-1956
itect	-1957
▁feeling	-1958
▁perfect	-1959
▁lif	-1960
▁typ	-1961
▁happy	-1962
▁normal	-1963
▁understanding	-1964
zy	-1965
nal	-1966
▁parts	-1967
▁bacter	-1968
▁millions	-1969
ax	-1970
arr	-1971
ung	-1972
▁anal	-1973
▁developed	-1974
ole	-1975
ored	-1976
▁tools	-1977
▁affect	-1978
▁telling	-1979
ards	-1980
chan	-1981
▁industry	-1982
ows	-1983
▁cy	-1984
▁voice	-1985
▁white	-1986
oun	-1987
▁Not	-1988
▁bra	-1989
▁yes	-1990
ried	-1991
astic	-1992
ators	-1993
▁books	-1994
▁truth	-1995
▁quickly	-1996
▁guys	-1997
▁prom	-1998
▁seems	-1999
▁individual	-2000
ook	-2001
▁repres	-2002
eed	-2003
▁tried	-2004
▁consum	-2005
▁special	-2006
▁material	-2007
ffer	-2008
▁relig	-2009
ilities	-2010
ologies	-2011
pecially	-2012
▁wonderful	-2013
▁changes	-2014
▁attention	-2015
bit	-2016
avor	-2017
▁civ	-2018
▁conv	-2019
▁situ	-2020
rent	-2021
aught	-2022
▁spent	-2023
▁economy	-2024
▁knowledge	-2025
cr	-2026
cu	-2027
pre	-2028
▁blue	-2029
▁slow	-2030
▁direct	-2031
▁brought	-2032
▁numbers	-2033
▁whatever	-2034
oh	-2035
▁Chr	-2036
▁tradition	-2037
▁bar	-2038
asing	-2039
▁area	-2040
par	-2041
▁dead	-2042
▁avail	-2043
▁drugs	-2044
▁polic	-2045
▁deg	-2046
▁violence	-2047
▁especially	-2048
com	-2049
▁ur	-2050
rodu	-2051
▁sum	-2052
▁sun	-2053
▁fall	-2054
▁paper	-2055
▁architect	-2056
ext	-2057
ented	-2058
▁appl	-2059
entially	-2060
ouch	-2061
▁dou	-2062
▁predict	-2063
▁conscious	-2064
▁literally	-2065
▁value	-2066
▁moving	-2067
▁spread	-2068
▁meaning	-2069
▁recently	-2070
▁CA	-2071
▁Re	-2072
ills	-2073
▁buy	-2074
▁fast	-2075
▁rate	-2076
▁plant	-2077
▁giving	-2078
▁online	-2079
▁English	-2080
ades	-2081
▁sitting	-2082
▁discovered	-2083
▁scientists	-2084
ucle	-2085
▁Yes	-2086
▁deli	-2087
curity	-2088
▁asking	-2089
▁mechan	-2090
▁patient	-2091
▁vol	-2092
ration	-2093
▁color	-2094
▁react	-2095
▁scale	-2096
▁fundam	-2097
▁capital	-2098
▁box	-2099
▁fem	-2100
▁hon	-2101
▁ple	-2102
▁groups	-2103
▁structure	-2104
ister	-2105
▁ball	-2106
▁gone	-2107
▁post	-2108
▁India	-2109
▁incredible	-2110
ipp	-2111
▁25	-2112
▁nucle	-2113
▁wouldn	-2114
▁available	-2115
ler	-2116
chie	-2117
iant	-2118
▁hor	-2119
▁tiny	-2120
▁People	-2121
▁growing	-2122
▁subject	-2123
▁interested	-2124
▁technologies	-2125
of	-2126
dden	-2127
▁die	-2128
ified	-2129
▁drop	-2130
▁lived	-2131
▁suffer	-2132
▁medical	-2133
ploy	-2134
▁China	-2135
▁carbon	-2136
▁origin	-2137
▁sudden	-2138
▁leaders	-2139
▁teachers	-2140
▁experiment	-2141
itiz	-2142
▁arm	-2143
▁With	-2144
▁prin	-2145
▁communities	-2146
ites	-2147
▁arg	-2148
▁emp	-2149
▁crit	-2150
▁fish	-2151
▁save	-2152
▁ocean	-2153
▁anyone	-2154
ee	-2155
agn	-2156
imin	-2157
▁eat	-2158
▁comb	-2159
▁soon	-2160
▁digital	-2161
▁neurons	-2162
ein	-2163
ift	-2164
▁May	-2165
▁cop	-2166
ustain	-2167
▁Right	-2168
▁wrote	-2169
▁forest	-2170
▁sounds	-2171
▁creating	-2172
by	-2173
▁fly	-2174
▁average	-2175
▁starting	-2176
port	-2177
ribut	-2178
▁emerg	-2179
book	-2180
racy	-2181
▁baby	-2182
▁suggest	-2183
ma	-2184
assion	-2185
▁areas	-2186
▁shows	-2187
▁animal	-2188
▁neighbor	-2189
▁developing	-2190
urs	-2191
▁cool	-2192
▁draw	-2193
▁among	-2194
▁benef	-2195
▁visual	-2196
asc	-2197
lict	-2198
▁mal	-2199
ellig	-2200
usion	-2201
▁foot	-2202
▁favor	-2203
ived	-2204
▁secre	-2205
▁depend	-2206
ateg	-2207
orld	-2208
imens	-2209
▁Goog	-2210
▁vers	-2211
▁After	-2212
▁likely	-2213
lu	-2214
app	-2215
ike	-2216
▁div	-2217
▁opp	-2218
▁Yeah	-2219
▁clos	-2220
▁cause	-2221
▁colleag	-2222
▁current	-2223
▁surface	-2224
ency	-2225
uals	-2226
▁pull	-2227
▁drive	-2228
▁worth	-2229
ery	-2230
ify	-2231
uly	-2232
▁By	-2233
omen	-2234
▁lea	-2235
▁sea	-2236
▁citiz	-2237
▁serious	-2238
▁est	-2239
▁ste	-2240
▁win	-2241
▁game	-2242
▁redu	-2243
▁solve	-2244
▁journey	-2245
abor	-2246
▁opt	-2247
▁ult	-2248
▁camp	-2249
▁soft	-2250
▁absolutely	-2251
enn	-2252
▁Am	-2253
▁ep	-2254
▁fu	-2255
ials	-2256
yond	-2257
▁smart	-2258
▁morning	-2259
por	-2260
▁OK	-2261
amed	-2262
▁main	-2263
▁rock	-2264
▁seem	-2265
▁civil	-2266
▁girls	-2267
▁choice	-2268
▁modern	-2269
▁sever	-2270
▁stage	-2271
▁measure	-2272
▁Im	-2273
▁type	-2274
▁mathemat	-2275
▁generation	-2276
oid	-2277
ump	-2278
ware	-2279
▁rece	-2280
▁blind	-2281
▁running	-2282
▁electric	-2283
rad	-2284
▁fair	-2285
▁perspect	-2286
▁incredibly	-2287
▁Z	-2288
▁squ	-2289
▁search	-2290
▁sustain	-2291
▁audience	-2292
▁Le	-2293
onse	-2294
▁bur	-2295
▁chance	-2296
▁message	-2297
▁schools	-2298
▁transform	-2299
ude	-2300
ances	-2301
▁farm	-2302
▁accept	-2303
▁action	-2304
▁bottom	-2305
▁becomes	-2306
▁concept	-2307
▁several	-2308
pan	-2309
▁bed	-2310
▁auth	-2311
▁died	-2312
▁First	-2313
▁clean	-2314
▁issue	-2315
▁Google	-2316
▁report	-2317
▁African	-2318
▁forward	-2319
▁compassion	-2320
▁hot	-2321
▁touch	-2322
▁photograph	-2323
iet	-2324
▁mov	-2325
▁cris	-2326
▁tend	-2327
▁bacteria	-2328
▁response	-2329
▁11	-2330
▁din	-2331
▁lay	-2332
light	-2333
▁achie	-2334
▁beyond	-2335
▁threat	-2336
ffic	-2337
▁fire	-2338
▁stat	-2339
▁South	-2340
▁basic	-2341
▁solar	-2342
▁compet	-2343
▁intern	-2344
▁showed	-2345
▁biggest	-2346
▁improve	-2347
▁nuclear	-2348
▁families	-2349
▁hit	-2350
▁ice	-2351
▁mob	-2352
▁sho	-2353
▁vac	-2354
▁meth	-2355
▁activ	-2356
▁track	-2357
ero	-2358
une	-2359
▁Ph	-2360
▁sou	-2361
itten	-2362
ously	-2363
▁Inst	-2364
▁role	-2365
▁song	-2366
▁hospital	-2367
▁solution	-2368
▁resources	-2369
▁conversation	-2370
gs	-2371
ban	-2372
gth	-2373
▁meant	-2374
▁miles	-2375
▁detect	-2376
▁including	-2377
head	-2378
▁deb	-2379
▁fur	-2380
▁son	-2381
▁center	-2382
▁device	-2383
▁necess	-2384
▁starts	-2385
▁account	-2386
▁hundred	-2387
▁evidence	-2388
oll	-2389
▁er	-2390
▁flu	-2391
verty	-2392
▁push	-2393
▁mental	-2394
▁putting	-2395
oms	-2396
▁tar	-2397
▁virt	-2398
▁apart	-2399
▁birth	-2400
▁defin	-2401
▁gives	-2402
▁danger	-2403
▁doctor	-2404
▁revolution	-2405
like	-2406
▁stress	-2407
amp	-2408
medi	-2409
▁adm	-2410
▁eye	-2411
▁aren	-2412
▁issues	-2413
▁produce	-2414
▁reasons	-2415
▁intellig	-2416
oon	-2417
▁rul	-2418
▁World	-2419
▁bigger	-2420
▁princi	-2421
ros	-2422
ival	-2423
▁Don	-2424
▁dom	-2425
▁mis	-2426
ctors	-2427
▁thank	-2428
▁situation	-2429
▁eventually	-2430
sh	-2431
▁60	-2432
▁Cl	-2433
▁rain	-2434
▁sell	-2435
▁detail	-2436
▁theory	-2437
▁movement	-2438
▁democracy	-2439
iod	-2440
vert	-2441
▁Com	-2442
▁labor	-2443
▁pictures	-2444
▁security	-2445
ims	-2446
cient	-2447
▁police	-2448
▁poverty	-2449
▁function	-2450
▁connected	-2451
▁evolution	-2452
▁nice	-2453
▁genes	-2454
▁college	-2455
▁changing	-2456
let	-2457
▁fix	-2458
▁door	-2459
▁adult	-2460
▁street	-2461
▁genetic	-2462
▁conflict	-2463
▁ec	-2464
ires	-2465
ores	-2466
▁sle	-2467
▁safe	-2468
▁higher	-2469
▁infect	-2470
▁medicine	-2471
▁buildings	-2472
ech	-2473
now	-2474
▁guess	-2475
ruction	-2476
▁launch	-2477
▁address	-2478
▁writing	-2479
▁designed	-2480
▁particularly	-2481
▁gas	-2482
▁code	-2483
▁nine	-2484
▁rich	-2485
▁offer	-2486
▁rights	-2487
▁passion	-2488
▁towards	-2489
▁extraord	-2490
▁perspective	-2491
apt	-2492
for	-2493
▁80	-2494
rast	-2495
▁ast	-2496
ishing	-2497
▁finding	-2498
▁potential	-2499
▁scientific	-2500
ny	-2501
▁De	-2502
▁spir	-2503
▁wife	-2504
▁moved	-2505
▁period	-2506
▁student	-2507
▁walking	-2508
amm	-2509
ops	-2510
oud	-2511
▁capt	-2512
▁separ	-2513
▁truly	-2514
▁prison	-2515
▁national	-2516
▁ce	-2517
▁Where	-2518
▁brains	-2519
▁crisis	-2520
▁further	-2521
▁individuals	-2522
more	-2523
ners	-2524
▁sat	-2525
oming	-2526
▁film	-2527
iences	-2528
▁screen	-2529
▁conditions	-2530
▁institutions	-2531
▁fa	-2532
▁ign	-2533
ground	-2534
▁crazy	-2535
▁ready	-2536
unately	-2537
▁increase	-2538
▁computers	-2539
ask	-2540
edom	-2541
▁fra	-2542
antly	-2543
iding	-2544
odies	-2545
▁Maybe	-2546
▁diagn	-2547
▁loved	-2548
▁largest	-2549
aid	-2550
iar	-2551
ales	-2552
erve	-2553
▁Brit	-2554
▁mine	-2555
▁poll	-2556
▁haven	-2557
sect	-2558
view	-2559
▁dam	-2560
agine	-2561
rible	-2562
▁multi	-2563
▁results	-2564
▁creative	-2565
▁favorite	-2566
gor	-2567
▁Tod	-2568
▁prim	-2569
iation	-2570
▁older	-2571
plicated	-2572
▁diseases	-2573
arily	-2574
ently	-2575
▁feet	-2576
▁grew	-2577
▁stra	-2578
▁wish	-2579
ception	-2580
▁camera	-2581
▁saving	-2582
▁repl	-2583
▁docum	-2584
▁stick	-2585
▁societ	-2586
▁written	-2587
▁continue	-2588
▁decision	-2589
▁particip	-2590
cuss	-2591
ring	-2592
▁Ara	-2593
▁ine	-2594
▁skin	-2595
▁vill	-2596
▁shape	-2597
▁immedi	-2598
▁deliver	-2599
▁collabor	-2600
ned	-2601
put	-2602
▁ann	-2603
right	-2604
▁phil	-2605
▁terror	-2606
▁vision	-2607
▁certainly	-2608
▁everywhere	-2609
yn	-2610
ran	-2611
▁90	-2612
▁da	-2613
iction	-2614
▁force	-2615
▁source	-2616
▁respond	-2617
▁showing	-2618
▁treatment	-2619
▁governments	-2620
rum	-2621
alax	-2622
idge	-2623
▁Look	-2624
▁tele	-2625
▁Today	-2626
▁knows	-2627
▁context	-2628
▁supposed	-2629
▁represent	-2630
▁flow	-2631
▁choose	-2632
▁talked	-2633
▁colleagues	-2634
▁17	-2635
▁boy	-2636
▁magn	-2637
▁star	-2638
▁assum	-2639
▁surve	-2640
▁table	-2641
▁effort	-2642
▁shared	-2643
xy	-2644
ray	-2645
▁Of	-2646
▁led	-2647
osing	-2648
▁cold	-2649
▁effic	-2650
▁finan	-2651
▁larger	-2652
iversity	-2653
▁objects	-2654
▁smaller	-2655
▁extraordinary	-2656
oles	-2657
▁pen	-2658
▁aware	-2659
▁cross	-2660
▁mount	-2661
▁speed	-2662
▁remark	-2663
▁transl	-2664
▁citizens	-2665
▁obviously	-2666
▁successful	-2667
▁neighborhood	-2668
▁Ge	-2669
come	-2670
soci	-2671
▁199	-2672
▁kil	-2673
▁neg	-2674
▁mist	-2675
▁vict	-2676
▁minds	-2677
▁robot	-2678
▁whose	-2679
▁notice	-2680
▁totally	-2681
▁standing	-2682
▁somewhere	-2683
go	-2684
ript	-2685
▁bank	-2686
▁shown	-2687
▁worse	-2688
▁employ	-2689
▁Imagine	-2690
▁discuss	-2691
▁materials	-2692
▁fundamental	-2693
oke	-2694
rage	-2695
cules	-2696
istan	-2697
▁kept	-2698
▁cover	-2699
▁faster	-2700
▁exciting	-2701
▁experien	-2702
▁greatest	-2703
▁traditional	-2704
▁13	-2705
rugg	-2706
▁Face	-2707
▁Most	-2708
▁okay	-2709
▁pros	-2710
▁calcul	-2711
olutions	-2712
▁involved	-2713
▁character	-2714
fact	-2715
▁Who	-2716
▁galax	-2717
▁afford	-2718
▁engage	-2719
▁method	-2720
▁healthy	-2721
▁patterns	-2722
▁societies	-2723
eth	-2724
umb	-2725
pens	-2726
▁cry	-2727
▁whe	-2728
▁clin	-2729
▁late	-2730
▁email	-2731
▁office	-2732
▁remind	-2733
▁teacher	-2734
▁effective	-2735
▁increasing	-2736
wh	-2737
used	-2738
▁sch	-2739
oring	-2740
▁jobs	-2741
▁race	-2742
▁term	-2743
▁breat	-2744
▁virus	-2745
itation	-2746
▁bodies	-2747
▁return	-2748
▁strugg	-2749
izations	-2750
▁freedom	-2751
▁recognize	-2752
▁Sp	-2753
▁mir	-2754
ulate	-2755
▁grad	-2756
▁roll	-2757
▁above	-2758
▁microb	-2759
▁taught	-2760
▁decades	-2761
▁playing	-2762
▁reflect	-2763
▁teaching	-2764
50	-2765
eter	-2766
▁syn	-2767
▁Even	-2768
▁fill	-2769
▁onto	-2770
ission	-2771
▁earli	-2772
▁lower	-2773
▁print	-2774
▁stars	-2775
▁proper	-2776
▁respect	-2777
▁specific	-2778
akes	-2779
▁wants	-2780
▁doctors	-2781
▁politics	-2782
ox	-2783
anc	-2784
cope	-2785
▁Pro	-2786
▁rap	-2787
atory	-2788
erman	-2789
▁fasc	-2790
▁sequ	-2791
▁corre	-2792
▁tells	-2793
▁indeed	-2794
▁models	-2795
▁policy	-2796
▁secret	-2797
▁journal	-2798
▁examples	-2799
▁70	-2800
rial	-2801
▁Cal	-2802
▁bal	-2803
▁tur	-2804
▁Arab	-2805
▁lose	-2806
▁prep	-2807
▁concer	-2808
▁describ	-2809
▁general	-2810
▁products	-2811
▁signific	-2812
▁thousand	-2813
▁watching	-2814
sequ	-2815
▁Har	-2816
▁mus	-2817
ining	-2818
▁wait	-2819
▁quant	-2820
ference	-2821
▁anymore	-2822
▁biology	-2823
▁univers	-2824
▁willing	-2825
▁daughter	-2826
▁listening	-2827
cape	-2828
iced	-2829
useum	-2830
▁park	-2831
▁Video	-2832
▁check	-2833
▁actual	-2834
▁Chinese	-2835
▁reading	-2836
▁chemical	-2837
▁suddenly	-2838
icle	-2839
▁Bra	-2840
aging	-2841
order	-2842
rated	-2843
gorith	-2844
▁floor	-2845
▁influ	-2846
▁rules	-2847
▁quality	-2848
▁progress	-2849
▁complicated	-2850
dom	-2851
lex	-2852
inct	-2853
▁Are	-2854
▁cat	-2855
▁inj	-2856
ought	-2857
isions	-2858
▁offic	-2859
▁allows	-2860
▁determ	-2861
▁imposs	-2862
▁spirit	-2863
▁allowed	-2864
▁introdu	-2865
▁algorith	-2866
▁humanity	-2867
▁training	-2868
alk	-2869
ley	-2870
▁16	-2871
back	-2872
▁hop	-2873
▁goal	-2874
▁phen	-2875
▁tiss	-2876
▁graph	-2877
▁honest	-2878
▁waiting	-2879
▁positive	-2880
aim	-2881
ene	-2882
how	-2883
ina	-2884
cise	-2885
▁sam	-2886
▁hall	-2887
▁stri	-2888
▁Somet	-2889
▁carry	-2890
▁forms	-2891
▁resist	-2892
▁unique	-2893
▁physics	-2894
▁becoming	-2895
▁critical	-2896
▁understood	-2897
▁architecture	-2898
nds	-2899
ises	-2900
▁Mar	-2901
acity	-2902
ained	-2903
▁coun	-2904
▁wild	-2905
covery	-2906
▁peace	-2907
▁waste	-2908
ologist	-2909
▁anybody	-2910
▁clearly	-2911
▁painting	-2912
▁software	-2913
▁ultimate	-2914
▁condition	-2915
▁innovation	-2916
▁surprising	-2917
▁log	-2918
ounds	-2919
▁desp	-2920
▁trees	-2921
▁killed	-2922
▁nobody	-2923
▁provide	-2924
▁impossible	-2925
joy	-2926
esis	-2927
▁Car	-2928
▁exh	-2929
▁cust	-2930
istics	-2931
▁lines	-2932
▁artist	-2933
▁helped	-2934
▁points	-2935
▁speech	-2936
ologists	-2937
▁achieve	-2938
▁private	-2939
▁speaking	-2940
▁molecules	-2941
eren	-2942
▁198	-2943
▁Joh	-2944
ables	-2945
▁sleep	-2946
▁temper	-2947
▁phenomen	-2948
epend	-2949
▁cart	-2950
▁sold	-2951
▁apply	-2952
▁dance	-2953
▁beings	-2954
▁manage	-2955
▁region	-2956
▁devices	-2957
▁consciousness	-2958
ered	-2959
word	-2960
▁hur	-2961
ended	-2962
oking	-2963
▁West	-2964
atives	-2965
▁costs	-2966
▁enjoy	-2967
▁magic	-2968
▁range	-2969
▁descri	-2970
▁target	-2971
▁himself	-2972
▁planets	-2973
▁Facebook	-2974
▁pressure	-2975
▁challenges	-2976
▁essentially	-2977
mic	-2978
▁14	-2979
▁Isl	-2980
▁ang	-2981
▁cases	-2982
▁named	-2983
▁German	-2984
▁associ	-2985
▁memory	-2986
▁position	-2987
▁financial	-2988
▁communicate	-2989
▁oxy	-2990
▁doub	-2991
▁autom	-2992
▁sorts	-2993
▁pieces	-2994
▁networks	-2995
▁production	-2996
▁electricity	-2997
aur	-2998
▁ru	-2999
▁War	-3000
▁dog	-3001
▁jud	-3002
oting	-3003
▁laws	-3004
▁upon	-3005
▁lands	-3006
▁match	-3007
▁urban	-3008
▁weren	-3009
▁express	-3010
▁workers	-3011
▁transport	-3012
▁experiences	-3013
ai	-3014
gy	-3015
iot	-3016
▁Ex	-3017
▁Sy	-3018
itary	-3019
▁teen	-3020
▁North	-3021
▁movie	-3022
▁Americans	-3023
▁extremely	-3024
ube	-3025
ued	-3026
rate	-3027
▁bom	-3028
▁Many	-3029
▁heav	-3030
▁moral	-3031
▁worry	-3032
▁effects	-3033
▁excited	-3034
▁classroom	-3035
▁University	-3036
▁immediately	-3037
▁communication	-3038
▁relationships	-3039
zz	-3040
uss	-3041
▁sym	-3042
▁fuel	-3043
▁purp	-3044
though	-3045
▁except	-3046
▁female	-3047
▁physic	-3048
▁driving	-3049
▁studies	-3050
▁usually	-3051
▁Bl	-3052
▁Two	-3053
eless	-3054
▁East	-3055
▁fine	-3056
▁gene	-3057
▁webs	-3058
▁games	-3059
▁occur	-3060
▁author	-3061
▁insect	-3062
▁skills	-3063
▁plastic	-3064
▁services	-3065
onst	-3066
▁occ	-3067
▁luck	-3068
▁symb	-3069
▁tree	-3070
estern	-3071
▁fascin	-3072
▁minute	-3073
▁content	-3074
▁earlier	-3075
▁service	-3076
▁interview	-3077
▁suffering	-3078
lebr	-3079
time	-3080
▁cru	-3081
erson	-3082
orrow	-3083
▁paid	-3084
▁site	-3085
▁liber	-3086
pensive	-3087
▁refuge	-3088
▁surger	-3089
▁consequ	-3090
▁machines	-3091
▁practice	-3092
▁straight	-3093
▁dangerous	-3094
▁following	-3095
▁organization	-3096
IV	-3097
▁’	-3098
▁Sw	-3099
aign	-3100
apan	-3101
▁web	-3102
attle	-3103
▁dram	-3104
▁hair	-3105
▁port	-3106
▁ther	-3107
▁trou	-3108
▁weap	-3109
▁broad	-3110
▁prevent	-3111
▁direction	-3112
▁connection	-3113
▁US	-3114
aced	-3115
apes	-3116
ball	-3117
▁hus	-3118
▁swe	-3119
▁tum	-3120
cular	-3121
itter	-3122
▁arri	-3123
▁vacc	-3124
▁Japan	-3125
▁mobile	-3126
▁mention	-3127
imb	-3128
▁Ac	-3129
▁Pr	-3130
▁TV	-3131
▁af	-3132
eral	-3133
▁ran	-3134
istry	-3135
▁link	-3136
▁nearly	-3137
▁massive	-3138
▁stopped	-3139
▁remarkable	-3140
ik	-3141
rael	-3142
▁pan	-3143
▁sky	-3144
itted	-3145
▁integ	-3146
▁trade	-3147
▁types	-3148
▁visit	-3149
▁destro	-3150
▁strateg	-3151
▁solutions	-3152
eal	-3153
uit	-3154
▁21	-3155
isms	-3156
ndom	-3157
▁fat	-3158
▁fit	-3159
anced	-3160
arian	-3161
▁John	-3162
▁card	-3163
▁hero	-3164
▁pack	-3165
ifying	-3166
▁bunch	-3167
▁gradu	-3168
▁intelligence	-3169
▁international	-3170
▁pu	-3171
cies	-3172
rees	-3173
▁Per	-3174
ement	-3175
thern	-3176
▁Afgh	-3177
▁City	-3178
▁sand	-3179
others	-3180
▁Those	-3181
▁throw	-3182
▁celebr	-3183
▁custom	-3184
▁famous	-3185
▁plants	-3186
▁village	-3187
▁projects	-3188
▁surround	-3189
▁terrible	-3190
fortunately	-3191
▁experiments	-3192
na	-3193
yl	-3194
ana	-3195
unk	-3196
▁nut	-3197
aries	-3198
prene	-3199
ufact	-3200
reprene	-3201
▁applic	-3202
▁highly	-3203
atically	-3204
▁members	-3205
▁capacity	-3206
cut	-3207
usl	-3208
airs	-3209
band	-3210
ceed	-3211
ears	-3212
▁HIV	-3213
▁mut	-3214
itude	-3215
▁vast	-3216
▁final	-3217
▁closer	-3218
▁random	-3219
▁square	-3220
▁symbol	-3221
▁walked	-3222
▁somehow	-3223
▁campaign	-3224
iqu	-3225
reg	-3226
zil	-3227
aria	-3228
empt	-3229
inal	-3230
iving	-3231
▁Aust	-3232
▁poet	-3233
ashing	-3234
▁basis	-3235
▁Christ	-3236
▁Israel	-3237
▁please	-3238
▁addition	-3239
▁emotional	-3240
unt	-3241
atell	-3242
▁copy	-3243
▁alive	-3244
▁glass	-3245
▁trick	-3246
▁babies	-3247
▁philos	-3248
▁useful	-3249
fortable	-3250
▁greater	-3251
▁activity	-3252
▁expensive	-3253
aly	-3254
cop	-3255
iety	-3256
term	-3257
▁veh	-3258
▁Mars	-3259
▁harm	-3260
▁raise	-3261
▁spect	-3262
▁Afghan	-3263
▁Brazil	-3264
▁career	-3265
▁slight	-3266
▁password	-3267
▁standard	-3268
▁biological	-3269
bb	-3270
ada	-3271
ips	-3272
off	-3273
uct	-3274
val	-3275
ille	-3276
raid	-3277
▁197	-3278
▁Par	-3279
ander	-3280
▁fant	-3281
ricult	-3282
▁brand	-3283
▁dying	-3284
▁invis	-3285
▁afraid	-3286
▁commer	-3287
▁decade	-3288
▁disapp	-3289
▁income	-3290
▁mostly	-3291
▁wealth	-3292
▁Another	-3293
▁knowing	-3294
▁matters	-3295
▁manufact	-3296
▁distribut	-3297
▁Q	-3298
iti	-3299
▁24	-3300
ogen	-3301
▁fing	-3302
▁lack	-3303
▁total	-3304
▁master	-3305
▁satell	-3306
▁seemed	-3307
▁bringing	-3308
▁military	-3309
▁throughout	-3310
▁importantly	-3311
af	-3312
ches	-3313
▁Lond	-3314
▁encou	-3315
▁motiv	-3316
▁oppos	-3317
▁store	-3318
▁levels	-3319
▁nation	-3320
▁states	-3321
▁noticed	-3322
▁familiar	-3323
▁published	-3324
▁entreprene	-3325
▁organizations	-3326
tle	-3327
▁Ab	-3328
cles	-3329
wise	-3330
▁Take	-3331
▁rise	-3332
▁Chris	-3333
▁giant	-3334
▁belief	-3335
▁broken	-3336
▁Instead	-3337
▁strange	-3338
▁electron	-3339
▁mathematics	-3340
▁/	-3341
ays	-3342
osy	-3343
udd	-3344
cure	-3345
olve	-3346
▁Any	-3347
▁hom	-3348
▁tax	-3349
iring	-3350
▁loss	-3351
▁narr	-3352
▁sick	-3353
▁uses	-3354
▁zero	-3355
▁earth	-3356
▁ended	-3357
▁enorm	-3358
▁London	-3359
▁expand	-3360
▁photos	-3361
▁raised	-3362
▁select	-3363
▁summer	-3364
▁popular	-3365
▁various	-3366
▁scientist	-3367
▁therefore	-3368
aff	-3369
ica	-3370
ids	-3371
▁sn	-3372
mosp	-3373
ster	-3374
▁sus	-3375
iling	-3376
▁page	-3377
▁reve	-3378
▁avoid	-3379
▁drink	-3380
▁optim	-3381
▁price	-3382
▁dimens	-3383
▁Western	-3384
▁demonst	-3385
▁illness	-3386
▁surgery	-3387
▁survive	-3388
▁agricult	-3389
▁directly	-3390
▁depression	-3391
▁environmental	-3392
arm	-3393
▁mix	-3394
▁Like	-3395
▁Park	-3396
▁Your	-3397
▁scan	-3398
▁shot	-3399
orders	-3400
▁habit	-3401
▁shift	-3402
▁atmosp	-3403
▁genome	-3404
▁invent	-3405
▁degrees	-3406
▁farmers	-3407
▁inspired	-3408
ees	-3409
rew	-3410
▁Dr	-3411
▁op	-3412
adem	-3413
gypt	-3414
oint	-3415
▁rid	-3416
▁sad	-3417
▁vul	-3418
▁Musl	-3419
▁Over	-3420
▁male	-3421
▁rare	-3422
▁terr	-3423
rength	-3424
▁accur	-3425
▁shock	-3426
▁altern	-3427
▁forget	-3428
▁histor	-3429
▁therap	-3430
▁sharing	-3431
▁streets	-3432
▁previous	-3433
▁particles	-3434
▁ut	-3435
cule	-3436
ening	-3437
▁From	-3438
▁swim	-3439
▁town	-3440
▁yell	-3441
▁Egypt	-3442
▁board	-3443
▁epide	-3444
▁adults	-3445
▁weight	-3446
ulations	-3447
▁strength	-3448
▁decisions	-3449
▁background	-3450
▁sustainable	-3451
ama	-3452
nel	-3453
amic	-3454
iger	-3455
lled	-3456
vere	-3457
▁pig	-3458
▁held	-3459
▁host	-3460
▁hous	-3461
▁repe	-3462
ording	-3463
▁laugh	-3464
▁ancient	-3465
▁cultural	-3466
▁diversity	-3467
▁necessary	-3468
▁creativity	-3469
eny	-3470
▁Ad	-3471
ront	-3472
▁ske	-3473
arter	-3474
rench	-3475
▁ends	-3476
anging	-3477
ashion	-3478
▁displ	-3479
▁feels	-3480
▁rough	-3481
▁worst	-3482
▁causes	-3483
▁decide	-3484
▁easily	-3485
▁gather	-3486
▁spaces	-3487
▁answers	-3488
▁explore	-3489
▁markets	-3490
▁anywhere	-3491
▁religion	-3492
ios	-3493
oper	-3494
▁nan	-3495
idden	-3496
▁Will	-3497
▁cred	-3498
▁forg	-3499
▁hole	-3500
▁task	-3501
▁ahead	-3502
▁cheap	-3503
ometers	-3504
▁sexual	-3505
▁signal	-3506
▁vulner	-3507
rastruct	-3508
▁privacy	-3509
▁regular	-3510
RI	-3511
lock	-3512
▁Act	-3513
▁Dav	-3514
▁lad	-3515
▁sal	-3516
▁wis	-3517
stein	-3518
▁Once	-3519
▁legs	-3520
▁soul	-3521
ressed	-3522
▁Think	-3523
▁wheel	-3524
▁beauty	-3525
▁letter	-3526
▁despite	-3527
▁husband	-3528
▁meeting	-3529
▁purpose	-3530
▁traffic	-3531
ification	-3532
▁National	-3533
▁possibly	-3534
▁relative	-3535
▁differently	-3536
▁engineering	-3537
▁experienced	-3538
edd	-3539
rom	-3540
hold	-3541
▁bag	-3542
▁eth	-3543
▁gold	-3544
▁soil	-3545
▁tens	-3546
▁wide	-3547
▁forth	-3548
▁sight	-3549
▁astron	-3550
▁meters	-3551
▁series	-3552
▁empower	-3553
▁version	-3554
▁watched	-3555
▁infrastruct	-3556
ancy	-3557
orry	-3558
roph	-3559
ysis	-3560
▁Col	-3561
▁ord	-3562
▁tom	-3563
apers	-3564
▁hack	-3565
icking	-3566
▁fully	-3567
▁autism	-3568
▁easier	-3569
▁passed	-3570
ervation	-3571
▁virtual	-3572
▁believed	-3573
▁molecule	-3574
▁profound	-3575
vit	-3576
▁oh	-3577
atures	-3578
▁agree	-3579
▁correct	-3580
▁moments	-3581
▁accident	-3582
▁independ	-3583
▁invented	-3584
▁microbes	-3585
▁i	-3586
iber	-3587
▁dad	-3588
▁dyn	-3589
▁joy	-3590
▁plat	-3591
▁yeah	-3592
▁Which	-3593
▁equal	-3594
▁faith	-3595
▁twice	-3596
▁double	-3597
▁sister	-3598
▁brother	-3599
▁creates	-3600
▁although	-3601
▁childhood	-3602
▁invisible	-3603
▁performance	-3604
kn	-3605
pro	-3606
▁300	-3607
▁San	-3608
▁See	-3609
▁unc	-3610
▁Cent	-3611
▁cand	-3612
▁hate	-3613
▁join	-3614
▁rout	-3615
▁truck	-3616
▁helping	-3617
▁politic	-3618
▁website	-3619
▁elements	-3620
▁messages	-3621
▁Afghanistan	-3622
▁differences	-3623
▁$	-3624
▁Sc	-3625
▁Te	-3626
cest	-3627
exic	-3628
▁alt	-3629
icles	-3630
iforn	-3631
▁crow	-3632
▁exch	-3633
▁novel	-3634
▁photo	-3635
▁recon	-3636
▁teles	-3637
osystem	-3638
▁corner	-3639
▁gender	-3640
▁window	-3641
ifically	-3642
▁attempt	-3643
▁contact	-3644
▁mission	-3645
▁Californ	-3646
▁billions	-3647
▁existence	-3648
▁infrastructure	-3649
rel	-3650
ault	-3651
bert	-3652
itor	-3653
▁hyd	-3654
▁mos	-3655
▁catch	-3656
▁frame	-3657
▁legal	-3658
▁river	-3659
▁tough	-3660
▁belong	-3661
▁gotten	-3662
▁tissue	-3663
▁artists	-3664
▁choices	-3665
▁malaria	-3666
▁require	-3667
▁describe	-3668
▁programs	-3669
▁possibility	-3670
igr	-3671
ume	-3672
▁ir	-3673
anda	-3674
ests	-3675
osis	-3676
rupt	-3677
▁His	-3678
based	-3679
force	-3680
ossil	-3681
plant	-3682
print	-3683
▁core	-3684
▁mort	-3685
▁Mexic	-3686
▁argum	-3687
▁ancest	-3688
▁values	-3689
▁failure	-3690
▁insight	-3691
▁instance	-3692
▁mountain	-3693
▁original	-3694
▁construct	-3695
omy	-3696
▁1.	-3697
▁500	-3698
▁del	-3699
▁gap	-3700
ibiot	-3701
▁thri	-3702
cience	-3703
ctions	-3704
▁analy	-3705
▁demand	-3706
▁remote	-3707
▁hearing	-3708
▁managed	-3709
▁studied	-3710
▁happiness	-3711
▁religious	-3712
▁California	-3713
▁significant	-3714
▁responsibility	-3715
oses	-3716
vant	-3717
▁era	-3718
▁hun	-3719
▁scr	-3720
eness	-3721
▁Iran	-3722
▁below	-3723
▁walls	-3724
▁aspect	-3725
▁corpor	-3726
▁lesson	-3727
▁lights	-3728
▁museum	-3729
▁slowly	-3730
▁supply	-3731
▁focused	-3732
▁justice	-3733
▁leading	-3734
▁ecosystem	-3735
▁collective	-3736
▁temperature	-3737
sc	-3738
zen	-3739
▁Ed	-3740
▁Me	-3741
▁et	-3742
▁ing	-3743
▁mid	-3744
▁reb	-3745
alled	-3746
▁adop	-3747
▁mamm	-3748
▁trem	-3749
elling	-3750
vision	-3751
▁accom	-3752
▁birds	-3753
▁anyway	-3754
▁caused	-3755
▁commit	-3756
▁fossil	-3757
▁myster	-3758
▁However	-3759
▁destroy	-3760
▁instrum	-3761
▁seconds	-3762
▁European	-3763
▁platform	-3764
▁studying	-3765
▁Sometimes	-3766
▁industrial	-3767
▁professional	-3768
vest	-3769
▁gun	-3770
▁exer	-3771
▁tons	-3772
▁claim	-3773
▁embra	-3774
▁mouth	-3775
▁Middle	-3776
▁desire	-3777
▁robots	-3778
▁central	-3779
▁enormous	-3780
▁everyday	-3781
▁described	-3782
▁investment	-3783
▁kilometers	-3784
▁opportunities	-3785
▁Em	-3786
▁Jo	-3787
athy	-3788
ened	-3789
odes	-3790
rest	-3791
▁Fin	-3792
▁cure	-3793
▁weak	-3794
aining	-3795
▁aging	-3796
▁noise	-3797
▁radio	-3798
▁stuck	-3799
▁bright	-3800
▁brings	-3801
▁deeply	-3802
▁leaves	-3803
▁micros	-3804
▁benefits	-3805
▁opposite	-3806
▁received	-3807
▁atmosphere	-3808
▁complexity	-3809
▁definition	-3810
men	-3811
▁cos	-3812
known	-3813
▁arms	-3814
▁bees	-3815
▁valu	-3816
▁brill	-3817
▁dinos	-3818
▁homes	-3819
▁paint	-3820
▁wisdom	-3821
▁evolved	-3822
▁forever	-3823
▁turning	-3824
▁followed	-3825
▁slightly	-3826
wide	-3827
▁Hey	-3828
antic	-3829
itute	-3830
ivers	-3831
▁base	-3832
▁coff	-3833
▁heat	-3834
▁none	-3835
▁shop	-3836
▁calls	-3837
▁funny	-3838
▁rapid	-3839
▁sites	-3840
▁cooper	-3841
▁switch	-3842
▁missing	-3843
▁protein	-3844
▁trouble	-3845
▁document	-3846
▁partners	-3847
▁imagination	-3848
oty	-3849
▁En	-3850
▁Su	-3851
izes	-3852
roud	-3853
vity	-3854
▁amb	-3855
aming	-3856
▁Amaz	-3857
▁bone	-3858
▁coal	-3859
▁iron	-3860
▁1,000	-3861
▁Would	-3862
▁risks	-3863
▁Second	-3864
▁reveal	-3865
▁voices	-3866
▁Twitter	-3867
▁continu	-3868
▁curious	-3869
▁extreme	-3870
▁compared	-3871
imensional	-3872
▁languages	-3873
iat	-3874
hand	-3875
unte	-3876
▁Med	-3877
▁pet	-3878
ulous	-3879
▁anti	-3880
▁mill	-3881
▁quot	-3882
▁party	-3883
▁stood	-3884
▁trill	-3885
▁crimin	-3886
▁events	-3887
▁forces	-3888
▁Austral	-3889
▁British	-3890
▁foreign	-3891
▁antibiot	-3892
▁feedback	-3893
▁galaxies	-3894
▁identity	-3895
▁spending	-3896
▁discovery	-3897
▁phenomenon	-3898
▁increasingly	-3899
ara	-3900
key	-3901
raq	-3902
ret	-3903
▁Ag	-3904
ford	-3905
icon	-3906
onym	-3907
rict	-3908
▁Con	-3909
▁Pal	-3910
▁tit	-3911
▁ver	-3912
estic	-3913
▁Bill	-3914
▁Russ	-3915
▁beat	-3916
ancing	-3917
ending	-3918
forest	-3919
ildren	-3920
▁bread	-3921
▁daily	-3922
▁indic	-3923
▁trial	-3924
entally	-3925
ionally	-3926
▁driver	-3927
▁failed	-3928
▁compare	-3929
▁letters	-3930
▁partner	-3931
ibilities	-3932
▁distance	-3933
▁feelings	-3934
▁majority	-3935
▁sentence	-3936
▁philosoph	-3937
▁ultimately	-3938
▁fascinating	-3939
SA	-3940
do	-3941
win	-3942
yle	-3943
▁AI	-3944
▁Ne	-3945
▁Ro	-3946
▁Did	-3947
▁ban	-3948
▁hyp	-3949
▁tor	-3950
water	-3951
▁bear	-3952
▁adapt	-3953
▁marri	-3954
▁Thanks	-3955
▁caught	-3956
▁dreams	-3957
▁explor	-3958
▁grandm	-3959
▁motion	-3960
▁fashion	-3961
▁volunte	-3962
▁fantastic	-3963
▁structures	-3964
▁conversations	-3965
cil	-3966
cks	-3967
ett	-3968
mon	-3969
mber	-3970
▁etc	-3971
▁gar	-3972
▁tap	-3973
▁isol	-3974
▁jail	-3975
▁seas	-3976
▁whom	-3977
itness	-3978
▁enter	-3979
▁newsp	-3980
▁proud	-3981
▁battle	-3982
▁coffee	-3983
▁degree	-3984
▁fairly	-3985
▁fellow	-3986
▁inform	-3987
▁rating	-3988
▁insects	-3989
▁leaving	-3990
▁fighting	-3991
▁president	-3992
ns	-3993
▁GP	-3994
atin	-3995
iver	-3996
itely	-3997
throp	-3998
uries	-3999
▁Iraq	-4000
▁More	-4001
▁bomb	-4002
thetic	-4003
▁click	-4004
▁faces	-4005
▁heads	-4006
▁slide	-4007
▁Canada	-4008
▁French	-4009
▁begins	-4010
▁bridge	-4011
▁convin	-4012
▁damage	-4013
▁oxygen	-4014
▁review	-4015
▁quantum	-4016
▁victims	-4017
▁contract	-4018
▁identify	-4019
▁currently	-4020
icy	-4021
ola	-4022
▁Co	-4023
ager	-4024
▁196	-4025
▁ble	-4026
▁fab	-4027
akers	-4028
▁Each	-4029
▁cook	-4030
▁edge	-4031
▁fold	-4032
▁trip	-4033
angers	-4034
ulated	-4035
▁doubt	-4036
▁parad	-4037
mission	-4038
quality	-4039
▁active	-4040
▁electr	-4041
▁reduce	-4042
▁attract	-4043
▁calling	-4044
▁factors	-4045
▁affected	-4046
▁launched	-4047
▁multiple	-4048
▁survival	-4049
▁designers	-4050
▁efficient	-4051
▁landscape	-4052
▁protection	-4053
▁television	-4054
▁responsible	-4055
▁unfortunately	-4056
my	-4057
lly	-4058
▁Je	-4059
care	-4060
▁Gre	-4061
▁Min	-4062
▁Char	-4063
▁Keny	-4064
▁fort	-4065
▁rule	-4066
▁wear	-4067
▁wood	-4068
▁domin	-4069
▁quiet	-4070
▁subst	-4071
▁Amazon	-4072
▁advant	-4073
▁breath	-4074
▁played	-4075
▁actions	-4076
▁related	-4077
▁trained	-4078
▁chemistry	-4079
dimensional	-4080
▁commercial	-4081
ius	-4082
met	-4083
uls	-4084
▁Pl	-4085
▁iP	-4086
iles	-4087
▁400	-4088
▁Ein	-4089
▁Tom	-4090
▁aid	-4091
▁ens	-4092
ength	-4093
tered	-4094
▁boys	-4095
▁appre	-4096
▁goods	-4097
▁lucky	-4098
▁mosqu	-4099
▁mouse	-4100
▁names	-4101
▁saved	-4102
▁smell	-4103
▁surge	-4104
▁expert	-4105
▁Germany	-4106
▁holding	-4107
▁weather	-4108
▁Actually	-4109
▁reaction	-4110
▁surprise	-4111
irt	-4112
▁Mr	-4113
▁phr	-4114
▁uns	-4115
inist	-4116
▁agre	-4117
▁opin	-4118
acters	-4119
urally	-4120
▁David	-4121
▁Great	-4122
▁crowd	-4123
▁eleph	-4124
▁helps	-4125
▁north	-4126
iration	-4127
▁circum	-4128
▁compon	-4129
▁poetry	-4130
▁highest	-4131
▁release	-4132
▁Einstein	-4133
▁entirely	-4134
▁finished	-4135
▁produced	-4136
▁brilliant	-4137
▁vulnerable	-4138
mit	-4139
▁Ke	-4140
eper	-4141
iors	-4142
▁GPS	-4143
▁Asia	-4144
▁cogn	-4145
▁cort	-4146
▁lies	-4147
Americ	-4148
▁tumor	-4149
▁10,000	-4150
▁eating	-4151
▁encoun	-4152
▁opened	-4153
▁pounds	-4154
▁counter	-4155
▁details	-4156
▁figured	-4157
▁succeed	-4158
▁worried	-4159
▁otherwise	-4160
▁surprised	-4161
▁characters	-4162
▁consequences	-4163
gu	-4164
aul	-4165
bre	-4166
gal	-4167
▁Gu	-4168
▁Ob	-4169
aped	-4170
cell	-4171
▁Aud	-4172
▁fle	-4173
▁pun	-4174
lands	-4175
neath	-4176
olves	-4177
▁gard	-4178
▁king	-4179
▁meat	-4180
▁remo	-4181
▁suit	-4182
▁Three	-4183
▁categ	-4184
▁frequ	-4185
▁maint	-4186
▁charge	-4187
▁facing	-4188
▁forced	-4189
▁illust	-4190
▁obsess	-4191
▁benefit	-4192
▁emotions	-4193
▁valuable	-4194
▁contribut	-4195
ae	-4196
gn	-4197
▁CE	-4198
▁Mc	-4199
heim	-4200
uary	-4201
▁App	-4202
apped	-4203
▁bare	-4204
▁chim	-4205
▁gent	-4206
▁horm	-4207
▁suic	-4208
▁vote	-4209
▁grown	-4210
▁polar	-4211
▁refer	-4212
▁weird	-4213
▁bought	-4214
▁desert	-4215
▁hidden	-4216
▁metaph	-4217
▁yellow	-4218
▁balance	-4219
▁tremend	-4220
▁wearing	-4221
▁analysis	-4222
▁epidemic	-4223
▁investig	-4224
▁struggle	-4225
▁constantly	-4226
▁generations	-4227
new	-4228
osh	-4229
urch	-4230
▁Nor	-4231
▁lie	-4232
▁burn	-4233
▁disp	-4234
▁moon	-4235
▁rein	-4236
▁seed	-4237
idents	-4238
▁climb	-4239
▁coast	-4240
▁compl	-4241
▁holes	-4242
▁rates	-4243
▁sympt	-4244
▁toile	-4245
▁phones	-4246
▁stream	-4247
▁Washing	-4248
▁radical	-4249
▁witness	-4250
▁Washington	-4251
▁university	-4252
▁grandmother	-4253
▁X	-4254
aked	-4255
rian	-4256
▁AID	-4257
▁gut	-4258
▁ton	-4259
aling	-4260
celer	-4261
itals	-4262
▁Gree	-4263
▁fell	-4264
▁loud	-4265
▁spot	-4266
rating	-4267
▁chain	-4268
▁colon	-4269
▁sides	-4270
itarian	-4271
▁closed	-4272
▁debate	-4273
▁safety	-4274
▁appreci	-4275
▁recover	-4276
▁setting	-4277
▁shouldn	-4278
▁advanced	-4279
▁refugees	-4280
▁economies	-4281
▁principles	-4282
ief	-4283
ulf	-4284
▁Ha	-4285
iest	-4286
▁fol	-4287
▁unf	-4288
phone	-4289
umber	-4290
▁Geor	-4291
▁Mich	-4292
▁Pres	-4293
▁drag	-4294
▁ille	-4295
▁argue	-4296
▁bound	-4297
▁prior	-4298
▁democr	-4299
▁unlike	-4300
▁limited	-4301
▁precise	-4302
▁negative	-4303
▁separate	-4304
▁transfer	-4305
▁behaviors	-4306
▁dimensions	-4307
▁specifically	-4308
son	-4309
▁ho	-4310
acle	-4311
uild	-4312
▁Rem	-4313
▁rot	-4314
▁row	-4315
agers	-4316
board	-4317
iable	-4318
rogen	-4319
▁Have	-4320
▁Phil	-4321
▁dial	-4322
▁shad	-4323
▁ship	-4324
lation	-4325
ortion	-4326
▁Niger	-4327
▁added	-4328
▁exhib	-4329
▁prove	-4330
▁simpl	-4331
▁sport	-4332
connect	-4333
issions	-4334
▁appear	-4335
▁harder	-4336
▁implic	-4337
▁secure	-4338
▁unless	-4339
▁courage	-4340
▁married	-4341
▁testing	-4342
abilities	-4343
▁expected	-4344
▁disappear	-4345
▁associated	-4346
▁statistics	-4347
▁underneath	-4348
▁necessarily	-4349
▁researchers	-4350
▁civilization	-4351
ky	-4352
ux	-4353
▁Fl	-4354
mark	-4355
▁Ant	-4356
▁Jan	-4357
▁Ste	-4358
azine	-4359
esome	-4360
▁AIDS	-4361
▁dots	-4362
▁nerv	-4363
▁shel	-4364
▁shif	-4365
heimer	-4366
ribute	-4367
▁estab	-4368
▁frust	-4369
▁layer	-4370
▁limit	-4371
▁round	-4372
▁sorry	-4373
▁steps	-4374
▁School	-4375
▁blocks	-4376
▁colors	-4377
▁dinner	-4378
▁fields	-4379
▁survey	-4380
▁capable	-4381
▁mosquit	-4382
▁privile	-4383
▁emerging	-4384
▁equality	-4385
▁molecular	-4386
▁operating	-4387
▁algorithms	-4388
▁leadership	-4389
▁resistance	-4390
▁comfortable	-4391
▁potentially	-4392
▁mathematical	-4393
ani	-4394
edy	-4395
irm	-4396
lin	-4397
the	-4398
▁Tr	-4399
cked	-4400
▁Alz	-4401
▁Hum	-4402
▁due	-4403
▁fal	-4404
▁san	-4405
iency	-4406
▁2008	-4407
▁date	-4408
▁empt	-4409
▁init	-4410
▁note	-4411
▁puzz	-4412
▁vide	-4413
urance	-4414
▁cyber	-4415
▁estim	-4416
▁facts	-4417
▁motor	-4418
▁pages	-4419
▁shame	-4420
ography	-4421
▁dealing	-4422
▁promise	-4423
▁treated	-4424
▁typical	-4425
▁clinical	-4426
▁Alzheimer	-4427
▁engineers	-4428
▁foundation	-4429
ym	-4430
inc	-4431
▁22	-4432
cket	-4433
clus	-4434
resh	-4435
vard	-4436
▁Bab	-4437
▁Her	-4438
▁Sun	-4439
▁inh	-4440
▁tun	-4441
▁Cong	-4442
▁bits	-4443
▁hasn	-4444
▁tast	-4445
▁warm	-4446
▁Frank	-4447
▁Paris	-4448
▁Their	-4449
▁teeth	-4450
▁traum	-4451
clusion	-4452
▁assist	-4453
▁neuros	-4454
▁oceans	-4455
▁paying	-4456
▁repair	-4457
▁reward	-4458
ographic	-4459
▁keeping	-4460
▁prosper	-4461
▁therapy	-4462
▁confront	-4463
▁trillion	-4464
▁principle	-4465
▁seriously	-4466
▁worldwide	-4467
▁businesses	-4468
▁transition	-4469
▁environments	-4470
box	-4471
▁Big	-4472
▁Hig	-4473
▁Pri	-4474
▁agg	-4475
▁nar	-4476
ancis	-4477
gment	-4478
house	-4479
▁lens	-4480
▁mice	-4481
▁user	-4482
▁cloud	-4483
▁crash	-4484
▁inner	-4485
▁leads	-4486
▁prote	-4487
▁rural	-4488
artment	-4489
illance	-4490
▁credit	-4491
▁deaths	-4492
▁option	-4493
▁shapes	-4494
▁transp	-4495
inations	-4496
▁Francis	-4497
▁capture	-4498
▁forests	-4499
▁nervous	-4500
▁silence	-4501
▁station	-4502
▁creation	-4503
▁released	-4504
▁tomorrow	-4505
▁essential	-4506
▁narrative	-4507
▁passionate	-4508
▁connections	-4509
▁politicians	-4510
rog	-4511
set	-4512
▁ax	-4513
Tube	-4514
enty	-4515
otic	-4516
rand	-4517
zing	-4518
▁Sim	-4519
▁shr	-4520
aters	-4521
▁Swed	-4522
▁diet	-4523
▁hell	-4524
▁jump	-4525
▁reef	-4526
▁soph	-4527
father	-4528
lement	-4529
▁occas	-4530
▁pleas	-4531
▁pregn	-4532
▁prime	-4533
▁scene	-4534
▁shoes	-4535
▁cortex	-4536
▁gentle	-4537
▁YouTube	-4538
▁acceler	-4539
▁arrived	-4540
▁attacks	-4541
▁conduct	-4542
▁experts	-4543
▁however	-4544
▁mothers	-4545
▁replace	-4546
▁savings	-4547
▁exchange	-4548
▁resource	-4549
▁President	-4550
▁influence	-4551
▁processes	-4552
▁wondering	-4553
eng	-4554
▁Mo	-4555
bble	-4556
load	-4557
obel	-4558
▁150	-4559
▁Des	-4560
▁Res	-4561
▁bul	-4562
▁mur	-4563
enced	-4564
▁busy	-4565
▁flat	-4566
▁poem	-4567
▁sees	-4568
▁stem	-4569
▁stim	-4570
▁unit	-4571
▁wire	-4572
erties	-4573
pected	-4574
▁Again	-4575
▁Higgs	-4576
▁Nobel	-4577
▁heavy	-4578
▁acting	-4579
▁advice	-4580
▁explan	-4581
▁filled	-4582
▁flying	-4583
▁hypoth	-4584
▁immune	-4585
▁severe	-4586
▁toward	-4587
▁videos	-4588
▁Harvard	-4589
▁artific	-4590
▁depends	-4591
▁normally	-4592
▁thoughts	-4593
▁economics	-4594
▁organized	-4595
▁passwords	-4596
▁perfectly	-4597
▁satellite	-4598
▁mechanical	-4599
▁tremendous	-4600
▁effectively	-4601
▁interaction	-4602
▁surveillance	-4603
▁transformation	-4604
ami	-4605
ria	-4606
▁1,	-4607
▁CO	-4608
▁eg	-4609
avig	-4610
bage	-4611
cipl	-4612
iers	-4613
▁Bar	-4614
▁Jew	-4615
▁cow	-4616
▁dry	-4617
▁mel	-4618
lling	-4619
▁2009	-4620
▁Bang	-4621
▁Rich	-4622
▁kick	-4623
▁lung	-4624
▁recy	-4625
▁roof	-4626
▁court	-4627
▁false	-4628
▁perce	-4629
▁academ	-4630
▁analog	-4631
▁announ	-4632
▁dollar	-4633
▁incent	-4634
▁leader	-4635
▁scared	-4636
▁script	-4637
▁Britain	-4638
▁engaged	-4639
▁vehicle	-4640
▁weapons	-4641
▁allowing	-4642
▁ordinary	-4643
▁policies	-4644
▁prepared	-4645
▁property	-4646
▁traveling	-4647
▁importance	-4648
▁properties	-4649
▁fundamentally	-4650
rus	-4651
cast	-4652
ique	-4653
rove	-4654
ulpt	-4655
▁Cam	-4656
▁bud	-4657
▁eld	-4658
▁org	-4659
▁ves	-4660
etime	-4661
panze	-4662
▁Ange	-4663
▁Last	-4664
▁bath	-4665
▁hide	-4666
▁purs	-4667
▁unex	-4668
icious	-4669
ushing	-4670
▁Kenya	-4671
▁circu	-4672
▁coral	-4673
▁empty	-4674
▁grate	-4675
▁plane	-4676
▁renew	-4677
▁roads	-4678
▁serve	-4679
▁signs	-4680
▁users	-4681
▁flight	-4682
▁forgot	-4683
▁sculpt	-4684
▁killing	-4685
▁selling	-4686
▁signals	-4687
▁absolute	-4688
▁generate	-4689
▁instruct	-4690
▁marriage	-4691
▁sequence	-4692
▁symptoms	-4693
▁carefully	-4694
▁hospitals	-4695
▁infection	-4696
▁mathematic	-4697
▁profession	-4698
▁manufacturing	-4699
▁possibilities	-4700
de	-4701
la	-4702
uh	-4703
bel	-4704
urb	-4705
▁35	-4706
bors	-4707
ogue	-4708
rors	-4709
ruck	-4710
semb	-4711
▁Dar	-4712
▁lat	-4713
▁ten	-4714
▁und	-4715
itors	-4716
place	-4717
▁libr	-4718
▁scen	-4719
▁silk	-4720
▁tour	-4721
▁Could	-4722
▁Latin	-4723
▁chick	-4724
▁ignor	-4725
▁prost	-4726
▁Mexico	-4727
▁joined	-4728
▁sample	-4729
ogenesis	-4730
▁awesome	-4731
▁equival	-4732
▁invited	-4733
▁variety	-4734
▁violent	-4735
▁argument	-4736
▁circumst	-4737
▁election	-4738
▁metaphor	-4739
▁proteins	-4740
▁continent	-4741
▁creatures	-4742
▁employees	-4743
▁mentioned	-4744
▁universal	-4745
▁considered	-4746
▁relatively	-4747
▁institution	-4748
oo	-4749
alt	-4750
whel	-4751
▁jum	-4752
▁wel	-4753
vable	-4754
▁gift	-4755
▁lect	-4756
▁puts	-4757
ipping	-4758
▁Green	-4759
▁crime	-4760
▁manip	-4761
▁songs	-4762
▁spoke	-4763
▁batter	-4764
▁galaxy	-4765
▁garden	-4766
▁houses	-4767
▁picked	-4768
▁100,000	-4769
▁empathy	-4770
▁restaur	-4771
▁location	-4772
▁requires	-4773
▁chimpanze	-4774
▁convinced	-4775
▁emissions	-4776
▁neighbors	-4777
▁sophistic	-4778
▁uncertain	-4779
▁collection	-4780
▁conference	-4781
▁agriculture	-4782
▁alternative	-4783
▁challenging	-4784
▁competition	-4785
wr	-4786
ato	-4787
wood	-4788
▁Pat	-4789
▁esc	-4790
▁spl	-4791
▁van	-4792
▁vot	-4793
etics	-4794
ipped	-4795
▁Also	-4796
▁King	-4797
▁bird	-4798
▁lawy	-4799
▁prec	-4800
▁qual	-4801
▁seat	-4802
▁shut	-4803
encies	-4804
ensive	-4805
▁Apple	-4806
▁Since	-4807
▁anger	-4808
▁fresh	-4809
▁skill	-4810
▁talks	-4811
▁trend	-4812
onymous	-4813
▁France	-4814
▁assign	-4815
▁border	-4816
▁circle	-4817
▁driven	-4818
▁exists	-4819
▁formed	-4820
▁halluc	-4821
▁island	-4822
▁storyt	-4823
▁thinks	-4824
entional	-4825
fficient	-4826
▁England	-4827
▁dynamic	-4828
▁roughly	-4829
▁sending	-4830
▁sources	-4831
▁constant	-4832
▁contrast	-4833
▁criminal	-4834
▁grateful	-4835
▁relevant	-4836
▁strategy	-4837
▁Australia	-4838
▁according	-4839
▁advantage	-4840
▁cognitive	-4841
▁disorders	-4842
▁increased	-4843
▁antibiotics	-4844
▁destruction	-4845
▁participate	-4846
IT	-4847
hi	-4848
ann	-4849
▁75	-4850
▁BG	-4851
▁Sm	-4852
gets	-4853
life	-4854
▁Yet	-4855
▁anx	-4856
▁den	-4857
▁mer	-4858
▁nor	-4859
erved	-4860
inate	-4861
lying	-4862
owers	-4863
worth	-4864
▁Thom	-4865
▁biom	-4866
▁blog	-4867
▁disc	-4868
▁pure	-4869
▁ride	-4870
▁Islam	-4871
▁faced	-4872
▁navig	-4873
▁rooms	-4874
▁stock	-4875
▁uncom	-4876
▁waves	-4877
▁attach	-4878
▁member	-4879
▁mirror	-4880
▁pulled	-4881
▁retire	-4882
▁tested	-4883
▁vessel	-4884
▁factory	-4885
▁illegal	-4886
▁lessons	-4887
▁opening	-4888
▁mistakes	-4889
▁overwhel	-4890
▁recorded	-4891
▁algorithm	-4892
▁determine	-4893
▁explained	-4894
▁technical	-4895
▁capitalism	-4896
▁meaningful	-4897
▁perception	-4898
▁processing	-4899
add	-4900
spe	-4901
▁2.	-4902
▁27	-4903
▁El	-4904
▁Day	-4905
▁Tal	-4906
▁fib	-4907
▁rub	-4908
▁thr	-4909
crete	-4910
cript	-4911
erves	-4912
icing	-4913
iques	-4914
orest	-4915
▁2010	-4916
▁army	-4917
▁cave	-4918
▁intu	-4919
▁liqu	-4920
▁vent	-4921
iosity	-4922
▁angry	-4923
▁brief	-4924
▁broke	-4925
▁cycle	-4926
▁fewer	-4927
▁bubble	-4928
▁notion	-4929
▁regard	-4930
▁remain	-4931
▁sector	-4932
▁Perhaps	-4933
▁Richard	-4934
▁accompl	-4935
▁consist	-4936
▁organic	-4937
▁rapidly	-4938
▁visible	-4939
▁domestic	-4940
▁interpre	-4941
▁planning	-4942
▁professor	-4943
▁techniques	-4944
▁grandfather	-4945
DP	-4946
ha	-4947
▁99	-4948
▁Qu	-4949
oded	-4950
▁Sat	-4951
▁pal	-4952
▁rat	-4953
▁tow	-4954
▁Does	-4955
▁enem	-4956
▁flex	-4957
▁nurs	-4958
▁airpl	-4959
▁grade	-4960
▁infin	-4961
▁keeps	-4962
▁moves	-4963
eration	-4964
▁advent	-4965
▁former	-4966
▁inevit	-4967
▁cartoon	-4968
▁extract	-4969
▁methods	-4970
▁memories	-4971
▁concerned	-4972
▁insurance	-4973
▁newspaper	-4974
▁artificial	-4975
▁equivalent	-4976
▁expression	-4977
▁innovative	-4978
▁literature	-4979
▁construction	-4980
fl	-4981
ov	-4982
▁x	-4983
cip	-4984
den	-4985
▁NA	-4986
rary	-4987
ught	-4988
▁Atl	-4989
▁Gen	-4990
▁Los	-4991
▁cup	-4992
▁fed	-4993
▁ped	-4994
▁vib	-4995
ropri	-4996
▁Talk	-4997
▁bran	-4998
▁clus	-4999
▁ring	-5000
▁wake	-5001
ension	-5002
stream	-5003
▁curve	-5004
▁honor	-5005
▁quote	-5006
▁shark	-5007
▁topic	-5008
▁assume	-5009
▁deeper	-5010
▁pollut	-5011
▁January	-5012
▁cutting	-5013
▁mistake	-5014
▁prototy	-5015
▁regions	-5016
▁unknown	-5017
▁Anderson	-5018
▁Everyone	-5019
▁disorder	-5020
▁vaccines	-5021
▁functions	-5022
▁ignorance	-5023
▁strangers	-5024
▁Everything	-5025
▁healthcare	-5026
▁consumption	-5027
▁exploration	-5028
▁applications	-5029
▁entrepreneurs	-5030
alu	-5031
sem	-5032
vas	-5033
▁rh	-5034
iate	-5035
iday	-5036
uses	-5037
▁Art	-5038
▁Jer	-5039
▁gri	-5040
▁nur	-5041
acing	-5042
▁Come	-5043
▁boat	-5044
▁debt	-5045
▁hurt	-5046
▁outc	-5047
▁snow	-5048
▁wave	-5049
▁zone	-5050
osition	-5051
ruption	-5052
▁Before	-5053
▁clinic	-5054
▁length	-5055
▁losing	-5056
▁muscle	-5057
▁worlds	-5058
igration	-5059
▁contain	-5060
▁internal	-5061
▁stronger	-5062
▁Francisco	-5063
▁awareness	-5064
▁telescope	-5065
▁laboratory	-5066
▁independent	-5067
▁populations	-5068
▁sophisticated	-5069
▁transportation	-5070
gr	-5071
ago	-5072
ams	-5073
ela	-5074
ked	-5075
pid	-5076
ths	-5077
▁45	-5078
▁Ap	-5079
asks	-5080
hips	-5081
irty	-5082
olic	-5083
▁bee	-5084
inson	-5085
▁2000	-5086
▁Stre	-5087
▁bicy	-5088
▁decl	-5089
▁gain	-5090
▁pray	-5091
ellect	-5092
olving	-5093
▁Women	-5094
▁abuse	-5095
▁admit	-5096
▁advoc	-5097
▁chose	-5098
▁folks	-5099
▁grain	-5100
▁knock	-5101
▁lying	-5102
▁uncle	-5103
▁Muslim	-5104
▁clever	-5105
▁neuron	-5106
▁papers	-5107
▁prefer	-5108
▁volume	-5109
▁weapon	-5110
American	-5111
▁concent	-5112
▁element	-5113
▁include	-5114
▁primary	-5115
▁remains	-5116
▁samples	-5117
▁scratch	-5118
▁accurate	-5119
▁consumer	-5120
▁existing	-5121
▁features	-5122
▁lifetime	-5123
▁magazine	-5124
▁ancestors	-5125
▁documents	-5126
▁encourage	-5127
▁interests	-5128
▁naturally	-5129
▁practical	-5130
▁responses	-5131
▁efficiency	-5132
▁electrical	-5133
30	-5134
ih	-5135
vis	-5136
down	-5137
gust	-5138
▁194	-5139
▁GDP	-5140
▁voc	-5141
▁Mary	-5142
▁Paul	-5143
▁Sept	-5144
▁acqu	-5145
▁bill	-5146
▁cere	-5147
▁hadn	-5148
▁loop	-5149
▁ours	-5150
▁peak	-5151
▁seek	-5152
▁tack	-5153
▁tall	-5154
ensity	-5155
▁Other	-5156
▁Times	-5157
▁barri	-5158
▁cards	-5159
▁chart	-5160
▁label	-5161
▁occup	-5162
▁solid	-5163
▁Palest	-5164
▁define	-5165
▁hoping	-5166
▁liquid	-5167
▁struck	-5168
▁versus	-5169
▁afterno	-5170
▁cheaper	-5171
▁dropped	-5172
▁reached	-5173
▁suicide	-5174
▁wheelch	-5175
▁engaging	-5176
▁whenever	-5177
▁hopefully	-5178
▁implement	-5179
▁intellect	-5180
▁mortality	-5181
▁practices	-5182
▁providing	-5183
▁terrorism	-5184
▁physically	-5185
▁distribution	-5186
▁neighborhoods	-5187
20	-5188
GO	-5189
me	-5190
aud	-5191
▁Fe	-5192
▁Ma	-5193
▁zo	-5194
apse	-5195
ctic	-5196
rade	-5197
▁Air	-5198
▁CEO	-5199
▁Fre	-5200
▁MIT	-5201
▁Ple	-5202
▁Rep	-5203
▁bes	-5204
▁fro	-5205
arity	-5206
iters	-5207
oding	-5208
scale	-5209
▁2011	-5210
▁Good	-5211
▁Life	-5212
▁ages	-5213
▁beet	-5214
▁diab	-5215
▁gall	-5216
▁gray	-5217
▁hung	-5218
▁plus	-5219
▁root	-5220
▁wash	-5221
▁2,000	-5222
▁beach	-5223
▁brown	-5224
▁equip	-5225
▁grass	-5226
▁grows	-5227
▁guide	-5228
▁horse	-5229
▁input	-5230
▁kitch	-5231
▁metal	-5232
▁recom	-5233
▁reven	-5234
▁south	-5235
▁stret	-5236
section	-5237
▁Health	-5238
▁Thomas	-5239
▁conver	-5240
▁desper	-5241
▁fourth	-5242
▁movies	-5243
▁organs	-5244
▁toilet	-5245
aneously	-5246
▁applied	-5247
▁centers	-5248
▁gravity	-5249
▁options	-5250
▁wanting	-5251
▁disaster	-5252
▁exercise	-5253
▁outcomes	-5254
▁required	-5255
▁September	-5256
▁customers	-5257
▁emergency	-5258
▁marketing	-5259
▁organisms	-5260
▁inequality	-5261
▁microscope	-5262
ald	-5263
fit	-5264
pet	-5265
▁PM	-5266
aded	-5267
aurs	-5268
ocol	-5269
tion	-5270
▁Bas	-5271
▁Haw	-5272
▁aim	-5273
ament	-5274
bally	-5275
▁abst	-5276
▁maps	-5277
▁sets	-5278
inated	-5279
lessly	-5280
▁alien	-5281
▁fuels	-5282
▁lunch	-5283
▁staff	-5284
▁finish	-5285
▁inject	-5286
▁Angeles	-5287
▁encoura	-5288
▁viruses	-5289
▁younger	-5290
▁cultures	-5291
▁imagined	-5292
▁particle	-5293
▁tracking	-5294
▁centuries	-5295
▁copyright	-5296
▁movements	-5297
▁operation	-5298
▁radiation	-5299
▁management	-5300
▁personally	-5301
PR	-5302
ala	-5303
amb	-5304
cel	-5305
ils	-5306
van	-5307
vey	-5308
zed	-5309
▁Gh	-5310
agen	-5311
resp	-5312
▁Spe	-5313
▁Val	-5314
▁lic	-5315
▁tag	-5316
copes	-5317
eding	-5318
esity	-5319
▁2007	-5320
▁anat	-5321
▁hang	-5322
isters	-5323
▁Prize	-5324
▁While	-5325
▁awful	-5326
▁error	-5327
▁pitch	-5328
ogether	-5329
▁Indian	-5330
▁Number	-5331
▁Street	-5332
▁advert	-5333
▁agreed	-5334
▁height	-5335
▁ingred	-5336
▁phrase	-5337
▁recycl	-5338
▁reject	-5339
▁replic	-5340
▁writer	-5341
▁defined	-5342
▁efforts	-5343
▁embrace	-5344
▁mystery	-5345
▁opinion	-5346
▁poorest	-5347
▁removed	-5348
▁director	-5349
▁spectrum	-5350
▁afternoon	-5351
▁introduce	-5352
▁mechanism	-5353
▁surrounded	-5354
▁explanation	-5355
gic	-5356
iff	-5357
oot	-5358
▁Bu	-5359
▁II	-5360
aker	-5361
berg	-5362
cont	-5363
eras	-5364
olar	-5365
▁Dis	-5366
▁asp	-5367
▁fis	-5368
▁rit	-5369
oster	-5370
ublic	-5371
▁Only	-5372
▁Stan	-5373
▁arts	-5374
▁ears	-5375
▁fert	-5376
▁rent	-5377
▁inher	-5378
▁minor	-5379
▁reput	-5380
▁resil	-5381
▁scary	-5382
inction	-5383
▁narrow	-5384
▁patent	-5385
▁remove	-5386
▁stupid	-5387
▁drawing	-5388
▁emotion	-5389
▁figures	-5390
▁leather	-5391
▁reconst	-5392
▁elephant	-5393
▁graduate	-5394
▁illusion	-5395
▁Institute	-5396
▁collected	-5397
▁designing	-5398
▁equipment	-5399
▁generally	-5400
▁commitment	-5401
▁situations	-5402
▁educational	-5403
▁intelligent	-5404
▁personality	-5405
▁productivity	-5406
RIS	-5407
ino	-5408
case	-5409
iled	-5410
plom	-5411
roll	-5412
▁cha	-5413
▁gla	-5414
▁sen	-5415
▁sne	-5416
▁wid	-5417
cknow	-5418
organ	-5419
▁fake	-5420
▁prem	-5421
athers	-5422
friend	-5423
terday	-5424
▁About	-5425
▁Found	-5426
▁atoms	-5427
▁cloth	-5428
▁explo	-5429
▁negot	-5430
▁ridic	-5431
▁rocks	-5432
▁Darwin	-5433
▁George	-5434
▁arrest	-5435
▁candid	-5436
▁extent	-5437
▁murder	-5438
▁repeat	-5439
▁closely	-5440
▁display	-5441
▁equally	-5442
▁falling	-5443
▁kitchen	-5444
▁obesity	-5445
▁offered	-5446
▁reverse	-5447
▁theater	-5448
▁accepted	-5449
▁astronom	-5450
▁designer	-5451
▁dialogue	-5452
▁organize	-5453
▁printing	-5454
▁Everybody	-5455
▁delivered	-5456
▁dinosaurs	-5457
▁definitely	-5458
▁introduced	-5459
▁represents	-5460
▁wheelchair	-5461
▁inspiration	-5462
▁entrepreneur	-5463
▁circumstances	-5464
equ	-5465
gly	-5466
hes	-5467
oft	-5468
ums	-5469
ched	-5470
edic	-5471
gent	-5472
oice	-5473
oked	-5474
▁Glo	-5475
abled	-5476
agram	-5477
entic	-5478
▁Bank	-5479
▁High	-5480
▁cast	-5481
▁thin	-5482
apping	-5483
▁Antar	-5484
▁State	-5485
▁apple	-5486
▁boxes	-5487
▁crops	-5488
▁horiz	-5489
▁ideal	-5490
▁minim	-5491
▁weigh	-5492
▁barely	-5493
▁button	-5494
▁compar	-5495
▁devast	-5496
▁handle	-5497
▁neural	-5498
▁signed	-5499
▁solved	-5500
▁status	-5501
▁surviv	-5502
chnology	-5503
▁Finally	-5504
▁burning	-5505
▁carried	-5506
▁comment	-5507
▁covered	-5508
▁funding	-5509
▁painful	-5510
▁quarter	-5511
▁drinking	-5512
▁hydrogen	-5513
▁psychiat	-5514
▁traveled	-5515
▁curiosity	-5516
▁identical	-5517
▁accessible	-5518
▁disability	-5519
▁underwater	-5520
▁unexpected	-5521
▁technological	-5522
ita	-5523
xim	-5524
▁Ah	-5525
▁Cy	-5526
anes	-5527
▁Mic	-5528
▁Sch	-5529
being	-5530
ograp	-5531
rency	-5532
▁Arch	-5533
▁blow	-5534
▁chip	-5535
▁cosm	-5536
▁fool	-5537
▁gras	-5538
▁lady	-5539
▁obst	-5540
▁pair	-5541
asters	-5542
called	-5543
▁aside	-5544
▁goals	-5545
▁grant	-5546
▁spark	-5547
▁tasks	-5548
century	-5549
imately	-5550
iveness	-5551
ulating	-5552
vention	-5553
▁Indeed	-5554
▁Please	-5555
▁acknow	-5556
▁limits	-5557
▁puzzle	-5558
▁silent	-5559
▁traged	-5560
▁victim	-5561
▁winter	-5562
▁Muslims	-5563
▁Nigeria	-5564
▁citizen	-5565
▁reprodu	-5566
▁windows	-5567
▁birthday	-5568
▁concrete	-5569
▁distinct	-5570
▁maintain	-5571
▁swimming	-5572
▁confident	-5573
▁generated	-5574
▁spiritual	-5575
▁spreading	-5576
▁activities	-5577
▁transplant	-5578
▁application	-5579
▁recognition	-5580
▁dramatically	-5581
▁experiencing	-5582
500	-5583
ali	-5584
mun	-5585
rig	-5586
▁23	-5587
▁tu	-5588
icks	-5589
ingu	-5590
ocin	-5591
oken	-5592
oons	-5593
▁Pak	-5594
▁Tur	-5595
▁beg	-5596
▁bow	-5597
▁gay	-5598
▁iPh	-5599
▁mak	-5600
▁odd	-5601
▁sed	-5602
cence	-5603
iform	-5604
night	-5605
ushed	-5606
▁1980	-5607
▁NASA	-5608
▁Next	-5609
▁Very	-5610
▁band	-5611
▁mere	-5612
▁pill	-5613
▁rice	-5614
arrass	-5615
▁3,000	-5616
▁James	-5617
▁Union	-5618
▁dense	-5619
▁judge	-5620
▁lifes	-5621
▁marry	-5622
▁pharm	-5623
▁punch	-5624
▁score	-5625
▁shall	-5626
▁smile	-5627
▁steel	-5628
▁Museum	-5629
▁medium	-5630
▁recomm	-5631
▁spider	-5632
▁voting	-5633
▁amongst	-5634
▁aspects	-5635
▁combine	-5636
▁crucial	-5637
▁discipl	-5638
▁feature	-5639
▁herself	-5640
▁instant	-5641
▁largely	-5642
▁nations	-5643
▁operate	-5644
▁tonight	-5645
▁warming	-5646
▁Audience	-5647
▁appropri	-5648
▁carrying	-5649
▁convince	-5650
▁floating	-5651
▁suggests	-5652
▁wondered	-5653
▁apartment	-5654
▁colleague	-5655
▁depending	-5656
▁diagnosed	-5657
▁embarrass	-5658
▁productive	-5659
▁prosperity	-5660
▁humanitarian	-5661
▁neurogenesis	-5662
-1	-5663
aa	-5664
bur	-5665
mas	-5666
rol	-5667
fish	-5668
icit	-5669
oman	-5670
opia	-5671
rant	-5672
▁Sil	-5673
▁raw	-5674
▁twe	-5675
▁unp	-5676
RISPR	-5677
iders	-5678
orter	-5679
pring	-5680
rover	-5681
tocin	-5682
▁1970	-5683
▁Kore	-5684
▁Move	-5685
▁atom	-5686
▁blah	-5687
▁pool	-5688
▁scar	-5689
▁stro	-5690
▁trig	-5691
crimin	-5692
ternal	-5693
▁Space	-5694
▁chair	-5695
▁crack	-5696
▁dozen	-5697
▁drove	-5698
▁hyper	-5699
▁legis	-5700
▁memor	-5701
▁presc	-5702
▁stone	-5703
▁sweet	-5704
▁Arabic	-5705
▁CRISPR	-5706
▁Center	-5707
▁adoles	-5708
▁flower	-5709
▁genius	-5710
▁placed	-5711
▁cameras	-5712
▁careful	-5713
▁disgust	-5714
▁neither	-5715
▁nowhere	-5716
▁parking	-5717
▁Pakistan	-5718
▁abstract	-5719
▁apparent	-5720
▁dramatic	-5721
▁engineer	-5722
▁measured	-5723
▁provided	-5724
▁returned	-5725
▁stranger	-5726
▁footprint	-5727
▁paintings	-5728
▁producing	-5729
▁democratic	-5730
▁electronic	-5731
▁reputation	-5732
▁combination	-5733
▁distributed	-5734
▁implications	-5735
bl	-5736
ij	-5737
▁Gl	-5738
aint	-5739
cert	-5740
itan	-5741
▁Mil	-5742
▁dot	-5743
iance	-5744
icted	-5745
oston	-5746
stand	-5747
using	-5748
▁1950	-5749
▁2012	-5750
▁Alex	-5751
▁Cons	-5752
▁June	-5753
▁Mand	-5754
▁Mart	-5755
▁chap	-5756
▁dign	-5757
▁joke	-5758
▁leap	-5759
▁rely	-5760
ession	-5761
▁Black	-5762
▁cents	-5763
▁dress	-5764
▁elder	-5765
▁evalu	-5766
▁ought	-5767
▁sugar	-5768
▁units	-5769
▁walks	-5770
▁youth	-5771
▁Global	-5772
▁bottle	-5773
▁ensure	-5774
▁extend	-5775
▁hungry	-5776
▁perman	-5777
▁rarely	-5778
▁stayed	-5779
▁trials	-5780
▁Project	-5781
▁amounts	-5782
▁article	-5783
▁cooking	-5784
▁divided	-5785
▁evening	-5786
▁fingers	-5787
▁outcome	-5788
▁receive	-5789
▁refugee	-5790
▁speaker	-5791
▁vessels	-5792
▁Stanford	-5793
▁diagnost	-5794
▁pleasure	-5795
▁pregnant	-5796
▁subjects	-5797
▁interface	-5798
▁precisely	-5799
▁searching	-5800
▁teenagers	-5801
▁yesterday	-5802
▁discussion	-5803
▁recognized	-5804
▁restaurant	-5805
ads	-5806
ael	-5807
bed	-5808
car	-5809
aser	-5810
cend	-5811
cred	-5812
ione	-5813
olly	-5814
ouds	-5815
▁250	-5816
▁Acc	-5817
▁Aug	-5818
▁Ber	-5819
▁Gab	-5820
▁Sou	-5821
▁Unt	-5822
▁Wow	-5823
▁adj	-5824
aving	-5825
iment	-5826
leton	-5827
▁acts	-5828
▁bind	-5829
▁hits	-5830
▁mail	-5831
▁nutr	-5832
▁tank	-5833
▁bones	-5834
▁notes	-5835
▁purch	-5836
▁satis	-5837
▁tests	-5838
▁thick	-5839
unction	-5840
▁Boston	-5841
▁contem	-5842
▁crying	-5843
▁diplom	-5844
▁divide	-5845
▁elimin	-5846
▁enable	-5847
▁escape	-5848
▁explos	-5849
▁fabric	-5850
▁fought	-5851
▁injust	-5852
▁owners	-5853
▁player	-5854
▁proced	-5855
▁spring	-5856
▁stands	-5857
▁tempor	-5858
▁harvest	-5859
▁install	-5860
▁library	-5861
▁overall	-5862
▁horrible	-5863
▁laughter	-5864
▁oxytocin	-5865
▁vehicles	-5866
▁authentic	-5867
▁committed	-5868
▁elections	-5869
▁framework	-5870
▁technique	-5871
▁additional	-5872
▁appreciate	-5873
▁confidence	-5874
▁collaboration	-5875
aj	-5876
aws	-5877
hop	-5878
imp	-5879
ras	-5880
elly	-5881
etes	-5882
irds	-5883
oned	-5884
over	-5885
pled	-5886
pped	-5887
viol	-5888
▁Bro	-5889
▁Ros	-5890
ingly	-5891
oxide	-5892
▁Fort	-5893
▁Step	-5894
▁dogs	-5895
▁frag	-5896
▁ugly	-5897
▁decre	-5898
▁finds	-5899
▁flies	-5900
▁frank	-5901
▁fruit	-5902
▁paral	-5903
▁pione	-5904
▁toler	-5905
itution	-5906
▁August	-5907
▁Sweden	-5908
▁breast	-5909
▁drives	-5910
▁heroes	-5911
▁rising	-5912
▁scenar	-5913
▁sports	-5914
▁surely	-5915
▁whales	-5916
▁Science	-5917
▁classes	-5918
▁conclud	-5919
▁dignity	-5920
▁enforce	-5921
▁officer	-5922
▁promote	-5923
▁secrets	-5924
▁tragedy	-5925
▁Remember	-5926
▁airplane	-5927
▁breaking	-5928
▁creature	-5929
▁reported	-5930
ologically	-5931
▁destroyed	-5932
▁encounter	-5933
▁entertain	-5934
▁increases	-5935
▁interpret	-5936
▁objective	-5937
▁pollution	-5938
▁Foundation	-5939
▁affordable	-5940
▁components	-5941
▁contribute	-5942
▁controlled	-5943
▁journalist	-5944
▁satellites	-5945
▁agricultural	-5946
▁intellectual	-5947
▁International	-5948
ek	-5949
cers	-5950
lete	-5951
▁Bob	-5952
▁Bon	-5953
▁bat	-5954
▁orb	-5955
acles	-5956
agger	-5957
icago	-5958
▁Part	-5959
▁Pole	-5960
▁Sing	-5961
▁boss	-5962
▁dust	-5963
▁lapt	-5964
▁plot	-5965
▁pour	-5966
▁sque	-5967
▁vari	-5968
inking	-5969
▁Gates	-5970
▁arrow	-5971
▁doors	-5972
▁globe	-5973
▁logic	-5974
▁plate	-5975
▁prize	-5976
▁recru	-5977
▁therm	-5978
▁veget	-5979
anthrop	-5980
rations	-5981
ressive	-5982
▁Robert	-5983
▁Russia	-5984
▁corals	-5985
▁factor	-5986
▁ignore	-5987
▁margin	-5988
▁pocket	-5989
▁senses	-5990
▁subtle	-5991
▁trends	-5992
▁Chicago	-5993
▁causing	-5994
▁chances	-5995
▁channel	-5996
▁dancing	-5997
▁default	-5998
▁inspire	-5999
▁lecture	-6000
▁mindset	-6001
▁records	-6002
▁section	-6003
connected	-6004
▁Children	-6005
▁Southern	-6006
▁confused	-6007
▁globally	-6008
▁presence	-6009
▁treating	-6010
▁wherever	-6011
▁Something	-6012
▁celebrate	-6013
▁mosquitos	-6014
▁mountains	-6015
▁protected	-6016
▁statement	-6017
▁terrorist	-6018
▁historical	-6019
▁suggesting	-6020
▁treatments	-6021
▁achievement	-6022
▁journalists	-6023
▁instructions	-6024
▁psychological	-6025
ka	-6026
ta	-6027
ait	-6028
nam	-6029
anta	-6030
appy	-6031
aust	-6032
fast	-6033
hear	-6034
iped	-6035
mers	-6036
rill	-6037
▁Dan	-6038
▁Pet	-6039
▁Tor	-6040
▁Web	-6041
▁lux	-6042
▁pil	-6043
belie	-6044
level	-6045
opard	-6046
point	-6047
▁Give	-6048
▁desk	-6049
▁firm	-6050
▁mile	-6051
▁orch	-6052
▁runs	-6053
▁wars	-6054
ansion	-6055
imeter	-6056
▁Ghana	-6057
▁Steve	-6058
▁Syria	-6059
▁Willi	-6060
▁disag	-6061
▁glaci	-6062
▁march	-6063
▁smoke	-6064
▁yours	-6065
respond	-6066
▁Friday	-6067
▁adding	-6068
▁borrow	-6069
▁comedy	-6070
▁embedd	-6071
▁finger	-6072
▁hunger	-6073
▁output	-6074
▁pushed	-6075
▁reform	-6076
▁served	-6077
▁shadow	-6078
▁Charles	-6079
▁affects	-6080
▁anxiety	-6081
▁balloon	-6082
▁borders	-6083
▁chicken	-6084
▁comfort	-6085
▁delight	-6086
▁distant	-6087
▁exposed	-6088
▁imaging	-6089
▁singing	-6090
▁surgeon	-6091
▁tissues	-6092
▁equation	-6093
▁diagnosis	-6094
▁measuring	-6095
▁precision	-6096
▁privilege	-6097
▁sentences	-6098
▁standards	-6099
▁collecting	-6100
▁incentives	-6101
▁inevitable	-6102
▁philanthrop	-6103
▁transformed	-6104
▁conservation	-6105
▁evolutionary	-6106
▁interactions	-6107
▁uncomfortable	-6108
▁sustainability	-6109
ec	-6110
ari	-6111
hol	-6112
itz	-6113
mar	-6114
ule	-6115
▁65	-6116
▁id	-6117
abil	-6118
aren	-6119
icip	-6120
olph	-6121
rich	-6122
thes	-6123
umes	-6124
uous	-6125
zens	-6126
▁Eas	-6127
▁Eth	-6128
▁Lib	-6129
▁Mom	-6130
▁Pol	-6131
▁pin	-6132
▁sem	-6133
iated	-6134
lines	-6135
mates	-6136
▁Moon	-6137
▁Wall	-6138
▁club	-6139
▁crop	-6140
▁diam	-6141
▁diss	-6142
▁nose	-6143
▁peer	-6144
▁tied	-6145
▁unus	-6146
▁vert	-6147
mingly	-6148
▁Human	-6149
▁aband	-6150
▁absor	-6151
▁abund	-6152
▁altru	-6153
▁badly	-6154
▁balls	-6155
▁banks	-6156
▁brows	-6157
▁champ	-6158
▁drill	-6159
▁fears	-6160
▁imper	-6161
▁plans	-6162
▁shoot	-6163
▁shout	-6164
▁storm	-6165
▁yield	-6166
through	-6167
▁assemb	-6168
▁budget	-6169
▁buying	-6170
▁church	-6171
▁dozens	-6172
▁fright	-6173
▁monkey	-6174
▁recept	-6175
▁season	-6176
▁thanks	-6177
etically	-6178
▁classic	-6179
▁decline	-6180
▁diverse	-6181
▁existed	-6182
▁feeding	-6183
▁intense	-6184
▁pushing	-6185
▁routine	-6186
▁whereas	-6187
▁concepts	-6188
▁currency	-6189
▁diabetes	-6190
▁instinct	-6191
▁invested	-6192
▁obsessed	-6193
▁properly	-6194
▁recovery	-6195
▁reminded	-6196
▁conflicts	-6197
▁invention	-6198
▁variation	-6199
▁conclusion	-6200
▁correspond	-6201
▁instrument	-6202
▁mechanisms	-6203
▁rainforest	-6204
▁interacting	-6205
▁corporations	-6206
irs	-6207
ocr	-6208
plo	-6209
xic	-6210
▁Bo	-6211
▁Es	-6212
ache	-6213
bola	-6214
▁Get	-6215
▁NGO	-6216
▁Put	-6217
▁arr	-6218
▁mad	-6219
▁pip	-6220
alian	-6221
inter	-6222
izoph	-6223
unate	-6224
▁Four	-6225
▁clip	-6226
▁dung	-6227
▁evil	-6228
▁flag	-6229
▁icon	-6230
▁ment	-6231
acular	-6232
phones	-6233
▁Inter	-6234
▁chron	-6235
▁datab	-6236
▁dedic	-6237
▁encry	-6238
▁holds	-6239
▁persu	-6240
igrants	-6241
▁appeal	-6242
▁critic	-6243
▁entrop	-6244
▁fertil	-6245
▁hearts	-6246
▁layers	-6247
▁prices	-6248
▁profit	-6249
▁relate	-6250
▁worker	-6251
▁bicycle	-6252
▁blockch	-6253
▁essence	-6254
▁extinct	-6255
▁fiction	-6256
▁fluores	-6257
▁frankly	-6258
▁liberal	-6259
▁rebuild	-6260
▁academic	-6261
▁produces	-6262
▁Parkinson	-6263
▁injustice	-6264
▁physician	-6265
▁interactive	-6266
▁conventional	-6267
ua	-6268
ctu	-6269
dri	-6270
han	-6271
nda	-6272
uff	-6273
apor	-6274
aret	-6275
keys	-6276
olds	-6277
▁Cur	-6278
▁Law	-6279
▁Mod	-6280
▁enh	-6281
ading	-6282
arant	-6283
earch	-6284
power	-6285
pping	-6286
riger	-6287
under	-6288
▁dict	-6289
▁poly	-6290
ealous	-6291
▁Ebola	-6292
▁Haiti	-6293
▁bless	-6294
▁chest	-6295
▁hotel	-6296
▁liked	-6297
▁mixed	-6298
▁seeds	-6299
▁Arctic	-6300
▁Mother	-6301
▁catast	-6302
▁evolve	-6303
▁iPhone	-6304
▁mainly	-6305
▁portra	-6306
▁spinal	-6307
▁trauma	-6308
children	-6309
volution	-6310
▁assault	-6311
▁beliefs	-6312
▁conserv	-6313
▁drivers	-6314
▁elderly	-6315
▁entropy	-6316
▁flowers	-6317
▁helpful	-6318
▁initial	-6319
▁musical	-6320
▁opposed	-6321
▁parties	-6322
▁prepare	-6323
▁smarter	-6324
▁teenage	-6325
▁unbelie	-6326
▁vaccine	-6327
▁bathroom	-6328
▁combined	-6329
▁embedded	-6330
▁infinite	-6331
▁schizoph	-6332
▁shoulder	-6333
▁transact	-6334
▁authority	-6335
▁breakfast	-6336
▁chemicals	-6337
▁computing	-6338
▁constrain	-6339
▁consumers	-6340
▁continued	-6341
▁exploring	-6342
▁highlight	-6343
▁prisoners	-6344
▁reference	-6345
▁religions	-6346
▁permission	-6347
▁philosophy	-6348
▁retirement	-6349
▁struggling	-6350
▁universities	-6351
▁collaborative	-6352
mp	-6353
▁0	-6354
aks	-6355
cra	-6356
och	-6357
▁FO	-6358
▁MR	-6359
ilit	-6360
onna	-6361
▁Mon	-6362
▁Oce	-6363
▁Oct	-6364
▁der	-6365
▁hol	-6366
▁pra	-6367
▁rac	-6368
crast	-6369
ctica	-6370
icial	-6371
ogram	-6372
▁Port	-6373
▁neut	-6374
▁quit	-6375
▁susp	-6376
▁zoom	-6377
▁5,000	-6378
▁Voice	-6379
▁enemy	-6380
▁exped	-6381
▁fixed	-6382
▁monit	-6383
▁nerve	-6384
▁nutri	-6385
▁parks	-6386
▁reefs	-6387
▁sales	-6388
▁tight	-6389
clusive	-6390
conomic	-6391
▁boring	-6392
▁clouds	-6393
▁conven	-6394
▁ending	-6395
▁frozen	-6396
▁latest	-6397
▁linked	-6398
▁nurses	-6399
▁oldest	-6400
▁plenty	-6401
▁sphere	-6402
▁spoken	-6403
▁stored	-6404
▁trucks	-6405
▁tumors	-6406
▁circuit	-6407
▁dioxide	-6408
▁hormone	-6409
▁license	-6410
▁pointed	-6411
▁solving	-6412
▁Congress	-6413
▁captured	-6414
▁football	-6415
▁involves	-6416
▁isolated	-6417
▁official	-6418
▁organism	-6419
▁refriger	-6420
▁calculate	-6421
▁investing	-6422
▁microbial	-6423
▁physicist	-6424
▁recording	-6425
▁renewable	-6426
▁typically	-6427
▁Antarctica	-6428
▁department	-6429
▁underlying	-6430
▁enforcement	-6431
▁photographs	-6432
▁automatically	-6433
anz	-6434
igm	-6435
kin	-6436
▁Po	-6437
▁ub	-6438
ardo	-6439
aves	-6440
born	-6441
ifth	-6442
ilty	-6443
ulin	-6444
▁Bit	-6445
▁Bur	-6446
▁Che	-6447
▁Wal	-6448
aceut	-6449
ammed	-6450
attan	-6451
olars	-6452
yster	-6453
▁1960	-6454
▁2050	-6455
▁Five	-6456
▁Mark	-6457
▁Star	-6458
▁Time	-6459
▁axis	-6460
▁bull	-6461
▁cock	-6462
▁cord	-6463
▁earn	-6464
▁grab	-6465
▁horr	-6466
▁tail	-6467
▁tape	-6468
▁tick	-6469
arents	-6470
makers	-6471
▁flash	-6472
▁fraud	-6473
▁initi	-6474
▁males	-6475
▁proof	-6476
▁safer	-6477
▁views	-6478
uration	-6479
▁Little	-6480
▁chains	-6481
▁combat	-6482
▁dating	-6483
▁invite	-6484
▁marine	-6485
▁needle	-6486
▁thrown	-6487
culation	-6488
ographer	-6489
▁Michael	-6490
▁analyze	-6491
▁concern	-6492
▁concert	-6493
▁diagram	-6494
▁earthqu	-6495
▁farming	-6496
▁garbage	-6497
▁guarant	-6498
▁percept	-6499
▁raising	-6500
▁staying	-6501
aceutical	-6502
▁administ	-6503
▁agencies	-6504
▁comments	-6505
▁darkness	-6506
▁delivery	-6507
▁district	-6508
▁estimate	-6509
▁measures	-6510
▁continues	-6511
▁corporate	-6512
▁reactions	-6513
▁approaches	-6514
▁explaining	-6515
▁percentage	-6516
▁resolution	-6517
▁telescopes	-6518
▁volunteers	-6519
▁consequence	-6520
▁ingredients	-6521
▁reconstruct	-6522
▁uncertainty	-6523
▁globalization	-6524
▁hallucinations	-6525
TS	-6526
cc	-6527
ls	-6528
uk	-6529
bes	-6530
can	-6531
iac	-6532
oli	-6533
sey	-6534
▁36	-6535
ares	-6536
ason	-6537
cons	-6538
igen	-6539
lets	-6540
oust	-6541
phas	-6542
rome	-6543
uing	-6544
ulse	-6545
▁120	-6546
▁cab	-6547
▁lon	-6548
▁nit	-6549
▁via	-6550
amine	-6551
eline	-6552
icher	-6553
opher	-6554
stage	-6555
▁2015	-6556
▁Manh	-6557
▁appe	-6558
▁asks	-6559
▁cute	-6560
▁lock	-6561
▁mode	-6562
▁pink	-6563
▁sacr	-6564
arters	-6565
making	-6566
vation	-6567
▁4,000	-6568
▁Grand	-6569
▁Scott	-6570
▁array	-6571
▁aston	-6572
▁expon	-6573
▁naked	-6574
▁orbit	-6575
▁trash	-6576
▁upper	-6577
anderth	-6578
▁50,000	-6579
▁agency	-6580
▁establ	-6581
▁fibers	-6582
▁fisher	-6583
▁lifest	-6584
▁observ	-6585
▁scores	-6586
▁Islands	-6587
▁advance	-6588
▁anatomy	-6589
▁compete	-6590
▁enterpr	-6591
▁fishing	-6592
▁housing	-6593
▁immense	-6594
▁letting	-6595
▁monkeys	-6596
▁threats	-6597
▁Japanese	-6598
▁Palestin	-6599
▁concerns	-6600
▁dinosaur	-6601
▁download	-6602
▁homeless	-6603
▁magnific	-6604
▁occurred	-6605
▁reaching	-6606
▁shipping	-6607
▁survived	-6608
▁Manhattan	-6609
▁expanding	-6610
▁expertise	-6611
▁household	-6612
▁stability	-6613
▁corruption	-6614
▁performing	-6615
▁strategies	-6616
▁chimpanzees	-6617
▁electronics	-6618
▁improvement	-6619
▁schizophren	-6620
▁translation	-6621
▁mathematicians	-6622
ema	-6623
isp	-6624
olf	-6625
pes	-6626
rey	-6627
▁32	-6628
▁Rw	-6629
coin	-6630
ener	-6631
erge	-6632
gers	-6633
roid	-6634
▁Bet	-6635
▁Jes	-6636
▁Leg	-6637
▁Mal	-6638
▁ath	-6639
▁bum	-6640
▁cub	-6641
▁gam	-6642
▁lit	-6643
▁meg	-6644
▁reh	-6645
ademy	-6646
ching	-6647
eller	-6648
isted	-6649
romos	-6650
ucose	-6651
▁Back	-6652
▁Tell	-6653
▁flew	-6654
▁limb	-6655
▁myth	-6656
▁pace	-6657
▁surf	-6658
aching	-6659
arency	-6660
encing	-6661
▁Ocean	-6662
▁Until	-6663
▁blank	-6664
▁dolph	-6665
▁metab	-6666
▁outer	-6667
▁route	-6668
▁stack	-6669
▁taste	-6670
▁usual	-6671
▁veter	-6672
▁viral	-6673
▁vital	-6674
roverts	-6675
▁Valley	-6676
▁attend	-6677
▁colony	-6678
▁convey	-6679
▁injury	-6680
▁marvel	-6681
▁richer	-6682
▁shaped	-6683
▁studio	-6684
▁Mandela	-6685
▁charity	-6686
▁chromos	-6687
▁clothes	-6688
▁cluster	-6689
▁command	-6690
▁convert	-6691
▁deserve	-6692
▁exhaust	-6693
▁failing	-6694
▁insulin	-6695
▁paradox	-6696
▁publish	-6697
▁trigger	-6698
▁unusual	-6699
▁visited	-6700
▁warning	-6701
▁writers	-6702
▁cartoons	-6703
▁figuring	-6704
▁focusing	-6705
▁includes	-6706
▁internet	-6707
▁navigate	-6708
▁repeated	-6709
▁restrict	-6710
▁skeleton	-6711
▁soldiers	-6712
▁textbook	-6713
▁Neanderth	-6714
▁anonymous	-6715
▁detection	-6716
▁elsewhere	-6717
▁forgotten	-6718
▁motivated	-6719
▁ecosystems	-6720
▁facilities	-6721
▁fascinated	-6722
▁functional	-6723
▁medication	-6724
▁optimistic	-6725
▁ridiculous	-6726
▁description	-6727
▁discoveries	-6728
▁instruments	-6729
▁breakthrough	-6730
▁Unfortunately	-6731
▁communications	-6732
▁characteristics	-6733
EC	-6734
ET	-6735
een	-6736
ixt	-6737
ris	-6738
▁EM	-6739
▁Hi	-6740
▁SS	-6741
▁od	-6742
amin	-6743
exas	-6744
iful	-6745
rous	-6746
tail	-6747
ulum	-6748
▁600	-6749
▁Cop	-6750
▁Dem	-6751
▁FOX	-6752
▁Gal	-6753
▁Jon	-6754
▁Red	-6755
▁Sam	-6756
▁gig	-6757
bling	-6758
eping	-6759
inder	-6760
inery	-6761
▁Hall	-6762
▁Sand	-6763
▁bike	-6764
▁cash	-6765
▁cens	-6766
▁chef	-6767
▁duck	-6768
▁hire	-6769
▁hook	-6770
▁meal	-6771
teroid	-6772
▁Cyrus	-6773
▁Gabby	-6774
▁Texas	-6775
▁chaos	-6776
▁comet	-6777
▁craft	-6778
▁drawn	-6779
▁exerc	-6780
▁honey	-6781
▁maxim	-6782
▁nodes	-6783
▁phase	-6784
▁rescu	-6785
▁style	-6786
▁title	-6787
bitious	-6788
▁During	-6789
▁Micros	-6790
▁Really	-6791
▁bother	-6792
▁capita	-6793
▁degrad	-6794
▁deploy	-6795
▁native	-6796
▁selves	-6797
▁tunnel	-6798
▁Academy	-6799
▁Central	-6800
▁appears	-6801
▁circles	-6802
▁disrupt	-6803
▁disturb	-6804
▁glucose	-6805
▁habitat	-6806
▁impacts	-6807
▁millenn	-6808
▁observe	-6809
▁shocked	-6810
▁smoking	-6811
▁targets	-6812
▁Africans	-6813
▁achieved	-6814
▁artistic	-6815
▁collapse	-6816
▁included	-6817
▁listened	-6818
▁promised	-6819
▁announced	-6820
▁cooperate	-6821
▁expansion	-6822
▁gentlemen	-6823
▁intention	-6824
▁apparently	-6825
▁assistance	-6826
▁classrooms	-6827
▁economists	-6828
▁exhibition	-6829
▁infections	-6830
▁originally	-6831
▁threatened	-6832
▁immigration	-6833
▁spectacular	-6834
▁surprisingly	-6835
gl	-6836
ya	-6837
uel	-6838
yal	-6839
zes	-6840
▁ju	-6841
eday	-6842
ette	-6843
ooth	-6844
osal	-6845
pass	-6846
▁10-	-6847
▁Ben	-6848
▁Cor	-6849
▁Mad	-6850
▁les	-6851
▁mim	-6852
▁nom	-6853
▁tea	-6854
aired	-6855
aning	-6856
ckets	-6857
field	-6858
going	-6859
isons	-6860
itory	-6861
while	-6862
▁1990	-6863
▁2004	-6864
▁2005	-6865
▁Dece	-6866
▁Eric	-6867
▁Girl	-6868
▁List	-6869
▁Saud	-6870
▁Span	-6871
▁Tony	-6872
▁cous	-6873
▁dism	-6874
▁elev	-6875
▁gest	-6876
▁pump	-6877
▁spin	-6878
▁tech	-6879
bridge	-6880
▁Greek	-6881
▁House	-6882
▁Obama	-6883
▁Under	-6884
▁burst	-6885
▁careg	-6886
▁civic	-6887
▁cryst	-6888
▁excit	-6889
▁falls	-6890
▁gonna	-6891
▁humil	-6892
▁laser	-6893
▁shake	-6894
▁skept	-6895
▁split	-6896
▁stops	-6897
▁ultra	-6898
▁utter	-6899
forward	-6900
ishment	-6901
related	-6902
▁Anyway	-6903
▁Nobody	-6904
▁agenda	-6905
▁breaks	-6906
▁emphas	-6907
▁fusion	-6908
▁lovely	-6909
▁posted	-6910
▁sticks	-6911
▁string	-6912
▁tackle	-6913
▁closest	-6914
▁counsel	-6915
▁designs	-6916
▁mammals	-6917
▁methane	-6918
▁microph	-6919
▁offices	-6920
▁passing	-6921
▁picking	-6922
▁pretend	-6923
▁protest	-6924
▁sisters	-6925
▁suspect	-6926
▁December	-6927
▁attached	-6928
▁brothers	-6929
▁external	-6930
▁facility	-6931
▁hardware	-6932
▁honestly	-6933
▁hormones	-6934
▁infected	-6935
▁scenario	-6936
▁speakers	-6937
▁Christmas	-6938
▁ambitious	-6939
▁astronaut	-6940
▁breathing	-6941
▁nutrients	-6942
▁positions	-6943
▁presented	-6944
▁translate	-6945
▁architects	-6946
▁hypothesis	-6947
▁industries	-6948
▁influenced	-6949
▁proportion	-6950
▁cooperation	-6951
▁magnificent	-6952
▁probability	-6953
▁surrounding	-6954
▁expectations	-6955
▁grandchildren	-6956
▁pharmaceutical	-6957
RA	-6958
SI	-6959
che	-6960
isy	-6961
min	-6962
ula	-6963
ups	-6964
yth	-6965
▁26	-6966
▁Us	-6967
▁py	-6968
ecut	-6969
iano	-6970
illy	-6971
long	-6972
osen	-6973
what	-6974
▁Del	-6975
▁Dep	-6976
▁Ice	-6977
▁Int	-6978
▁Lad	-6979
▁Rob	-6980
▁Vir	-6981
▁awk	-6982
▁hat	-6983
clock	-6984
osure	-6985
ubble	-6986
▁Cont	-6987
▁Lord	-6988
▁lets	-6989
▁mate	-6990
▁plug	-6991
▁tang	-6992
▁wine	-6993
astics	-6994
cation	-6995
iously	-6996
market	-6997
▁Carol	-6998
▁March	-6999
▁accum	-7000
▁audio	-7001
▁bored	-7002
▁brave	-7003
▁cours	-7004
▁cruel	-7005
▁dynam	-7006
▁films	-7007
▁manus	-7008
▁opens	-7009
▁peers	-7010
▁wider	-7011
▁aggreg	-7012
▁barrel	-7013
▁grandp	-7014
▁intent	-7015
▁nights	-7016
▁senior	-7017
▁settle	-7018
▁stores	-7019
▁stroke	-7020
▁tragic	-7021
▁tricks	-7022
▁Whether	-7023
▁anthrop	-7024
▁anticip	-7025
▁awkward	-7026
▁ceiling	-7027
▁contrad	-7028
▁enables	-7029
▁granted	-7030
▁involve	-7031
▁miracle	-7032
▁prescri	-7033
▁profile	-7034
▁request	-7035
▁touched	-7036
▁asteroid	-7037
▁controls	-7038
▁entering	-7039
▁flexible	-7040
▁fraction	-7041
▁lifespan	-7042
▁magnetic	-7043
▁register	-7044
▁shifting	-7045
▁shooting	-7046
▁abilities	-7047
▁component	-7048
▁establish	-7049
▁estimates	-7050
▁exception	-7051
▁mechanics	-7052
▁nutrition	-7053
▁permanent	-7054
▁reduction	-7055
▁telephone	-7056
▁workforce	-7057
▁blockchain	-7058
▁earthquake	-7059
▁engagement	-7060
▁excitement	-7061
▁manuscript	-7062
▁sanitation	-7063
▁trustworth	-7064
▁appropriate	-7065
▁instruction	-7066
▁successfully	-7067
▁transparency	-7068
ena	-7069
gra	-7070
ias	-7071
ket	-7072
▁Wo	-7073
enly	-7074
foot	-7075
free	-7076
lymp	-7077
neys	-7078
rane	-7079
▁Bre	-7080
▁Edu	-7081
▁Hel	-7082
▁Joe	-7083
▁Pac	-7084
▁Som	-7085
▁Ven	-7086
▁Was	-7087
▁dys	-7088
▁pum	-7089
anged	-7090
craft	-7091
elson	-7092
ffect	-7093
front	-7094
rates	-7095
ureau	-7096
▁2006	-7097
▁Coun	-7098
▁FOXO	-7099
▁Jenn	-7100
▁Miss	-7101
▁flip	-7102
▁inse	-7103
▁milk	-7104
▁mood	-7105
▁pigs	-7106
▁quad	-7107
▁sink	-7108
▁tent	-7109
▁tort	-7110
edding	-7111
mitted	-7112
ometer	-7113
profit	-7114
ptions	-7115
rowing	-7116
▁Olymp	-7117
▁Titan	-7118
▁cable	-7119
▁femin	-7120
▁likes	-7121
▁obser	-7122
▁plays	-7123
▁roots	-7124
▁screw	-7125
▁valid	-7126
▁Nature	-7127
▁Nelson	-7128
▁Virgin	-7129
▁burden	-7130
▁caring	-7131
▁chosen	-7132
▁execut	-7133
▁farmer	-7134
▁geomet	-7135
▁laptop	-7136
▁lawyer	-7137
▁regime	-7138
▁rocket	-7139
▁simult	-7140
▁talent	-7141
▁traits	-7142
▁ventil	-7143
▁waters	-7144
▁Israeli	-7145
▁Nations	-7146
▁airport	-7147
▁battery	-7148
▁browser	-7149
▁consent	-7150
▁consume	-7151
▁ecology	-7152
▁footage	-7153
▁hackers	-7154
▁jealous	-7155
▁screens	-7156
▁sensors	-7157
▁uniform	-7158
imination	-7159
▁attitude	-7160
▁choosing	-7161
▁decrease	-7162
▁dominant	-7163
▁educated	-7164
▁literacy	-7165
▁overcome	-7166
▁receptor	-7167
▁reinvent	-7168
▁scholars	-7169
▁stations	-7170
▁Christian	-7171
▁sculpture	-7172
▁sensitive	-7173
▁separated	-7174
▁suggested	-7175
forestation	-7176
▁connecting	-7177
▁difficulty	-7178
▁greenhouse	-7179
▁identified	-7180
▁terrifying	-7181
▁translated	-7182
▁beautifully	-7183
▁legislation	-7184
▁observation	-7185
▁photography	-7186
▁storytelling	-7187
▁professionals	-7188
mm	-7189
oe	-7190
sp	-7191
elf	-7192
gie	-7193
ibl	-7194
ige	-7195
rah	-7196
tes	-7197
▁95	-7198
▁MK	-7199
▁Od	-7200
▁UN	-7201
appe	-7202
atri	-7203
fess	-7204
iban	-7205
mate	-7206
nels	-7207
ober	-7208
▁Nat	-7209
▁ate	-7210
▁cro	-7211
▁fan	-7212
▁gor	-7213
▁mig	-7214
▁obl	-7215
▁spr	-7216
▁vit	-7217
aches	-7218
break	-7219
esign	-7220
inity	-7221
otion	-7222
▁2014	-7223
▁Ethi	-7224
▁July	-7225
▁alle	-7226
▁ants	-7227
▁bias	-7228
▁grat	-7229
▁heal	-7230
▁laid	-7231
▁nets	-7232
▁scal	-7233
▁soup	-7234
▁ward	-7235
▁Child	-7236
▁Jesus	-7237
▁Mount	-7238
▁Power	-7239
▁Super	-7240
▁White	-7241
▁blame	-7242
▁colum	-7243
▁dirty	-7244
▁drown	-7245
▁fluid	-7246
▁immun	-7247
▁meter	-7248
▁nurse	-7249
▁reson	-7250
▁shell	-7251
▁stake	-7252
▁tears	-7253
▁tired	-7254
▁toxic	-7255
itative	-7256
raction	-7257
viously	-7258
▁Jewish	-7259
▁actors	-7260
▁beetle	-7261
▁confir	-7262
▁curric	-7263
▁facial	-7264
▁hiding	-7265
▁infant	-7266
▁luxury	-7267
▁missed	-7268
▁sacred	-7269
▁stable	-7270
▁thrive	-7271
appeared	-7272
▁Bitcoin	-7273
▁Eastern	-7274
▁Islamic	-7275
▁October	-7276
▁Spanish	-7277
▁Taliban	-7278
▁breathe	-7279
▁clarity	-7280
▁consult	-7281
▁defense	-7282
▁ethical	-7283
▁fastest	-7284
▁paralle	-7285
▁princip	-7286
▁printed	-7287
▁reports	-7288
▁statist	-7289
▁symbols	-7290
▁useless	-7291
▁Republic	-7292
▁accounts	-7293
▁category	-7294
▁contains	-7295
▁customer	-7296
▁disagree	-7297
▁fabulous	-7298
▁judgment	-7299
▁lighting	-7300
▁revealed	-7301
▁somewhat	-7302
▁Microsoft	-7303
▁activists	-7304
▁audiences	-7305
▁economist	-7306
▁empowered	-7307
▁estimated	-7308
▁factories	-7309
▁immediate	-7310
▁receiving	-7311
▁recommend	-7312
▁terrified	-7313
▁virtually	-7314
▁controvers	-7315
▁determined	-7316
▁protecting	-7317
▁assumptions	-7318
▁consciously	-7319
▁capabilities	-7320
▁intersection	-7321
ye	-7322
izz	-7323
mes	-7324
net	-7325
nic	-7326
raw	-7327
▁Ty	-7328
ague	-7329
bits	-7330
doll	-7331
olen	-7332
oret	-7333
oton	-7334
ownt	-7335
tery	-7336
▁191	-7337
▁Boy	-7338
▁Far	-7339
▁Jim	-7340
▁Jul	-7341
▁Jup	-7342
▁Pan	-7343
▁Sur	-7344
▁Wik	-7345
▁alb	-7346
▁aqu	-7347
▁cyl	-7348
▁fet	-7349
▁pir	-7350
▁rig	-7351
▁rom	-7352
▁tip	-7353
aniel	-7354
aping	-7355
enger	-7356
icked	-7357
illed	-7358
irect	-7359
opath	-7360
oscop	-7361
owing	-7362
press	-7363
raine	-7364
think	-7365
▁2001	-7366
▁Both	-7367
▁Budd	-7368
▁Hell	-7369
▁Nick	-7370
▁Sier	-7371
▁Turn	-7372
▁Viet	-7373
▁bags	-7374
▁bats	-7375
▁bene	-7376
▁bump	-7377
▁gaps	-7378
▁gear	-7379
▁indo	-7380
▁kidn	-7381
▁rape	-7382
▁rats	-7383
▁reci	-7384
▁recl	-7385
▁subs	-7386
▁ties	-7387
▁uplo	-7388
atever	-7389
dollar	-7390
▁Asian	-7391
▁Holly	-7392
▁Saudi	-7393
▁armor	-7394
▁diver	-7395
▁fifth	-7396
▁hopes	-7397
▁humor	-7398
▁lungs	-7399
▁owned	-7400
▁pairs	-7401
▁rever	-7402
▁spots	-7403
▁texts	-7404
▁whist	-7405
▁wound	-7406
violent	-7407
▁Rights	-7408
▁Should	-7409
▁archae	-7410
▁cultiv	-7411
▁decent	-7412
▁errors	-7413
▁fallen	-7414
▁grades	-7415
▁gravit	-7416
▁guilty	-7417
▁interf	-7418
▁legacy	-7419
▁perpet	-7420
▁poster	-7421
▁proved	-7422
▁sensor	-7423
▁slides	-7424
▁smooth	-7425
▁stages	-7426
▁stolen	-7427
ventions	-7428
▁Italian	-7429
▁Vietnam	-7430
▁William	-7431
▁besides	-7432
▁closing	-7433
▁courses	-7434
▁diction	-7435
▁elected	-7436
▁indigen	-7437
▁muscles	-7438
▁orchest	-7439
▁players	-7440
▁ratings	-7441
▁someday	-7442
▁traject	-7443
▁Atlantic	-7444
▁Research	-7445
▁Whatever	-7446
▁activist	-7447
▁appeared	-7448
▁collagen	-7449
▁generous	-7450
▁improved	-7451
▁meetings	-7452
▁mobility	-7453
▁plastics	-7454
▁prostate	-7455
▁relation	-7456
▁strongly	-7457
▁versions	-7458
▁According	-7459
▁believing	-7460
▁depressed	-7461
▁dimension	-7462
▁graduated	-7463
▁inspiring	-7464
▁lifestyle	-7465
▁predicted	-7466
▁prototype	-7467
▁seemingly	-7468
▁survivors	-7469
▁biologists	-7470
▁describing	-7471
▁frustrated	-7472
▁regardless	-7473
▁supporting	-7474
▁traditions	-7475
▁constructed	-7476
▁disappeared	-7477
▁distinction	-7478
▁established	-7479
▁represented	-7480
▁alternatives	-7481
▁neuroscience	-7482
MU	-7483
TSD	-7484
azz	-7485
eds	-7486
lyn	-7487
obi	-7488
rit	-7489
uno	-7490
▁28	-7491
▁Da	-7492
▁La	-7493
▁Ox	-7494
,500	-7495
agon	-7496
arsh	-7497
away	-7498
ding	-7499
itud	-7500
uity	-7501
utan	-7502
well	-7503
▁Lab	-7504
▁Mor	-7505
▁Six	-7506
▁Tel	-7507
▁caf	-7508
▁ham	-7509
▁tie	-7510
capes	-7511
cohol	-7512
itous	-7513
iture	-7514
oples	-7515
▁Emma	-7516
▁Jeff	-7517
▁PTSD	-7518
▁boom	-7519
▁dood	-7520
▁drew	-7521
▁fate	-7522
▁fulf	-7523
▁glad	-7524
▁kiss	-7525
▁leaf	-7526
▁outs	-7527
▁sail	-7528
illing	-7529
vasive	-7530
▁Chile	-7531
▁Hawai	-7532
▁Korea	-7533
▁clock	-7534
▁drops	-7535
▁flour	-7536
▁gotta	-7537
▁liver	-7538
▁numer	-7539
▁outdo	-7540
▁owner	-7541
▁paras	-7542
▁pyram	-7543
▁risky	-7544
▁tries	-7545
▁worms	-7546
inating	-7547
liament	-7548
▁20,000	-7549
▁Martin	-7550
▁Rwanda	-7551
▁Sierra	-7552
▁Things	-7553
▁Turing	-7554
▁behave	-7555
▁buried	-7556
▁cosmic	-7557
▁deadly	-7558
▁emerge	-7559
▁locked	-7560
▁manner	-7561
▁merely	-7562
▁satisf	-7563
▁subway	-7564
▁unable	-7565
▁widely	-7566
▁Jupiter	-7567
▁Pacific	-7568
▁chapter	-7569
▁deepest	-7570
▁federal	-7571
▁females	-7572
▁genomes	-7573
▁magical	-7574
▁profits	-7575
▁reviews	-7576
▁conclude	-7577
▁crossing	-7578
▁gathered	-7579
▁insights	-7580
▁intimate	-7581
▁proposed	-7582
▁reducing	-7583
▁replaced	-7584
▁shopping	-7585
▁stopping	-7586
▁striking	-7587
▁suffered	-7588
▁Obviously	-7589
▁arguments	-7590
▁extension	-7591
▁improving	-7592
▁machinery	-7593
▁medicines	-7594
▁primarily	-7595
▁selection	-7596
▁supported	-7597
▁assumption	-7598
▁behavioral	-7599
▁boundaries	-7600
▁capability	-7601
▁categories	-7602
▁consistent	-7603
▁indigenous	-7604
▁integrated	-7605
▁previously	-7606
▁prosthetic	-7607
▁astonishing	-7608
▁interviewed	-7609
▁transparent	-7610
▁deforestation	-7611
▁significantly	-7612
-2	-7613
.5	-7614
OL	-7615
ati	-7616
oma	-7617
war	-7618
▁Bh	-7619
▁Up	-7620
▁gh	-7621
abit	-7622
adel	-7623
ahar	-7624
alia	-7625
hour	-7626
idal	-7627
imag	-7628
onom	-7629
tech	-7630
▁Nan	-7631
▁Scr	-7632
▁Tim	-7633
▁Tun	-7634
▁ven	-7635
ashed	-7636
omach	-7637
▁Beat	-7638
▁Jane	-7639
▁Know	-7640
▁Leon	-7641
▁Stud	-7642
▁bell	-7643
▁bend	-7644
▁boun	-7645
▁crew	-7646
▁eleg	-7647
▁epis	-7648
▁furn	-7649
▁inex	-7650
▁infl	-7651
▁item	-7652
▁neck	-7653
▁rush	-7654
▁sett	-7655
▁shar	-7656
▁sole	-7657
▁tear	-7658
▁till	-7659
▁wise	-7660
coming	-7661
erable	-7662
orters	-7663
semble	-7664
▁Brown	-7665
▁River	-7666
▁Solly	-7667
▁Story	-7668
▁blast	-7669
▁caves	-7670
▁downt	-7671
▁edges	-7672
▁incom	-7673
▁intim	-7674
▁legit	-7675
▁manif	-7676
▁mobil	-7677
▁obese	-7678
▁pilot	-7679
▁suppl	-7680
▁tempt	-7681
▁theme	-7682
▁threw	-7683
▁trail	-7684
▁ubiqu	-7685
▁upset	-7686
ounding	-7687
ributes	-7688
▁accent	-7689
▁affair	-7690
▁behalf	-7691
▁cosmos	-7692
▁defend	-7693
▁editor	-7694
▁epidem	-7695
▁excell	-7696
▁metric	-7697
▁regret	-7698
▁safely	-7699
▁scales	-7700
▁tomato	-7701
▁alcohol	-7702
▁barbers	-7703
▁barrier	-7704
▁crushed	-7705
▁damaged	-7706
▁educate	-7707
▁endless	-7708
▁hanging	-7709
▁injured	-7710
▁islands	-7711
▁lawyers	-7712
▁passive	-7713
▁peoples	-7714
▁sensing	-7715
▁washing	-7716
▁Minister	-7717
▁advocate	-7718
▁believes	-7719
▁database	-7720
▁detailed	-7721
▁extended	-7722
▁homework	-7723
▁momentum	-7724
▁rational	-7725
▁remained	-7726
▁sunlight	-7727
▁throwing	-7728
▁vertical	-7729
▁villages	-7730
▁Basically	-7731
▁Cambridge	-7732
▁bacterial	-7733
▁instantly	-7734
▁investors	-7735
▁primitive	-7736
▁radically	-7737
▁substance	-7738
▁synthetic	-7739
otechnology	-7740
▁Revolution	-7741
▁challenged	-7742
▁compelling	-7743
▁curriculum	-7744
▁expectancy	-7745
▁journalism	-7746
▁microphone	-7747
▁reasonable	-7748
▁resilience	-7749
▁competitive	-7750
▁demonstrate	-7751
▁desperately	-7752
▁discussions	-7753
▁philosopher	-7754
▁underground	-7755
▁photographer	-7756
▁unbelievable	-7757
▁representation	-7758
DA	-7759
▁#	-7760
ata	-7761
cal	-7762
cue	-7763
dis	-7764
see	-7765
uty	-7766
▁Di	-7767
adic	-7768
arly	-7769
east	-7770
eted	-7771
fold	-7772
grad	-7773
imed	-7774
okes	-7775
play	-7776
▁700	-7777
▁Hom	-7778
▁Hon	-7779
▁MRI	-7780
▁Mag	-7781
▁Net	-7782
▁Squ	-7783
▁Ten	-7784
▁bon	-7785
▁dil	-7786
▁gro	-7787
▁toy	-7788
adays	-7789
apses	-7790
ville	-7791
▁Army	-7792
▁Make	-7793
▁Mike	-7794
▁Nike	-7795
▁Odys	-7796
▁Stop	-7797
▁adap	-7798
▁asyl	-7799
▁bars	-7800
▁bold	-7801
▁brut	-7802
▁cath	-7803
▁cats	-7804
▁cert	-7805
▁dent	-7806
▁east	-7807
▁seal	-7808
▁sits	-7809
▁suff	-7810
▁synd	-7811
▁west	-7812
iberia	-7813
iology	-7814
oliath	-7815
ricane	-7816
urable	-7817
▁Brian	-7818
▁Bruno	-7819
▁Count	-7820
▁Organ	-7821
▁armed	-7822
▁chips	-7823
▁coord	-7824
▁crypt	-7825
▁digit	-7826
▁foods	-7827
▁irony	-7828
▁pause	-7829
▁pengu	-7830
▁penis	-7831
▁steal	-7832
▁vocal	-7833
▁weeke	-7834
▁Within	-7835
▁agents	-7836
▁assess	-7837
▁assets	-7838
▁compos	-7839
▁dispar	-7840
▁fluctu	-7841
▁kidney	-7842
▁ladies	-7843
▁paraly	-7844
▁poison	-7845
▁pollen	-7846
▁powers	-7847
▁proven	-7848
▁render	-7849
▁rivers	-7850
▁rubber	-7851
▁sharks	-7852
▁skelet	-7853
▁sovere	-7854
▁voters	-7855
▁Profess	-7856
▁Through	-7857
▁analogy	-7858
▁couples	-7859
▁emerged	-7860
▁fathers	-7861
▁finance	-7862
▁founded	-7863
▁implant	-7864
▁located	-7865
▁monitor	-7866
▁neutral	-7867
▁painted	-7868
▁regener	-7869
▁rescued	-7870
▁shelter	-7871
▁tension	-7872
▁welcome	-7873
cientists	-7874
▁Although	-7875
▁	-7876
e	-7877
t	-7878
o	-7879
a	-7880
n	-7881
s	-7882
i	-7883
r	-7884
h	-7885
l	-7886
d	-7887
u	-7888
c	-7889
p	-7890
m	-7891
w	-7892
y	-7893
g	-7894
f	-7895
,	-7896
b	-7897
.	-7898
v	-7899
;	-7900
&	-7901
k	-7902
I	-7903
q	-7904
A	-7905
T	-7906
S	-7907
x	-7908
W	-7909
0	-7910
j	-7911
B	-7912
—	-7913
-	-7914
?	-7915
z	-7916
L	-7917
N	-7918
)	-7919
(	-7920
1	-7921
M	-7922
C	-7923
H	-7924
:	-7925
E	-7926
O	-7927
D	-7928
Y	-7929
P	-7930
2	-7931
G	-7932
F	-7933
9	-7934
R	-7935
5	-7936
3	-7937
J	-7938
U	-7939
♫	-7940
K	-7941
4	-7942
#	-7943
V	-7944
8	-7945
7	-7946
6	-7947
!	-7948
♪	-7949
Z	-7950
Q	-7951
X	-7952
’	-7953
/	-7954
$	-7955
é	-7956
á	-7957
ó	-7958
%	-7959
í	-7960
+	-7961
@	-7962
=	-7963
^	-7964
è	-7965
ã	-7966
ü	-7967
ç	-7968
ñ	-7969
ö	-7970
à	-7971
ï	-7972
ō	-7973
อ	-7974
Á	-7975
ä	-7976
ù	-7977
Ç	-7978
É	-7979
ô	-7980
ā	-7981
ย	-7982
ร	-7983
่	-7984
–	-7985
_	-7986
¿	-7987
Ö	-7988
ê	-7989
ú	-7990
û	-7991
Č	-7992
ī	-7993
Ō	-7994
•	-7995
€	-7996
