<unk>	0
<s>	0
</s>	0
▁d	-0
os	-1
▁a	-2
▁e	-3
qu	-4
▁p	-5
▁,	-6
▁c	-7
ra	-8
▁.	-9
es	-10
nt	-11
er	-12
as	-13
▁m	-14
▁s	-15
▁qu	-16
▁de	-17
▁n	-18
is	-19
ar	-20
▁co	-21
▁t	-22
▁que	-23
▁o	-24
or	-25
em	-26
ão	-27
▁f	-28
um	-29
ad	-30
ent	-31
ot	-32
re	-33
st	-34
am	-35
in	-36
▁&	-37
quot	-38
al	-39
▁v	-40
en	-41
▁um	-42
ia	-43
ic	-44
▁com	-45
id	-46
▁E	-47
ro	-48
an	-49
it	-50
im	-51
▁est	-52
ara	-53
▁é	-54
do	-55
el	-56
un	-57
so	-58
▁se	-59
on	-60
▁l	-61
▁para	-62
ente	-63
od	-64
▁A	-65
▁do	-66
ci	-67
▁uma	-68
▁em	-69
ist	-70
ol	-71
▁re	-72
▁as	-73
ec	-74
ri	-75
▁b	-76
se	-77
▁h	-78
▁os	-79
iv	-80
ei	-81
ais	-82
▁es	-83
ção	-84
▁da	-85
ta	-86
il	-87
▁no	-88
▁por	-89
emos	-90
▁não	-91
▁g	-92
▁con	-93
ul	-94
▁P	-95
ut	-96
ir	-97
ha	-98
amos	-99
▁O	-100
▁in	-101
res	-102
▁des	-103
us	-104
ade	-105
gu	-106
ou	-107
▁al	-108
▁nos	-109
▁fa	-110
ado	-111
▁M	-112
▁na	-113
om	-114
▁pro	-115
▁pod	-116
▁di	-117
ito	-118
▁N	-119
▁como	-120
de	-121
co	-122
▁mu	-123
ica	-124
▁en	-125
▁me	-126
▁S	-127
po	-128
ant	-129
go	-130
▁C	-131
te	-132
▁ex	-133
▁mais	-134
▁?	-135
▁:	-136
ab	-137
pl	-138
to	-139
ando	-140
ram	-141
▁el	-142
idade	-143
▁an	-144
av	-145
▁T	-146
▁per	-147
▁ser	-148
ões	-149
ada	-150
▁su	-151
at	-152
ai	-153
esso	-154
oc	-155
ran	-156
orm	-157
ens	-158
ura	-159
ig	-160
▁un	-161
ho	-162
▁faz	-163
ento	-164
mos	-165
▁ap	-166
▁pr	-167
que	-168
iz	-169
▁so	-170
▁ou	-171
int	-172
da	-173
▁im	-174
▁par	-175
▁pesso	-176
ez	-177
cia	-178
▁ver	-179
▁ac	-180
▁D	-181
▁eu	-182
et	-183
mente	-184
sa	-185
isso	-186
ação	-187
amente	-188
▁ter	-189
ón	-190
▁tod	-191
▁)	-192
▁(	-193
▁at	-194
ria	-195
▁dos	-196
ados	-197
▁I	-198
ras	-199
ros	-200
▁muito	-201
▁tra	-202
▁fo	-203
ém	-204
▁tem	-205
inha	-206
▁cont	-207
▁Est	-208
ida	-209
▁à	-210
▁Mas	-211
▁pessoas	-212
▁esp	-213
ores	-214
isto	-215
▁mas	-216
ag	-217
▁ao	-218
mo	-219
ico	-220
▁ent	-221
▁ch	-222
▁está	-223
ido	-224
eg	-225
rar	-226
▁pre	-227
ós	-228
▁isso	-229
ce	-230
▁R	-231
▁out	-232
▁são	-233
▁mes	-234
me	-235
bre	-236
nte	-237
▁—	-238
▁int	-239
▁j	-240
ça	-241
ên	-242
▁res	-243
vel	-244
▁fazer	-245
undo	-246
est	-247
▁cois	-248
▁Por	-249
▁aqu	-250
ve	-251
▁1	-252
ções	-253
▁esc	-254
ap	-255
io	-256
▁anos	-257
▁das	-258
▁isto	-259
▁sobre	-260
▁comp	-261
▁B	-262
le	-263
ca	-264
cont	-265
ru	-266
▁F	-267
▁porque	-268
▁Q	-269
▁É	-270
▁Qu	-271
▁H	-272
era	-273
bal	-274
▁V	-275
fer	-276
lo	-277
almente	-278
ver	-279
▁quando	-280
▁form	-281
har	-282
▁num	-283
▁foi	-284
▁vez	-285
ac	-286
▁mo	-287
▁pel	-288
ero	-289
▁sem	-290
ência	-291
▁era	-292
▁dis	-293
entes	-294
▁mundo	-295
if	-296
bl	-297
▁imp	-298
ed	-299
cion	-300
ês	-301
▁ar	-302
amb	-303
▁esta	-304
ost	-305
ud	-306
ava	-307
ur	-308
▁este	-309
▁há	-310
▁alg	-311
ess	-312
▁ra	-313
▁po	-314
og	-315
▁fal	-316
▁U	-317
gora	-318
la	-319
▁am	-320
▁diz	-321
eiro	-322
▁todos	-323
▁nós	-324
▁Eu	-325
▁mil	-326
▁cer	-327
▁trabal	-328
▁Não	-329
▁ob	-330
▁pas	-331
du	-332
▁pens	-333
enas	-334
eira	-335
cis	-336
end	-337
▁sab	-338
va	-339
▁á	-340
nos	-341
▁2	-342
▁meu	-343
nto	-344
ambém	-345
▁ti	-346
nde	-347
▁minha	-348
aus	-349
ema	-350
icos	-351
imos	-352
▁Ent	-353
ece	-354
rio	-355
cul	-356
▁temos	-357
▁G	-358
▁mesmo	-359
anto	-360
nd	-361
pos	-362
eri	-363
pois	-364
adas	-365
▁ele	-366
ici	-367
iver	-368
ber	-369
▁cor	-370
▁prim	-371
rá	-372
tura	-373
▁pos	-374
itos	-375
ma	-376
▁forma	-377
00	-378
▁car	-379
udo	-380
▁Ris	-381
pre	-382
▁estão	-383
orn	-384
▁id	-385
▁rec	-386
▁vida	-387
▁us	-388
▁cas	-389
inh	-390
ix	-391
segu	-392
▁coisas	-393
eç	-394
▁também	-395
ción	-396
▁Então	-397
▁As	-398
aram	-399
imento	-400
ades	-401
▁x	-402
▁Se	-403
ís	-404
▁tempo	-405
sas	-406
▁part	-407
ina	-408
▁onde	-409
▁inf	-410
▁mel	-411
êm	-412
▁non	-413
▁poder	-414
▁quer	-415
▁L	-416
ort	-417
▁vos	-418
▁pode	-419
▁ass	-420
▁unha	-421
ntes	-422
▁ab	-423
▁podemos	-424
entar	-425
▁inter	-426
vol	-427
▁pe	-428
▁gran	-429
▁má	-430
▁eles	-431
▁difer	-432
ível	-433
ámos	-434
▁qual	-435
▁aqui	-436
▁lu	-437
íci	-438
pres	-439
je	-440
sos	-441
▁Risos	-442
ín	-443
▁precis	-444
ía	-445
icas	-446
entos	-447
▁col	-448
▁pa	-449
▁ir	-450
▁Com	-451
les	-452
▁le	-453
▁cl	-454
▁ú	-455
▁mai	-456
▁só	-457
▁seu	-458
▁to	-459
▁De	-460
▁fun	-461
▁fac	-462
▁segu	-463
vos	-464
▁nas	-465
lh	-466
rig	-467
▁consegu	-468
▁cham	-469
▁apenas	-470
▁ho	-471
▁hum	-472
ita	-473
▁sent	-474
ios	-475
▁hist	-476
▁sua	-477
ias	-478
aix	-479
▁acont	-480
sto	-481
ante	-482
dade	-483
▁cons	-484
tiv	-485
amento	-486
▁ten	-487
▁dia	-488
▁J	-489
▁podem	-490
ign	-491
▁têm	-492
▁coisa	-493
ecer	-494
▁Apl	-495
▁cria	-496
▁pol	-497
ço	-498
▁probl	-499
▁nes	-500
▁r	-501
▁agora	-502
quer	-503
ças	-504
ausos	-505
▁nossa	-506
▁começ	-507
ase	-508
▁Os	-509
▁pou	-510
▁inc	-511
▁sim	-512
her	-513
▁vol	-514
▁human	-515
▁Aplausos	-516
gar	-517
itas	-518
▁te	-519
▁depois	-520
icar	-521
▁até	-522
▁voc	-523
tos	-524
▁algo	-525
▁med	-526
▁dizer	-527
tante	-528
▁entre	-529
és	-530
idos	-531
vi	-532
▁todo	-533
▁disse	-534
▁algum	-535
▁cé	-536
▁maior	-537
ít	-538
▁mul	-539
▁man	-540
idades	-541
enos	-542
▁pal	-543
▁torn	-544
ista	-545
▁exp	-546
▁estava	-547
▁cam	-548
▁numa	-549
tar	-550
▁tran	-551
▁pequ	-552
át	-553
bro	-554
▁cada	-555
▁parte	-556
▁No	-557
▁histó	-558
▁tinha	-559
▁pró	-560
ter	-561
▁impor	-562
▁cri	-563
▁melh	-564
▁Isto	-565
▁nosso	-566
▁aos	-567
ân	-568
▁encont	-569
▁tudo	-570
gunt	-571
▁fil	-572
inda	-573
cial	-574
▁vi	-575
rios	-576
▁Pod	-577
▁sa	-578
plo	-579
▁const	-580
olog	-581
▁nun	-582
▁trans	-583
▁bem	-584
▁tec	-585
▁pl	-586
▁escol	-587
agem	-588
veis	-589
▁cap	-590
ust	-591
▁estamos	-592
▁real	-593
rav	-594
alv	-595
▁..	-596
▁falar	-597
▁mud	-598
za	-599
▁inv	-600
▁...	-601
▁apre	-602
▁sist	-603
▁estas	-604
én	-605
ele	-606
iam	-607
itu	-608
ador	-609
pa	-610
hos	-611
dos	-612
▁nov	-613
no	-614
tas	-615
▁pass	-616
▁ide	-617
▁Quando	-618
▁ad	-619
▁vocês	-620
uro	-621
▁grande	-622
▁tipo	-623
▁país	-624
▁espe	-625
ja	-626
par	-627
eito	-628
adores	-629
ima	-630
▁tr	-631
▁proc	-632
▁tão	-633
rias	-634
▁mat	-635
idas	-636
ição	-637
ela	-638
▁assim	-639
▁máis	-640
igo	-641
▁já	-642
▁son	-643
▁todas	-644
urante	-645
▁desen	-646
ib	-647
▁pensar	-648
▁poss	-649
▁estar	-650
des	-651
itar	-652
▁ainda	-653
ceb	-654
con	-655
▁exem	-656
▁pres	-657
rg	-658
qui	-659
▁seus	-660
íamos	-661
▁ela	-662
ifica	-663
tanto	-664
guém	-665
ivo	-666
▁verdade	-667
▁resp	-668
uns	-669
▁pouco	-670
▁pelo	-671
▁pela	-672
avam	-673
▁outros	-674
▁ci	-675
▁estes	-676
▁lev	-677
▁milh	-678
▁pergunt	-679
he	-680
▁realmente	-681
▁melhor	-682
▁mulher	-683
▁aprend	-684
▁conf	-685
▁prof	-686
▁exist	-687
▁tecn	-688
unt	-689
éd	-690
▁Como	-691
▁pen	-692
▁vezes	-693
▁vai	-694
lar	-695
ite	-696
las	-697
▁outra	-698
▁op	-699
▁compl	-700
▁%	-701
ora	-702
▁3	-703
▁trabalho	-704
▁problema	-705
▁most	-706
▁deix	-707
inar	-708
orte	-709
emente	-710
hec	-711
istas	-712
▁Agora	-713
▁funcion	-714
ável	-715
▁qualquer	-716
▁crian	-717
▁sol	-718
▁cheg	-719
▁ro	-720
▁ext	-721
▁inform	-722
▁Há	-723
▁dire	-724
▁♫	-725
▁ano	-726
▁comun	-727
▁Em	-728
▁sign	-729
ira	-730
▁af	-731
▁mar	-732
ologia	-733
ing	-734
ex	-735
▁aj	-736
red	-737
alvez	-738
ult	-739
ion	-740
▁sempre	-741
▁som	-742
▁simpl	-743
▁ag	-744
iva	-745
erra	-746
▁hom	-747
▁Porque	-748
▁du	-749
▁menos	-750
cias	-751
▁aut	-752
▁exemplo	-753
▁toda	-754
▁nossos	-755
▁Esta	-756
▁fiz	-757
elo	-758
▁lon	-759
▁constru	-760
pe	-761
▁milhões	-762
▁Al	-763
▁lá	-764
▁hoje	-765
▁dev	-766
▁importante	-767
▁história	-768
▁fin	-769
▁ol	-770
duz	-771
▁dois	-772
lu	-773
emas	-774
▁mod	-775
▁desco	-776
▁durante	-777
▁vis	-778
▁sistema	-779
und	-780
▁cu	-781
▁seg	-782
antes	-783
ala	-784
imo	-785
▁ind	-786
▁Na	-787
▁pequen	-788
▁outro	-789
per	-790
▁ideia	-791
tu	-792
▁tiv	-793
endo	-794
ord	-795
ano	-796
lt	-797
inu	-798
são	-799
▁nunca	-800
icamente	-801
▁av	-802
ário	-803
▁mom	-804
▁dem	-805
gua	-806
has	-807
▁acontece	-808
▁lugar	-809
▁dif	-810
▁outras	-811
rica	-812
▁dar	-813
az	-814
▁Este	-815
#9	-816
▁&#9	-817
▁fam	-818
▁bas	-819
▁sub	-820
▁Un	-821
▁reg	-822
▁imag	-823
▁Portanto	-824
▁Es	-825
▁às	-826
▁Ob	-827
▁então	-828
▁for	-829
▁mim	-830
úm	-831
▁Ch	-832
▁muitas	-833
erg	-834
xe	-835
iu	-836
▁usar	-837
iliz	-838
▁simples	-839
▁lado	-840
▁primeira	-841
▁três	-842
▁últ	-843
▁inst	-844
▁casa	-845
▁rep	-846
los	-847
▁desenvol	-848
▁viv	-849
▁contra	-850
▁20	-851
▁cr	-852
▁alguns	-853
▁antes	-854
tes	-855
▁meus	-856
▁palav	-857
▁estud	-858
na	-859
▁perm	-860
▁W	-861
ov	-862
quanto	-863
▁rel	-864
▁ó	-865
ino	-866
▁muitos	-867
ular	-868
▁momento	-869
▁primeiro	-870
▁5	-871
aria	-872
enh	-873
das	-874
▁atrav	-875
esse	-876
▁diferentes	-877
▁espa	-878
▁criar	-879
▁ant	-880
▁fot	-881
eiros	-882
▁cent	-883
▁prov	-884
▁próp	-885
ús	-886
ilo	-887
▁can	-888
▁significa	-889
▁!	-890
▁ne	-891
▁estou	-892
▁experi	-893
iais	-894
▁loc	-895
▁facto	-896
▁ef	-897
eb	-898
cos	-899
▁esse	-900
▁nossas	-901
form	-902
▁vou	-903
▁essa	-904
iar	-905
▁ún	-906
▁min	-907
eio	-908
▁hav	-909
ga	-910
000	-911
▁duas	-912
▁prot	-913
▁quest	-914
rib	-915
▁empres	-916
rem	-917
▁Is	-918
▁suas	-919
▁liv	-920
der	-921
ações	-922
▁econ	-923
▁-	-924
▁gu	-925
erv	-926
▁sé	-927
▁dec	-928
ej	-929
ás	-930
▁raz	-931
▁dist	-932
ender	-933
eta	-934
▁núm	-935
ral	-936
▁nada	-937
▁tenho	-938
ét	-939
▁Ele	-940
car	-941
▁neste	-942
▁méd	-943
▁Fo	-944
▁apar	-945
▁seja	-946
▁Bem	-947
▁cére	-948
▁tentar	-949
▁met	-950
ências	-951
inho	-952
▁amb	-953
▁lig	-954
▁invest	-955
▁mulheres	-956
rut	-957
▁pessoa	-958
bri	-959
▁cul	-960
▁Obrig	-961
▁talvez	-962
óm	-963
▁cal	-964
eram	-965
▁bo	-966
ilidade	-967
▁mi	-968
igos	-969
▁neg	-970
▁quem	-971
ña	-972
ismo	-973
▁vamos	-974
ons	-975
▁mor	-976
▁acab	-977
▁conhec	-978
▁interess	-979
▁pu	-980
▁Para	-981
▁4	-982
▁mal	-983
▁quero	-984
▁Um	-985
▁gen	-986
▁crianças	-987
▁val	-988
▁ens	-989
ários	-990
▁volta	-991
culo	-992
▁fut	-993
▁prog	-994
▁prop	-995
▁cres	-996
▁olh	-997
▁org	-998
entemente	-999
▁Mu	-1000
▁plan	-1001
dut	-1002
▁def	-1003
▁10	-1004
▁uns	-1005
▁cerca	-1006
anç	-1007
▁gru	-1008
▁not	-1009
ana	-1010
ital	-1011
encia	-1012
▁baix	-1013
▁olhar	-1014
raf	-1015
ramos	-1016
▁novo	-1017
▁polít	-1018
▁continu	-1019
▁mã	-1020
▁algumas	-1021
▁tecnologia	-1022
igu	-1023
íl	-1024
ença	-1025
▁pes	-1026
▁K	-1027
▁Tod	-1028
▁vo	-1029
▁ins	-1030
▁univer	-1031
▁go	-1032
eles	-1033
tamente	-1034
▁er	-1035
▁dados	-1036
▁tam	-1037
▁nec	-1038
▁dent	-1039
▁desc	-1040
▁mesma	-1041
▁19	-1042
indo	-1043
▁ca	-1044
enta	-1045
▁;	-1046
▁alguém	-1047
íveis	-1048
gem	-1049
▁cab	-1050
▁sou	-1051
▁através	-1052
▁enquanto	-1053
rás	-1054
éc	-1055
lul	-1056
▁caus	-1057
ração	-1058
▁realidade	-1059
▁pra	-1060
posta	-1061
▁feito	-1062
edade	-1063
▁Temos	-1064
eiras	-1065
▁perso	-1066
▁En	-1067
ric	-1068
▁vão	-1069
▁cérebro	-1070
rim	-1071
▁gra	-1072
▁ajud	-1073
ific	-1074
▁Uma	-1075
▁junt	-1076
cional	-1077
ub	-1078
▁conc	-1079
▁dias	-1080
▁célul	-1081
ços	-1082
▁li	-1083
▁oc	-1084
▁Foi	-1085
▁bom	-1086
▁nem	-1087
▁eram	-1088
▁energ	-1089
ual	-1090
ivos	-1091
apos	-1092
▁sex	-1093
▁clar	-1094
▁diferente	-1095
ental	-1096
rança	-1097
▁ouv	-1098
▁cre	-1099
ses	-1100
▁soci	-1101
▁informação	-1102
▁elas	-1103
▁via	-1104
▁água	-1105
▁desta	-1106
up	-1107
ática	-1108
▁compre	-1109
ef	-1110
amentos	-1111
ância	-1112
▁Nós	-1113
▁trabalhar	-1114
úbl	-1115
▁dentro	-1116
rer	-1117
hamos	-1118
▁encontrar	-1119
atro	-1120
ária	-1121
▁fos	-1122
▁anim	-1123
▁art	-1124
▁tal	-1125
▁tar	-1126
▁acred	-1127
ocar	-1128
▁Pero	-1129
ip	-1130
▁difíci	-1131
▁futuro	-1132
íf	-1133
erc	-1134
ect	-1135
▁Á	-1136
▁fá	-1137
▁Eles	-1138
▁disso	-1139
ím	-1140
▁mudar	-1141
▁difícil	-1142
óg	-1143
inas	-1144
▁luz	-1145
▁altura	-1146
▁cin	-1147
▁Isso	-1148
▁famíl	-1149
▁começar	-1150
inham	-1151
emb	-1152
anos	-1153
ceber	-1154
▁foram	-1155
▁quase	-1156
izar	-1157
▁corpo	-1158
▁contro	-1159
▁países	-1160
▁is	-1161
uma	-1162
volu	-1163
▁lim	-1164
▁Con	-1165
ide	-1166
ión	-1167
▁ped	-1168
▁hai	-1169
▁base	-1170
▁espaço	-1171
▁precisamos	-1172
▁penso	-1173
▁saber	-1174
▁problemas	-1175
ício	-1176
▁fer	-1177
▁sei	-1178
▁tom	-1179
▁acontecer	-1180
lhe	-1181
sei	-1182
▁dó	-1183
▁ví	-1184
este	-1185
▁expl	-1186
▁Ac	-1187
inheiro	-1188
rado	-1189
▁mant	-1190
▁cient	-1191
▁somos	-1192
▁sido	-1193
anh	-1194
▁sú	-1195
▁ut	-1196
▁dólar	-1197
▁sabemos	-1198
▁número	-1199
cil	-1200
▁fic	-1201
▁cando	-1202
▁palavras	-1203
▁resposta	-1204
▁norm	-1205
▁dinheiro	-1206
úde	-1207
▁desde	-1208
ança	-1209
▁prin	-1210
eça	-1211
vamos	-1212
▁públ	-1213
▁alguma	-1214
min	-1215
▁si	-1216
▁deste	-1217
▁claro	-1218
▁desenvolv	-1219
▁aum	-1220
▁moi	-1221
úsica	-1222
▁bi	-1223
áveis	-1224
▁cara	-1225
eral	-1226
▁cresc	-1227
▁necess	-1228
▁gover	-1229
▁próx	-1230
▁nova	-1231
▁facer	-1232
ian	-1233
▁xente	-1234
▁energia	-1235
oria	-1236
▁program	-1237
ização	-1238
▁descobri	-1239
unto	-1240
▁ref	-1241
▁comput	-1242
▁obs	-1243
inhas	-1244
▁rela	-1245
elmente	-1246
▁In	-1247
▁nesta	-1248
ern	-1249
▁ma	-1250
▁seria	-1251
▁mostrar	-1252
ião	-1253
▁partil	-1254
jet	-1255
▁conver	-1256
▁bastante	-1257
▁escola	-1258
ui	-1259
▁result	-1260
para	-1261
▁fora	-1262
▁Des	-1263
▁modo	-1264
▁maneira	-1265
and	-1266
ron	-1267
semos	-1268
af	-1269
ham	-1270
▁ev	-1271
eliz	-1272
enci	-1273
▁Par	-1274
▁glo	-1275
▁saúde	-1276
eias	-1277
ial	-1278
oso	-1279
▁dólares	-1280
▁estavam	-1281
▁Sab	-1282
▁organ	-1283
▁200	-1284
▁ben	-1285
▁vemos	-1286
▁humanos	-1287
▁essas	-1288
éci	-1289
▁escre	-1290
▁fazem	-1291
▁edu	-1292
▁áre	-1293
▁ret	-1294
▁deles	-1295
▁espéci	-1296
íst	-1297
▁sin	-1298
▁utiliz	-1299
rei	-1300
▁eng	-1301
▁local	-1302
▁Depois	-1303
▁gost	-1304
▁meio	-1305
▁cidade	-1306
ch	-1307
rada	-1308
▁Int	-1309
sem	-1310
ást	-1311
▁dun	-1312
ições	-1313
▁parece	-1314
erior	-1315
▁ata	-1316
▁comb	-1317
▁longo	-1318
▁tinham	-1319
▁grandes	-1320
▁bar	-1321
ven	-1322
▁quanto	-1323
âm	-1324
▁♪	-1325
▁fl	-1326
enho	-1327
▁vel	-1328
▁cur	-1329
rou	-1330
abora	-1331
▁ponto	-1332
▁questão	-1333
▁8	-1334
▁fe	-1335
arem	-1336
▁dig	-1337
▁ficar	-1338
olo	-1339
▁apl	-1340
▁pais	-1341
▁ambi	-1342
▁pero	-1343
ún	-1344
▁nin	-1345
▁super	-1346
▁experiência	-1347
imentos	-1348
▁transform	-1349
▁ve	-1350
ecto	-1351
icion	-1352
▁pequeno	-1353
▁possível	-1354
▁apro	-1355
▁decid	-1356
▁cultura	-1357
▁aprender	-1358
eric	-1359
▁Non	-1360
ine	-1361
tor	-1362
▁produt	-1363
1;	-1364
ast	-1365
pas	-1366
▁&#91;	-1367
▁enorm	-1368
▁células	-1369
aba	-1370
ogo	-1371
▁hab	-1372
ortun	-1373
▁verd	-1374
▁viol	-1375
▁Podemos	-1376
rutura	-1377
▁razão	-1378
▁Obrigado	-1379
án	-1380
fici	-1381
▁ali	-1382
▁and	-1383
▁9	-1384
▁fim	-1385
▁certo	-1386
▁meses	-1387
▁recon	-1388
acidade	-1389
▁humano	-1390
▁6	-1391
▁Aqui	-1392
ax	-1393
osa	-1394
iram	-1395
avelmente	-1396
cas	-1397
unda	-1398
▁econom	-1399
▁sof	-1400
▁vir	-1401
▁São	-1402
▁sal	-1403
▁tot	-1404
▁cir	-1405
▁caso	-1406
▁quant	-1407
▁jov	-1408
▁tanto	-1409
▁7	-1410
▁mov	-1411
▁extra	-1412
▁fís	-1413
▁passado	-1414
dor	-1415
▁ed	-1416
ecem	-1417
▁gente	-1418
3;	-1419
▁Vou	-1420
▁&#93;	-1421
▁pequena	-1422
▁permit	-1423
▁Ou	-1424
▁aí	-1425
rente	-1426
▁fra	-1427
▁mic	-1428
▁deb	-1429
▁pop	-1430
ró	-1431
▁mot	-1432
▁cous	-1433
▁il	-1434
tiva	-1435
ende	-1436
▁ado	-1437
▁Vamos	-1438
▁grupo	-1439
▁chegar	-1440
▁z	-1441
▁lin	-1442
▁vossa	-1443
ér	-1444
▁ris	-1445
cip	-1446
jeto	-1447
duzir	-1448
▁será	-1449
omos	-1450
▁verdad	-1451
▁sur	-1452
▁havia	-1453
ge	-1454
▁oportun	-1455
cio	-1456
▁mãe	-1457
▁nenh	-1458
▁conseguir	-1459
▁observ	-1460
▁tornar	-1461
cións	-1462
▁Todos	-1463
▁única	-1464
▁global	-1465
▁segundo	-1466
anha	-1467
▁cinco	-1468
▁sabem	-1469
▁imagem	-1470
ard	-1471
ecei	-1472
▁fez	-1473
▁nível	-1474
▁ajudar	-1475
▁família	-1476
▁importa	-1477
▁Ass	-1478
eração	-1479
icação	-1480
deo	-1481
▁homem	-1482
rit	-1483
uda	-1484
▁mol	-1485
▁equi	-1486
▁resol	-1487
br	-1488
uc	-1489
▁Así	-1490
▁acho	-1491
▁amigos	-1492
▁aquilo	-1493
▁quatro	-1494
▁construir	-1495
▁Mar	-1496
▁estado	-1497
▁X	-1498
▁Am	-1499
ório	-1500
▁maioria	-1501
▁procura	-1502
ograf	-1503
té	-1504
ál	-1505
elas	-1506
iga	-1507
iqu	-1508
▁comunidade	-1509
▁emp	-1510
▁empre	-1511
▁liber	-1512
vis	-1513
enso	-1514
▁exc	-1515
▁preoc	-1516
▁homens	-1517
▁Era	-1518
frica	-1519
▁obrig	-1520
uso	-1521
anas	-1522
▁tent	-1523
▁novas	-1524
▁ru	-1525
▁Que	-1526
▁teñ	-1527
▁causa	-1528
▁Ex	-1529
▁Re	-1530
▁boa	-1531
▁pud	-1532
▁sala	-1533
▁social	-1534
▁perceber	-1535
ór	-1536
▁intel	-1537
▁chamado	-1538
▁sociedade	-1539
▁medic	-1540
▁perceb	-1541
▁complex	-1542
▁rá	-1543
▁medo	-1544
▁capaz	-1545
▁existe	-1546
▁repres	-1547
sidade	-1548
▁interessante	-1549
▁apo	-1550
quele	-1551
▁fund	-1552
▁horas	-1553
UA	-1554
▁15	-1555
▁Ela	-1556
▁det	-1557
▁pap	-1558
▁Quer	-1559
▁partir	-1560
▁queremos	-1561
▁EUA	-1562
▁san	-1563
▁pont	-1564
▁desaf	-1565
▁viver	-1566
anho	-1567
▁peg	-1568
▁Terra	-1569
▁diver	-1570
ress	-1571
▁processo	-1572
▁Sim	-1573
▁formas	-1574
embro	-1575
árias	-1576
▁baixo	-1577
▁natura	-1578
▁África	-1579
▁seguint	-1580
enção	-1581
▁Assim	-1582
▁vosso	-1583
gue	-1584
▁fix	-1585
▁Intern	-1586
▁contar	-1587
ond	-1588
hes	-1589
▁súa	-1590
▁empresas	-1591
▁pai	-1592
▁sens	-1593
▁atrás	-1594
▁estiv	-1595
▁funciona	-1596
mas	-1597
ula	-1598
▁50	-1599
▁100	-1600
▁Quero	-1601
▁matem	-1602
▁sentido	-1603
▁Internet	-1604
acto	-1605
▁destas	-1606
▁histórias	-1607
eza	-1608
ola	-1609
pid	-1610
vil	-1611
▁corre	-1612
▁indiv	-1613
óp	-1614
▁Pre	-1615
▁enc	-1616
culos	-1617
▁dest	-1618
▁trat	-1619
ológ	-1620
reza	-1621
▁sec	-1622
▁disc	-1623
▁iso	-1624
▁merc	-1625
▁solu	-1626
▁aconteceu	-1627
▁pri	-1628
▁Podem	-1629
▁sen	-1630
rível	-1631
▁Está	-1632
▁canc	-1633
▁educ	-1634
▁nome	-1635
▁comport	-1636
óns	-1637
▁pag	-1638
▁perf	-1639
▁frente	-1640
▁30	-1641
▁fre	-1642
▁mens	-1643
▁minut	-1644
▁noite	-1645
▁podia	-1646
▁complet	-1647
iado	-1648
▁ciência	-1649
▁fazemos	-1650
ivas	-1651
▁acer	-1652
▁situ	-1653
▁fosse	-1654
▁Co	-1655
▁Pro	-1656
armos	-1657
▁princip	-1658
dio	-1659
ono	-1660
zas	-1661
idente	-1662
hares	-1663
oca	-1664
tivo	-1665
▁dic	-1666
▁test	-1667
vo	-1668
▁pad	-1669
culas	-1670
▁quis	-1671
▁ferram	-1672
ificar	-1673
▁esses	-1674
▁fácil	-1675
▁pelos	-1676
▁vidas	-1677
son	-1678
▁posso	-1679
▁consci	-1680
▁estrutura	-1681
ulação	-1682
pend	-1683
▁soc	-1684
▁preciso	-1685
▁construí	-1686
ót	-1687
▁Muito	-1688
▁quais	-1689
▁sufici	-1690
▁profess	-1691
rad	-1692
erem	-1693
▁enorme	-1694
▁investig	-1695
▁milhares	-1696
emó	-1697
jam	-1698
▁Ap	-1699
▁máqu	-1700
be	-1701
▁or	-1702
▁filhos	-1703
enças	-1704
▁termos	-1705
▁Estamos	-1706
vor	-1707
orre	-1708
quis	-1709
▁igu	-1710
▁queria	-1711
▁caminho	-1712
▁especial	-1713
▁conseguimos	-1714
bo	-1715
eros	-1716
▁tarde	-1717
▁ninguém	-1718
▁pergunta	-1719
▁men	-1720
▁estran	-1721
anc	-1722
edes	-1723
▁animais	-1724
▁mudança	-1725
▁planeta	-1726
▁capacidade	-1727
xo	-1728
▁Só	-1729
ares	-1730
▁arte	-1731
▁destes	-1732
▁espécie	-1733
▁mara	-1734
▁guerra	-1735
▁sentir	-1736
ris	-1737
▁voz	-1738
essem	-1739
▁inclu	-1740
▁sociais	-1741
▁universo	-1742
inem	-1743
▁música	-1744
▁passar	-1745
ED	-1746
▁comecei	-1747
ise	-1748
ráf	-1749
eria	-1750
▁emb	-1751
▁conta	-1752
ramente	-1753
gos	-1754
ril	-1755
▁fant	-1756
▁final	-1757
▁cousas	-1758
iss	-1759
▁ing	-1760
ínhamos	-1761
▁comida	-1762
▁deixar	-1763
▁ambiente	-1764
▁Y	-1765
eno	-1766
iões	-1767
lhes	-1768
ribu	-1769
▁sup	-1770
quela	-1771
▁design	-1772
▁últimos	-1773
▁simplesmente	-1774
▁provavelmente	-1775
imas	-1776
▁conj	-1777
▁computador	-1778
íp	-1779
mag	-1780
▁humana	-1781
▁imagens	-1782
▁vê	-1783
▁Voc	-1784
▁cuid	-1785
▁pers	-1786
▁muita	-1787
▁Também	-1788
▁ideias	-1789
▁miña	-1790
▁valor	-1791
▁chamada	-1792
▁completamente	-1793
esar	-1794
▁rede	-1795
▁passo	-1796
▁tipos	-1797
▁ba	-1798
▁fui	-1799
▁mort	-1800
▁fotograf	-1801
▁pot	-1802
ación	-1803
▁publ	-1804
▁tele	-1805
▁económ	-1806
ejo	-1807
▁Nova	-1808
▁lemb	-1809
▁papel	-1810
▁rem	-1811
entas	-1812
▁acerca	-1813
▁melhores	-1814
▁enf	-1815
ático	-1816
icular	-1817
▁certa	-1818
▁especi	-1819
▁000	-1820
▁envi	-1821
ie	-1822
pera	-1823
▁Per	-1824
▁div	-1825
▁alte	-1826
zo	-1827
osos	-1828
▁cond	-1829
▁carro	-1830
▁livro	-1831
▁tamén	-1832
▁seguir	-1833
▁dim	-1834
dução	-1835
▁apres	-1836
▁receb	-1837
▁cancro	-1838
▁querem	-1839
art	-1840
▁disp	-1841
▁política	-1842
ostas	-1843
▁Estas	-1844
▁minhas	-1845
▁empresa	-1846
▁projeto	-1847
▁seguinte	-1848
ug	-1849
ari	-1850
inal	-1851
▁emo	-1852
▁dela	-1853
▁vídeo	-1854
▁Le	-1855
▁beb	-1856
▁padr	-1857
▁aquela	-1858
osta	-1859
▁TED	-1860
▁ráp	-1861
▁Euro	-1862
▁k	-1863
▁Alg	-1864
▁tel	-1865
▁dele	-1866
▁levar	-1867
▁modelo	-1868
▁voltar	-1869
apar	-1870
▁mão	-1871
▁edif	-1872
▁ment	-1873
▁aquele	-1874
▁flores	-1875
▁labora	-1876
▁trabalh	-1877
▁oportunidade	-1878
erá	-1879
rito	-1880
ícios	-1881
abilidade	-1882
ne	-1883
ãos	-1884
ectos	-1885
▁neuro	-1886
▁ouvir	-1887
ód	-1888
▁Já	-1889
▁aber	-1890
▁Risas	-1891
▁medida	-1892
▁século	-1893
▁Ho	-1894
▁equ	-1895
▁esqu	-1896
▁fazê	-1897
▁sint	-1898
▁criança	-1899
▁grav	-1900
▁estre	-1901
▁evolu	-1902
▁ident	-1903
▁início	-1904
▁existem	-1905
▁natural	-1906
ordo	-1907
▁están	-1908
▁respons	-1909
undial	-1910
▁delas	-1911
eix	-1912
úst	-1913
▁ace	-1914
▁trad	-1915
▁coleg	-1916
▁envol	-1917
▁famil	-1918
▁sobrev	-1919
leo	-1920
uais	-1921
ensão	-1922
▁perd	-1923
▁tant	-1924
encial	-1925
▁democ	-1926
▁morte	-1927
▁passa	-1928
▁público	-1929
agens	-1930
rando	-1931
▁seis	-1932
▁intelig	-1933
ua	-1934
▁Ao	-1935
▁ur	-1936
▁Estou	-1937
▁comer	-1938
▁Talvez	-1939
▁doença	-1940
▁sistemas	-1941
rin	-1942
▁dá	-1943
▁cust	-1944
osp	-1945
vam	-1946
▁AD	-1947
elho	-1948
ites	-1949
▁disto	-1950
▁respon	-1951
▁aqueles	-1952
▁palavra	-1953
ler	-1954
elha	-1955
▁bat	-1956
▁esf	-1957
▁coma	-1958
▁olhos	-1959
ivamente	-1960
▁governo	-1961
▁particular	-1962
▁desenvolvimento	-1963
nas	-1964
rais	-1965
▁ADN	-1966
▁che	-1967
▁lit	-1968
▁Pens	-1969
▁alim	-1970
▁cima	-1971
▁mont	-1972
▁único	-1973
uras	-1974
▁ban	-1975
iança	-1976
▁paci	-1977
▁objet	-1978
▁Precis	-1979
▁cidades	-1980
▁segunda	-1981
rir	-1982
▁déc	-1983
▁demas	-1984
▁poderia	-1985
▁lí	-1986
ndia	-1987
▁map	-1988
▁aper	-1989
▁frequ	-1990
▁pensei	-1991
▁fantást	-1992
▁pet	-1993
▁salv	-1994
▁feliz	-1995
▁locais	-1996
▁começou	-1997
▁Go	-1998
ront	-1999
▁lhe	-2000
ançar	-2001
▁descobrir	-2002
mes	-2003
▁pi	-2004
▁além	-2005
▁relação	-2006
▁economia	-2007
▁conseguem	-2008
▁i	-2009
oma	-2010
aixo	-2011
▁201	-2012
▁impl	-2013
▁dizem	-2014
▁parec	-2015
▁fundam	-2016
▁Estados	-2017
lor	-2018
▁on	-2019
▁tive	-2020
▁defin	-2021
ba	-2022
cep	-2023
etas	-2024
eriam	-2025
▁negó	-2026
▁carros	-2027
▁consid	-2028
▁minutos	-2029
adora	-2030
▁decis	-2031
▁Obrigada	-2032
▁suc	-2033
▁Deus	-2034
▁explo	-2035
▁conjunto	-2036
▁tínhamos	-2037
ren	-2038
▁irm	-2039
▁Prim	-2040
▁fizemos	-2041
▁institu	-2042
▁Ok	-2043
teza	-2044
tação	-2045
▁área	-2046
▁Estes	-2047
▁ajuda	-2048
▁idade	-2049
alidade	-2050
▁científ	-2051
posit	-2052
▁semanas	-2053
▁pequenos	-2054
▁mec	-2055
▁anal	-2056
▁Tenho	-2057
asse	-2058
▁rob	-2059
▁hora	-2060
▁recur	-2061
▁pesquis	-2062
▁dú	-2063
hecer	-2064
▁deter	-2065
▁estra	-2066
▁tamanho	-2067
▁segurança	-2068
▁totalmente	-2069
ama	-2070
▁ár	-2071
▁hou	-2072
▁coloc	-2073
▁sabia	-2074
▁Unidos	-2075
▁mesmos	-2076
sar	-2077
▁ec	-2078
elos	-2079
▁estudo	-2080
▁maiores	-2081
gn	-2082
cios	-2083
▁Mais	-2084
▁hosp	-2085
▁melho	-2086
▁prote	-2087
mit	-2088
▁Out	-2089
▁bac	-2090
▁lid	-2091
▁alun	-2092
▁natu	-2093
▁Penso	-2094
▁campo	-2095
▁próprio	-2096
ño	-2097
inhos	-2098
▁arqu	-2099
▁caix	-2100
▁visão	-2101
▁consum	-2102
▁intera	-2103
▁jovens	-2104
▁importantes	-2105
▁Mo	-2106
▁asp	-2107
ativa	-2108
▁espec	-2109
eu	-2110
▁cad	-2111
▁far	-2112
ética	-2113
▁camb	-2114
▁Vocês	-2115
▁novos	-2116
entação	-2117
▁natureza	-2118
▁obrigado	-2119
▁diferença	-2120
▁miú	-2121
▁traz	-2122
▁dicir	-2123
▁surpre	-2124
igas	-2125
iquei	-2126
▁escala	-2127
▁semana	-2128
▁uso	-2129
▁insp	-2130
▁seres	-2131
▁teñen	-2132
▁comigo	-2133
▁colocar	-2134
▁população	-2135
gas	-2136
ume	-2137
▁teve	-2138
▁manter	-2139
▁palest	-2140
▁maravil	-2141
▁persoas	-2142
▁pensamos	-2143
▁compreender	-2144
▁ferramentas	-2145
▁saí	-2146
▁lhes	-2147
▁nest	-2148
▁serem	-2149
▁depres	-2150
ona	-2151
osto	-2152
unha	-2153
erial	-2154
▁rapid	-2155
▁Europa	-2156
▁partes	-2157
▁CA	-2158
▁Tem	-2159
▁bol	-2160
▁ven	-2161
▁Imag	-2162
▁bran	-2163
▁favor	-2164
▁ps	-2165
usão	-2166
▁ato	-2167
posto	-2168
▁conv	-2169
▁moito	-2170
▁rapar	-2171
▁vista	-2172
▁imaginar	-2173
▁resolver	-2174
▁confiança	-2175
▁jorn	-2176
▁orig	-2177
▁persp	-2178
▁indúst	-2179
▁estudantes	-2180
cer	-2181
ulo	-2182
inos	-2183
▁tro	-2184
issão	-2185
ávamos	-2186
bra	-2187
bres	-2188
▁coa	-2189
▁hip	-2190
▁pat	-2191
▁cere	-2192
▁mente	-2193
▁normal	-2194
▁último	-2195
▁situação	-2196
eo	-2197
ermos	-2198
▁sabe	-2199
▁terc	-2200
▁cento	-2201
▁risco	-2202
▁transp	-2203
▁acredit	-2204
▁atenção	-2205
▁25	-2206
▁así	-2207
▁tan	-2208
▁tre	-2209
▁cant	-2210
▁longe	-2211
▁pelas	-2212
▁preocup	-2213
▁resultado	-2214
xim	-2215
▁Fa	-2216
▁aquí	-2217
▁você	-2218
▁servi	-2219
▁democra	-2220
▁violência	-2221
odo	-2222
▁pô	-2223
▁sít	-2224
▁amor	-2225
écn	-2226
▁Ar	-2227
iste	-2228
▁inov	-2229
▁molé	-2230
▁polo	-2231
▁torna	-2232
▁centenas	-2233
▁partilhar	-2234
▁ler	-2235
▁ult	-2236
▁tend	-2237
edades	-2238
▁terra	-2239
▁cabeça	-2240
▁Primeiro	-2241
▁conhecimento	-2242
▁40	-2243
▁Do	-2244
edia	-2245
▁bal	-2246
▁deve	-2247
▁volt	-2248
▁impacto	-2249
ibilidade	-2250
▁pequenas	-2251
▁crescimento	-2252
quê	-2253
ían	-2254
▁alc	-2255
▁obter	-2256
▁perto	-2257
▁americ	-2258
▁última	-2259
▁educação	-2260
▁entender	-2261
▁demasiado	-2262
pt	-2263
ques	-2264
tual	-2265
▁xen	-2266
tivos	-2267
ícias	-2268
▁bril	-2269
▁pobre	-2270
▁relig	-2271
▁conven	-2272
▁entrar	-2273
▁equipa	-2274
▁própria	-2275
one	-2276
▁nosa	-2277
▁priv	-2278
▁sair	-2279
inação	-2280
▁começa	-2281
iro	-2282
ror	-2283
▁neur	-2284
emento	-2285
▁redes	-2286
▁usando	-2287
▁organiz	-2288
▁sucesso	-2289
▁incrível	-2290
▁relacion	-2291
▁rapidamente	-2292
zes	-2293
▁amos	-2294
▁sust	-2295
▁séri	-2296
▁técn	-2297
▁ating	-2298
▁micro	-2299
▁esquer	-2300
▁escrever	-2301
▁comportamento	-2302
▁w	-2303
cha	-2304
ill	-2305
anhar	-2306
▁pint	-2307
▁dever	-2308
▁áreas	-2309
▁tornou	-2310
▁certeza	-2311
▁entanto	-2312
▁laborat	-2313
oto	-2314
▁Jo	-2315
▁az	-2316
icado	-2317
▁prob	-2318
▁umas	-2319
▁lingu	-2320
▁espera	-2321
▁grupos	-2322
▁livros	-2323
ers	-2324
sol	-2325
ólo	-2326
▁12	-2327
cula	-2328
eceu	-2329
isse	-2330
érica	-2331
▁amigo	-2332
▁cerebro	-2333
▁portanto	-2334
▁experiências	-2335
▁fas	-2336
▁gas	-2337
▁vem	-2338
▁quím	-2339
▁surg	-2340
▁nenhum	-2341
▁visual	-2342
▁doenças	-2343
▁matemática	-2344
▁resultados	-2345
alo	-2346
ced	-2347
xía	-2348
esta	-2349
orda	-2350
▁Nat	-2351
▁Tra	-2352
▁lín	-2353
▁Hoje	-2354
▁exat	-2355
▁quar	-2356
▁sete	-2357
ologias	-2358
▁partici	-2359
▁Í	-2360
jar	-2361
ícia	-2362
▁mist	-2363
brimos	-2364
▁compet	-2365
▁disseram	-2366
▁Nos	-2367
▁doc	-2368
▁mag	-2369
▁sob	-2370
▁mult	-2371
▁resto	-2372
▁pobres	-2373
eralmente	-2374
▁professores	-2375
ám	-2376
irar	-2377
▁carb	-2378
▁rapa	-2379
▁China	-2380
▁carre	-2381
▁enfer	-2382
▁estab	-2383
▁igual	-2384
▁proteg	-2385
▁extraord	-2386
▁movimento	-2387
▁pá	-2388
áticas	-2389
▁plant	-2390
▁trata	-2391
ualmente	-2392
▁colegas	-2393
▁desapar	-2394
urg	-2395
orque	-2396
▁Tudo	-2397
▁comez	-2398
▁força	-2399
▁mercado	-2400
▁precisa	-2401
▁material	-2402
▁recursos	-2403
▁perguntas	-2404
ixo	-2405
omp	-2406
▁xa	-2407
anças	-2408
▁logo	-2409
▁linha	-2410
▁médico	-2411
▁Imaginem	-2412
▁precisam	-2413
uto	-2414
▁Ora	-2415
▁día	-2416
róleo	-2417
▁mill	-2418
▁perc	-2419
▁arran	-2420
▁dessas	-2421
▁lugares	-2422
▁máquina	-2423
▁prepara	-2424
▁Precisamos	-2425
▁finalmente	-2426
▁suficiente	-2427
ías	-2428
ucle	-2429
▁comum	-2430
▁série	-2431
▁tiver	-2432
▁petróleo	-2433
▁continuar	-2434
ejam	-2435
▁direc	-2436
▁exper	-2437
▁nucle	-2438
cionais	-2439
▁conversa	-2440
▁descober	-2441
▁estávamos	-2442
▁funcionar	-2443
ól	-2444
amo	-2445
ire	-2446
▁lo	-2447
índa	-2448
▁sil	-2449
▁tax	-2450
rados	-2451
▁Cont	-2452
éssemos	-2453
▁neurón	-2454
▁revolu	-2455
▁médicos	-2456
ate	-2457
ese	-2458
ome	-2459
pia	-2460
▁Ne	-2461
cter	-2462
▁cos	-2463
▁der	-2464
aixão	-2465
▁brin	-2466
icidade	-2467
▁Iorque	-2468
▁extrem	-2469
▁vossos	-2470
▁18	-2471
▁cost	-2472
▁noso	-2473
▁verm	-2474
▁fundo	-2475
▁Música	-2476
▁centro	-2477
▁viagem	-2478
▁números	-2479
▁controlo	-2480
▁tecnologias	-2481
idad	-2482
line	-2483
▁líder	-2484
▁subst	-2485
▁mostra	-2486
▁escolas	-2487
eiramente	-2488
▁indústria	-2489
ang	-2490
osas	-2491
▁ess	-2492
▁gal	-2493
▁sai	-2494
▁nisso	-2495
▁pontos	-2496
▁¿	-2497
rom	-2498
til	-2499
▁ce	-2500
▁alta	-2501
▁resist	-2502
▁fizeram	-2503
▁pregunt	-2504
▁univers	-2505
dou	-2506
rón	-2507
veu	-2508
bios	-2509
▁após	-2510
▁import	-2511
ok	-2512
▁Cada	-2513
▁boas	-2514
▁fica	-2515
▁ouvi	-2516
▁dunha	-2517
▁nisto	-2518
▁acesso	-2519
▁estaba	-2520
▁expres	-2521
▁carbono	-2522
▁programa	-2523
▁primeiros	-2524
▁basicamente	-2525
erto	-2526
▁blo	-2527
▁din	-2528
▁oce	-2529
▁Pode	-2530
▁poden	-2531
▁ensino	-2532
▁juntos	-2533
▁morrer	-2534
▁produtos	-2535
él	-2536
íg	-2537
ena	-2538
▁80	-2539
▁An	-2540
▁ia	-2541
hado	-2542
plos	-2543
ória	-2544
▁boc	-2545
▁rad	-2546
▁Goog	-2547
▁bara	-2548
▁autom	-2549
▁dessa	-2550
▁docum	-2551
▁aumentar	-2552
▁começámos	-2553
▁surpreend	-2554
▁exatamente	-2555
mea	-2556
▁Sem	-2557
▁bon	-2558
▁leg	-2559
eitos	-2560
▁chama	-2561
▁mater	-2562
▁várias	-2563
▁aprendiz	-2564
onst	-2565
▁lut	-2566
ional	-2567
▁Acho	-2568
▁pris	-2569
▁reun	-2570
▁fotos	-2571
▁media	-2572
▁enferm	-2573
▁entend	-2574
▁física	-2575
▁metade	-2576
▁person	-2577
▁América	-2578
▁familiar	-2579
▁quantidade	-2580
ídu	-2581
▁ativ	-2582
▁quad	-2583
▁norte	-2584
▁relat	-2585
▁Google	-2586
▁embora	-2587
▁ensinar	-2588
▁60	-2589
▁ax	-2590
▁Sou	-2591
▁bus	-2592
▁hor	-2593
tores	-2594
▁leva	-2595
▁nout	-2596
entais	-2597
▁parar	-2598
▁sangue	-2599
▁compara	-2600
tra	-2601
▁flu	-2602
▁enfr	-2603
▁benef	-2604
▁refer	-2605
ificado	-2606
▁alunos	-2607
▁prefer	-2608
▁mundial	-2609
▁nenhuma	-2610
▁cientistas	-2611
▁Po	-2612
omas	-2613
éria	-2614
▁ign	-2615
▁vós	-2616
ición	-2617
tivas	-2618
▁Clar	-2619
▁clim	-2620
▁dous	-2621
▁ensin	-2622
▁filho	-2623
▁computadores	-2624
▁dep	-2625
▁dez	-2626
untos	-2627
▁elet	-2628
▁foto	-2629
ultura	-2630
▁clara	-2631
▁haver	-2632
▁jovem	-2633
adamente	-2634
▁Durante	-2635
▁aproxim	-2636
▁individ	-2637
▁melhorar	-2638
▁esperança	-2639
▁perguntar	-2640
▁maravilhos	-2641
lle	-2642
▁aud	-2643
▁cru	-2644
▁lar	-2645
▁crim	-2646
▁cidad	-2647
▁metros	-2648
▁possam	-2649
▁telemó	-2650
viamente	-2651
▁capazes	-2652
▁notícias	-2653
▁democracia	-2654
lex	-2655
▁90	-2656
riam	-2657
▁cha	-2658
▁irá	-2659
minar	-2660
▁agric	-2661
▁revel	-2662
▁teria	-2663
▁arquit	-2664
▁levant	-2665
▁laboratório	-2666
oss	-2667
▁civ	-2668
▁porta	-2669
icações	-2670
▁descon	-2671
▁dispon	-2672
elizmente	-2673
▁tradicion	-2674
▁especialmente	-2675
.000	-2676
▁Aqu	-2677
▁sug	-2678
▁tri	-2679
undos	-2680
▁princ	-2681
▁sejam	-2682
▁tomar	-2683
▁correr	-2684
▁acontec	-2685
▁profund	-2686
▁semelha	-2687
▁próprios	-2688
óx	-2689
çam	-2690
▁Ben	-2691
cular	-2692
▁Deix	-2693
▁peda	-2694
▁pert	-2695
▁Claro	-2696
▁autor	-2697
▁taref	-2698
▁ultra	-2699
▁apesar	-2700
▁mental	-2701
▁pensam	-2702
▁produz	-2703
▁capital	-2704
▁solução	-2705
▁Qual	-2706
▁algu	-2707
▁digo	-2708
▁proj	-2709
▁veem	-2710
▁esfor	-2711
▁nunha	-2712
▁contrá	-2713
▁destru	-2714
▁companh	-2715
▁sobreviv	-2716
ret	-2717
ton	-2718
vem	-2719
ído	-2720
▁Gra	-2721
âmara	-2722
▁gara	-2723
▁gráf	-2724
▁mãos	-2725
▁tenha	-2726
▁visto	-2727
▁Índia	-2728
▁descre	-2729
▁digital	-2730
▁materiais	-2731
▁comunidades	-2732
jo	-2733
▁Oh	-2734
ical	-2735
▁Hai	-2736
▁soz	-2737
entam	-2738
ostos	-2739
▁auto	-2740
▁duma	-2741
▁oito	-2742
▁tirar	-2743
▁devido	-2744
▁desafio	-2745
▁doentes	-2746
▁caracter	-2747
▁pesquisa	-2748
▁extraordin	-2749
▁bás	-2750
▁sat	-2751
▁questões	-2752
▁À	-2753
▁11	-2754
vida	-2755
resso	-2756
▁alto	-2757
▁desp	-2758
▁conce	-2759
▁inici	-2760
▁jornal	-2761
▁estudar	-2762
▁próximo	-2763
▁indivídu	-2764
▁contrário	-2765
▁Af	-2766
▁ju	-2767
guei	-2768
▁And	-2769
▁Cal	-2770
itais	-2771
▁atra	-2772
▁sexo	-2773
▁caixa	-2774
▁estat	-2775
▁possa	-2776
▁telef	-2777
▁acabar	-2778
▁cirurg	-2779
▁superf	-2780
▁permite	-2781
▁historia	-2782
▁mensagem	-2783
eço	-2784
lesc	-2785
▁hipó	-2786
▁robô	-2787
áticos	-2788
ículas	-2789
▁Neste	-2790
▁aínda	-2791
▁entus	-2792
▁falta	-2793
▁princíp	-2794
▁tivesse	-2795
ame	-2796
onos	-2797
ulho	-2798
▁Até	-2799
▁Col	-2800
▁Nun	-2801
▁ord	-2802
▁andar	-2803
▁levou	-2804
▁terem	-2805
▁adolesc	-2806
▁padrões	-2807
▁consegue	-2808
▁explicar	-2809
▁desenvolver	-2810
loc	-2811
ulas	-2812
▁cód	-2813
▁deu	-2814
▁ori	-2815
▁iria	-2816
▁Estão	-2817
ísticas	-2818
▁animal	-2819
ilidades	-2820
▁hipótes	-2821
▁neurónios	-2822
oro	-2823
rão	-2824
▁Car	-2825
▁aval	-2826
▁bura	-2827
▁ofer	-2828
▁recol	-2829
▁efeito	-2830
▁direito	-2831
▁Enquanto	-2832
▁direitos	-2833
▁entusias	-2834
▁começaram	-2835
cin	-2836
cóp	-2837
irm	-2838
ota	-2839
▁et	-2840
▁tu	-2841
▁dir	-2842
▁dor	-2843
▁nav	-2844
▁adul	-2845
▁ingl	-2846
▁mapa	-2847
▁pola	-2848
▁saud	-2849
▁desse	-2850
▁envel	-2851
▁sequer	-2852
▁estiver	-2853
▁tivemos	-2854
▁disposit	-2855
▁hospital	-2856
▁palestra	-2857
esa	-2858
ive	-2859
▁cá	-2860
etos	-2861
▁asso	-2862
▁Sabem	-2863
▁devem	-2864
▁houve	-2865
▁nessa	-2866
▁despois	-2867
▁relações	-2868
▁Z	-2869
are	-2870
dar	-2871
ell	-2872
erir	-2873
lles	-2874
▁Esc	-2875
▁nar	-2876
▁pág	-2877
▁pôr	-2878
▁daqu	-2879
▁cereb	-2880
▁filme	-2881
▁forte	-2882
▁assist	-2883
▁curios	-2884
▁célula	-2885
▁devemos	-2886
▁millóns	-2887
▁process	-2888
▁liberdade	-2889
hã	-2890
rã	-2891
▁au	-2892
▁esa	-2893
▁quão	-2894
▁pedir	-2895
▁repara	-2896
▁separa	-2897
▁teoria	-2898
▁coração	-2899
▁cuidados	-2900
▁esquerda	-2901
▁linguagem	-2902
ice	-2903
idão	-2904
▁cho	-2905
▁dro	-2906
▁obt	-2907
entou	-2908
▁just	-2909
americ	-2910
▁confl	-2911
▁solar	-2912
▁rápido	-2913
velmente	-2914
▁pessoal	-2915
▁próxima	-2916
▁chamamos	-2917
▁70	-2918
eces	-2919
etro	-2920
▁obj	-2921
▁pla	-2922
▁inde	-2923
rações	-2924
▁Ainda	-2925
▁Nunca	-2926
▁espal	-2927
▁lidar	-2928
▁morre	-2929
▁diminu	-2930
▁seguro	-2931
▁aperceb	-2932
▁interes	-2933
▁medicina	-2934
▁aprendizagem	-2935
ke	-2936
stru	-2937
▁bra	-2938
▁lanç	-2939
▁moder	-2940
▁mudou	-2941
▁sinal	-2942
▁veloc	-2943
▁acordo	-2944
▁famílias	-2945
▁gostaria	-2946
▁interior	-2947
▁superfíci	-2948
ay	-2949
íb	-2950
anda	-2951
▁lou	-2952
▁rua	-2953
etiva	-2954
izado	-2955
radas	-2956
▁agar	-2957
cionar	-2958
ística	-2959
▁absol	-2960
▁casos	-2961
▁custo	-2962
▁online	-2963
▁perder	-2964
tividade	-2965
iversidade	-2966
ede	-2967
ste	-2968
ogos	-2969
▁cura	-2970
itação	-2971
▁crise	-2972
▁manhã	-2973
▁pegar	-2974
▁câmara	-2975
▁podiam	-2976
▁consigo	-2977
▁experim	-2978
▁nuclear	-2979
▁presente	-2980
▁principal	-2981
▁responder	-2982
▁consciência	-2983
ass	-2984
ulm	-2985
▁At	-2986
itmo	-2987
▁lei	-2988
rámos	-2989
▁trás	-2990
▁divert	-2991
▁preocu	-2992
▁projet	-2993
▁comprar	-2994
▁crescer	-2995
▁naquele	-2996
▁procurar	-2997
▁fotografia	-2998
bol	-2999
via	-3000
▁of	-3001
atos	-3002
▁hon	-3003
▁vac	-3004
izada	-3005
▁Fran	-3006
▁perí	-3007
▁prat	-3008
▁espant	-3009
▁regras	-3010
▁podíamos	-3011
▁descobrimos	-3012
orias	-3013
quera	-3014
▁Quem	-3015
▁amea	-3016
▁forn	-3017
▁fort	-3018
▁alter	-3019
▁pagar	-3020
▁salvar	-3021
▁tenham	-3022
▁parecer	-3023
▁permitir	-3024
▁respostas	-3025
▁tratamento	-3026
▁velocidade	-3027
▁investigação	-3028
man	-3029
▁bil	-3030
elhos	-3031
etros	-3032
passe	-3033
▁elev	-3034
▁rend	-3035
iência	-3036
▁dific	-3037
▁efica	-3038
▁total	-3039
▁propor	-3040
▁terror	-3041
▁geração	-3042
▁repente	-3043
▁sustent	-3044
anz	-3045
ceu	-3046
▁Ol	-3047
▁del	-3048
▁exac	-3049
▁Tinha	-3050
▁nesse	-3051
▁repet	-3052
▁imedia	-3053
▁mellor	-3054
▁inspira	-3055
▁interna	-3056
▁espécies	-3057
▁fundamental	-3058
▁mon	-3059
▁vul	-3060
▁vivem	-3061
▁contex	-3062
▁código	-3063
▁aprendi	-3064
▁pobreza	-3065
▁exemplos	-3066
▁humanidade	-3067
▁superfície	-3068
ír	-3069
iça	-3070
▁17	-3071
▁ri	-3072
itor	-3073
▁Mes	-3074
▁bot	-3075
▁coñ	-3076
▁lle	-3077
▁vas	-3078
orrer	-3079
perar	-3080
visão	-3081
▁pois	-3082
▁recu	-3083
ientes	-3084
▁fazia	-3085
▁sítio	-3086
rimento	-3087
▁escrit	-3088
▁mesmas	-3089
▁persoa	-3090
▁control	-3091
▁demonst	-3092
▁esperar	-3093
▁modelos	-3094
▁acredito	-3095
▁alimentar	-3096
▁pacientes	-3097
▁sociedades	-3098
alg	-3099
ins	-3100
▁ás	-3101
▁Faz	-3102
▁ast	-3103
▁Será	-3104
▁amar	-3105
▁aula	-3106
▁quen	-3107
▁sequ	-3108
▁trav	-3109
idores	-3110
▁casas	-3111
▁influ	-3112
▁mecan	-3113
▁xeito	-3114
▁Estava	-3115
▁miúdos	-3116
▁poderá	-3117
▁instituições	-3118
▁ge	-3119
xito	-3120
▁ese	-3121
▁fec	-3122
▁épo	-3123
▁diagn	-3124
▁integ	-3125
▁propri	-3126
▁perigos	-3127
▁acreditar	-3128
▁transformar	-3129
emp	-3130
maz	-3131
rum	-3132
▁16	-3133
▁ót	-3134
urso	-3135
▁rev	-3136
dores	-3137
▁faço	-3138
▁pior	-3139
▁abaixo	-3140
▁costum	-3141
▁desses	-3142
▁língua	-3143
▁usamos	-3144
▁aquelas	-3145
▁lembrar	-3146
▁objetivo	-3147
ata	-3148
ênt	-3149
cebo	-3150
eios	-3151
▁den	-3152
entei	-3153
inhar	-3154
▁usam	-3155
▁estim	-3156
▁vimos	-3157
ológica	-3158
▁ocorre	-3159
▁profiss	-3160
▁qualidade	-3161
▁13	-3162
▁cav	-3163
▁mos	-3164
▁anál	-3165
adoras	-3166
▁Cando	-3167
▁Todas	-3168
▁incri	-3169
▁Parece	-3170
▁razões	-3171
▁encontra	-3172
▁produção	-3173
▁económico	-3174
lig	-3175
dust	-3176
iados	-3177
órios	-3178
▁ampl	-3179
▁bair	-3180
▁crít	-3181
▁gera	-3182
▁quil	-3183
izados	-3184
▁perman	-3185
▁adicion	-3186
▁informações	-3187
çar	-3188
bros	-3189
ique	-3190
▁Rec	-3191
▁cat	-3192
▁coz	-3193
▁fai	-3194
▁fen	-3195
▁ros	-3196
elhas	-3197
▁bebé	-3198
▁camp	-3199
▁cora	-3200
▁desf	-3201
▁esco	-3202
▁média	-3203
▁prazo	-3204
▁brilha	-3205
▁tratar	-3206
▁Consegu	-3207
▁líderes	-3208
▁edifícios	-3209
encialmente	-3210
▁fantástico	-3211
▁partículas	-3212
▁medicamentos	-3213
che	-3214
sia	-3215
ensa	-3216
ulos	-3217
▁Fal	-3218
▁Hav	-3219
▁Sol	-3220
▁dom	-3221
▁clín	-3222
▁memb	-3223
▁memó	-3224
▁geral	-3225
▁intro	-3226
▁sorte	-3227
▁aborda	-3228
▁fiquei	-3229
▁específ	-3230
▁moléculas	-3231
áx	-3232
all	-3233
bil	-3234
rus	-3235
sequ	-3236
▁tex	-3237
ordar	-3238
▁algún	-3239
▁canto	-3240
▁front	-3241
▁massa	-3242
▁época	-3243
▁quarto	-3244
▁Sabemos	-3245
▁ligação	-3246
▁traballo	-3247
▁políticas	-3248
▁normalmente	-3249
ério	-3250
▁sus	-3251
prend	-3252
▁veio	-3253
▁Entón	-3254
▁ficou	-3255
▁assust	-3256
▁físico	-3257
▁combust	-3258
▁estudos	-3259
▁possamos	-3260
áb	-3261
eat	-3262
ciar	-3263
▁cun	-3264
▁urb	-3265
▁vít	-3266
icada	-3267
istão	-3268
ético	-3269
▁imax	-3270
▁vari	-3271
▁vivo	-3272
iderar	-3273
ríveis	-3274
▁Mesmo	-3275
▁segre	-3276
ecimento	-3277
▁concent	-3278
▁produto	-3279
▁distribu	-3280
▁independ	-3281
▁observar	-3282
▁próximos	-3283
ore	-3284
▁St	-3285
hada	-3286
énio	-3287
▁Elas	-3288
▁cade	-3289
▁circ	-3290
▁súas	-3291
oloxía	-3292
▁lista	-3293
▁plano	-3294
▁sonho	-3295
▁desejo	-3296
▁financ	-3297
▁negócio	-3298
▁escolher	-3299
▁governos	-3300
▁produzir	-3301
▁raparigas	-3302
rí	-3303
inc	-3304
orto	-3305
sões	-3306
▁azul	-3307
▁bons	-3308
▁abrir	-3309
▁baixa	-3310
▁facil	-3311
▁posit	-3312
▁vários	-3313
▁assunto	-3314
▁escolha	-3315
▁período	-3316
▁considera	-3317
▁recentemente	-3318
ack	-3319
axe	-3320
rát	-3321
ânt	-3322
▁sor	-3323
▁teu	-3324
erias	-3325
iação	-3326
itado	-3327
▁devia	-3328
▁Alguns	-3329
▁chegou	-3330
▁depend	-3331
▁fascin	-3332
▁moitos	-3333
▁muller	-3334
▁absolut	-3335
▁proteín	-3336
▁revolução	-3337
uta	-3338
ware	-3339
ínio	-3340
brica	-3341
▁Essa	-3342
▁escr	-3343
▁vejo	-3344
cebook	-3345
▁avanç	-3346
▁tocar	-3347
▁errado	-3348
▁determin	-3349
▁conseguia	-3350
▁novamente	-3351
hei	-3352
▁km	-3353
▁mer	-3354
▁psic	-3355
ativas	-3356
▁fomos	-3357
▁palab	-3358
▁sendo	-3359
ementos	-3360
▁naquela	-3361
▁Facebook	-3362
▁verdadeira	-3363
▁Universidade	-3364
vio	-3365
▁Gu	-3366
▁Pa	-3367
ceis	-3368
iano	-3369
inta	-3370
▁199	-3371
▁Har	-3372
ismos	-3373
▁auga	-3374
▁pena	-3375
▁genes	-3376
▁moral	-3377
▁resta	-3378
▁consequ	-3379
▁colabora	-3380
▁floresta	-3381
▁particip	-3382
▁substitu	-3383
▁distância	-3384
▁potencial	-3385
▁comunicação	-3386
úa	-3387
vas	-3388
óst	-3389
▁14	-3390
▁Da	-3391
▁So	-3392
▁Su	-3393
▁Te	-3394
ións	-3395
▁Bom	-3396
▁web	-3397
▁jogo	-3398
▁roub	-3399
itamos	-3400
▁detal	-3401
▁analis	-3402
▁chamar	-3403
▁inteiro	-3404
▁máquinas	-3405
▁negócios	-3406
▁ultrapas	-3407
▁políticos	-3408
▁obviamente	-3409
▁Oc	-3410
▁pé	-3411
rico	-3412
uros	-3413
ónia	-3414
▁Fiz	-3415
▁ada	-3416
▁jan	-3417
▁mês	-3418
▁sel	-3419
▁parc	-3420
▁taxa	-3421
▁topo	-3422
▁nenos	-3423
▁teste	-3424
▁verde	-3425
▁envolv	-3426
▁garant	-3427
▁nestes	-3428
▁passou	-3429
▁posição	-3430
▁edifício	-3431
▁maneiras	-3432
▁exactamente	-3433
ámo	-3434
▁Ste	-3435
▁viz	-3436
▁opin	-3437
▁tres	-3438
▁efici	-3439
▁elect	-3440
▁década	-3441
▁enviar	-3442
▁poucos	-3443
▁tempos	-3444
▁comprom	-3445
▁contexto	-3446
▁estrelas	-3447
▁serviços	-3448
▁pensamento	-3449
añ	-3450
hn	-3451
deu	-3452
iot	-3453
▁Pe	-3454
▁avi	-3455
vores	-3456
▁cart	-3457
▁fala	-3458
▁afric	-3459
▁livre	-3460
▁marca	-3461
▁sinto	-3462
▁veces	-3463
▁espero	-3464
▁secund	-3465
ificação	-3466
▁polícia	-3467
▁mudanças	-3468
▁sensação	-3469
net	-3470
▁Ad	-3471
irem	-3472
peto	-3473
▁ner	-3474
▁card	-3475
▁idea	-3476
entado	-3477
▁feita	-3478
▁gosto	-3479
▁mover	-3480
▁opera	-3481
▁plást	-3482
▁pensem	-3483
▁décadas	-3484
▁emprego	-3485
▁militar	-3486
▁calquera	-3487
▁inovação	-3488
▁aprendemos	-3489
▁literalmente	-3490
ry	-3491
gum	-3492
▁Bo	-3493
rael	-3494
▁Esp	-3495
enhar	-3496
▁irão	-3497
▁tiña	-3498
▁rapaz	-3499
ássemos	-3500
▁imposs	-3501
▁lingua	-3502
▁tecido	-3503
▁explorar	-3504
▁reconhec	-3505
▁transmit	-3506
▁compreend	-3507
▁controlar	-3508
▁necessário	-3509
rup	-3510
éis	-3511
ést	-3512
▁Us	-3513
iana	-3514
▁Tal	-3515
istem	-3516
▁Cons	-3517
▁nove	-3518
ionais	-3519
▁invis	-3520
▁vírus	-3521
▁indust	-3522
▁começam	-3523
▁estranho	-3524
▁frequentemente	-3525
ly	-3526
ph	-3527
ash	-3528
emia	-3529
gens	-3530
▁elim	-3531
▁fran	-3532
▁ganh	-3533
▁leis	-3534
▁ficam	-3535
▁altern	-3536
▁oceano	-3537
itamente	-3538
ricidade	-3539
▁suposto	-3540
▁tempera	-3541
▁nacional	-3542
▁próprias	-3543
▁professor	-3544
▁significado	-3545
▁incrivelmente	-3546
▁í	-3547
ideo	-3548
ímos	-3549
▁let	-3550
▁lib	-3551
▁mús	-3552
▁tur	-3553
▁dura	-3554
▁erro	-3555
▁lles	-3556
▁rece	-3557
▁Começ	-3558
▁desej	-3559
▁palco	-3560
▁Pensem	-3561
▁direita	-3562
▁pudesse	-3563
▁árvores	-3564
▁question	-3565
▁construção	-3566
▁verdadeiro	-3567
▁organização	-3568
▁absolutamente	-3569
izo	-3570
lus	-3571
utu	-3572
▁Ro	-3573
▁XX	-3574
forma	-3575
hados	-3576
▁mesa	-3577
▁tema	-3578
▁vend	-3579
▁fonte	-3580
▁forem	-3581
▁Deixem	-3582
▁doente	-3583
▁artista	-3584
▁malária	-3585
▁membros	-3586
▁percebi	-3587
▁superior	-3588
ato	-3589
bel	-3590
emo	-3591
eso	-3592
gon	-3593
onas	-3594
osso	-3595
ativo	-3596
▁demo	-3597
▁nasc	-3598
▁prox	-3599
▁Outra	-3600
▁entra	-3601
▁famos	-3602
▁frase	-3603
▁ligar	-3604
▁perfe	-3605
ividade	-3606
posição	-3607
▁desper	-3608
▁escolh	-3609
▁dificul	-3610
▁gráfico	-3611
▁matéria	-3612
▁conhecer	-3613
▁evolução	-3614
▁perspetiva	-3615
▁sentimento	-3616
isf	-3617
▁El	-3618
hava	-3619
idro	-3620
into	-3621
otar	-3622
▁cic	-3623
▁her	-3624
▁mau	-3625
▁ára	-3626
▁actu	-3627
▁chin	-3628
▁diss	-3629
▁abando	-3630
▁padrão	-3631
▁porquê	-3632
▁sinais	-3633
▁análise	-3634
▁cidadãos	-3635
▁depressa	-3636
▁abordagem	-3637
▁compaixão	-3638
▁semelhante	-3639
50	-3640
ime	-3641
▁nu	-3642
▁Can	-3643
▁Son	-3644
▁lic	-3645
ciais	-3646
turas	-3647
ósito	-3648
▁epid	-3649
▁soft	-3650
ressão	-3651
▁estás	-3652
▁excel	-3653
▁galáx	-3654
▁lutar	-3655
▁preço	-3656
▁inglês	-3657
▁continua	-3658
▁condições	-3659
▁telemóvel	-3660
▁transport	-3661
eto	-3662
eças	-3663
itam	-3664
▁Seg	-3665
▁dix	-3666
ecção	-3667
▁Cent	-3668
▁ante	-3669
▁ecrã	-3670
▁hoxe	-3671
▁peso	-3672
▁pros	-3673
▁sexa	-3674
minist	-3675
▁Desco	-3676
▁exerc	-3677
▁terre	-3678
▁evitar	-3679
▁decisão	-3680
▁estrada	-3681
▁parecem	-3682
▁receber	-3683
▁vivemos	-3684
▁conceito	-3685
▁projecto	-3686
▁oportunidades	-3687
ct	-3688
▁–	-3689
ach	-3690
iso	-3691
ible	-3692
édio	-3693
▁New	-3694
▁Ver	-3695
▁ceg	-3696
▁gig	-3697
ânica	-3698
▁refl	-3699
▁bacté	-3700
▁infra	-3701
▁longa	-3702
▁usado	-3703
▁branco	-3704
▁cadeia	-3705
▁custos	-3706
▁nestas	-3707
▁entusiasm	-3708
▁reconhecer	-3709
▁extremamente	-3710
íx	-3711
▁st	-3712
▁ós	-3713
ilha	-3714
inado	-3715
itude	-3716
▁dixo	-3717
▁Somos	-3718
▁dende	-3719
▁filha	-3720
▁feitos	-3721
▁ganhar	-3722
▁infant	-3723
▁milhão	-3724
▁nervos	-3725
▁querer	-3726
▁aumento	-3727
▁escrito	-3728
▁contribu	-3729
▁terceiro	-3730
▁utilizar	-3731
▁elementos	-3732
ick	-3733
ong	-3734
enda	-3735
▁are	-3736
▁bel	-3737
▁cál	-3738
▁sac	-3739
▁vêm	-3740
ânico	-3741
▁acad	-3742
adeira	-3743
ectiva	-3744
▁chega	-3745
▁conte	-3746
▁datos	-3747
▁medir	-3748
▁senti	-3749
ómetros	-3750
▁Grazas	-3751
▁Quanto	-3752
▁fossem	-3753
▁trazer	-3754
▁pública	-3755
▁atravess	-3756
▁complexo	-3757
▁terceira	-3758
ane	-3759
ulg	-3760
brar	-3761
eixe	-3762
ilar	-3763
rama	-3764
umas	-3765
▁Nin	-3766
▁Ori	-3767
▁tum	-3768
ectar	-3769
▁John	-3770
▁chão	-3771
▁dete	-3772
itário	-3773
ólogos	-3774
▁algor	-3775
▁argum	-3776
▁capac	-3777
▁carta	-3778
▁daqui	-3779
▁domin	-3780
▁mosqu	-3781
▁serão	-3782
▁voste	-3783
▁Porquê	-3784
▁entrev	-3785
▁parede	-3786
▁debaixo	-3787
▁valores	-3788
▁biologia	-3789
▁funcionam	-3790
▁interesse	-3791
▁indivíduos	-3792
iót	-3793
ner	-3794
▁fé	-3795
▁Têm	-3796
▁viu	-3797
ntade	-3798
▁Onde	-3799
▁aleg	-3800
▁cedo	-3801
▁exig	-3802
▁gelo	-3803
▁irmã	-3804
▁magn	-3805
▁apoio	-3806
▁curso	-3807
▁erros	-3808
▁fenóm	-3809
▁nosos	-3810
▁pensa	-3811
▁decisões	-3812
▁momentos	-3813
▁certamente	-3814
au	-3815
▁“	-3816
▁”	-3817
tim	-3818
alas	-3819
deia	-3820
egan	-3821
guas	-3822
heci	-3823
todo	-3824
▁Dav	-3825
▁Tom	-3826
▁adm	-3827
▁lav	-3828
▁usa	-3829
assem	-3830
icial	-3831
inais	-3832
nosco	-3833
▁Cham	-3834
▁Esse	-3835
▁lixo	-3836
▁pele	-3837
▁port	-3838
▁Chris	-3839
▁acima	-3840
▁agrad	-3841
▁carne	-3842
▁entón	-3843
entamos	-3844
▁vossas	-3845
▁abelhas	-3846
▁efeitos	-3847
▁vontade	-3848
▁aparecer	-3849
▁mercados	-3850
▁encontrei	-3851
▁programas	-3852
▁impossível	-3853
▁encontramos	-3854
▁necessidade	-3855
▁/	-3856
dia	-3857
mac	-3858
orr	-3859
reg	-3860
▁ha	-3861
icia	-3862
▁Fui	-3863
▁bre	-3864
▁órg	-3865
▁Unha	-3866
▁luta	-3867
▁marc	-3868
▁povo	-3869
▁cousa	-3870
▁deixa	-3871
▁desemp	-3872
▁negros	-3873
▁carreira	-3874
▁connosco	-3875
▁incluindo	-3876
▁reconstru	-3877
úr	-3878
▁24	-3879
▁Ma	-3880
▁ób	-3881
icou	-3882
▁Hig	-3883
▁Sul	-3884
▁fel	-3885
▁fis	-3886
▁luc	-3887
ecido	-3888
iamos	-3889
▁sério	-3890
▁verão	-3891
▁convid	-3892
▁govern	-3893
▁habitu	-3894
▁tantas	-3895
▁aparece	-3896
▁direção	-3897
▁olharem	-3898
▁hipótese	-3899
▁descoberta	-3900
ea	-3901
aso	-3902
ble	-3903
ipo	-3904
jas	-3905
▁Ge	-3906
▁Tw	-3907
▁Vo	-3908
aban	-3909
alha	-3910
anci	-3911
ídeo	-3912
▁Ant	-3913
▁Olh	-3914
ancia	-3915
▁abri	-3916
▁afet	-3917
▁bomb	-3918
▁ness	-3919
▁teño	-3920
▁trem	-3921
▁trib	-3922
ecemos	-3923
▁Acont	-3924
▁aulas	-3925
▁gosta	-3926
▁ritmo	-3927
▁Muitos	-3928
▁drogas	-3929
▁parque	-3930
▁instrum	-3931
▁tiveram	-3932
▁conduzir	-3933
▁proteger	-3934
▁comunicar	-3935
▁princípio	-3936
▁represent	-3937
▁possibilidade	-3938
abb	-3939
ere	-3940
org	-3941
ñas	-3942
▁sí	-3943
emin	-3944
ival	-3945
part	-3946
▁céu	-3947
▁fan	-3948
▁gar	-3949
▁ton	-3950
dades	-3951
parem	-3952
queza	-3953
▁conh	-3954
▁elei	-3955
▁serv	-3956
ivemos	-3957
▁Vejam	-3958
▁armas	-3959
▁deses	-3960
▁divid	-3961
▁equip	-3962
▁nosas	-3963
icación	-3964
▁Aprend	-3965
▁certas	-3966
▁instal	-3967
▁juntar	-3968
▁região	-3969
▁tarefa	-3970
▁consumo	-3971
▁poderão	-3972
▁poderoso	-3973
▁software	-3974
▁primeiras	-3975
▁poderíamos	-3976
▁inteligência	-3977
▁imediatamente	-3978
ear	-3979
ipl	-3980
iza	-3981
lam	-3982
mar	-3983
seu	-3984
tex	-3985
▁Sa	-3986
ater	-3987
▁Cre	-3988
▁Nas	-3989
▁alí	-3990
▁fol	-3991
▁mus	-3992
aixon	-3993
cópio	-3994
vosco	-3995
▁arre	-3996
▁esas	-3997
▁exam	-3998
▁tido	-3999
▁zona	-4000
▁dizia	-4001
▁podes	-4002
▁produ	-4003
▁reduz	-4004
▁Muitas	-4005
▁confer	-4006
▁regist	-4007
▁stress	-4008
▁Existem	-4009
▁enormes	-4010
▁convosco	-4011
▁propósito	-4012
▁considerar	-4013
▁complexidade	-4014
érc	-4015
odos	-4016
rast	-4017
tras	-4018
▁Hou	-4019
▁The	-4020
▁Vai	-4021
▁jog	-4022
iente	-4023
rasil	-4024
▁Gost	-4025
▁muda	-4026
▁ruas	-4027
▁vêem	-4028
▁Posso	-4029
▁Vídeo	-4030
▁bebés	-4031
▁habit	-4032
▁varia	-4033
▁alguén	-4034
▁aprove	-4035
▁condut	-4036
▁decidi	-4037
▁escond	-4038
▁facelo	-4039
▁sermos	-4040
▁tornam	-4041
▁criação	-4042
▁cérebros	-4043
▁transfer	-4044
▁científica	-4045
▁conhecemos	-4046
cora	-4047
▁tua	-4048
▁var	-4049
▁veí	-4050
írito	-4051
▁vest	-4052
▁útil	-4053
ectivo	-4054
eladas	-4055
▁chave	-4056
▁emerg	-4057
▁aspeto	-4058
▁beleza	-4059
▁conteú	-4060
▁demais	-4061
▁sentem	-4062
▁apaixon	-4063
▁memória	-4064
▁queriam	-4065
▁interpre	-4066
▁importância	-4067
▁surpreendente	-4068
fo	-4069
▁u	-4070
lan	-4071
nia	-4072
rat	-4073
tég	-4074
eter	-4075
▁gén	-4076
▁mex	-4077
▁más	-4078
íceis	-4079
▁Natu	-4080
▁cren	-4081
▁exce	-4082
▁merg	-4083
▁reci	-4084
▁ambos	-4085
▁calor	-4086
▁resul	-4087
▁senón	-4088
▁video	-4089
▁conect	-4090
▁correc	-4091
▁gostam	-4092
▁objeto	-4093
▁pedaço	-4094
▁volunt	-4095
▁aspecto	-4096
▁central	-4097
▁espaços	-4098
estrutura	-4099
▁difíceis	-4100
▁espírito	-4101
▁olharmos	-4102
▁planetas	-4103
▁poderiam	-4104
▁americanos	-4105
▁ferramenta	-4106
▁presidente	-4107
▁particularmente	-4108
ans	-4109
elh	-4110
ose	-4111
sor	-4112
ecta	-4113
viam	-4114
▁ade	-4115
▁fru	-4116
▁Gran	-4117
▁peça	-4118
▁infer	-4119
▁viram	-4120
▁deixem	-4121
▁prisão	-4122
▁Mundial	-4123
▁alterar	-4124
▁felizes	-4125
▁impress	-4126
▁exterior	-4127
▁quiserem	-4128
▁rapariga	-4129
▁soluções	-4130
▁decidimos	-4131
▁perguntei	-4132
▁universidade	-4133
▁verdadeiramente	-4134
▁Sc	-4135
▁la	-4136
deos	-4137
fera	-4138
graf	-4139
ioso	-4140
ones	-4141
teis	-4142
▁500	-4143
▁Diz	-4144
▁Mic	-4145
▁Nem	-4146
▁bos	-4147
▁pés	-4148
▁sul	-4149
▁dado	-4150
▁olho	-4151
▁tera	-4152
issões	-4153
▁equil	-4154
▁micró	-4155
▁perda	-4156
▁subir	-4157
ultores	-4158
▁acabou	-4159
▁eficaz	-4160
▁estive	-4161
▁fortes	-4162
▁função	-4163
▁página	-4164
▁falamos	-4165
▁interac	-4166
▁popular	-4167
▁prática	-4168
▁química	-4169
▁estratég	-4170
▁religião	-4171
▁mensagens	-4172
▁apresentar	-4173
▁diferenças	-4174
▁sobreviver	-4175
uf	-4176
ind	-4177
ñen	-4178
rava	-4179
▁198	-4180
▁cen	-4181
▁cum	-4182
▁bloc	-4183
▁case	-4184
▁cort	-4185
▁dorm	-4186
▁dout	-4187
▁Acred	-4188
▁Marte	-4189
▁dança	-4190
▁medio	-4191
▁motor	-4192
▁ricos	-4193
▁antigo	-4194
▁coment	-4195
▁conduz	-4196
▁conseguiu	-4197
▁depressão	-4198
▁identidade	-4199
▁investimento	-4200
▁trabalhadores	-4201
,5	-4202
ck	-4203
ár	-4204
ail	-4205
lev	-4206
ork	-4207
rop	-4208
ube	-4209
vão	-4210
▁Vi	-4211
resc	-4212
xico	-4213
▁bic	-4214
▁caf	-4215
▁mac	-4216
▁ond	-4217
▁paz	-4218
▁tub	-4219
▁cate	-4220
▁dúas	-4221
▁peix	-4222
▁atmos	-4223
▁guard	-4224
▁meios	-4225
▁narra	-4226
▁notas	-4227
▁reais	-4228
idental	-4229
▁Encont	-4230
▁possib	-4231
▁riscos	-4232
▁adultos	-4233
▁conserv	-4234
▁plantas	-4235
▁vítimas	-4236
ariamente	-4237
▁aplicação	-4238
▁compreensão	-4239
tal	-4240
ude	-4241
zer	-4242
ída	-4243
▁GP	-4244
cido	-4245
▁adv	-4246
▁dan	-4247
▁ded	-4248
▁vig	-4249
lores	-4250
▁afas	-4251
▁agir	-4252
▁ação	-4253
▁corr	-4254
▁isol	-4255
▁trou	-4256
▁vant	-4257
utação	-4258
▁Desde	-4259
▁Disse	-4260
▁Norte	-4261
▁activ	-4262
▁afirm	-4263
▁demos	-4264
▁diria	-4265
▁ratos	-4266
▁tanta	-4267
▁vindo	-4268
▁aberto	-4269
▁bocado	-4270
▁engenh	-4271
▁micros	-4272
▁profes	-4273
▁Oriente	-4274
▁Segundo	-4275
▁brincar	-4276
▁cheguei	-4277
▁Natureza	-4278
▁técnicas	-4279
▁vostedes	-4280
▁claramente	-4281
▁organizações	-4282
gl	-4283
gio	-4284
rot	-4285
▁Cl	-4286
alos	-4287
tudo	-4288
çado	-4289
estar	-4290
ibiót	-4291
unhas	-4292
▁Hist	-4293
▁Sent	-4294
▁exec	-4295
▁fras	-4296
▁gest	-4297
▁solo	-4298
▁sons	-4299
▁vive	-4300
âncias	-4301
▁Antes	-4302
▁Havia	-4303
▁afast	-4304
▁aleat	-4305
▁apont	-4306
▁chamo	-4307
▁crear	-4308
▁dirig	-4309
▁franc	-4310
▁inver	-4311
▁redor	-4312
▁repro	-4313
▁teles	-4314
▁Afegan	-4315
▁esteja	-4316
▁linhas	-4317
▁testem	-4318
▁través	-4319
ilização	-4320
▁abandon	-4321
▁deveria	-4322
▁esperan	-4323
▁estabel	-4324
▁estrela	-4325
▁terreno	-4326
▁artistas	-4327
▁consegui	-4328
▁segundos	-4329
▁Afeganistão	-4330
DA	-4331
IS	-4332
gs	-4333
att	-4334
eses	-4335
resp	-4336
ural	-4337
▁GPS	-4338
▁mem	-4339
itter	-4340
▁Prov	-4341
▁atop	-4342
▁dese	-4343
▁nalg	-4344
▁naqu	-4345
enciar	-4346
izadas	-4347
ército	-4348
▁Poder	-4349
▁Vemos	-4350
▁educa	-4351
▁gober	-4352
▁matar	-4353
▁naveg	-4354
▁peixe	-4355
▁refug	-4356
identes	-4357
▁Existe	-4358
▁deixou	-4359
▁formar	-4360
▁imagin	-4361
▁invent	-4362
▁moitas	-4363
▁poucas	-4364
▁termin	-4365
▁estados	-4366
▁parecia	-4367
antemente	-4368
▁campanha	-4369
▁encontro	-4370
▁formação	-4371
▁imaginem	-4372
▁terminar	-4373
▁tendência	-4374
▁estruturas	-4375
▁diversidade	-4376
▁quilómetros	-4377
▁tradicional	-4378
ev	-4379
enn	-4380
urb	-4381
▁va	-4382
ance	-4383
ates	-4384
erva	-4385
▁300	-4386
▁Fin	-4387
▁arm	-4388
▁chu	-4389
▁etc	-4390
▁foc	-4391
▁nut	-4392
▁rot	-4393
raram	-4394
ícula	-4395
▁Polo	-4396
▁choc	-4397
▁dito	-4398
▁voar	-4399
▁Calif	-4400
▁femin	-4401
▁imped	-4402
▁antiga	-4403
▁associ	-4404
▁certos	-4405
▁dentes	-4406
▁gostar	-4407
▁incent	-4408
▁passei	-4409
▁peixes	-4410
▁sexual	-4411
▁tornaram	-4412
▁transpar	-4413
▁documentos	-4414
xa	-4415
eca	-4416
ila	-4417
ior	-4418
etes	-4419
sist	-4420
édia	-4421
▁Pas	-4422
▁Res	-4423
▁dão	-4424
▁gás	-4425
▁obx	-4426
▁sím	-4427
▁toc	-4428
▁van	-4429
icais	-4430
imens	-4431
étodo	-4432
▁Lond	-4433
▁ning	-4434
▁motiv	-4435
▁plata	-4436
▁preto	-4437
▁robôs	-4438
ológico	-4439
▁artigo	-4440
▁detrás	-4441
▁empreg	-4442
▁fracas	-4443
▁libert	-4444
▁minuto	-4445
▁Londres	-4446
▁biliões	-4447
▁cadeira	-4448
▁daquele	-4449
▁riqueza	-4450
▁alcançar	-4451
▁conflito	-4452
▁desafios	-4453
▁investir	-4454
▁molécula	-4455
▁profunda	-4456
▁desconhec	-4457
▁felicidade	-4458
▁dispositivo	-4459
▁inteligente	-4460
▁temperatura	-4461
▁adolescentes	-4462
▁interessantes	-4463
bos	-4464
▁Ha	-4465
▁Th	-4466
▁gr	-4467
able	-4468
ondo	-4469
orno	-4470
rial	-4471
çulm	-4472
▁Tam	-4473
▁avó	-4474
▁pis	-4475
iante	-4476
lusão	-4477
▁Toda	-4478
▁alar	-4479
▁boca	-4480
▁eses	-4481
▁prem	-4482
▁rato	-4483
▁rest	-4484
▁suic	-4485
ativos	-4486
▁Reino	-4487
▁empat	-4488
▁miúdo	-4489
▁paral	-4490
▁texto	-4491
▁usada	-4492
enharia	-4493
▁contin	-4494
▁litera	-4495
▁médica	-4496
▁ouvido	-4497
▁pernas	-4498
▁quente	-4499
▁Algumas	-4500
▁daquela	-4501
▁esforço	-4502
▁humanas	-4503
▁reduzir	-4504
▁serviço	-4505
▁traball	-4506
▁fenómeno	-4507
▁político	-4508
▁impression	-4509
▁tecnoloxía	-4510
▁fotografias	-4511
▁profissionais	-4512
aran	-4513
esia	-4514
▁Bas	-4515
▁Lev	-4516
▁poñ	-4517
▁quê	-4518
▁tes	-4519
ricos	-4520
ífico	-4521
▁Além	-4522
▁ecos	-4523
▁post	-4524
▁poup	-4525
▁prev	-4526
itável	-4527
▁acham	-4528
▁menor	-4529
▁negro	-4530
eriores	-4531
▁Apenas	-4532
▁Israel	-4533
▁campos	-4534
▁carvão	-4535
▁compon	-4536
▁discus	-4537
▁estilo	-4538
▁genoma	-4539
▁grazas	-4540
▁método	-4541
▁paixão	-4542
▁tantos	-4543
▁aprende	-4544
▁justiça	-4545
▁recente	-4546
▁Acontece	-4547
▁antibiót	-4548
▁arquitet	-4549
▁cirurgia	-4550
▁naturais	-4551
▁permitem	-4552
▁projetos	-4553
▁respeito	-4554
▁sentimos	-4555
▁terrível	-4556
▁enfrentar	-4557
▁estiverem	-4558
▁sobretudo	-4559
▁identificar	-4560
▁profundamente	-4561
▁suficientemente	-4562
han	-4563
hou	-4564
bert	-4565
essa	-4566
land	-4567
olas	-4568
▁Ter	-4569
▁mam	-4570
▁pré	-4571
▁rio	-4572
▁2000	-4573
▁fase	-4574
▁horm	-4575
▁ilum	-4576
▁ocup	-4577
icados	-4578
ington	-4579
▁Certo	-4580
▁Unido	-4581
▁costa	-4582
▁facul	-4583
▁razón	-4584
▁satél	-4585
▁tendo	-4586
▁Sempre	-4587
▁aldeia	-4588
▁ataque	-4589
▁buraco	-4590
▁diante	-4591
▁expand	-4592
▁marido	-4593
▁níveis	-4594
▁rápida	-4595
▁versão	-4596
▁vídeos	-4597
bilidade	-4598
▁Ninguém	-4599
▁atingir	-4600
▁conheci	-4601
▁fazerem	-4602
▁respond	-4603
▁constitu	-4604
▁profundo	-4605
▁públicos	-4606
▁conhecido	-4607
▁conversas	-4608
▁estivesse	-4609
▁estudante	-4610
▁poderemos	-4611
▁transporte	-4612
▁inteligentes	-4613
▁relativamente	-4614
iel	-4615
ford	-4616
▁197	-4617
▁Inf	-4618
▁coo	-4619
▁fug	-4620
▁fós	-4621
▁tru	-4622
▁túa	-4623
stein	-4624
êncio	-4625
▁Inst	-4626
▁cama	-4627
▁evid	-4628
▁fome	-4629
▁meta	-4630
▁areia	-4631
▁bicic	-4632
▁cores	-4633
▁pares	-4634
▁factos	-4635
▁forças	-4636
▁instru	-4637
ológicos	-4638
▁aceitar	-4639
▁autismo	-4640
▁equival	-4641
▁maioría	-4642
▁mistura	-4643
▁diagnóst	-4644
▁paciente	-4645
▁poderosa	-4646
▁proteção	-4647
▁principais	-4648
▁representa	-4649
▁agricultura	-4650
▁construímos	-4651
▁características	-4652
fe	-4653
gm	-4654
úp	-4655
icá	-4656
riz	-4657
teu	-4658
umb	-4659
▁Ah	-4660
▁Ed	-4661
atar	-4662
bles	-4663
eron	-4664
icam	-4665
olóx	-4666
▁Hum	-4667
▁cem	-4668
▁Pres	-4669
▁aran	-4670
▁cand	-4671
▁dupl	-4672
▁guer	-4673
▁senh	-4674
▁acomp	-4675
▁adoro	-4676
▁busca	-4677
▁escut	-4678
▁passe	-4679
▁promo	-4680
▁árabe	-4681
ulações	-4682
▁contas	-4683
▁debate	-4684
▁desigu	-4685
▁discut	-4686
▁lembro	-4687
▁perigo	-4688
▁testes	-4689
▁vender	-4690
▁Twitter	-4691
▁desperd	-4692
▁escrita	-4693
▁opinião	-4694
▁apareceu	-4695
▁plástico	-4696
▁podermos	-4697
▁atmosfera	-4698
▁comercial	-4699
▁começamos	-4700
▁florestas	-4701
cir	-4702
zos	-4703
▁VI	-4704
cina	-4705
erar	-4706
omia	-4707
▁Vol	-4708
▁aco	-4709
itada	-4710
redor	-4711
éxico	-4712
▁char	-4713
▁pred	-4714
▁atual	-4715
▁damos	-4716
▁termo	-4717
▁vejam	-4718
▁ótimo	-4719
▁Apesar	-4720
▁Brasil	-4721
▁comuns	-4722
▁corpos	-4723
▁distin	-4724
▁género	-4725
▁intens	-4726
▁recomp	-4727
▁sítios	-4728
▁depende	-4729
▁anterior	-4730
▁cultural	-4731
▁casamento	-4732
▁cientista	-4733
▁micróbios	-4734
▁científico	-4735
▁imaginação	-4736
▁arquitetura	-4737
▁individuais	-4738
▁perspectiva	-4739
▁sentimentos	-4740
ik	-4741
ux	-4742
ale	-4743
ple	-4744
enar	-4745
iada	-4746
▁Hom	-4747
▁cír	-4748
▁fib	-4749
▁gan	-4750
▁ger	-4751
▁rap	-4752
antar	-4753
ólogo	-4754
▁Acab	-4755
▁alma	-4756
▁cami	-4757
▁cogn	-4758
▁Higgs	-4759
▁avião	-4760
▁catro	-4761
▁ciclo	-4762
▁divis	-4763
▁impul	-4764
▁prova	-4765
enciais	-4766
iamente	-4767
▁algúns	-4768
▁bairro	-4769
▁explos	-4770
▁feitas	-4771
▁missão	-4772
▁morreu	-4773
▁requer	-4774
▁compart	-4775
▁emocion	-4776
▁administ	-4777
▁infantil	-4778
▁linguaxe	-4779
▁provável	-4780
▁silêncio	-4781
▁companhia	-4782
▁televisão	-4783
▁trabalhos	-4784
▁atualmente	-4785
▁privacidade	-4786
▁consequências	-4787
orar	-4788
óvel	-4789
▁Tim	-4790
▁VIH	-4791
▁máx	-4792
▁vaz	-4793
intas	-4794
▁Irão	-4795
▁bact	-4796
▁bola	-4797
▁chef	-4798
▁cong	-4799
▁imig	-4800
▁imun	-4801
▁jard	-4802
▁meia	-4803
▁mund	-4804
▁Médio	-4805
▁acaso	-4806
▁neces	-4807
▁procu	-4808
▁vento	-4809
radores	-4810
ramento	-4811
▁Espero	-4812
▁conclu	-4813
▁dúvida	-4814
▁algures	-4815
▁História	-4816
▁escreveu	-4817
▁estradas	-4818
▁precisar	-4819
▁tivessem	-4820
▁altamente	-4821
▁bactérias	-4822
▁encontram	-4823
▁expressão	-4824
▁disponível	-4825
▁información	-4826
▁criatividade	-4827
▁dispositivos	-4828
rif	-4829
álo	-4830
ães	-4831
▁ét	-4832
olos	-4833
orme	-4834
orta	-4835
▁Pois	-4836
▁café	-4837
▁cump	-4838
▁decl	-4839
▁prom	-4840
▁rast	-4841
▁reac	-4842
▁vale	-4843
icadas	-4844
iedade	-4845
▁Chama	-4846
▁abran	-4847
▁adequ	-4848
▁apart	-4849
▁artif	-4850
▁cober	-4851
▁custa	-4852
▁flutu	-4853
▁noção	-4854
▁ondas	-4855
▁ordem	-4856
▁relev	-4857
▁velho	-4858
▁Trabal	-4859
▁cabelo	-4860
▁cultiv	-4861
▁filmes	-4862
▁teriam	-4863
▁afastar	-4864
▁financi	-4865
▁seguros	-4866
▁tarefas	-4867
▁vacinas	-4868
▁benefici	-4869
▁clientes	-4870
▁contacto	-4871
▁realizar	-4872
▁bacterias	-4873
▁brilhante	-4874
▁descrever	-4875
▁económica	-4876
▁proteínas	-4877
▁recuperar	-4878
▁toneladas	-4879
▁facilmente	-4880
hi	-4881
nov	-4882
umo	-4883
óis	-4884
▁iP	-4885
leta	-4886
▁Iso	-4887
▁Med	-4888
▁cop	-4889
▁daí	-4890
▁lat	-4891
▁mét	-4892
▁rex	-4893
ivers	-4894
▁Aust	-4895
▁Park	-4896
▁aten	-4897
▁Quant	-4898
▁irmão	-4899
▁negra	-4900
▁vozes	-4901
entando	-4902
eriamos	-4903
idimens	-4904
▁acresc	-4905
▁cardía	-4906
▁descul	-4907
▁prazer	-4908
▁reform	-4909
▁satisf	-4910
▁fazendo	-4911
▁objetos	-4912
▁pensava	-4913
▁teremos	-4914
▁desenhar	-4915
▁eleições	-4916
▁escolhas	-4917
▁genética	-4918
americanos	-4919
▁divertido	-4920
▁incríveis	-4921
▁encontrámos	-4922
▁maravilhoso	-4923
▁mortalidade	-4924
▁tradicionais	-4925
upa	-4926
▁Dr	-4927
aces	-4928
quei	-4929
vert	-4930
▁Ang	-4931
ensas	-4932
vidas	-4933
ítulo	-4934
▁elef	-4935
▁elét	-4936
▁mest	-4937
▁seda	-4938
▁suje	-4939
▁toca	-4940
▁armaz	-4941
▁engan	-4942
▁ensai	-4943
▁falam	-4944
▁ilust	-4945
▁inten	-4946
▁pasar	-4947
▁aberta	-4948
▁barato	-4949
▁cambio	-4950
▁encora	-4951
▁mortes	-4952
▁muçulm	-4953
▁origem	-4954
▁passam	-4955
▁corresp	-4956
▁interag	-4957
▁pressão	-4958
▁regress	-4959
▁unidade	-4960
tivamente	-4961
▁palabras	-4962
▁vermelho	-4963
▁impressão	-4964
▁interessa	-4965
▁fascinante	-4966
▁frequência	-4967
▁agricultores	-4968
ps	-4969
▁ON	-4970
▁om	-4971
anta	-4972
unci	-4973
ânia	-4974
émio	-4975
ídio	-4976
▁alt	-4977
▁bio	-4978
▁usá	-4979
itiva	-4980
jamos	-4981
órnia	-4982
órtex	-4983
▁Char	-4984
▁abra	-4985
▁cabo	-4986
▁fixe	-4987
▁nego	-4988
▁pira	-4989
▁terá	-4990
▁zero	-4991
ensões	-4992
icamos	-4993
itores	-4994
▁Canad	-4995
▁David	-4996
▁Trata	-4997
▁apanh	-4998
▁breve	-4999
▁cheia	-5000
▁dedos	-5001
▁esper	-5002
▁ignor	-5003
▁lados	-5004
▁peças	-5005
▁quânt	-5006
▁rodas	-5007
▁escuro	-5008
▁perten	-5009
▁trouxe	-5010
▁éramos	-5011
▁buracos	-5012
▁decidir	-5013
▁limites	-5014
▁virtual	-5015
entamente	-5016
▁arranjar	-5017
▁discurso	-5018
▁epidemia	-5019
▁galáxias	-5020
▁libertar	-5021
▁pregunta	-5022
▁acreditam	-5023
▁complexos	-5024
▁igualdade	-5025
▁mecanismo	-5026
▁precisava	-5027
▁Califórnia	-5028
▁engenharia	-5029
▁desaparecer	-5030
SA	-5031
cr	-5032
fa	-5033
eda	-5034
▁Ti	-5035
▁kg	-5036
▁át	-5037
otos	-5038
vore	-5039
énis	-5040
▁dum	-5041
▁pão	-5042
▁sap	-5043
ianos	-5044
inada	-5045
ituto	-5046
presa	-5047
vemos	-5048
órias	-5049
▁figu	-5050
iciais	-5051
▁Houve	-5052
▁acess	-5053
▁assum	-5054
▁civil	-5055
▁cunha	-5056
▁descu	-5057
▁empur	-5058
▁frust	-5059
▁luzes	-5060
▁orden	-5061
▁perce	-5062
▁salas	-5063
damente	-5064
▁atopar	-5065
▁colega	-5066
▁desast	-5067
▁execut	-5068
▁apanhar	-5069
▁aumenta	-5070
▁ficaram	-5071
▁fábrica	-5072
▁normais	-5073
▁perturb	-5074
▁quantos	-5075
▁silenci	-5076
▁conteúdo	-5077
▁empregos	-5078
▁saudável	-5079
▁tenhamos	-5080
▁alimentos	-5081
▁audiência	-5082
▁climática	-5083
▁emocional	-5084
▁seguintes	-5085
▁individual	-5086
▁pudéssemos	-5087
▁disponíveis	-5088
▁medicamento	-5089
▁Provavelmente	-5090
▁internacional	-5091
ti	-5092
úc	-5093
cam	-5094
imp	-5095
iti	-5096
nta	-5097
▁22	-5098
agar	-5099
ecia	-5100
ello	-5101
esto	-5102
imer	-5103
énia	-5104
▁ans	-5105
itivo	-5106
ropia	-5107
▁2008	-5108
▁Wash	-5109
▁arma	-5110
▁bens	-5111
▁coid	-5112
▁creo	-5113
▁fixo	-5114
▁julg	-5115
▁moda	-5116
▁nela	-5117
▁ouro	-5118
▁criou	-5119
▁ideas	-5120
▁nomes	-5121
▁rosto	-5122
▁Canadá	-5123
▁acabei	-5124
▁blocos	-5125
▁começo	-5126
▁frases	-5127
▁motivo	-5128
▁sonhos	-5129
▁testar	-5130
▁vergon	-5131
▁Comecei	-5132
▁avançar	-5133
▁dezenas	-5134
▁mentres	-5135
▁Gostaria	-5136
▁Queremos	-5137
▁cerebral	-5138
▁conhecem	-5139
▁desigual	-5140
▁devíamos	-5141
▁ecossist	-5142
▁envelhec	-5143
▁preocupa	-5144
▁pudessem	-5145
▁participar	-5146
▁antibióticos	-5147
▁conseguirmos	-5148
▁praticamente	-5149
▁infraestrutura	-5150
▁investigadores	-5151
ile	-5152
íss	-5153
▁Ab	-5154
▁dí	-5155
▁mú	-5156
brir	-5157
ense	-5158
ides	-5159
onia	-5160
ídos	-5161
▁400	-5162
▁Gol	-5163
▁Hol	-5164
▁Jap	-5165
▁Sei	-5166
▁fab	-5167
deram	-5168
rigor	-5169
veram	-5170
▁Bill	-5171
▁acel	-5172
▁aluc	-5173
▁cele	-5174
▁cruz	-5175
▁ileg	-5176
▁podo	-5177
itária	-5178
rantes	-5179
▁façam	-5180
▁incom	-5181
▁lição	-5182
▁recup	-5183
▁tumor	-5184
▁unhas	-5185
▁actual	-5186
▁bloque	-5187
▁cortar	-5188
▁defici	-5189
▁sentia	-5190
▁baseada	-5191
▁confiar	-5192
▁daquilo	-5193
▁emoções	-5194
▁existir	-5195
▁facendo	-5196
▁mostram	-5197
▁podería	-5198
▁rapazes	-5199
▁revista	-5200
▁técnica	-5201
▁visitar	-5202
▁analisar	-5203
▁espacial	-5204
▁perfeito	-5205
▁proxecto	-5206
▁descobriu	-5207
▁hospitais	-5208
▁preocupar	-5209
▁queríamos	-5210
▁complicado	-5211
▁sustentável	-5212
▁comportamentos	-5213
▁constantemente	-5214
fia	-5215
ndo	-5216
xar	-5217
óra	-5218
▁Im	-5219
▁ep	-5220
▁oh	-5221
cipl	-5222
udou	-5223
▁Los	-5224
▁pun	-5225
▁tiñ	-5226
álogo	-5227
▁1000	-5228
▁Alem	-5229
▁Amaz	-5230
▁Lemb	-5231
▁adap	-5232
▁eran	-5233
▁fogo	-5234
▁inim	-5235
erante	-5236
▁Tamén	-5237
▁banco	-5238
▁clima	-5239
▁creio	-5240
▁curto	-5241
▁rádio	-5242
▁terão	-5243
▁chamam	-5244
▁domést	-5245
▁fontes	-5246
▁implem	-5247
▁incluso	-5248
▁olhamos	-5249
▁persegu	-5250
▁páginas	-5251
▁segredo	-5252
▁sozinho	-5253
▁defender	-5254
▁montanha	-5255
▁obrigada	-5256
▁pensarem	-5257
▁essencial	-5258
▁benefícios	-5259
▁desempenho	-5260
▁refugiados	-5261
▁telemóveis	-5262
IB	-5263
ak	-5264
bi	-5265
ote	-5266
tam	-5267
éct	-5268
▁dé	-5269
▁Bar	-5270
▁Dec	-5271
▁Min	-5272
▁Olá	-5273
▁Pal	-5274
▁cai	-5275
▁cro	-5276
▁mín	-5277
▁pil	-5278
▁pul	-5279
▁set	-5280
▁suf	-5281
▁tor	-5282
▁vit	-5283
ander	-5284
remos	-5285
ustar	-5286
▁Bang	-5287
▁cert	-5288
▁chip	-5289
▁flex	-5290
▁haja	-5291
▁pain	-5292
▁rode	-5293
encias	-5294
entada	-5295
ridade	-5296
▁Essas	-5297
▁Foram	-5298
▁Japão	-5299
▁Nobel	-5300
▁acaba	-5301
▁chuva	-5302
▁espir	-5303
▁expan	-5304
▁infin	-5305
▁press	-5306
▁punto	-5307
▁vende	-5308
▁Guerra	-5309
▁académ	-5310
▁córtex	-5311
▁desist	-5312
▁deviam	-5313
▁errada	-5314
▁gastar	-5315
▁treino	-5316
▁árvore	-5317
idamente	-5318
▁cuidado	-5319
▁línguas	-5320
▁neuroci	-5321
▁notícia	-5322
▁preserv	-5323
▁tecidos	-5324
▁tiverem	-5325
▁culturas	-5326
▁exército	-5327
▁infância	-5328
▁insectos	-5329
▁personal	-5330
▁precisão	-5331
▁telefone	-5332
▁alteração	-5333
▁conflitos	-5334
▁continuam	-5335
▁educación	-5336
▁excelente	-5337
▁pensarmos	-5338
▁familiares	-5339
▁plataforma	-5340
▁princípios	-5341
▁curiosidade	-5342
▁responsável	-5343
▁ultrapassar	-5344
lá	-5345
amp	-5346
ave	-5347
una	-5348
▁TV	-5349
itou	-5350
ivel	-5351
▁150	-5352
▁Dar	-5353
▁Eis	-5354
▁dei	-5355
▁gol	-5356
▁nad	-5357
▁pás	-5358
▁tab	-5359
▁xog	-5360
bliot	-5361
ravam	-5362
▁Cheg	-5363
▁Eram	-5364
▁Ingl	-5365
▁Numa	-5366
▁Todo	-5367
▁York	-5368
▁desv	-5369
▁diga	-5370
▁face	-5371
▁frio	-5372
▁gast	-5373
▁obes	-5374
▁obst	-5375
▁pret	-5376
▁soub	-5377
ilizar	-5378
▁Frank	-5379
▁afect	-5380
▁categ	-5381
▁encar	-5382
▁graus	-5383
▁magia	-5384
▁orgul	-5385
▁ponta	-5386
▁óbvio	-5387
eamento	-5388
inación	-5389
▁Estado	-5390
▁chamou	-5391
▁descub	-5392
▁encaix	-5393
▁idosos	-5394
▁membro	-5395
▁mentes	-5396
▁privil	-5397
▁seriam	-5398
▁volume	-5399
▁cambiar	-5400
▁eletrón	-5401
▁estejam	-5402
▁físicos	-5403
▁oferecer	-5404
▁preparar	-5405
▁progresso	-5406
▁Washington	-5407
▁exploração	-5408
▁substituir	-5409
▁equipamento	-5410
▁eletricidade	-5411
▁principalmente	-5412
MS	-5413
age	-5414
bia	-5415
pat	-5416
uno	-5417
▁fê	-5418
dora	-5419
onar	-5420
onde	-5421
íram	-5422
▁Bro	-5423
▁Ira	-5424
▁Num	-5425
▁pec	-5426
▁soa	-5427
▁vag	-5428
atura	-5429
itmos	-5430
rição	-5431
▁2009	-5432
▁Você	-5433
▁arro	-5434
▁brit	-5435
▁cair	-5436
▁cast	-5437
▁gene	-5438
▁inev	-5439
▁remo	-5440
eceram	-5441
ecular	-5442
▁acord	-5443
▁deber	-5444
▁dinâm	-5445
▁impro	-5446
▁manip	-5447
▁monte	-5448
▁renov	-5449
instein	-5450
itações	-5451
▁México	-5452
▁conceb	-5453
▁criado	-5454
▁iremos	-5455
▁limite	-5456
▁probab	-5457
▁realiz	-5458
▁videox	-5459
▁xuntos	-5460
ecemento	-5461
▁batalha	-5462
▁criámos	-5463
▁empatia	-5464
▁falando	-5465
▁reparar	-5466
▁retirar	-5467
▁chegámos	-5468
▁emissões	-5469
▁neuronas	-5470
▁vergonha	-5471
▁americana	-5472
▁definição	-5473
▁invisível	-5474
▁transmitir	-5475
▁diretamente	-5476
▁consumidores	-5477
▁distribuição	-5478
▁enfermidades	-5479
▁fundamentais	-5480
▁infelizmente	-5481
▁utilizadores	-5482
▁probabilidade	-5483
▁possibilidades	-5484
RN	-5485
ah	-5486
áf	-5487
ãs	-5488
íd	-5489
ban	-5490
eos	-5491
exo	-5492
iou	-5493
âng	-5494
▁21	-5495
▁35	-5496
▁be	-5497
cado	-5498
ciam	-5499
igma	-5500
iosa	-5501
itei	-5502
just	-5503
usto	-5504
vido	-5505
▁Fre	-5506
▁Tur	-5507
▁avô	-5508
▁cel	-5509
▁lua	-5510
izais	-5511
▁Logo	-5512
▁coas	-5513
▁falo	-5514
▁guar	-5515
▁home	-5516
▁porc	-5517
▁xera	-5518
ección	-5519
reiras	-5520
▁Apple	-5521
▁absor	-5522
▁advog	-5523
▁cheio	-5524
▁gratu	-5525
▁iriam	-5526
▁mello	-5527
▁obras	-5528
▁opção	-5529
▁queda	-5530
▁queim	-5531
▁rever	-5532
▁vidro	-5533
▁xenes	-5534
▁Alguém	-5535
▁apoiar	-5536
▁assegu	-5537
▁camada	-5538
▁causar	-5539
▁circun	-5540
▁prever	-5541
▁pronto	-5542
▁tensão	-5543
▁transm	-5544
▁voltei	-5545
ificados	-5546
▁Francis	-5547
▁ataques	-5548
▁criamos	-5549
▁dizemos	-5550
▁moderna	-5551
▁obtemos	-5552
▁Einstein	-5553
▁acidente	-5554
▁amostras	-5555
▁chamadas	-5556
▁garantir	-5557
▁parecido	-5558
▁tivermos	-5559
▁faculdade	-5560
▁hipóteses	-5561
▁indivíduo	-5562
▁narrativa	-5563
▁perguntou	-5564
entualmente	-5565
▁construído	-5566
▁industrial	-5567
▁capacidades	-5568
▁semelhantes	-5569
▁Infelizmente	-5570
▁necessidades	-5571
of	-5572
we	-5573
ley	-5574
ode	-5575
uar	-5576
âns	-5577
▁45	-5578
▁Eg	-5579
bais	-5580
rian	-5581
tico	-5582
ução	-5583
▁196	-5584
▁Vão	-5585
▁gri	-5586
▁pus	-5587
▁qué	-5588
▁rom	-5589
erson	-5590
óveis	-5591
▁Most	-5592
▁Torn	-5593
▁nota	-5594
▁ocas	-5595
▁temp	-5596
itados	-5597
▁circu	-5598
▁class	-5599
▁conex	-5600
▁coñec	-5601
▁ponte	-5602
▁preen	-5603
▁sabed	-5604
▁Aquilo	-5605
▁Lembro	-5606
▁cartas	-5607
▁Contudo	-5608
▁Pergunt	-5609
▁bairros	-5610
▁desconf	-5611
▁destino	-5612
▁fixemos	-5613
▁marabil	-5614
▁ouvimos	-5615
▁paredes	-5616
▁diagnost	-5617
▁fizermos	-5618
▁gerações	-5619
▁ligações	-5620
▁passaram	-5621
▁pensámos	-5622
▁constante	-5623
▁fronteira	-5624
▁laborator	-5625
▁molecular	-5626
▁artificial	-5627
▁fantástica	-5628
▁rendimento	-5629
▁descobriram	-5630
▁essencialmente	-5631
▁aproximadamente	-5632
ht	-5633
tou	-5634
▁EE	-5635
▁és	-5636
mail	-5637
▁ach	-5638
▁fár	-5639
ciona	-5640
intos	-5641
iosas	-5642
olina	-5643
▁Dire	-5644
▁axud	-5645
▁euro	-5646
▁mand	-5647
▁onda	-5648
▁pulm	-5649
▁site	-5650
▁viaj	-5651
icións	-5652
iração	-5653
▁Nesta	-5654
▁exter	-5655
▁incap	-5656
▁nação	-5657
▁prior	-5658
▁recom	-5659
▁secre	-5660
itários	-5661
▁contam	-5662
▁provoc	-5663
▁pássar	-5664
▁autocar	-5665
▁concord	-5666
▁madeira	-5667
▁métodos	-5668
▁registo	-5669
ivelmente	-5670
▁completa	-5671
▁completo	-5672
▁envolver	-5673
▁pessoais	-5674
▁práticas	-5675
▁teríamos	-5676
▁vizinhos	-5677
aticamente	-5678
▁atividade	-5679
▁dimensões	-5680
▁funcionou	-5681
▁historias	-5682
▁mosquitos	-5683
▁processos	-5684
▁sequência	-5685
▁terrorismo	-5686
idimensional	-5687
▁combustível	-5688
▁experimentar	-5689
▁extraordinário	-5690
wn	-5691
ío	-5692
cop	-5693
eme	-5694
jud	-5695
rol	-5696
▁BG	-5697
▁Mc	-5698
▁Mi	-5699
▁Pr	-5700
▁gl	-5701
acas	-5702
anse	-5703
guén	-5704
ándo	-5705
ífer	-5706
▁Ali	-5707
▁Ser	-5708
▁agu	-5709
▁les	-5710
▁lóg	-5711
▁océ	-5712
▁ren	-5713
▁típ	-5714
aixón	-5715
iquem	-5716
issem	-5717
rador	-5718
áculo	-5719
▁devo	-5720
▁diag	-5721
▁dipl	-5722
▁ener	-5723
▁fóra	-5724
▁líqu	-5725
▁mães	-5726
▁nele	-5727
▁teus	-5728
▁barco	-5729
▁braço	-5730
▁eléct	-5731
▁email	-5732
▁fragm	-5733
▁gerir	-5734
▁imaxe	-5735
▁médio	-5736
▁ollos	-5737
▁regul	-5738
▁retra	-5739
▁torno	-5740
▁Iraque	-5741
▁buscar	-5742
▁escura	-5743
▁espect	-5744
▁faziam	-5745
▁mergul	-5746
▁poesia	-5747
▁reflet	-5748
▁reserv	-5749
▁sofist	-5750
▁viajar	-5751
▁Tivemos	-5752
▁diferen	-5753
▁instala	-5754
▁prestes	-5755
▁quantas	-5756
▁resulta	-5757
iversário	-5758
▁Alemanha	-5759
▁elemento	-5760
▁sabíamos	-5761
entalmente	-5762
▁costumava	-5763
▁alterações	-5764
▁aplicações	-5765
▁atravessar	-5766
▁engenheiros	-5767
▁equivalente	-5768
▁rendimentos	-5769
▁dificuldades	-5770
▁y	-5771
omo	-5772
usa	-5773
áns	-5774
▁27	-5775
▁CR	-5776
▁Tr	-5777
▁có	-5778
▁Às	-5779
igre	-5780
rest	-5781
sass	-5782
seis	-5783
▁Cer	-5784
▁Dan	-5785
▁PIB	-5786
▁Pen	-5787
▁Ric	-5788
▁cod	-5789
▁dil	-5790
▁lâm	-5791
anhas	-5792
cidos	-5793
iosos	-5794
ramas	-5795
ândia	-5796
▁Ador	-5797
▁Aquí	-5798
▁acha	-5799
▁caro	-5800
▁colo	-5801
▁duro	-5802
▁imos	-5803
▁mira	-5804
▁obra	-5805
éticas	-5806
▁abund	-5807
▁ações	-5808
▁bomba	-5809
▁caras	-5810
▁manif	-5811
▁saída	-5812
▁trein	-5813
ografia	-5814
▁gritar	-5815
▁honest	-5816
▁iguais	-5817
▁mantém	-5818
▁opções	-5819
▁poupar	-5820
▁recolh	-5821
▁verdes	-5822
▁vulner	-5823
ignifica	-5824
▁baseado	-5825
▁coragem	-5826
▁diálogo	-5827
▁especif	-5828
▁fabrica	-5829
▁gostava	-5830
▁mostrou	-5831
▁pedaços	-5832
▁Acredito	-5833
▁Anderson	-5834
▁atención	-5835
▁corrente	-5836
▁gigantes	-5837
▁gostamos	-5838
▁testemun	-5839
▁conclusão	-5840
▁criaturas	-5841
▁empreende	-5842
▁estranhos	-5843
▁presentes	-5844
▁reputação	-5845
▁responsab	-5846
▁variedade	-5847
▁geralmente	-5848
▁literatura	-5849
▁sofrimento	-5850
▁aniversário	-5851
▁diagnóstico	-5852
by	-5853
ky	-5854
ecn	-5855
fin	-5856
ríc	-5857
win	-5858
▁La	-5859
rões	-5860
ópia	-5861
▁Cri	-5862
▁gre	-5863
▁log	-5864
ográf	-5865
onder	-5866
ércio	-5867
ógraf	-5868
▁2010	-5869
▁2011	-5870
▁Pelo	-5871
▁abre	-5872
▁aves	-5873
▁días	-5874
▁puid	-5875
▁trop	-5876
éticos	-5877
▁Paris	-5878
▁acele	-5879
▁altas	-5880
▁bater	-5881
▁beber	-5882
▁condu	-5883
▁foron	-5884
▁indic	-5885
▁minús	-5886
▁olhem	-5887
▁quere	-5888
▁roupa	-5889
▁trâns	-5890
▁assass	-5891
▁canção	-5892
▁falhar	-5893
▁janela	-5894
▁parado	-5895
▁provas	-5896
▁quadro	-5897
▁sabiam	-5898
▁segura	-5899
▁velhos	-5900
▁Angeles	-5901
▁amostra	-5902
▁clínica	-5903
▁decidiu	-5904
▁digamos	-5905
▁estaban	-5906
▁familia	-5907
▁mudaram	-5908
▁detalhes	-5909
▁internet	-5910
▁interven	-5911
▁perigoso	-5912
▁permitiu	-5913
▁relación	-5914
▁surpresa	-5915
▁Francisco	-5916
▁ambientes	-5917
▁programar	-5918
▁consciente	-5919
▁instituição	-5920
▁propriedade	-5921
ces	-5922
cre	-5923
lia	-5924
rid	-5925
▁1,	-5926
▁75	-5927
▁Sh	-5928
▁Si	-5929
abil	-5930
auso	-5931
▁194	-5932
▁Fil	-5933
▁Isl	-5934
▁Wal	-5935
▁You	-5936
▁mig	-5937
▁mis	-5938
▁núc	-5939
ceram	-5940
enham	-5941
gunto	-5942
icina	-5943
rensa	-5944
áfora	-5945
▁alvo	-5946
▁crec	-5947
▁ines	-5948
▁infe	-5949
▁múlt	-5950
ístico	-5951
▁Adoro	-5952
▁Outro	-5953
▁agríc	-5954
▁avent	-5955
▁bocad	-5956
▁conqu	-5957
▁curva	-5958
▁pedra	-5959
▁possu	-5960
▁recic	-5961
▁senho	-5962
▁virtu	-5963
▁vivos	-5964
entaram	-5965
▁Fiquei	-5966
▁diziam	-5967
▁escrib	-5968
▁europe	-5969
▁imenso	-5970
▁juntas	-5971
▁oposto	-5972
▁passos	-5973
▁rastre	-5974
▁órgãos	-5975
▁Continu	-5976
▁artigos	-5977
▁cenário	-5978
▁comezar	-5979
▁confort	-5980
▁cálculo	-5981
▁goberno	-5982
▁inteira	-5983
▁moderno	-5984
▁noutros	-5985
▁proceso	-5986
▁radical	-5987
▁séculos	-5988
aneamente	-5989
▁Nacional	-5990
▁digitais	-5991
▁direcção	-5992
▁expansão	-5993
▁imprensa	-5994
▁inferior	-5995
▁interlig	-5996
▁metáfora	-5997
▁mulleres	-5998
▁original	-5999
▁perfeita	-6000
▁convencer	-6001
▁militares	-6002
▁quisermos	-6003
▁Finalmente	-6004
▁determinar	-6005
▁ignorância	-6006
▁marabillos	-6007
▁videoxogos	-6008
▁alternativa	-6009
▁comentários	-6010
▁experiencia	-6011
▁especialistas	-6012
▁transformação	-6013
▁extraordinária	-6014
cu	-6015
ood	-6016
▁23	-6017
hard	-6018
▁cão	-6019
itual	-6020
orial	-6021
rália	-6022
énese	-6023
▁Norm	-6024
▁acol	-6025
▁lide	-6026
aterra	-6027
ectura	-6028
itando	-6029
▁Entre	-6030
▁adapt	-6031
▁arris	-6032
▁banho	-6033
▁crime	-6034
▁deram	-6035
▁droga	-6036
▁empez	-6037
▁extin	-6038
▁focar	-6039
▁gripe	-6040
▁humil	-6041
▁insul	-6042
▁nivel	-6043
▁sofre	-6044
▁Quénia	-6045
▁bonito	-6046
▁classe	-6047
▁costas	-6048
▁deslig	-6049
▁entrou	-6050
▁máximo	-6051
▁nasceu	-6052
▁noites	-6053
▁provar	-6054
▁sentar	-6055
▁usados	-6056
▁aplicar	-6057
▁comprim	-6058
▁facemos	-6059
▁monitor	-6060
▁ouviram	-6061
▁palabra	-6062
▁somente	-6063
▁Descobri	-6064
▁aspectos	-6065
▁expandir	-6066
▁paisagem	-6067
▁perceção	-6068
▁proteína	-6069
▁recolher	-6070
▁trânsito	-6071
▁Austrália	-6072
▁bicicleta	-6073
▁compaixón	-6074
▁espantoso	-6075
▁interagir	-6076
▁transição	-6077
▁universal	-6078
▁Inglaterra	-6079
▁secundário	-6080
▁tivéssemos	-6081
▁maravilhosa	-6082
▁reconstruir	-6083
▁resistência	-6084
▁estatísticas	-6085
ey	-6086
ze	-6087
ãe	-6088
▁ê	-6089
bar	-6090
ney	-6091
tro	-6092
uas	-6093
bora	-6094
vard	-6095
▁Sal	-6096
▁deg	-6097
▁hot	-6098
▁tol	-6099
▁urg	-6100
eição	-6101
essão	-6102
feira	-6103
hadas	-6104
ianas	-6105
uição	-6106
▁bela	-6107
▁eixo	-6108
▁pobo	-6109
▁prol	-6110
▁tens	-6111
úrbios	-6112
▁Inter	-6113
▁basta	-6114
▁metro	-6115
▁museu	-6116
▁oxito	-6117
▁pouca	-6118
▁resid	-6119
▁suced	-6120
▁torná	-6121
▁ameaça	-6122
▁baixos	-6123
▁caixas	-6124
▁gestão	-6125
▁horizo	-6126
▁intest	-6127
▁mortos	-6128
▁nessas	-6129
▁percep	-6130
▁quiser	-6131
▁recebi	-6132
▁retira	-6133
▁sombra	-6134
▁Harvard	-6135
▁cozinha	-6136
▁desenho	-6137
▁estrang	-6138
▁fatores	-6139
▁globais	-6140
▁partido	-6141
▁pintura	-6142
▁poderem	-6143
▁sugerir	-6144
▁chegamos	-6145
▁confront	-6146
▁esquerdo	-6147
▁mundiais	-6148
▁partilha	-6149
▁Começámos	-6150
▁Estávamos	-6151
▁esperanza	-6152
▁industria	-6153
▁oxitocina	-6154
▁possíveis	-6155
▁situações	-6156
▁traballar	-6157
▁existência	-6158
▁fronteiras	-6159
▁necessária	-6160
▁pensamentos	-6161
▁interessados	-6162
▁relacionadas	-6163
▁sobrevivência	-6164
▁desenvolvemento	-6165
▁0	-6166
eas	-6167
ket	-6168
rix	-6169
sur	-6170
tem	-6171
uis	-6172
érm	-6173
▁SI	-6174
▁vá	-6175
gico	-6176
moço	-6177
pass	-6178
veja	-6179
▁Big	-6180
▁Mil	-6181
endeu	-6182
inson	-6183
ulgar	-6184
íbrio	-6185
▁Will	-6186
▁anti	-6187
▁ater	-6188
▁poid	-6189
▁raça	-6190
▁redu	-6191
▁Ásia	-6192
ejamos	-6193
grafia	-6194
nidade	-6195
▁Homem	-6196
▁Seria	-6197
▁admit	-6198
▁aprov	-6199
▁cegos	-6200
▁común	-6201
▁esmag	-6202
▁grave	-6203
▁ideal	-6204
▁jogar	-6205
▁lonxe	-6206
▁morto	-6207
▁pront	-6208
▁sería	-6209
▁Queria	-6210
▁aconte	-6211
▁andava	-6212
▁candid	-6213
▁corrup	-6214
▁crença	-6215
▁envell	-6216
▁haverá	-6217
▁ilusão	-6218
▁inicia	-6219
▁mandar	-6220
▁mundos	-6221
▁planos	-6222
▁planta	-6223
▁presos	-6224
▁reação	-6225
▁achamos	-6226
▁antigas	-6227
▁arredor	-6228
▁bibliot	-6229
▁brancos	-6230
▁estarem	-6231
▁guerras	-6232
▁intelec	-6233
▁mentais	-6234
▁oceanos	-6235
▁ouvidos	-6236
▁privado	-6237
▁prosper	-6238
▁terapia	-6239
▁viagens	-6240
▁últimas	-6241
▁aparelho	-6242
▁circunst	-6243
▁espalhar	-6244
▁mecânica	-6245
▁químicos	-6246
▁bocadinho	-6247
▁cantidade	-6248
▁cerebrais	-6249
▁esperamos	-6250
▁exposição	-6251
▁obesidade	-6252
▁respondeu	-6253
▁companhias	-6254
▁escritório	-6255
▁explicação	-6256
▁juntamente	-6257
▁mecanismos	-6258
▁científicos	-6259
▁civilização	-6260
▁descobertas	-6261
▁combustíveis	-6262
▁naturalmente	-6263
▁electricidade	-6264
▁reconhecimento	-6265
ks	-6266
éf	-6267
õe	-6268
▁Li	-6269
▁XI	-6270
▁hi	-6271
▁ox	-6272
Tube	-6273
ames	-6274
ises	-6275
rans	-6276
rome	-6277
utas	-6278
▁Dem	-6279
▁Mat	-6280
▁Mãe	-6281
▁Sen	-6282
▁esg	-6283
▁fór	-6284
oresc	-6285
reira	-6286
ótica	-6287
▁Dois	-6288
▁Nenh	-6289
▁Segu	-6290
▁Tive	-6291
▁brut	-6292
▁desl	-6293
▁fabr	-6294
▁loja	-6295
▁ocul	-6296
▁pasa	-6297
▁repl	-6298
▁sinc	-6299
▁susp	-6300
▁voto	-6301
▁webs	-6302
heimer	-6303
▁amiga	-6304
▁aprop	-6305
▁canal	-6306
▁chimp	-6307
▁coral	-6308
▁criam	-6309
▁danos	-6310
▁dieta	-6311
▁había	-6312
▁incer	-6313
▁jogos	-6314
▁moeda	-6315
▁poema	-6316
▁Pensei	-6317
▁ajudam	-6318
▁causas	-6319
▁cuidar	-6320
▁famoso	-6321
▁previs	-6322
▁protex	-6323
▁YouTube	-6324
▁barulho	-6325
▁ligados	-6326
▁pensado	-6327
▁seguida	-6328
▁sentado	-6329
▁Ocidente	-6330
▁Tínhamos	-6331
▁apresent	-6332
▁eliminar	-6333
▁mellores	-6334
▁públicas	-6335
▁trabalha	-6336
▁africanos	-6337
▁saudáveis	-6338
▁algoritmos	-6339
▁aproveitar	-6340
▁concentrar	-6341
▁específico	-6342
▁igualmente	-6343
▁incentivos	-6344
▁transforma	-6345
▁comprimento	-6346
▁dificuldade	-6347
▁simplemente	-6348
▁desenvolvido	-6349
uz	-6350
irá	-6351
log	-6352
med	-6353
áss	-6354
▁Sí	-6355
▁fi	-6356
▁pó	-6357
▁ál	-6358
berg	-6359
ecas	-6360
icio	-6361
itan	-6362
onal	-6363
orou	-6364
égio	-6365
▁Gen	-6366
▁Mul	-6367
▁asc	-6368
▁ego	-6369
▁gel	-6370
▁vin	-6371
▁xeo	-6372
entil	-6373
rimir	-6374
▁Nada	-6375
▁Pass	-6376
▁SIDA	-6377
▁acum	-6378
▁crit	-6379
▁créd	-6380
▁culp	-6381
▁data	-6382
▁faça	-6383
▁fogu	-6384
▁leve	-6385
▁maca	-6386
▁neno	-6387
▁reag	-6388
▁roda	-6389
▁usou	-6390
itante	-6391
▁aluno	-6392
▁assin	-6393
▁chefe	-6394
▁excep	-6395
▁falei	-6396
▁miles	-6397
▁recib	-6398
▁respe	-6399
▁surge	-6400
▁virar	-6401
▁virem	-6402
▁zonas	-6403
zheimer	-6404
▁Aquele	-6405
▁França	-6406
▁Grande	-6407
▁ajudou	-6408
▁crimin	-6409
▁dormir	-6410
▁evento	-6411
▁graças	-6412
▁inglés	-6413
▁jantar	-6414
▁jardim	-6415
▁microf	-6416
▁océano	-6417
▁preços	-6418
▁proced	-6419
▁senhor	-6420
▁sofrer	-6421
▁vieram	-6422
▁Aplauso	-6423
▁Richard	-6424
▁criaram	-6425
▁fósseis	-6426
▁mamífer	-6427
▁ocorrer	-6428
▁perdido	-6429
▁perfura	-6430
▁acelerar	-6431
▁algunhas	-6432
▁comércio	-6433
▁inventar	-6434
▁perdemos	-6435
▁setembro	-6436
▁Significa	-6437
▁ambiental	-6438
▁americano	-6439
▁aparelhos	-6440
▁especiais	-6441
▁liderança	-6442
▁organizar	-6443
▁percorrer	-6444
▁trabalham	-6445
▁Felizmente	-6446
▁estratégia	-6447
▁interesses	-6448
▁jornalista	-6449
▁movimentos	-6450
▁organismos	-6451
▁compromisso	-6452
▁matemáticas	-6453
▁ligeiramente	-6454
pé	-6455
▁Ó	-6456
com	-6457
ony	-6458
pro	-6459
ére	-6460
▁Av	-6461
▁Xa	-6462
eres	-6463
irou	-6464
mart	-6465
riba	-6466
tado	-6467
▁Ban	-6468
▁Cas	-6469
▁Mal	-6470
▁Núm	-6471
▁SMS	-6472
▁Tes	-6473
actos	-6474
ecida	-6475
iadas	-6476
incid	-6477
rible	-6478
tidão	-6479
ónica	-6480
▁acus	-6481
▁cena	-6482
▁cênt	-6483
▁dada	-6484
▁fato	-6485
▁forç	-6486
▁limp	-6487
▁maus	-6488
▁otim	-6489
▁sinx	-6490
▁sobe	-6491
▁sold	-6492
▁tais	-6493
▁vert	-6494
áculos	-6495
▁Decid	-6496
▁artes	-6497
▁astro	-6498
▁curar	-6499
▁faria	-6500
▁olhou	-6501
▁polos	-6502
▁sangu	-6503
▁votar	-6504
lemente	-6505
rónomos	-6506
▁braços	-6507
▁calcul	-6508
▁cantar	-6509
▁contém	-6510
▁corais	-6511
▁dançar	-6512
▁lançar	-6513
▁noutro	-6514
▁promes	-6515
▁visita	-6516
▁átomos	-6517
anização	-6518
▁acabado	-6519
▁convert	-6520
▁círculo	-6521
▁discipl	-6522
▁impedir	-6523
▁repetir	-6524
▁veículo	-6525
▁apercebi	-6526
▁condutor	-6527
▁daqueles	-6528
▁democrát	-6529
▁positiva	-6530
▁Alzheimer	-6531
▁discussão	-6532
▁gravidade	-6533
▁religiões	-6534
▁tentativa	-6535
▁acontecido	-6536
▁actividade	-6537
▁brilhantes	-6538
▁climáticas	-6539
▁destruição	-6540
▁deveríamos	-6541
▁lentamente	-6542
▁populações	-6543
▁capitalismo	-6544
▁representar	-6545
▁instrumentos	-6546
▁eventualmente	-6547
PR	-6548
ami	-6549
ega	-6550
ity	-6551
rac	-6552
ubl	-6553
▁Ev	-6554
▁He	-6555
▁Tu	-6556
anhã	-6557
ices	-6558
idor	-6559
inam	-6560
ivar	-6561
orpo	-6562
ouco	-6563
âneo	-6564
écia	-6565
▁Dia	-6566
▁Gre	-6567
▁Ped	-6568
▁Pol	-6569
▁Vir	-6570
▁blá	-6571
▁chá	-6572
▁gla	-6573
▁iam	-6574
▁nai	-6575
▁red	-6576
▁rid	-6577
erais	-6578
itura	-6579
vesse	-6580
▁2007	-6581
▁Junt	-6582
▁Just	-6583
▁Três	-6584
▁anat	-6585
▁anón	-6586
▁cinz	-6587
▁inse	-6588
▁rein	-6589
▁saib	-6590
▁tráf	-6591
▁vais	-6592
▁viva	-6593
ificam	-6594
itadas	-6595
rições	-6596
▁Escre	-6597
▁Pesso	-6598
▁atras	-6599
▁azuis	-6600
▁bloco	-6601
▁coche	-6602
▁combo	-6603
▁engra	-6604
▁espet	-6605
▁idênt	-6606
▁nutri	-6607
▁pista	-6608
▁recep	-6609
▁taxas	-6610
▁velha	-6611
▁êxito	-6612
remento	-6613
▁Número	-6614
▁aranha	-6615
▁charla	-6616
▁circul	-6617
▁lições	-6618
▁marcha	-6619
▁menina	-6620
▁protót	-6621
▁alegria	-6622
▁antigos	-6623
▁dispara	-6624
▁dizendo	-6625
▁general	-6626
▁inicial	-6627
▁instant	-6628
▁quizais	-6629
▁regular	-6630
▁sapatos	-6631
▁aconteça	-6632
▁chimpanz	-6633
▁complexa	-6634
▁conselho	-6635
▁diaposit	-6636
▁entropia	-6637
▁esconder	-6638
▁explosão	-6639
▁inespera	-6640
▁pensando	-6641
▁quântica	-6642
▁tentando	-6643
▁comezamos	-6644
▁conhecida	-6645
▁decidiram	-6646
▁designers	-6647
▁economias	-6648
▁poderosos	-6649
▁trabalhei	-6650
▁comparação	-6651
▁económicos	-6652
▁Descobrimos	-6653
▁componentes	-6654
▁desigualdade	-6655
▁produtividade	-6656
30	-6657
ka	-6658
th	-6659
fab	-6660
isa	-6661
itá	-6662
pol	-6663
ves	-6664
óso	-6665
atas	-6666
eiam	-6667
idez	-6668
iros	-6669
orge	-6670
ramo	-6671
▁Ven	-6672
▁Viv	-6673
▁Web	-6674
▁XXI	-6675
▁bor	-6676
▁fum	-6677
▁háb	-6678
ensos	-6679
ólica	-6680
▁adop	-6681
▁anún	-6682
▁diab	-6683
▁inac	-6684
▁incl	-6685
▁raio	-6686
▁saiu	-6687
▁somb	-6688
▁subs	-6689
aravel	-6690
▁altos	-6691
▁altru	-6692
▁botão	-6693
▁brinc	-6694
▁crist	-6695
▁dolor	-6696
▁funda	-6697
▁junto	-6698
▁moita	-6699
▁podía	-6700
▁refor	-6701
▁segue	-6702
ormente	-6703
tacular	-6704
▁afinal	-6705
▁agress	-6706
▁atribu	-6707
▁bancos	-6708
▁chorar	-6709
▁concre	-6710
▁dinosa	-6711
▁filóso	-6712
▁ignora	-6713
▁imaxes	-6714
▁modern	-6715
▁nesses	-6716
▁precon	-6717
▁prótes	-6718
▁queres	-6719
▁recebe	-6720
▁tentei	-6721
▁usadas	-6722
imamente	-6723
ioneiros	-6724
▁alcance	-6725
▁captura	-6726
▁deserto	-6727
▁enerxía	-6728
▁estaria	-6729
▁estação	-6730
▁ficamos	-6731
▁multipl	-6732
▁objecto	-6733
▁ocorreu	-6734
▁olhando	-6735
▁percent	-6736
▁sanguín	-6737
▁visuais	-6738
tualmente	-6739
▁diminuir	-6740
▁estranha	-6741
▁sementes	-6742
▁tentamos	-6743
▁tradição	-6744
▁unidades	-6745
▁veículos	-6746
▁adicionar	-6747
▁avaliação	-6748
▁desespera	-6749
▁eficiente	-6750
▁escaravel	-6751
▁poboación	-6752
▁equilíbrio	-6753
▁conferência	-6754
▁consciencia	-6755
▁interesante	-6756
▁matemáticos	-6757
▁profissional	-6758
▁propriedades	-6759
▁prosperidade	-6760
▁perfeitamente	-6761
▁personalidade	-6762
IT	-6763
arm	-6764
bio	-6765
fes	-6766
ger	-6767
▁99	-6768
▁FO	-6769
▁NA	-6770
▁PM	-6771
▁Sr	-6772
alla	-6773
bolo	-6774
ifer	-6775
nder	-6776
rido	-6777
ídas	-6778
▁Atl	-6779
▁For	-6780
▁Mov	-6781
▁Som	-6782
▁inú	-6783
▁orç	-6784
▁pós	-6785
chave	-6786
ionar	-6787
istos	-6788
ortar	-6789
ricas	-6790
▁Stan	-6791
▁Volt	-6792
▁belo	-6793
▁fico	-6794
▁oxig	-6795
▁reco	-6796
▁selv	-6797
▁sono	-6798
▁vers	-6799
eramos	-6800
itivos	-6801
umbido	-6802
▁Egito	-6803
▁James	-6804
▁Nessa	-6805
▁achar	-6806
▁devol	-6807
▁escal	-6808
▁gerar	-6809
▁legal	-6810
▁letra	-6811
▁mexer	-6812
▁nuvem	-6813
▁úteis	-6814
▁Moitas	-6815
▁aborre	-6816
▁barata	-6817
▁básica	-6818
▁cabeza	-6819
▁chegam	-6820
▁compañ	-6821
▁concep	-6822
▁esposa	-6823
▁ingred	-6824
▁pensou	-6825
▁traduz	-6826
▁abordar	-6827
▁centros	-6828
▁ciencia	-6829
▁crítica	-6830
▁gigante	-6831
▁mostrei	-6832
▁perante	-6833
▁podedes	-6834
▁recebem	-6835
▁símbolo	-6836
▁antepass	-6837
▁assistir	-6838
▁carregar	-6839
▁combater	-6840
▁cozinhar	-6841
▁discutir	-6842
▁eficazes	-6843
▁esquecer	-6844
▁levantar	-6845
▁próximas	-6846
▁sentidos	-6847
▁sintomas	-6848
eriormente	-6849
▁algoritmo	-6850
▁complexas	-6851
▁objectivo	-6852
▁relevante	-6853
▁sabedoria	-6854
▁Presidente	-6855
▁investigar	-6856
▁muçulmanos	-6857
▁aquecimento	-6858
▁laboratorio	-6859
▁publicidade	-6860
▁tratamentos	-6861
▁comunicación	-6862
▁representação	-6863
▁envelhecimento	-6864
tt	-6865
ará	-6866
bes	-6867
bis	-6868
cal	-6869
jos	-6870
ños	-6871
▁CO	-6872
▁Ir	-6873
▁OK	-6874
ISPR	-6875
cida	-6876
egos	-6877
elar	-6878
item	-6879
▁FOX	-6880
▁Fun	-6881
▁Voz	-6882
▁maç	-6883
▁nam	-6884
▁obc	-6885
▁pól	-6886
▁rei	-6887
▁tij	-6888
ensar	-6889
ertos	-6890
ibles	-6891
rimos	-6892
teran	-6893
ículo	-6894
ónico	-6895
▁Mand	-6896
▁Mary	-6897
▁Prof	-6898
▁abst	-6899
▁afro	-6900
▁alem	-6901
▁caos	-6902
▁cola	-6903
▁hero	-6904
▁mala	-6905
▁malu	-6906
▁muta	-6907
▁raci	-6908
▁trag	-6909
essora	-6910
ficial	-6911
izamos	-6912
vações	-6913
ânicos	-6914
▁Micha	-6915
▁Quase	-6916
▁Times	-6917
▁colap	-6918
▁conso	-6919
▁estúp	-6920
▁euros	-6921
▁festa	-6922
▁fluxo	-6923
▁invas	-6924
▁levam	-6925
▁polar	-6926
▁queix	-6927
▁resum	-6928
▁sente	-6929
▁serve	-6930
▁tinta	-6931
▁vazio	-6932
▁CRISPR	-6933
▁Embora	-6934
▁amanhã	-6935
▁amosar	-6936
▁aplica	-6937
▁conden	-6938
▁lembra	-6939
▁letras	-6940
▁ligado	-6941
▁mantêm	-6942
▁mascul	-6943
▁mentir	-6944
▁prejud	-6945
▁propag	-6946
▁servir	-6947
▁surgir	-6948
▁alucina	-6949
▁aspetos	-6950
▁consist	-6951
▁criando	-6952
▁detetar	-6953
▁equilib	-6954
▁extrair	-6955
▁medidas	-6956
▁mencion	-6957
▁parques	-6958
▁zumbido	-6959
▁Qualquer	-6960
▁acompanh	-6961
▁aprendem	-6962
▁desastre	-6963
▁deveriam	-6964
▁dimensão	-6965
▁dissemos	-6966
▁elefante	-6967
▁estacion	-6968
▁horrível	-6969
▁introduz	-6970
▁mistério	-6971
▁morreram	-6972
▁orgulhos	-6973
▁preconce	-6974
▁promessa	-6975
▁proposta	-6976
▁sentados	-6977
▁Instituto	-6978
▁poderosas	-6979
▁profundas	-6980
▁Obviamente	-6981
▁influência	-6982
▁inspiração	-6983
▁observamos	-6984
▁Basicamente	-6985
▁apartamento	-6986
▁representam	-6987
▁suficientes	-6988
▁transportes	-6989
▁responsáveis	-6990
▁aparentemente	-6991
▁desenvolvemos	-6992
▁universidades	-6993
▁circunstâncias	-6994
cão	-6995
isl	-6996
áis	-6997
ína	-6998
▁CE	-6999
▁EM	-7000
▁Ru	-7001
▁Ve	-7002
erop	-7003
gues	-7004
igar	-7005
iras	-7006
ouse	-7007
vent	-7008
ízes	-7009
▁Ber	-7010
▁Cam	-7011
▁Dis	-7012
▁Grã	-7013
▁Inc	-7014
▁MIT	-7015
▁San	-7016
▁XIX	-7017
▁hid	-7018
▁ras	-7019
▁reb	-7020
▁vot	-7021
▁vál	-7022
dutor	-7023
eciam	-7024
irmos	-7025
ndose	-7026
oston	-7027
rante	-7028
érios	-7029
▁Espe	-7030
▁chan	-7031
▁desm	-7032
▁deus	-7033
▁fila	-7034
▁flor	-7035
▁fura	-7036
▁igre	-7037
▁neve	-7038
▁olha	-7039
▁pedi	-7040
▁rico	-7041
▁subm	-7042
keting	-7043
ângulo	-7044
▁casar	-7045
▁cláss	-7046
▁fillo	-7047
▁neles	-7048
▁obcec	-7049
▁polas	-7050
▁tenta	-7051
▁Boston	-7052
▁George	-7053
▁Mulher	-7054
▁Thomas	-7055
▁Tinham	-7056
▁acabam	-7057
▁arrast	-7058
▁atacar	-7059
▁bonita	-7060
▁chinês	-7061
▁descar	-7062
▁esteve	-7063
▁fundos	-7064
▁ingles	-7065
▁quinta	-7066
▁racioc	-7067
▁recrut	-7068
▁reflex	-7069
▁sensor	-7070
▁triste	-7071
▁únicos	-7072
▁algunha	-7073
▁coincid	-7074
▁corrida	-7075
▁entrada	-7076
▁escolar	-7077
▁existia	-7078
▁lembrem	-7079
▁prestar	-7080
▁separar	-7081
▁veteran	-7082
ecnologia	-7083
▁caminhar	-7084
▁escoitar	-7085
▁fracasso	-7086
▁objectos	-7087
▁positivo	-7088
▁radiação	-7089
▁receitas	-7090
▁restaura	-7091
▁sozinhos	-7092
▁vantagem	-7093
etivamente	-7094
▁aproximar	-7095
▁climático	-7096
▁dignidade	-7097
▁entrevist	-7098
▁assustador	-7099
▁correspond	-7100
▁criminosos	-7101
▁financeira	-7102
▁proporcion	-7103
▁acreditamos	-7104
▁microscópio	-7105
▁arquitectura	-7106
aj	-7107
ny	-7108
col	-7109
max	-7110
our	-7111
top	-7112
zar	-7113
úas	-7114
Bret	-7115
aste	-7116
ches	-7117
inte	-7118
lhas	-7119
quim	-7120
serv	-7121
ália	-7122
▁250	-7123
▁Air	-7124
▁Che	-7125
▁Gal	-7126
▁Uau	-7127
▁cám	-7128
▁eis	-7129
▁gab	-7130
▁gañ	-7131
▁mañ	-7132
▁pac	-7133
▁pan	-7134
▁sól	-7135
▁voo	-7136
▁ópt	-7137
istro	-7138
▁Ciro	-7139
▁Coca	-7140
▁Paul	-7141
▁acto	-7142
▁agul	-7143
▁biom	-7144
▁desa	-7145
▁indo	-7146
▁razo	-7147
igamos	-7148
inados	-7149
▁Haiti	-7150
▁Quais	-7151
▁acção	-7152
▁escur	-7153
▁ganha	-7154
▁mudam	-7155
▁obtiv	-7156
▁optim	-7157
▁primo	-7158
▁terço	-7159
▁Perceb	-7160
▁arranj	-7161
▁cinema	-7162
▁coloca	-7163
▁contín	-7164
▁corrig	-7165
▁cursos	-7166
▁direto	-7167
▁exceto	-7168
▁ficção	-7169
▁imensa	-7170
▁injust	-7171
▁lógica	-7172
▁mínimo	-7173
▁núcleo	-7174
▁quería	-7175
▁tendem	-7176
▁voltou	-7177
▁vítima	-7178
Bretanha	-7179
ológicas	-7180
▁Aprendi	-7181
▁Charles	-7182
▁Fizemos	-7183
▁Pessoas	-7184
▁Reparem	-7185
▁abertos	-7186
▁camadas	-7187
▁crédito	-7188
▁diretor	-7189
▁especie	-7190
▁eventos	-7191
▁intelix	-7192
▁janelas	-7193
▁notável	-7194
▁rapaces	-7195
▁recurso	-7196
▁revelar	-7197
▁visível	-7198
▁Stanford	-7199
▁acabaram	-7200
▁ciências	-7201
▁essência	-7202
▁estarmos	-7203
▁percebem	-7204
▁pergunto	-7205
▁quadrado	-7206
partamento	-7207
▁automóvel	-7208
▁doméstica	-7209
▁marketing	-7210
▁nucleares	-7211
▁parceiros	-7212
▁regressar	-7213
▁satélites	-7214
▁anteriores	-7215
▁continente	-7216
▁preparados	-7217
▁adolescente	-7218
▁ecossistema	-7219
▁instrumento	-7220
▁percentagem	-7221
▁alternativas	-7222
▁precisamente	-7223
▁necessariamente	-7224
ld	-7225
azo	-7226
ech	-7227
ott	-7228
pal	-7229
úns	-7230
▁36	-7231
▁Be	-7232
▁Bi	-7233
▁Lá	-7234
▁Ph	-7235
▁eg	-7236
▁od	-7237
▁Ár	-7238
cura	-7239
gado	-7240
quia	-7241
quil	-7242
udes	-7243
unal	-7244
íame	-7245
ísmo	-7246
▁aso	-7247
▁iPh	-7248
▁nan	-7249
▁tóp	-7250
inete	-7251
parei	-7252
tiliz	-7253
▁Comp	-7254
▁abus	-7255
▁adiv	-7256
▁anda	-7257
▁conx	-7258
▁gato	-7259
▁nano	-7260
▁raza	-7261
▁reje	-7262
▁reut	-7263
ecidos	-7264
iramos	-7265
▁Museu	-7266
▁adqui	-7267
▁bolas	-7268
▁metal	-7269
▁perde	-7270
▁piada	-7271
▁poida	-7272
▁recoñ	-7273
▁tuber	-7274
▁vigil	-7275
▁éxito	-7276
queleto	-7277
▁Americ	-7278
▁Consid	-7279
▁alcanç	-7280
▁básico	-7281
▁cavalo	-7282
▁cámara	-7283
▁devast	-7284
▁dívida	-7285
▁encant	-7286
▁exames	-7287
▁explod	-7288
▁fantas	-7289
▁farmac	-7290
▁formam	-7291
▁formos	-7292
▁inclus	-7293
▁marcas	-7294
▁medios	-7295
▁ningún	-7296
▁teatro	-7297
ificadas	-7298
▁agentes	-7299
▁apropri	-7300
▁básicos	-7301
▁conheço	-7302
▁crucial	-7303
▁crítico	-7304
▁declara	-7305
▁escrevi	-7306
▁funções	-7307
▁navegar	-7308
▁passada	-7309
▁sozinha	-7310
▁website	-7311
▁fazermos	-7312
▁fluoresc	-7313
▁gráficos	-7314
▁ningunha	-7315
▁operação	-7316
▁oxigénio	-7317
▁percurso	-7318
▁presença	-7319
▁segredos	-7320
▁acontecem	-7321
▁investiga	-7322
▁palestras	-7323
▁competição	-7324
▁contribuir	-7325
▁imigrantes	-7326
▁nutrientes	-7327
▁questionar	-7328
▁tendências	-7329
▁actualmente	-7330
▁enfermidade	-7331
▁jornalistas	-7332
▁especialista	-7333
▁transparência	-7334
-2	-7335
oa	-7336
uo	-7337
nam	-7338
ori	-7339
poñ	-7340
uss	-7341
áct	-7342
êut	-7343
ódo	-7344
▁32	-7345
▁Ag	-7346
▁Dá	-7347
▁jo	-7348
▁ór	-7349
Cola	-7350
abby	-7351
arre	-7352
chas	-7353
eder	-7354
izam	-7355
pont	-7356
rema	-7357
unas	-7358
urno	-7359
▁Bon	-7360
▁Ens	-7361
▁Líb	-7362
▁Sup	-7363
▁acc	-7364
▁amo	-7365
▁anc	-7366
▁fio	-7367
▁hem	-7368
▁mob	-7369
▁sag	-7370
▁sáb	-7371
▁tir	-7372
▁veg	-7373
▁índ	-7374
entro	-7375
ronse	-7376
▁2012	-7377
▁FOXO	-7378
▁Hoxe	-7379
▁Paqu	-7380
▁dram	-7381
▁efec	-7382
▁egíp	-7383
▁liga	-7384
▁neut	-7385
▁simp	-7386
▁term	-7387
▁tras	-7388
▁vira	-7389
icaram	-7390
icácia	-7391
izando	-7392
ântico	-7393
▁Esses	-7394
▁angar	-7395
▁banda	-7396
▁embar	-7397
▁expon	-7398
▁honra	-7399
▁manus	-7400
▁mapas	-7401
▁nariz	-7402
▁raiva	-7403
▁regra	-7404
▁risos	-7405
▁temas	-7406
▁toque	-7407
▁traum	-7408
▁trist	-7409
▁tubar	-7410
▁verem	-7411
▁vivia	-7412
▁xusto	-7413
▁Darwin	-7414
▁Robert	-7415
▁admira	-7416
▁carreg	-7417
▁centos	-7418
▁cheiro	-7419
▁contac	-7420
▁criada	-7421
▁dispar	-7422
▁engano	-7423
▁filoso	-7424
▁garraf	-7425
▁interv	-7426
▁irmãos	-7427
▁morrem	-7428
▁mortas	-7429
▁nações	-7430
▁normas	-7431
▁notici	-7432
▁noutra	-7433
▁pintar	-7434
▁portas	-7435
▁reunir	-7436
▁secret	-7437
▁trocar	-7438
▁volver	-7439
vertidos	-7440
▁Mandela	-7441
▁Michael	-7442
▁William	-7443
▁agarrar	-7444
▁cartões	-7445
▁divisão	-7446
▁elevado	-7447
▁estimul	-7448
▁galáxia	-7449
▁generos	-7450
▁nervoso	-7451
▁ninguén	-7452
▁observa	-7453
▁partilh	-7454
▁africano	-7455
▁barreira	-7456
▁calcular	-7457
▁cardíaco	-7458
▁contrato	-7459
▁cálculos	-7460
▁destruir	-7461
▁esforços	-7462
▁esperava	-7463
▁fornecer	-7464
▁gasolina	-7465
▁insulina	-7466
▁memórias	-7467
▁passamos	-7468
▁recentes	-7469
▁registos	-7470
▁Conseguem	-7471
▁argumento	-7472
▁mamíferos	-7473
▁ocidental	-7474
▁resolução	-7475
▁conhecidos	-7476
▁distúrbios	-7477
▁eficiência	-7478
▁estivessem	-7479
▁percebemos	-7480
▁significar	-7481
▁tuberculos	-7482
▁utilizando	-7483
▁Normalmente	-7484
▁colaboração	-7485
▁estabelecer	-7486
▁implicações	-7487
▁instalações	-7488
▁significava	-7489
▁voluntários	-7490
▁competências	-7491
▁pessoalmente	-7492
▁profundidade	-7493
▁especificamente	-7494
LA	-7495
aa	-7496
vê	-7497
óf	-7498
ôs	-7499
ali	-7500
ani	-7501
far	-7502
ich	-7503
iña	-7504
let	-7505
ten	-7506
▁Ei	-7507
▁Ig	-7508
▁Sy	-7509
eced	-7510
orld	-7511
viol	-7512
átil	-7513
çada	-7514
▁Aos	-7515
▁Cor	-7516
▁Deb	-7517
▁Jan	-7518
▁Jer	-7519
▁Man	-7520
▁Nig	-7521
▁ONG	-7522
▁Ros	-7523
▁Sha	-7524
▁Via	-7525
▁aus	-7526
▁big	-7527
▁cil	-7528
▁rir	-7529
adura	-7530
ridge	-7531
urais	-7532
▁Cong	-7533
▁Creo	-7534
▁Mart	-7535
▁Sara	-7536
▁Tony	-7537
▁aler	-7538
▁carr	-7539
▁cred	-7540
▁doce	-7541
▁faix	-7542
▁fios	-7543
▁gord	-7544
▁irem	-7545
▁mold	-7546
▁tira	-7547
iforme	-7548
ilares	-7549
inossa	-7550
▁Antár	-7551
▁Fomos	-7552
▁Gosta	-7553
▁Olhem	-7554
▁Steve	-7555
▁arque	-7556
▁bases	-7557
▁clase	-7558
▁currí	-7559
▁envia	-7560
▁falou	-7561
▁guiar	-7562
▁humor	-7563
▁libro	-7564
▁limpa	-7565
▁milag	-7566
▁nelas	-7567
▁perna	-7568
▁prost	-7569
▁rabis	-7570
▁sabes	-7571
▁salto	-7572
▁venda	-7573
ificada	-7574
▁Descul	-7575
▁Unidas	-7576
▁bacter	-7577
▁caminh	-7578
▁cantos	-7579
▁deixam	-7580
▁descer	-7581
▁desloc	-7582
▁esfera	-7583
▁heróis	-7584
▁pasado	-7585
▁sugere	-7586
▁surgiu	-7587
▁título	-7588
ologista	-7589
▁Despois	-7590
▁acelera	-7591
▁avaliar	-7592
▁configu	-7593
▁câmaras	-7594
▁escapar	-7595
▁evoluir	-7596
▁explica	-7597
▁habitat	-7598
▁paralis	-7599
▁transpl	-7600
▁Amazónia	-7601
▁chegaram	-7602
▁clínicos	-7603
▁criativo	-7604
▁criatura	-7605
▁criminal	-7606
▁distingu	-7607
▁houvesse	-7608
▁pinturas	-7609
▁previsão	-7610
▁pudermos	-7611
▁pássaros	-7612
▁regresso	-7613
▁satélite	-7614
▁variação	-7615
ionalmente	-7616
▁acessível	-7617
▁barreiras	-7618
▁condicion	-7619
▁estiveram	-7620
▁plásticos	-7621
▁complicada	-7622
▁instruções	-7623
▁privilégio	-7624
▁telescópio	-7625
▁trabalhava	-7626
▁Conseguimos	-7627
▁considerado	-7628
▁enfrentamos	-7629
▁fisicamente	-7630
▁necessários	-7631
▁verdadeiros	-7632
▁antepassados	-7633
▁consequência	-7634
▁participação	-7635
▁probablemente	-7636
its	-7637
men	-7638
ure	-7639
▁65	-7640
▁Aí	-7641
▁Br	-7642
▁Lo	-7643
▁fu	-7644
axes	-7645
bola	-7646
eçam	-7647
igam	-7648
izou	-7649
orei	-7650
teor	-7651
udio	-7652
unho	-7653
ânio	-7654
▁But	-7655
▁Cab	-7656
▁Enc	-7657
▁Lua	-7658
▁Meu	-7659
▁Rep	-7660
▁Sta	-7661
▁arb	-7662
▁dúz	-7663
▁pux	-7664
▁tio	-7665
▁ínt	-7666
bolos	-7667
endem	-7668
uação	-7669
ulado	-7670
▁Alex	-7671
▁Gana	-7672
▁Sabe	-7673
▁atac	-7674
▁cole	-7675
▁diso	-7676
▁estr	-7677
▁fest	-7678
▁mañá	-7679
▁orix	-7680
▁tivo	-7681
▁toma	-7682
▁ódio	-7683
ciação	-7684
iantes	-7685
ámonos	-7686
▁Gabby	-7687
▁Nesse	-7688
▁World	-7689
▁afeta	-7690
▁andam	-7691
▁arroz	-7692
▁atrib	-7693
▁ciber	-7694
▁colab	-7695
▁corte	-7696
▁cuest	-7697
▁escav	-7698
▁hotel	-7699
▁irrit	-7700
▁pesar	-7701
▁poñer	-7702
▁pénis	-7703
▁ética	-7704
emática	-7705
itantes	-7706
▁Afinal	-7707
▁cordas	-7708
▁efecto	-7709
▁eleito	-7710
▁escrav	-7711
▁espazo	-7712
▁férias	-7713
▁levado	-7714
▁ligada	-7715
▁livres	-7716
▁medula	-7717
▁metano	-7718
▁pedido	-7719
▁porcos	-7720
▁reconh	-7721
▁roubar	-7722
▁saltar	-7723
▁simple	-7724
▁tornei	-7725
▁Central	-7726
▁Constru	-7727
▁Fazemos	-7728
▁Poderia	-7729
▁domínio	-7730
▁motores	-7731
▁noutras	-7732
▁posible	-7733
▁químico	-7734
▁treinar	-7735
ificações	-7736
▁cadeiras	-7737
▁cêntimos	-7738
▁diabetes	-7739
▁governam	-7740
▁passagem	-7741
▁sentirem	-7742
▁ansiedade	-7743
▁corrupção	-7744
▁interação	-7745
▁ordenador	-7746
▁ultrapass	-7747
▁envolvidos	-7748
▁habilidade	-7749
▁observação	-7750
▁recompensa	-7751
▁referência	-7752
▁seguridade	-7753
▁utilizador	-7754
▁estatística	-7755
▁fantásticas	-7756
▁preocupação	-7757
▁recuperação	-7758
▁tuberculose	-7759
▁desconhecido	-7760
▁funcionários	-7761
▁independente	-7762
▁significativa	-7763
▁internacionais	-7764
▁potencialmente	-7765
ív	-7766
eia	-7767
imb	-7768
jac	-7769
lin	-7770
och	-7771
pra	-7772
ute	-7773
wan	-7774
▁Fl	-7775
▁II	-7776
cara	-7777
idar	-7778
iter	-7779
izof	-7780
mago	-7781
ntem	-7782
odes	-7783
oría	-7784
riqu	-7785
rést	-7786
utos	-7787
▁Bob	-7788
▁Esa	-7789
▁Tex	-7790
▁Val	-7791
▁coc	-7792
▁tit	-7793
amais	-7794
atina	-7795
endas	-7796
letas	-7797
ordos	-7798
ubble	-7799
íxeno	-7800
ómica	-7801
▁2005	-7802
▁Camb	-7803
▁avós	-7804
▁aére	-7805
▁band	-7806
▁feed	-7807
▁hack	-7808
▁iron	-7809
▁liña	-7810
▁ocor	-7811
abamos	-7812
ificou	-7813
ímetro	-7814
▁Podia	-7815
▁Sabes	-7816
▁Saúde	-7817
▁Teñen	-7818
▁coraz	-7819
▁desag	-7820
▁exped	-7821
▁fugir	-7822
▁hidro	-7823
▁ossos	-7824
▁pesca	-7825
▁praia	-7826
▁proib	-7827
▁raios	-7828
íssemos	-7829
▁Nações	-7830
▁Observ	-7831
▁Ruanda	-7832
▁anunci	-7833
▁bombas	-7834
▁camiño	-7835
▁compos	-7836
▁cresce	-7837
▁cresci	-7838
▁derram	-7839
▁equipo	-7840
▁figura	-7841
▁ilegal	-7842
▁incons	-7843
▁insegu	-7844
▁limpar	-7845
▁pegada	-7846
▁prémio	-7847
▁urbano	-7848
▁Neander	-7849
▁Quantos	-7850
▁Vejamos	-7851
▁astrona	-7852
▁combate	-7853
▁cresceu	-7854
▁diploma	-7855
▁ligadas	-7856
▁orgulho	-7857
▁pareceu	-7858
▁patente	-7859
▁sentada	-7860
▁sujeito	-7861
▁tempest	-7862
▁caminhos	-7863
▁cerebros	-7864
▁concluir	-7865
▁daquelas	-7866
▁desculpa	-7867
▁desistir	-7868
▁dinâmica	-7869
▁electrón	-7870
▁esquizof	-7871
▁imaxinar	-7872
▁invenção	-7873
▁pensavam	-7874
▁potência	-7875
▁publicar	-7876
▁cirurgião	-7877
▁escultura	-7878
▁esqueleto	-7879
▁montanhas	-7880
▁nacionais	-7881
▁organismo	-7882
▁perguntam	-7883
▁terríveis	-7884
▁verificar	-7885
▁biblioteca	-7886
▁crecemento	-7887
▁económicas	-7888
▁entendemos	-7889
▁específica	-7890
▁vigilância	-7891
▁alimentação	-7892
▁assistência	-7893
▁conseguiram	-7894
▁diariamente	-7895
▁intelectual	-7896
▁interessado	-7897
▁transformou	-7898
▁directamente	-7899
▁estabilidade	-7900
▁ingredientes	-7901
íc	-7902
cet	-7903
fos	-7904
nal	-7905
sex	-7906
uls	-7907
ñar	-7908
▁Bu	-7909
▁MK	-7910
▁Ni	-7911
▁xe	-7912
anço	-7913
aron	-7914
ator	-7915
bita	-7916
deus	-7917
ería	-7918
guer	-7919
irma	-7920
ixen	-7921
lado	-7922
otas	-7923
tais	-7924
wood	-7925
índo	-7926
▁Ken	-7927
▁Sub	-7928
▁Ten	-7929
▁cós	-7930
▁tap	-7931
▁trá	-7932
▁vex	-7933
avera	-7934
copio	-7935
iando	-7936
itava	-7937
rimas	-7938
rátis	-7939
çamos	-7940
ísica	-7941
óxido	-7942
▁2015	-7943
▁2050	-7944
▁Apar	-7945
▁Imax	-7946
▁NASA	-7947
▁Públ	-7948
▁afor	-7949
▁banc	-7950
▁bate	-7951
▁coll	-7952
▁come	-7953
▁film	-7954
▁grau	-7955
▁luxo	-7956
▁lâmp	-7957
▁move	-7958
▁pant	-7959
▁pref	-7960
▁rica	-7961
▁seca	-7962
ecendo	-7963
inadas	-7964
martph	-7965
vidade	-7966
▁Estud	-7967
▁Gates	-7968
▁Obama	-7969
▁Porém	-7970
▁Simpl	-7971
▁Solly	-7972
▁União	-7973
▁ampla	-7974
▁barbe	-7975
▁colis	-7976
▁conto	-7977
▁dando	-7978
▁dixen	-7979
▁esque	-7980
▁fondo	-7981
▁gradu	-7982
▁infec	-7983
▁liceu	-7984
▁movim	-7985
▁paras	-7986
▁pediu	-7987
▁pilha	-7988
▁presa	-7989
▁reinv	-7990
▁rigor	-7991
▁órgão	-7992
itación	-7993
▁Europe	-7994
▁Querem	-7995
▁abrigo	-7996
▁achava	-7997
▁captar	-7998
▁choque	-7999
▁cilind	-8000
▁comeza	-8001
▁etique	-8002
▁fariam	-8003
▁grátis	-8004
▁legisl	-8005
▁perdeu	-8006
▁piores	-8007
▁preven	-8008
▁terram	-8009
▁transa	-8010
▁voltas	-8011
▁vulgar	-8012
osamente	-8013
▁armazen	-8014
▁brinque	-8015
▁comezou	-8016
▁correto	-8017
▁elevada	-8018
▁ignorar	-8019
▁leitura	-8020
▁múltipl	-8021
▁passava	-8022
▁pedimos	-8023
▁reforma	-8024
▁tornado	-8025
▁National	-8026
▁abertura	-8027
▁aumentou	-8028
▁comparar	-8029
▁conforme	-8030
▁extensão	-8031
▁fotógraf	-8032
▁hormonas	-8033
▁impostos	-8034
▁mergulho	-8035
▁modernos	-8036
▁parceiro	-8037
▁produzem	-8038
▁receptor	-8039
▁tragédia	-8040
▁vermelha	-8041
▁Paquistão	-8042
▁cobertura	-8043
▁dispostos	-8044
▁dominante	-8045
▁escuridão	-8046
▁espantosa	-8047
▁histórico	-8048
▁incerteza	-8049
▁intestino	-8050
▁quaisquer	-8051
▁raramente	-8052
▁autoridade	-8053
▁construída	-8054
▁descoberto	-8055
▁felizmente	-8056
▁indústrias	-8057
▁invisíveis	-8058
▁profesores	-8059
ologicamente	-8060
▁necessárias	-8061
▁personagens	-8062
▁preocupados	-8063
▁vulneráveis	-8064
▁globalização	-8065
▁investidores	-8066
▁laboratórios	-8067
su	-8068
zz	-8069
pem	-8070
uri	-8071
íns	-8072
▁ía	-8073
adir	-8074
back	-8075
emel	-8076
etão	-8077
ipos	-8078
itco	-8079
onho	-8080
orde	-8081
reet	-8082
émos	-8083
údio	-8084
▁191	-8085
▁Nel	-8086
▁Nor	-8087
▁Sat	-8088
▁alu	-8089
▁alá	-8090
▁inm	-8091
▁mad	-8092
▁ore	-8093
▁pir	-8094
▁sit	-8095
icago	-8096
macos	-8097
reiro	-8098
stata	-8099
▁Arte	-8100
▁Perd	-8101
▁aire	-8102
▁cujo	-8103
▁eleg	-8104
▁emit	-8105
▁inoc	-8106
▁pato	-8107
▁paus	-8108
▁sele	-8109
atório	-8110
etivas	-8111
gueira	-8112
ódolos	-8113
▁Costa	-8114
▁Gosto	-8115
▁Podes	-8116
▁abriu	-8117
▁acons	-8118
▁adver	-8119
▁alien	-8120
▁errad	-8121
▁estil	-8122
▁fabul	-8123
▁justo	-8124
▁leite	-8125
▁lindo	-8126
▁mirar	-8127
▁nasci	-8128
▁olham	-8129
▁prest	-8130
▁reino	-8131
▁resil	-8132
▁senão	-8133
▁sexos	-8134
▁sexta	-8135
▁troca	-8136
▁vivas	-8137
entados	-8138
▁Nelson	-8139
▁Prémio	-8140
▁biolóx	-8141
▁branca	-8142
▁calhar	-8143
▁cartos	-8144
▁cartão	-8145
▁cometa	-8146
▁deprim	-8147
▁estará	-8148
▁falhas	-8149
▁folhas	-8150
▁fortal	-8151
▁israel	-8152
▁montes	-8153
▁morais	-8154
▁namora	-8155
▁painel	-8156
▁pistas	-8157
▁procur	-8158
▁record	-8159
▁rurais	-8160
▁sacrif	-8161
▁superm	-8162
▁terras	-8163
▁vacina	-8164
▁vencer	-8165
riamente	-8166
▁Chicago	-8167
▁Gostava	-8168
▁confirm	-8169
▁crenças	-8170
▁debería	-8171
▁descont	-8172
▁desfrut	-8173
▁efectos	-8174
▁emprést	-8175
▁encoraj	-8176
▁extremo	-8177
▁implica	-8178
▁inverno	-8179
▁líquido	-8180
▁musical	-8181
▁naquilo	-8182
▁reunião	-8183
▁seguido	-8184
▁aparecem	-8185
▁aplausos	-8186
▁centrais	-8187
▁competir	-8188
▁condição	-8189
▁desafiar	-8190
▁desenhos	-8191
▁director	-8192
▁distante	-8193
▁incrible	-8194
▁instante	-8195
▁limitado	-8196
▁passámos	-8197
▁responde	-8198
▁resultou	-8199
▁xeración	-8200
▁afirmação	-8201
▁assegurar	-8202
▁consegues	-8203
▁conversar	-8204
▁crescente	-8205
▁distintas	-8206
▁preguntar	-8207
▁profissão	-8208
▁componente	-8209
▁eficientes	-8210
▁entrevista	-8211
▁matemático	-8212
▁obstáculos	-8213
▁permanente	-8214
▁utilização	-8215
▁conseguirem	-8216
▁desenvolveu	-8217
▁informática	-8218
▁resistencia	-8219
▁restaurante	-8220
▁terroristas	-8221
▁apresentação	-8222
▁extraordinar	-8223
▁informáticos	-8224
▁funcionamento	-8225
▁investigación	-8226
▁característica	-8227
RA	-8228
▁+	-8229
año	-8230
fal	-8231
osh	-8232
õem	-8233
▁Pl	-8234
▁To	-8235
▁he	-8236
airo	-8237
apor	-8238
ecen	-8239
gada	-8240
nera	-8241
olox	-8242
rase	-8243
rosa	-8244
ubro	-8245
vens	-8246
ânea	-8247
▁Set	-8248
▁anf	-8249
▁daf	-8250
▁ino	-8251
▁lix	-8252
▁pom	-8253
▁sep	-8254
▁tún	-8255
ellos	-8256
estes	-8257
estra	-8258
etria	-8259
haram	-8260
orden	-8261
organ	-8262
raria	-8263
vidos	-8264
ítimo	-8265
▁Algo	-8266
▁Mira	-8267
▁Sing	-8268
▁biod	-8269
▁capa	-8270
▁cego	-8271
▁clas	-8272
▁cocó	-8273
▁cães	-8274
▁fing	-8275
▁fose	-8276
▁fábr	-8277
▁gira	-8278
▁guia	-8279
▁levá	-8280
▁mago	-8281
▁redo	-8282
▁saír	-8283
▁sopa	-8284
▁térm	-8285
pacial	-8286
▁Serra	-8287
▁Sinto	-8288
▁Síria	-8289
▁Texas	-8290
▁aerop	-8291
▁color	-8292
▁desas	-8293
▁douto	-8294
▁escap	-8295
▁estam	-8296
▁falso	-8297
▁fêmea	-8298
▁medos	-8299
▁miñas	-8300
▁preso	-8301
▁recus	-8302
▁revis	-8303
entámos	-8304
itárias	-8305
▁Street	-8306
▁ancest	-8307
▁coller	-8308
▁defesa	-8309
▁deixei	-8310
▁distor	-8311
▁ensaio	-8312
▁fabric	-8313
▁fermos	-8314
▁fibras	-8315
▁gravar	-8316
▁guarda	-8317
▁impres	-8318
▁indica	-8319
▁longas	-8320
▁menino	-8321
▁navios	-8322
▁pedras	-8323
▁propia	-8324
▁public	-8325
▁secção	-8326
▁tentam	-8327
▁ventil	-8328
▁Ártico	-8329
▁árabes	-8330
ificamos	-8331
▁amarelo	-8332
▁apontar	-8333
▁canções	-8334
▁colapso	-8335
▁colocou	-8336
▁compras	-8337
▁computa	-8338
▁crescem	-8339
▁cumprir	-8340
▁ensinou	-8341
▁escutar	-8342
▁estarão	-8343
▁falámos	-8344
▁físicas	-8345
▁imensas	-8346
▁levamos	-8347
▁planear	-8348
▁privada	-8349
▁prontos	-8350
▁receita	-8351
▁senhora	-8352
▁sexuais	-8353
▁smartph	-8354
▁solares	-8355
▁talento	-8356
▁telefon	-8357
▁televis	-8358
▁tiñamos	-8359
▁tumores	-8360
▁tódolos	-8361
▁acredita	-8362
▁alimento	-8363
▁bactéria	-8364
▁cardíaca	-8365
▁combinar	-8366
▁correcto	-8367
▁cultivar	-8368
▁deixaram	-8369
▁diversas	-8370
▁eficácia	-8371
▁factores	-8372
▁funcione	-8373
▁fábricas	-8374
▁fármacos	-8375
▁inspirar	-8376
▁neurónio	-8377
▁paradoxo	-8378
▁símbolos	-8379
▁talentos	-8380
▁Ocidental	-8381
▁académico	-8382
▁conectoma	-8383
▁contraste	-8384
▁diferenza	-8385
▁distintos	-8386
▁encontrou	-8387
▁excitante	-8388
▁influenci	-8389
▁microfone	-8390
▁terramoto	-8391
▁veteranos	-8392
▁Atualmente	-8393
▁combinação	-8394
▁costumavam	-8395
▁empregados	-8396
▁inevitável	-8397
▁aconteceria	-8398
▁encontraram	-8399
▁transmissão	-8400
▁alucinacións	-8401
▁anteriormente	-8402
▁acontecimentos	-8403
dy	-8404
ju	-8405
uh	-8406
ecu	-8407
gra	-8408
iat	-8409
nes	-8410
pam	-8411
use	-8412
xes	-8413
▁26	-8414
▁WK	-8415
▁ah	-8416
acos	-8417
ania	-8418
avan	-8419
cher	-8420
ebol	-8421
face	-8422
icat	-8423
iron	-8424
pero	-8425
usta	-8426
íaco	-8427
ísta	-8428
▁Bre	-8429
▁Cha	-8430
▁Dei	-8431
▁Fer	-8432
▁Inv	-8433
▁Mud	-8434
▁Org	-8435
▁Sam	-8436
▁Sch	-8437
▁Sur	-8438
▁ido	-8439
▁the	-8440
cegos	-8441
icios	-8442
rasse	-8443
ódulo	-8444
▁arco	-8445
▁asas	-8446
▁cual	-8447
▁filt	-8448
▁heró	-8449
▁lago	-8450
▁nerv	-8451
▁pico	-8452
▁roup	-8453
▁vela	-8454
cópios	-8455
ígenas	-8456
ítulos	-8457
▁Mundo	-8458
▁Natal	-8459
▁achei	-8460
▁ambas	-8461
▁autoc	-8462
▁avanz	-8463
▁bolha	-8464
▁carga	-8465
▁colhe	-8466
▁comem	-8467
▁curta	-8468
▁encol	-8469
▁ganho	-8470
▁larga	-8471
▁lavar	-8472
▁malas	-8473
▁polit	-8474
▁porco	-8475
▁proje	-8476
▁práct	-8477
▁quart	-8478
▁ruído	-8479
▁sites	-8480
▁vapor	-8481
▁vital	-8482
▁xogos	-8483
izações	-8484
▁Imaxin	-8485
▁agulha	-8486
▁capita	-8487
▁compro	-8488
▁empenh	-8489
▁falsos	-8490
▁ganhou	-8491
▁havido	-8492
▁iPhone	-8493
▁insist	-8494
▁machos	-8495
▁microb	-8496
▁montar	-8497
▁negras	-8498
▁pareça	-8499
▁pormen	-8500
▁reagir	-8501
▁regres	-8502
▁simult	-8503
▁sonhar	-8504
▁tamaño	-8505
▁truque	-8506
▁Quantas	-8507
▁adiante	-8508
▁ameaças	-8509
▁celular	-8510
▁colónia	-8511
▁comemos	-8512
▁contrad	-8513
▁criados	-8514
▁definir	-8515
▁dióxido	-8516
▁erradas	-8517
▁escolhe	-8518
▁estúdio	-8519
▁olhámos	-8520
▁pudemos	-8521
▁retorno	-8522
▁vulnera	-8523
▁agências	-8524
▁assuntos	-8525
▁atopamos	-8526
▁chamados	-8527
▁consiste	-8528
▁explicou	-8529
▁familias	-8530
▁genético	-8531
▁improvis	-8532
▁mellorar	-8533
▁morcegos	-8534
▁portátil	-8535
▁resistir	-8536
▁respirar	-8537
oricamente	-8538
▁agradável	-8539
▁aperceber	-8540
▁autocarro	-8541
▁funcional	-8542
▁injustiça	-8543
▁objetivos	-8544
▁poupanças	-8545
▁protótipo	-8546
▁vantagens	-8547
▁acreditava	-8548
▁começarmos	-8549
▁desenvolve	-8550
▁excelentes	-8551
▁expressões	-8552
▁financeiro	-8553
▁lançamento	-8554
▁partilhada	-8555
▁permanecer	-8556
▁personagem	-8557
▁poderiamos	-8558
▁professora	-8559
▁visualizar	-8560
▁economistas	-8561
▁financeiros	-8562
▁globalmente	-8563
▁partilhamos	-8564
▁perguntaram	-8565
▁quantidades	-8566
▁precisávamos	-8567
▁colaboradores	-8568
▁tridimensional	-8569
UU	-8570
ád	-8571
ób	-8572
úe	-8573
aco	-8574
atu	-8575
ild	-8576
ker	-8577
▁Sp	-8578
▁lê	-8579
azer	-8580
enha	-8581
guem	-8582
quir	-8583
riar	-8584
íbel	-8585
ónio	-8586
▁Arg	-8587
▁Nar	-8588
▁ONU	-8589
▁Red	-8590
▁Reg	-8591
▁Rús	-8592
▁aço	-8593
▁bei	-8594
▁dou	-8595
▁fro	-8596
▁lac	-8597
▁max	-8598
▁rus	-8599
▁árb	-8600
doras	-8601
envol	-8602
onald	-8603
ostum	-8604
press	-8605
stitu	-8606
çados	-8607
ñeiro	-8608
▁2001	-8609
▁Babb	-8610
▁Indo	-8611
▁Mark	-8612
▁adot	-8613
▁anun	-8614
▁dano	-8615
▁dedo	-8616
▁exib	-8617
▁fals	-8618
▁harm	-8619
▁ilha	-8620
▁ital	-8621
▁mans	-8622
▁osso	-8623
▁pura	-8624
▁saco	-8625
▁soar	-8626
▁solt	-8627
▁suce	-8628
▁teto	-8629
▁unir	-8630
estion	-8631
iotera	-8632
ânicas	-8633
▁Bruno	-8634
▁Coloc	-8635
▁Desta	-8636
▁Esper	-8637
▁Human	-8638
▁Islão	-8639
▁Manha	-8640
▁Scott	-8641
▁alvos	-8642
▁bolsa	-8643
▁bolso	-8644
▁cardí	-8645
▁couro	-8646
▁dobro	-8647
▁duplo	-8648
▁forza	-8649
▁lojas	-8650
▁louco	-8651
▁meter	-8652
▁netos	-8653
▁ontem	-8654
▁recém	-8655
▁soube	-8656
▁tiñan	-8657
▁vasos	-8658
ización	-8659
lamento	-8660
redores	-8661
ventude	-8662
▁Rússia	-8663
▁contou	-8664
▁cremos	-8665
▁entreg	-8666
▁epidem	-8667
▁frigor	-8668
▁igreja	-8669
▁manual	-8670
▁nuvens	-8671
▁preced	-8672
▁presid	-8673
▁sector	-8674
▁Babbage	-8675
▁Lembram	-8676
▁Naquela	-8677
▁admitir	-8678
▁assumir	-8679
▁básicas	-8680
▁cabeças	-8681
▁comboio	-8682
▁comedia	-8683
▁consult	-8684
▁correio	-8685
▁desejos	-8686
▁dinossa	-8687
▁discrim	-8688
▁dominar	-8689
▁errados	-8690
▁extrema	-8691
▁insetos	-8692
▁interro	-8693
▁liderar	-8694
▁misteri	-8695
▁motivos	-8696
▁painéis	-8697
▁veremos	-8698
entimento	-8699
icalmente	-8700
▁Chamamos	-8701
▁Pensamos	-8702
▁Podíamos	-8703
▁acabámos	-8704
▁anatomia	-8705
▁aventura	-8706
▁comentar	-8707
▁conhecia	-8708
▁consider	-8709
▁construt	-8710
▁corporal	-8711
▁designer	-8712
▁escritor	-8713
▁extinção	-8714
▁fundação	-8715
▁gabinete	-8716
▁mentiras	-8717
▁posições	-8718
▁promover	-8719
▁sensores	-8720
eticamente	-8721
itivamente	-8722
▁Congresso	-8723
▁acreditem	-8724
▁biológica	-8725
▁comportam	-8726
▁criadores	-8727
▁exercício	-8728
▁operações	-8729
▁similares	-8730
▁supermerc	-8731
▁sustentar	-8732
▁astrónomos	-8733
▁atividades	-8734
▁chimpanzés	-8735
▁desconfort	-8736
▁encontrado	-8737
▁espiritual	-8738
▁limitações	-8739
▁precisavam	-8740
▁prioridade	-8741
▁raciocínio	-8742
▁deficiência	-8743
▁desperdício	-8744
▁espetacular	-8745
▁tecnológica	-8746
▁Recentemente	-8747
▁doutoramento	-8748
▁compreendemos	-8749
▁participantes	-8750
▁estacionamento	-8751
ws	-8752
gan	-8753
pes	-8754
rag	-8755
rey	-8756
róx	-8757
xos	-8758
▁Je	-8759
▁Ox	-8760
▁RM	-8761
▁aç	-8762
▁ím	-8763
esas	-8764
gall	-8765
ilas	-8766
ling	-8767
otid	-8768
quér	-8769
ster	-8770
tava	-8771
ttan	-8772
usou	-8773
▁600	-8774
▁800	-8775
▁Cin	-8776
▁Dez	-8777
▁Eti	-8778
▁Han	-8779
▁Imp	-8780
▁Mag	-8781
▁Pat	-8782
▁Tun	-8783
▁ber	-8784
▁díx	-8785
▁fat	-8786
▁idi	-8787
▁mun	-8788
▁una	-8789
media	-8790
onham	-8791
▁Bran	-8792
▁Brit	-8793
▁Mant	-8794
▁Sand	-8795
▁caiu	-8796
▁chám	-8797
▁epis	-8798
▁foco	-8799
▁irre	-8800
▁paga	-8801
▁paso	-8802
▁pude	-8803
▁rios	-8804
▁soma	-8805
▁usei	-8806
▁vias	-8807
▁xogo	-8808
ituais	-8809
xénese	-8810
ómetro	-8811
ónicas	-8812
▁Aínda	-8813
▁Cerca	-8814
▁Creio	-8815
▁Poden	-8816
▁abast	-8817
▁axuda	-8818
▁colet	-8819
▁comet	-8820
▁coraj	-8821
▁criei	-8822
▁deseñ	-8823
▁embal	-8824
▁ender	-8825
▁estím	-8826
▁fibra	-8827
▁invés	-8828
▁irmãs	-8829
▁ligam	-8830
▁louca	-8831
▁memor	-8832
▁mexic	-8833
▁model	-8834
▁monst	-8835
▁norma	-8836
▁parou	-8837
▁pasou	-8838
▁penet	-8839
▁polin	-8840
▁povos	-8841
▁rebel	-8842
▁refle	-8843
▁rocha	-8844
▁roman	-8845
▁rural	-8846
▁saben	-8847
▁simul	-8848
▁solid	-8849
▁ténis	-8850
▁viven	-8851
▁vivir	-8852
▁águas	-8853
▁ótima	-8854
ectivos	-8855
endemos	-8856
▁Aquela	-8857
▁Centro	-8858
▁Dentro	-8859
▁Outros	-8860
▁Passei	-8861
▁Usando	-8862
▁acción	-8863
▁adulto	-8864
▁afecta	-8865
▁ambici	-8866
▁aterra	-8867
▁autênt	-8868
▁avalia	-8869
▁clicar	-8870
▁colocá	-8871
▁deitar	-8872
▁encara	-8873
▁famosa	-8874
▁ficava	-8875
▁ganham	-8876
▁inevit	-8877
▁inveja	-8878
▁jamais	-8879
▁lentes	-8880
▁loucos	-8881
▁mapear	-8882
▁metais	-8883
▁perfil	-8884
▁presas	-8885
▁quotid	-8886
▁refere	-8887
▁roupas	-8888
▁semell	-8889
▁tentou	-8890
▁textos	-8891
▁tomada	-8892
▁transc	-8893
▁tópico	-8894
▁vermos	-8895
▁vistos	-8896
▁únicas	-8897
▁Ciência	-8898
▁Estavam	-8899
▁Etiópia	-8900
▁Nenhuma	-8901
▁autoest	-8902
▁baleias	-8903
▁cadeias	-8904
▁contigo	-8905
▁contrib	-8906
▁corazón	-8907
▁demorar	-8908
▁fizesse	-8909
▁francês	-8910
▁futebol	-8911
▁haveria	-8912
▁humilha	-8913
▁incorpo	-8914
▁infeliz	-8915
▁inimigo	-8916
▁jornais	-8917
▁meninas	-8918
▁músicos	-8919
▁necesar	-8920
▁partida	-8921
▁progred	-8922
▁progres	-8923
▁quebrar	-8924
▁reflect	-8925
▁rápidos	-8926
▁sabedes	-8927
▁sabendo	-8928
▁técnico	-8929
▁vizinho	-8930
americana	-8931
atividade	-8932
ificación	-8933
▁Conselho	-8934
▁abrandar	-8935
▁acabamos	-8936
▁agrícola	-8937
▁capítulo	-8938
▁chineses	-8939
▁confusão	-8940
▁correcta	-8941
▁corrigir	-8942
▁criativa	-8943
▁diagrama	-8944
▁diversos	-8945
▁energias	-8946
▁feedback	-8947
▁intenção	-8948
▁pensaram	-8949
▁pertence	-8950
▁porcento	-8951
▁recordar	-8952
▁robótica	-8953
▁tornarem	-8954
▁tribunal	-8955
▁violenta	-8956
▁Cambridge	-8957
▁Manhattan	-8958
▁advogados	-8959
▁agradecer	-8960
▁aparência	-8961
▁currículo	-8962
▁imigração	-8963
▁inovações	-8964
cionalmente	-8965
▁abundância	-8966
▁apaixonada	-8967
▁aprenderam	-8968
▁discussões	-8969
▁distinguir	-8970
▁escolhemos	-8971
▁estaminais	-8972
▁excremento	-8973
▁existentes	-8974
▁conscientes	-8975
▁construídas	-8976
▁determinada	-8977
▁determinado	-8978
▁intensidade	-8979
▁localização	-8980
▁mentalidade	-8981
▁relacionado	-8982
▁trabalhamos	-8983
▁inicialmente	-8984
▁preocupações	-8985
▁prisioneiros	-8986
▁proporcionar	-8987
▁acontecimento	-8988
▁conhecimentos	-8989
▁financiamento	-8990
▁significativo	-8991
▁infraestruturas	-8992
ET	-8993
VI	-8994
wa	-8995
aby	-8996
ból	-8997
ert	-8998
fei	-8999
len	-9000
tat	-9001
vin	-9002
ént	-9003
úme	-9004
▁1.	-9005
▁28	-9006
▁GG	-9007
▁Me	-9008
▁Or	-9009
dios	-9010
fund	-9011
gráf	-9012
luta	-9013
quem	-9014
rame	-9015
rist	-9016
unid	-9017
vias	-9018
▁120	-9019
▁Fac	-9020
▁Jef	-9021
▁Nov	-9022
▁Vis	-9023
▁fus	-9024
▁gém	-9025
▁hol	-9026
▁põe	-9027
arial	-9028
arias	-9029
arios	-9030
erado	-9031
estão	-9032
iguei	-9033
quete	-9034
▁2004	-9035
▁Após	-9036
▁Duas	-9037
▁Eric	-9038
▁Joel	-9039
▁Melh	-9040
▁Nick	-9041
▁Pela	-9042
▁Star	-9043
▁Stor	-9044
▁Teño	-9045
▁amiz	-9046
▁aust	-9047
▁cint	-9048
▁gama	-9049
▁gros	-9050
▁hamb	-9051
▁maci	-9052
▁peço	-9053
▁preg	-9054
▁saem	-9055
▁sínd	-9056
▁vaca	-9057
▁zang	-9058
itador	-9059
iveram	-9060
iverso	-9061
íficos	-9062
▁Banco	-9063
▁Estás	-9064
▁Muita	-9065
▁ambul	-9066
▁apost	-9067
▁atira	-9068
▁balão	-9069
▁beira	-9070
▁cadra	-9071
▁culpa	-9072
▁despe	-9073
▁dupla	-9074
▁fases	-9075
▁folha	-9076
▁fusão	-9077
▁graça	-9078
▁hiper	-9079
▁infet	-9080
▁limpo	-9081
▁lucro	-9082
▁morta	-9083
▁ouviu	-9084
▁parad	-9085
▁patro	-9086
▁preci	-9087
▁sabor	-9088
▁urban	-9089
▁veget	-9090
▁vendo	-9091
▁xogar	-9092
culares	-9093
restres	-9094
undação	-9095
volução	-9096
▁Antárt	-9097
▁Palest	-9098
▁Suécia	-9099
▁Turing	-9100
▁Usamos	-9101
▁aceite	-9102
▁avanço	-9103
▁aviões	-9104
▁bigode	-9105
▁consul	-9106
▁cortes	-9107
▁demora	-9108
▁educar	-9109
▁enriqu	-9110
▁entram	-9111
▁filant	-9112
▁fillos	-9113
▁houver	-9114
▁inters	-9115
▁intrig	-9116
▁juntam	-9117
▁mortal	-9118
▁mágico	-9119
▁nascer	-9120
▁operar	-9121
▁probas	-9122
▁raízes	-9123
▁relato	-9124
▁saibam	-9125
▁sofrem	-9126
▁submar	-9127
▁tirada	-9128
▁varios	-9129
▁velhas	-9130
▁xenial	-9131
▁órbita	-9132
identais	-9133
▁Criámos	-9134
▁adaptar	-9135
▁convenc	-9136
▁curiosa	-9137
▁diñeiro	-9138
▁equação	-9139
▁ficarem	-9140
▁guardar	-9141
▁impulso	-9142
▁jornada	-9143
▁linguas	-9144
▁macacos	-9145
▁mentira	-9146
▁regiões	-9147
▁respira	-9148
▁romance	-9149
▁segurar	-9150
▁sincron	-9151
▁truques	-9152
americano	-9153
▁circular	-9154
▁desperdi	-9155
▁estariam	-9156
▁inventou	-9157
▁melhoria	-9158
▁mensaxes	-9159
▁profesor	-9160
▁próstata	-9161
▁selvagem	-9162
▁senhores	-9163
▁soldados	-9164
▁tradução	-9165
▁vertical	-9166
lorestação	-9167
▁circuitos	-9168
▁ecológica	-9169
▁espaciais	-9170
▁estivemos	-9171
▁farmacêut	-9172
▁interface	-9173
▁manipular	-9174
▁maravilha	-9175
▁motivação	-9176
▁obxectivo	-9177
▁orçamento	-9178
▁partícula	-9179
▁projectos	-9180
▁recebemos	-9181
▁tradições	-9182
▁comerciais	-9183
▁computação	-9184
▁entusiasmo	-9185
▁estadounid	-9186
▁evidências	-9187
▁instalação	-9188
▁introduzir	-9189
▁partilhado	-9190
▁respiração	-9191
▁conservação	-9192
▁escritórios	-9193
▁estratégias	-9194
▁fabricantes	-9195
▁indicadores	-9196
▁entusiasmado	-9197
▁transparente	-9198
▁desenvolveram	-9199
▁extraordinárias	-9200
SP	-9201
oh	-9202
sh	-9203
aña	-9204
duc	-9205
izá	-9206
nda	-9207
ots	-9208
rip	-9209
rói	-9210
ung	-9211
éns	-9212
▁95	-9213
▁Cu	-9214
▁Ga	-9215
▁MT	-9216
▁Ra	-9217
▁dê	-9218
▁ok	-9219
▁tê	-9220
cade	-9221
enal	-9222
gica	-9223
gura	-9224
ingü	-9225
irei	-9226
isas	-9227
ject	-9228
maco	-9229
quad	-9230
rana	-9231
ring	-9232
teia	-9233
xima	-9234
írem	-9235
úcar	-9236
▁202	-9237
▁Bur	-9238
▁Bus	-9239
▁Her	-9240
▁Jul	-9241
▁Mad	-9242
▁Peg	-9243
▁Pra	-9244
▁XVI	-9245
▁act	-9246
▁hel	-9247
▁ira	-9248
▁las	-9249
▁ríg	-9250
▁sux	-9251
▁tóx	-9252
▁vén	-9253
▁xig	-9254
estos	-9255
volut	-9256
▁2014	-9257
▁Econ	-9258
▁Emma	-9259
▁Matt	-9260
▁Noru	-9261
▁Ouvi	-9262
▁Pete	-9263
▁Virg	-9264
▁calc	-9265
▁cega	-9266
▁core	-9267
▁dose	-9268
▁fará	-9269
▁fórm	-9270
▁giro	-9271
▁hipo	-9272
▁iran	-9273
▁levo	-9274
▁muro	-9275
▁nese	-9276
▁puzz	-9277
▁queb	-9278
▁ícon	-9279
ciosas	-9280
ecidas	-9281
itivas	-9282
onardo	-9283
íssimo	-9284
▁Devem	-9285
▁India	-9286
▁ajudá	-9287
▁autod	-9288
▁brill	-9289
▁cabos	-9290
▁caros	-9291
▁ciúme	-9292
▁colle	-9293
▁debux	-9294
▁digam	-9295
▁dores	-9296
▁falsa	-9297
▁ferro	-9298
▁fizer	-9299
▁homic	-9300
▁incon	-9301
▁lento	-9302
▁leste	-9303
▁macho	-9304
▁nadar	-9305
▁oeste	-9306
▁ombro	-9307
▁perdi	-9308
▁plane	-9309
▁saído	-9310
▁setor	-9311
▁sinap	-9312
▁tento	-9313
▁tiven	-9314
▁vasto	-9315
▁vibra	-9316
▁vinha	-9317
elândia	-9318
oloxías	-9319
peração	-9320
êssemos	-9321
▁Estive	-9322
▁Singap	-9323
▁abelha	-9324
▁adulta	-9325
▁agente	-9326
▁alavan	-9327
▁amigas	-9328
▁aspira	-9329
▁axudar	-9330
▁açúcar	-9331
▁baixar	-9332
▁cosmos	-9333
▁detect	-9334
▁entrei	-9335
▁falava	-9336
▁filmar	-9337
▁finais	-9338
▁fáceis	-9339
▁impuls	-9340
▁ingres	-9341
▁inquér	-9342
▁judeus	-9343
▁lucros	-9344
▁meteor	-9345
▁neurol	-9346
▁primos	-9347
▁promet	-9348
▁puntos	-9349
▁quarta	-9350
▁quilos	-9351
▁regime	-9352
▁retina	-9353
▁sorris	-9354
▁territ	-9355
▁trajet	-9356
▁usaram	-9357
▁vendas	-9358
blemente	-9359
entistas	-9360
▁abertas	-9361
▁aleator	-9362
▁aranhas	-9363
▁aterror	-9364
▁chamava	-9365
▁clareza	-9366
▁cliente	-9367
▁concret	-9368
▁contido	-9369
▁convers	-9370
▁dadores	-9371
▁detalhe	-9372
▁envolve	-9373
▁esperam	-9374
▁estades	-9375
▁excepto	-9376
▁expecta	-9377
▁formato	-9378
▁incluir	-9379
▁levaram	-9380
▁loucura	-9381
▁mosquit	-9382
▁persist	-9383
▁plantar	-9384
▁possuem	-9385
▁potável	-9386
▁redução	-9387
▁tráfico	-9388
ustaríame	-9389
▁Leonardo	-9390
▁biólogos	-9391
▁cegueira	-9392
▁cilindro	-9393
▁circuito	-9394
▁críticos	-9395
▁círculos	-9396
▁desagrad	-9397
▁desporto	-9398
▁entendem	-9399
▁gratidão	-9400
▁naqueles	-9401
▁patentes	-9402
▁película	-9403
▁poluição	-9404
▁prostitu	-9405
▁sorprend	-9406
▁tornando	-9407
▁tratamos	-9408
▁abandonar	-9409
▁acontecia	-9410
▁conceitos	-9411
▁eleitores	-9412
▁engraçado	-9413
▁paciência	-9414
▁preguntas	-9415
▁preocupam	-9416
▁principio	-9417
▁relatório	-9418
▁universos	-9419
▁autocarros	-9420
▁conseguiam	-9421
▁dependendo	-9422
▁escondidas	-9423
▁iniciativa	-9424
▁julgamento	-9425
▁mobilidade	-9426
▁nascimento	-9427
▁orientação	-9428
▁perceberam	-9429
▁procuramos	-9430
▁reinventar	-9431
▁relacionar	-9432
▁renováveis	-9433
▁sequências	-9434
▁trabalhado	-9435
▁brincadeira	-9436
▁continuamos	-9437
▁francamente	-9438
▁habilidades	-9439
▁intervenção	-9440
▁planeamento	-9441
▁programação	-9442
▁resistentes	-9443
▁verdadeiras	-9444
▁convencional	-9445
▁demonstração	-9446
▁investimentos	-9447
▁possivelmente	-9448
▁sobreviventes	-9449
▁empreendedores	-9450
▁impressionante	-9451
DI	-9452
ff	-9453
bum	-9454
can	-9455
cur	-9456
eco	-9457
ete	-9458
ife	-9459
pto	-9460
sal	-9461
▁2,	-9462
▁2.	-9463
▁Gr	-9464
▁sl	-9465
alle	-9466
anme	-9467
asma	-9468
atts	-9469
ella	-9470
icil	-9471
icon	-9472
iqui	-9473
mith	-9474
ogia	-9475
orro	-9476
roem	-9477
tero	-9478
umes	-9479
ward	-9480
weet	-9481
▁Bol	-9482
▁Cap	-9483
▁Gar	-9484
▁Ins	-9485
▁Jim	-9486
▁Pac	-9487
▁Sil	-9488
▁War	-9489
▁fíg	-9490
▁jur	-9491
▁lág	-9492
anhos	-9493
crito	-9494
essor	-9495
estim	-9496
ornos	-9497
ravos	-9498
ístas	-9499
ótico	-9500
▁Conc	-9501
▁Core	-9502
▁Cria	-9503
▁Mont	-9504
▁Nike	-9505
▁apag	-9506
▁cans	-9507
▁coer	-9508
▁diâm	-9509
▁eter	-9510
▁fins	-9511
▁foca	-9512
▁ilus	-9513
▁inex	-9514
▁pano	-9515
▁pron	-9516
▁raro	-9517
▁subl	-9518
▁vici	-9519
▁xorn	-9520
almoço	-9521
inária	-9522
▁Atrav	-9523
▁Basta	-9524
▁Brian	-9525
▁Brook	-9526
▁Crian	-9527
▁Escol	-9528
▁Maria	-9529
▁Senti	-9530
▁Super	-9531
▁apoia	-9532
▁bordo	-9533
▁casca	-9534
▁cópia	-9535
▁dirix	-9536
▁dúzia	-9537
▁empol	-9538
▁esgot	-9539
▁extro	-9540
▁fixen	-9541
▁fosso	-9542
▁fraca	-9543
▁fumar	-9544
▁gases	-9545
▁gatos	-9546
▁hipot	-9547
▁impre	-9548
▁lucra	-9549
▁minas	-9550
▁natal	-9551
▁navio	-9552
▁olhei	-9553
▁placa	-9554
▁prome	-9555
▁ricas	-9556
▁tedes	-9557
▁teléf	-9558
▁tweet	-9559
▁túnel	-9560
▁vence	-9561
▁viral	-9562
ciações	-9563
ímetros	-9564
▁Center	-9565
▁Hubble	-9566
▁Latina	-9567
▁Martin	-9568
▁adquir	-9569
▁afetar	-9570
▁copiar	-9571
▁correm	-9572
▁correu	-9573
▁desped	-9574
▁diarre	-9575
▁dicion	-9576
▁diriam	-9577
▁diária	-9578
▁editor	-9579
▁espanh	-9580
▁evolut	-9581
▁exclus	-9582
▁fechar	-9583
▁fiquem	-9584
▁glicos	-9585
▁horror	-9586
▁poidan	-9587
▁produc	-9588
▁propio	-9589
▁protoc	-9590
▁quebra	-9591
▁queira	-9592
▁seguem	-9593
▁típica	-9594
▁vermes	-9595
▁ângulo	-9596
▁Interna	-9597
▁Noruega	-9598
▁Vivemos	-9599
▁acordar	-9600
▁actuais	-9601
▁alturas	-9602
▁artific	-9603
▁camiões	-9604
▁cimento	-9605
▁citação	-9606
▁civiliz	-9607
▁comédia	-9608
▁coñecer	-9609
▁describ	-9610
▁dúvidas	-9611
▁ensaios	-9612
▁esquina	-9613
▁excesso	-9614
▁existen	-9615
▁fechado	-9616
▁ficámos	-9617
▁fixeron	-9618
▁fármaco	-9619
▁gravita	-9620
▁hackers	-9621
▁hormona	-9622
▁inacred	-9623
▁incomod	-9624
▁iniciar	-9625
▁morrido	-9626
▁osíxeno	-9627
▁outubro	-9628
▁querido	-9629
▁recebeu	-9630
▁rematar	-9631
▁remover	-9632
▁reparem	-9633
▁salário	-9634
▁seremos	-9635
▁sombras	-9636
▁suporte	-9637
▁tijolos	-9638
▁Desenvol	-9639
▁Setembro	-9640
▁ajudaram	-9641
▁aproxima	-9642
▁aumentam	-9643
▁avançada	-9644
▁composto	-9645
▁conceber	-9646
▁descubri	-9647
▁espectro	-9648
▁examinar	-9649
▁flexível	-9650
▁impresso	-9651
▁inconsci	-9652
▁multidão	-9653
▁músculos	-9654
▁percebeu	-9655
▁poupança	-9656
▁praticar	-9657
▁projetar	-9658
▁próteses	-9659
▁refletir	-9660
▁reuniões	-9661
▁suicídio	-9662
▁surgiram	-9663
▁tentámos	-9664
▁técnicos	-9665
▁Parkinson	-9666
▁aprendido	-9667
▁britânico	-9668
▁categoria	-9669
▁colaborar	-9670
▁compartir	-9671
▁continuou	-9672
▁densidade	-9673
▁descrição	-9674
▁desespero	-9675
▁distantes	-9676
▁divertida	-9677
▁documento	-9678
▁encontros	-9679
▁genéticas	-9680
▁horizonte	-9681
▁movemento	-9682
▁múltiplas	-9683
▁originais	-9684
▁processar	-9685
▁publicado	-9686
▁separação	-9687
▁tropicais	-9688
▁acessíveis	-9689
▁automática	-9690
▁automóveis	-9691
▁candidatos	-9692
▁condicións	-9693
▁continuava	-9694
▁desaparece	-9695
▁dinosauros	-9696
▁eletrónica	-9697
▁emocionais	-9698
▁escritores	-9699
▁exercícios	-9700
▁investimos	-9701
▁secundária	-9702
▁acrescentar	-9703
▁emocionante	-9704
▁entrevistas	-9705
▁escaravelho	-9706
▁fantásticos	-9707
▁neuroxénese	-9708
▁observações	-9709
▁ecossistemas	-9710
▁maravilhosas	-9711
▁procedimento	-9712
▁processamento	-9713
▁biodiversidade	-9714
▁emocionalmente	-9715
OL	-9716
OR	-9717
hé	-9718
mm	-9719
ni	-9720
oj	-9721
wd	-9722
úl	-9723
cel	-9724
egu	-9725
ien	-9726
igm	-9727
lha	-9728
lyn	-9729
oft	-9730
por	-9731
rud	-9732
tis	-9733
wer	-9734
íso	-9735
▁29	-9736
▁Ca	-9737
▁Ef	-9738
▁IS	-9739
▁Vê	-9740
▁Wh	-9741
▁ub	-9742
alia	-9743
brem	-9744
ebra	-9745
econ	-9746
entá	-9747
eras	-9748
ezas	-9749
lass	-9750
rina	-9751
rove	-9752
udir	-9753
upar	-9754
vela	-9755
éndo	-9756
▁Dom	-9757
▁Don	-9758
▁EDI	-9759
▁Glo	-9760
▁Hal	-9761
▁Irá	-9762
▁Jes	-9763
▁Lei	-9764
▁Neg	-9765
▁Rob	-9766
▁Wik	-9767
▁eta	-9768
▁leo	-9769
▁pôs	-9770
▁tia	-9771
ables	-9772
intes	-9773
patch	-9774
tadas	-9775
tório	-9776
ublic	-9777
vendo	-9778
verno	-9779
émios	-9780
ónias	-9781
órter	-9782
▁2006	-9783
▁Arch	-9784
▁Josh	-9785
▁Ment	-9786
▁Nano	-9787
▁Nout	-9788
▁Rece	-9789
▁Scho	-9790
▁Sons	-9791
▁Vida	-9792
▁Wall	-9793
▁cens	-9794
▁cómo	-9795
▁dono	-9796
▁irei	-9797
▁mega	-9798
▁póst	-9799
▁riso	-9800
▁tatu	-9801
▁usan	-9802
▁vexo	-9803
▁viam	-9804
▁vivi	-9805
▁óleo	-9806
aturas	-9807
inando	-9808
iquiát	-9809
itudes	-9810
ración	-9811
▁Andre	-9812
▁Liber	-9813
▁Story	-9814
▁Trans	-9815
▁acolh	-9816
▁apelo	-9817
▁autón	-9818
▁carto	-9819
▁civis	-9820
▁consp	-9821
▁desmo	-9822
▁desvi	-9823
▁durar	-9824
▁enver	-9825
▁esqui	-9826
▁falha	-9827
▁génio	-9828
▁herói	-9829
▁homes	-9830
▁lobos	-9831
▁modos	-9832
▁ocorr	-9833
▁pirâm	-9834
▁poeta	-9835
▁radio	-9836
▁salva	-9837
▁sexan	-9838
▁suspe	-9839
▁turma	-9840
▁verán	-9841
cionado	-9842
entadas	-9843
eración	-9844
iologia	-9845
▁Acabei	-9846
▁Física	-9847
▁aceder	-9848
▁antrop	-9849
▁apreci	-9850
▁ativos	-9851
▁bilião	-9852
▁compar	-9853
▁cromos	-9854
▁delici	-9855
▁enquad	-9856
▁formou	-9857
▁hambúr	-9858
▁idosas	-9859
▁lançou	-9860
▁limiar	-9861
▁móveis	-9862
▁passag	-9863
▁perdas	-9864
▁puzzle	-9865
▁recicl	-9866
▁reclam	-9867
▁rostos	-9868
▁sanita	-9869
▁sentei	-9870
▁típico	-9871
▁ultras	-9872
▁Nigéria	-9873
▁Simples	-9874
▁adorava	-9875
▁anúncio	-9876
▁cambios	-9877
▁cidadão	-9878
▁conhece	-9879
▁curioso	-9880
▁devagar	-9881
▁eleição	-9882
▁externa	-9883
▁fabrico	-9884
▁figuras	-9885
▁fizerem	-9886
▁garrafa	-9887
▁genomas	-9888
▁inglesa	-9889
▁materia	-9890
▁menores	-9891
▁máscara	-9892
▁origens	-9893
▁pegamos	-9894
▁perdida	-9895
▁preench	-9896
▁prisões	-9897
▁quartos	-9898
▁seguras	-9899
▁superar	-9900
▁valioso	-9901
▁Direitos	-9902
▁análises	-9903
▁condução	-9904
▁conexões	-9905
▁conquist	-9906
▁deixando	-9907
▁detectar	-9908
▁diâmetro	-9909
▁doloroso	-9910
▁duplicar	-9911
▁escritos	-9912
▁favorito	-9913
▁inspirou	-9914
▁intuição	-9915
▁modernas	-9916
▁perderam	-9917
▁possibil	-9918
▁provocar	-9919
▁químicas	-9920
▁radicais	-9921
▁solución	-9922
▁vendedor	-9923
▁Antártida	-9924
▁Nanopatch	-9925
▁agrícolas	-9926
▁conjuntos	-9927
▁conteúdos	-9928
▁converter	-9929
▁criativas	-9930
▁criativos	-9931
▁descubrir	-9932
▁elefantes	-9933
▁elétricos	-9934
▁epidemias	-9935
▁manifesta	-9936
▁partilham	-9937
▁pontuação	-9938
▁vermelhos	-9939
otecnologia	-9940
▁bicicletas	-9941
▁comprimido	-9942
▁condutores	-9943
▁convencido	-9944
▁cooperação	-9945
▁demonstrar	-9946
▁diferenzas	-9947
▁emergentes	-9948
▁energética	-9949
▁saneamento	-9950
▁terrorista	-9951
▁transações	-9952
▁transformá	-9953
▁influenciar	-9954
▁marabilloso	-9955
▁transportar	-9956
▁continuarmos	-9957
▁efetivamente	-9958
▁preconceitos	-9959
▁transferência	-9960
▁envellecemento	-9961
▁extraordinários	-9962
MU	-9963
NC	-9964
hh	-9965
ts	-9966
SPT	-9967
low	-9968
rof	-9969
sea	-9970
ând	-9971
▁Bl	-9972
▁fr	-9973
▁zo	-9974
agos	-9975
alar	-9976
arde	-9977
arei	-9978
ecía	-9979
enza	-9980
eriu	-9981
idel	-9982
itri	-9983
ocra	-9984
pias	-9985
rámo	-9986
unde	-9987
utor	-9988
éron	-9989
ílio	-9990
▁190	-9991
▁700	-9992
▁ARN	-9993
▁Ado	-9994
▁Fix	-9995
▁Mel	-9996
▁Mod	-9997
▁Sud	-9998
▁caç	-9999
▁frá	-10000
▁hél	-10001
▁isl	-10002
▁lím	-10003
▁viñ	-10004
empor	-10005
feiço	-10006
gente	-10007
olate	-10008
parou	-10009
peram	-10010
pouco	-10011
tados	-10012
ursos	-10013
ánico	-10014
âmica	-10015
ífica	-10016
▁Agar	-10017
▁Asso	-10018
▁Fica	-10019
▁Free	-10020
▁Imos	-10021
▁Jean	-10022
▁Jenn	-10023
▁Terc	-10024
▁ades	-10025
▁audi	-10026
▁avis	-10027
▁cach	-10028
▁coci	-10029
▁cuar	-10030
▁dalg	-10031
▁dava	-10032
▁enra	-10033
▁grit	-10034
▁mama	-10035
▁mata	-10036
▁maçã	-10037
▁muse	-10038
▁pago	-10039
▁seco	-10040
▁tela	-10041
▁tiro	-10042
▁tubo	-10043
▁xunt	-10044
anciar	-10045
aremos	-10046
ariana	-10047
ibéria	-10048
itaram	-10049
▁Ambos	-10050
▁Brown	-10051
▁Holly	-10052
▁Smith	-10053
▁Talib	-10054
▁Tesla	-10055
▁acheg	-10056
▁agreg	-10057
▁ajust	-10058
▁aplic	-10059
▁arref	-10060
▁aviso	-10061
▁barra	-10062
▁brazo	-10063
▁coiro	-10064
▁derre	-10065
▁desat	-10066
▁donos	-10067
▁ecrãs	-10068
▁estuf	-10069
▁exame	-10070
▁filos	-10071
▁gasto	-10072
▁globo	-10073
▁intim	-10074
▁laços	-10075
▁mante	-10076
▁móvel	-10077
▁pausa	-10078
▁peito	-10079
▁psico	-10080
▁psiqu	-10081
▁pólen	-10082
▁regen	-10083
▁serie	-10084
▁trigo	-10085
▁verme	-10086
▁Ébola	-10087
icilina	-10088
▁Começa	-10089
▁Escola	-10090
▁Outras	-10091
▁School	-10092
▁activo	-10093
▁afirma	-10094
▁almoço	-10095
▁altera	-10096
▁astron	-10097
▁atinge	-10098
▁atuais	-10099
▁bailar	-10100
▁baixas	-10101
▁camião	-10102
▁congel	-10103
▁crimes	-10104
▁degrad	-10105
▁dobrar	-10106
▁enviou	-10107
▁esquel	-10108
▁fígado	-10109
▁graves	-10110
▁marcar	-10111
▁mercar	-10112
▁parada	-10113
▁pastor	-10114
▁placas	-10115
▁pânico	-10116
▁queren	-10117
▁rexión	-10118
▁seguiu	-10119
▁souber	-10120
▁trauma	-10121
▁vistas	-10122
▁viviam	-10123
▁àquela	-10124
▁Atlanta	-10125
▁Através	-10126
▁atitude	-10127
▁baratos	-10128
▁brancas	-10129
▁candida	-10130
▁chinesa	-10131
▁colocam	-10132
▁cristal	-10133
▁debemos	-10134
▁enganar	-10135
▁express	-10136
▁futuros	-10137
▁glicosa	-10138
▁imensos	-10139
▁indicar	-10140
▁interno	-10141
▁janeiro	-10142
▁liberal	-10143
▁milagre	-10144
▁montaña	-10145
▁oficial	-10146
▁paraíso	-10147
▁primord	-10148
▁prolong	-10149
▁quartei	-10150
▁quentes	-10151
▁revelou	-10152
▁telhado	-10153
▁teorias	-10154
▁versões	-10155
▁Europeia	-10156
▁Fundação	-10157
▁Movembro	-10158
▁Pacífico	-10159
▁absoluto	-10160
▁bloquear	-10161
▁chocante	-10162
▁coletiva	-10163
▁concreto	-10164
▁conxunto	-10165
▁democrat	-10166
▁estações	-10167
▁extrater	-10168
▁fabricar	-10169
▁filósofo	-10170
▁lágrimas	-10171
▁novidade	-10172
▁obcecado	-10173
▁oficiais	-10174
▁pareciam	-10175
▁pegarmos	-10176
▁perigosa	-10177
▁pression	-10178
▁procuram	-10179
▁psiquiát	-10180
▁queridos	-10181
▁refeição	-10182
▁repórter	-10183
▁retratos	-10184
▁sabermos	-10185
▁uniforme	-10186
▁voltaram	-10187
americanas	-10188
▁acidentes	-10189
▁aeroporto	-10190
▁associada	-10191
▁construír	-10192
▁contempor	-10193
▁culturais	-10194
▁desencade	-10195
▁dispostas	-10196
▁educativo	-10197
▁encorajar	-10198
▁filosofia	-10199
▁intenções	-10200
▁literacia	-10201
▁medicação	-10202
▁mencionar	-10203
▁perigosos	-10204
▁preencher	-10205
▁preferida	-10206
▁previsões	-10207
▁quadrados	-10208
▁reparação	-10209
▁variáveis	-10210
▁vermelhas	-10211
▁Aprendemos	-10212
▁Humanidade	-10213
▁acompanhar	-10214
▁ambientais	-10215
▁apresentam	-10216
▁atravessam	-10217
▁conseguido	-10218
▁economista	-10219
▁emergência	-10220
▁inovadores	-10221
▁interpreta	-10222
▁libertação	-10223
▁penicilina	-10224
▁psicologia	-10225
▁religiosas	-10226
▁revolucion	-10227
▁sanguíneos	-10228
▁autoridades	-10229
▁confortável	-10230
▁conseguiria	-10231
▁estrangeiro	-10232
▁gostaríamos	-10233
▁honestidade	-10234
▁implementar	-10235
▁preocupante	-10236
▁conservadores	-10237
▁independentes	-10238
▁conscientemente	-10239
gh	-10240
ll	-10241
ys	-10242
bul	-10243
cif	-10244
ego	-10245
hop	-10246
neg	-10247
nés	-10248
ock	-10249
rec	-10250
▁0,	-10251
▁72	-10252
▁Lu	-10253
▁MR	-10254
adél	-10255
cção	-10256
eita	-10257
fica	-10258
hões	-10259
inga	-10260
iral	-10261
mina	-10262
otes	-10263
ouro	-10264
riga	-10265
roid	-10266
rolo	-10267
ubil	-10268
untu	-10269
urar	-10270
vial	-10271
▁160	-10272
▁Cat	-10273
▁FDA	-10274
▁Hab	-10275
▁Met	-10276
▁Oce	-10277
▁ald	-10278
▁asi	-10279
▁enl	-10280
▁gay	-10281
▁jap	-10282
▁lam	-10283
▁maz	-10284
▁ram	-10285
alhas	-10286
ances	-10287
emais	-10288
empre	-10289
entem	-10290
inear	-10291
renia	-10292
suced	-10293
ultor	-10294
versa	-10295
ácter	-10296
érsia	-10297
▁1970	-10298
▁1998	-10299
▁3000	-10300
▁Jack	-10301
▁Leoa	-10302
▁Mike	-10303
▁Prin	-10304
▁Vale	-10305
▁XVII	-10306
▁aliv	-10307
▁busc	-10308
▁copo	-10309
▁crer	-10310
▁cuja	-10311
▁frut	-10312
▁iner	-10313
▁maqu	-10314
▁mass	-10315
▁obed	-10316
▁pend	-10317
▁peor	-10318
▁reim	-10319
▁reto	-10320
▁sing	-10321
▁sínt	-10322
▁trip	-10323
▁troc	-10324
enario	-10325
inamos	-10326
ixeria	-10327
pamina	-10328
reiros	-10329
restre	-10330
róxeno	-10331
étrica	-10332
▁Butão	-10333
▁Chamo	-10334
▁Chile	-10335
▁Congo	-10336
▁Dizem	-10337
▁Jesus	-10338
▁Parte	-10339
▁absur	-10340
▁abuso	-10341
▁ativo	-10342
▁cerim	-10343
▁cigar	-10344
▁cruel	-10345
▁descr	-10346
▁estup	-10347
▁junho	-10348
▁pagam	-10349
▁picos	-10350
▁posto	-10351
▁preco	-10352
▁salvo	-10353
▁teñan	-10354
▁tirei	-10355
▁tirot	-10356
▁tradu	-10357
▁vasta	-10358
▁viveu	-10359
adélfia	-10360
enciado	-10361
erância	-10362
istério	-10363
pressão	-10364
ulación	-10365
▁Coreia	-10366
▁Estaba	-10367
▁Micros	-10368
▁activa	-10369
▁acumul	-10370
▁acções	-10371
▁atrair	-10372
▁baseia	-10373
▁canais	-10374
▁casais	-10375
▁compra	-10376
▁demost	-10377
▁despre	-10378
▁destro	-10379
▁disper	-10380
▁distra	-10381
▁divulg	-10382
▁ensina	-10383
▁falado	-10384
▁imitar	-10385
▁improv	-10386
▁leitor	-10387
▁margem	-10388
▁motiva	-10389
▁mudado	-10390
▁nascem	-10391
▁neural	-10392
▁peguei	-10393
▁perdem	-10394
▁pirate	-10395
▁postos	-10396
▁rochas	-10397
▁saírem	-10398
▁servem	-10399
▁subjac	-10400
▁superp	-10401
▁usámos	-10402
▁visión	-10403
▁voltam	-10404
▁índice	-10405
▁Android	-10406
▁Aqueles	-10407
▁Lembrem	-10408
▁bateria	-10409
▁bonitas	-10410
▁conclus	-10411
▁convinc	-10412
▁dirigir	-10413
▁duração	-10414
▁ensinam	-10415
▁enviado	-10416
▁equipas	-10417
▁escalas	-10418
▁espelho	-10419
▁existiu	-10420
▁filosóf	-10421
▁garagem	-10422
▁gordura	-10423
▁largura	-10424
▁manuais	-10425
▁merecem	-10426
▁mestres	-10427
▁músicas	-10428
▁plateia	-10429
▁queiram	-10430
▁reações	-10431
▁referir	-10432
▁regulam	-10433
▁sagrado	-10434
▁similar	-10435
▁sorriso	-10436
▁usarmos	-10437
▁viveram	-10438
▁Disseram	-10439
▁Espacial	-10440
▁adequado	-10441
▁advogado	-10442
▁ascensão	-10443
▁ativista	-10444
▁bandeira	-10445
▁carácter	-10446
▁clássico	-10447
▁clínicas	-10448
▁começado	-10449
▁contamos	-10450
▁continuo	-10451
▁cooperar	-10452
▁críticas	-10453
▁deixamos	-10454
▁dopamina	-10455
▁economía	-10456
▁elétrico	-10457
▁entramos	-10458
▁existiam	-10459
▁imediato	-10460
▁impactos	-10461
▁infeções	-10462
▁ingresos	-10463
▁intentar	-10464
▁liberais	-10465
▁limitada	-10466
▁mostrado	-10467
▁negativo	-10468
▁obxectos	-10469
▁parceria	-10470
▁partidos	-10471
▁polícias	-10472
▁precisas	-10473
▁procrast	-10474
▁protexer	-10475
▁publicou	-10476
▁repensar	-10477
▁reutiliz	-10478
▁Singapura	-10479
▁adicional	-10480
▁aperfeiço	-10481
▁ativistas	-10482
▁chocolate	-10483
▁cognitivo	-10484
▁compromet	-10485
▁conselhos	-10486
▁fotógrafo	-10487
▁mergulhar	-10488
▁microscóp	-10489
▁optimista	-10490
▁pagamento	-10491
▁paradigma	-10492
▁pesquisar	-10493
▁preferido	-10494
▁telefones	-10495
▁Filadélfia	-10496
▁Poderíamos	-10497
▁biológicos	-10498
▁cirurgiões	-10499
▁comprender	-10500
▁conhecidas	-10501
▁definición	-10502
▁engenheiro	-10503
▁esperanças	-10504
▁estimativa	-10505
▁estivermos	-10506
▁iluminação	-10507
▁ocidentais	-10508
▁preocupado	-10509
▁produtores	-10510
▁propaganda	-10511
▁publicação	-10512
▁reproduzir	-10513
▁resistente	-10514
▁secretária	-10515
▁solucionar	-10516
▁astronautas	-10517
▁complicadas	-10518
▁continentes	-10519
▁dependentes	-10520
▁desapareceu	-10521
▁empréstimos	-10522
▁específicas	-10523
▁frigorífico	-10524
▁surpreendeu	-10525
▁traballando	-10526
▁comunicações	-10527
▁confortáveis	-10528
▁deficiências	-10529
▁entendimento	-10530
▁estivéssemos	-10531
▁generosidade	-10532
▁incapacidade	-10533
▁consentimento	-10534
▁esquizofrenia	-10535
▁cuidadosamente	-10536
▁desflorestação	-10537
▁definitivamente	-10538
DE	-10539
PA	-10540
VD	-10541
ns	-10542
ya	-10543
Cor	-10544
cra	-10545
fun	-10546
ics	-10547
ies	-10548
iño	-10549
lim	-10550
mem	-10551
quí	-10552
sun	-10553
uth	-10554
▁DH	-10555
▁Gi	-10556
▁cm	-10557
NCRA	-10558
abri	-10559
alai	-10560
alis	-10561
amas	-10562
arse	-10563
avos	-10564
bara	-10565
bast	-10566
ence	-10567
icóp	-10568
inou	-10569
kcha	-10570
ript	-10571
tada	-10572
ugas	-10573
íase	-10574
▁CMU	-10575
▁Cop	-10576
▁DVD	-10577
▁Fai	-10578
▁Hen	-10579
▁Jeo	-10580
▁Joe	-10581
▁Kan	-10582
▁Law	-10583
▁Lut	-10584
▁Méd	-10585
▁Pap	-10586
▁Rap	-10587
▁Ref	-10588
▁Rez	-10589
▁agl	-10590
▁alf	-10591
▁cív	-10592
▁fôs	-10593
▁grá	-10594
▁ice	-10595
▁nac	-10596
▁orb	-10597
▁pav	-10598
▁sum	-10599
▁tím	-10600
▁vim	-10601
▁àqu	-10602
embre	-10603
essas	-10604
ester	-10605
hámos	-10606
ibera	-10607
iveis	-10608
mails	-10609
pardy	-10610
peech	-10611
risto	-10612
tamos	-10613
taria	-10614
ulles	-10615
ville	-10616
ástro	-10617
ídios	-10618
▁1900	-10619
▁2013	-10620
▁Acad	-10621
▁Adam	-10622
▁Beat	-10623
▁Cara	-10624
▁Cher	-10625
▁Conf	-10626
▁Digo	-10627
▁Gand	-10628
▁High	-10629
▁Máis	-10630
▁Olha	-10631
▁Veem	-10632
▁Vela	-10633
▁Viet	-10634
▁abso	-10635
▁alum	-10636
▁apel	-10637
▁atos	-10638
▁barb	-10639
▁curv	-10640
▁cósm	-10641
▁exag	-10642
▁graf	-10643
▁grão	-10644
▁hard	-10645
▁host	-10646
▁inef	-10647
▁intr	-10648
▁juiz	-10649
▁larg	-10650
▁lata	-10651
▁ouve	-10652
▁ovos	-10653
▁rara	-10654
▁sota	-10655
▁vila	-10656
agénio	-10657
critos	-10658
eccion	-10659
estres	-10660
génese	-10661
icidas	-10662
rassem	-10663
▁Cairo	-10664
▁Carol	-10665
▁Están	-10666
▁Green	-10667
▁INCRA	-10668
▁Steph	-10669
▁Teles	-10670
▁almac	-10671
▁ameaç	-10672
▁amplo	-10673
▁armad	-10674
▁assom	-10675
▁camiñ	-10676
▁cegas	-10677
▁chips	-10678
▁colon	-10679
▁denso	-10680
▁derru	-10681
▁desil	-10682
▁disco	-10683
▁espre	-10684
▁estad	-10685
▁fator	-10686
▁febre	-10687
▁ilhas	-10688
▁imper	-10689
▁impot	-10690
▁junta	-10691
▁lenta	-10692
▁lesão	-10693
▁manda	-10694
▁março	-10695
▁metas	-10696
▁mudei	-10697
▁parto	-10698
▁pulso	-10699
▁remat	-10700
▁remov	-10701
▁reper	-10702
▁senso	-10703
▁serio	-10704
▁suave	-10705
▁subiu	-10706
▁tomou	-10707
▁vello	-10708
▁vinho	-10709
▁álbum	-10710
ectivas	-10711
ensível	-10712
imentar	-10713
orremos	-10714
ísticos	-10715
▁Algúns	-10716
▁Amazon	-10717
▁Andrew	-10718
▁Compre	-10719
▁Daniel	-10720
▁Espera	-10721
▁Goliat	-10722
▁Juntos	-10723
▁Oxford	-10724
▁Permit	-10725
▁Queres	-10726
▁Rezero	-10727
▁afront	-10728
▁agenda	-10729
▁alerta	-10730
▁andado	-10731
▁atirar	-10732
▁contem	-10733
▁conter	-10734
▁cozinh	-10735
▁cripto	-10736
▁curvas	-10737
▁deform	-10738
▁diário	-10739
▁esclar	-10740
▁espont	-10741
▁eólica	-10742
▁factor	-10743
▁faixas	-10744
▁ficado	-10745
▁filhas	-10746
▁fingir	-10747
▁forçar	-10748
▁imaxin	-10749
▁legado	-10750
▁leopar	-10751
▁livrar	-10752
▁milhas	-10753
▁ocupar	-10754
▁referi	-10755
▁sentiu	-10756
▁sistem	-10757
▁tanque	-10758
▁tempor	-10759
▁traços	-10760
▁usavam	-10761
galladas	-10762
izadores	-10763
ográfica	-10764
posición	-10765
▁Janeiro	-10766
▁Público	-10767
▁Saturno	-10768
▁aldeias	-10769
▁ampliar	-10770
▁atingiu	-10771
▁coidado	-10772
▁colisão	-10773
▁confund	-10774
▁consecu	-10775
▁correta	-10776
▁criador	-10777
▁demorou	-10778
▁diminui	-10779
▁dispend	-10780
▁dividir	-10781
▁dizerem	-10782
▁esperma	-10783
▁estádio	-10784
▁exceção	-10785
▁fizeste	-10786
▁glaciar	-10787
▁guardas	-10788
▁ilustra	-10789
▁implant	-10790
▁iniciou	-10791
▁iríamos	-10792
▁levanta	-10793
▁licença	-10794
▁mensaxe	-10795
▁parecen	-10796
▁passear	-10797
▁percebe	-10798
▁persoal	-10799
▁pulmões	-10800
▁sejamos	-10801
▁tomamos	-10802
▁tratado	-10803
cialmente	-10804
ioterapia	-10805
utuamente	-10806
▁Jeopardy	-10807
▁Medicina	-10808
▁Terceiro	-10809
▁aguentar	-10810
▁carrinha	-10811
▁catástro	-10812
▁chamámos	-10813
▁cromosso	-10814
▁definido	-10815
▁demostra	-10816
▁diarreia	-10817
▁dissesse	-10818
▁divertir	-10819
▁egípcios	-10820
▁envergon	-10821
▁equações	-10822
▁escravos	-10823
▁evidente	-10824
▁favorita	-10825
▁fazíamos	-10826
▁fornecem	-10827
▁fôssemos	-10828
▁importar	-10829
▁informar	-10830
▁integrar	-10831
▁ocupados	-10832
▁opiniões	-10833
▁poderían	-10834
▁quisesse	-10835
▁racional	-10836
▁razoável	-10837
▁reservas	-10838
▁respondi	-10839
▁senhoras	-10840
▁sinapses	-10841
▁síndrome	-10842
▁tubarões	-10843
▁verdades	-10844
▁Encontrei	-10845
▁Hollywood	-10846
▁associado	-10847
▁chegarmos	-10848
▁colagénio	-10849
▁comparado	-10850
▁considero	-10851
▁constroem	-10852
▁escenario	-10853
▁estranhas	-10854
▁filósofos	-10855
▁horríveis	-10856
▁idênticas	-10857
▁inquérito	-10858
▁juventude	-10859
▁paisagens	-10860
▁percepção	-10861
▁positivas	-10862
▁primavera	-10863
▁produción	-10864
▁superfici	-10865
▁documentar	-10866
▁educadores	-10867
▁habitantes	-10868
▁inovadoras	-10869
▁interiores	-10870
▁legislação	-10871
▁multiverso	-10872
▁percepción	-10873
▁primordial	-10874
▁reprodução	-10875
▁revoluções	-10876
▁transporta	-10877
▁utilizamos	-10878
▁Neandertais	-10879
▁Organização	-10880
▁alimentares	-10881
▁aprendizaxe	-10882
▁científicas	-10883
▁dinossauros	-10884
▁monitorizar	-10885
▁precedentes	-10886
▁companheiros	-10887
▁consideramos	-10888
▁envolvimento	-10889
▁inteiramente	-10890
▁radicalmente	-10891
▁reconstrução	-10892
▁sustentáveis	-10893
▁Internacional	-10894
▁administração	-10895
▁computacional	-10896
▁credibilidade	-10897
▁entusiasmante	-10898
▁universitário	-10899
▁governamentais	-10900
fl	-10901
ng	-10902
wk	-10903
zi	-10904
ads	-10905
alk	-10906
cus	-10907
hão	-10908
ily	-10909
ith	-10910
lum	-10911
sou	-10912
tei	-10913
une	-10914
ánt	-10915
▁31	-10916
▁37	-10917
▁38	-10918
▁54	-10919
▁Au	-10920
▁Ci	-10921
▁It	-10922
▁Ji	-10923
▁Od	-10924
▁RB	-10925
▁xu	-10926
anim	-10927
ario	-10928
arth	-10929
blia	-10930
enço	-10931
erna	-10932
espe	-10933
etor	-10934
etta	-10935
isco	-10936
meas	-10937
mite	-10938
olar	-10939
rang	-10940
unos	-10941
wart	-10942
well	-10943
áver	-10944
ínas	-10945
ódio	-10946
órum	-10947
▁1,5	-10948
▁Aum	-10949
▁Del	-10950
▁Dou	-10951
▁Ese	-10952
▁Lar	-10953
▁Mer	-10954
▁Occ	-10955
▁Sac	-10956
▁Tit	-10957
▁Uns	-10958
▁Vex	-10959
▁axe	-10960
▁bur	-10961
▁don	-10962
▁dur	-10963
▁dád	-10964
▁enz	-10965
▁húm	-10966
▁jud	-10967
▁nit	-10968
▁rac	-10969
▁xur	-10970
Corps	-10971
aches	-10972
andes	-10973
campo	-10974
cismo	-10975
estre	-10976
génio	-10977
ingar	-10978
ratch	-10979
tempo	-10980
volta	-10981
émolo	-10982
érico	-10983
ómico	-10984
▁1950	-10985
▁Chin	-10986
▁Cres	-10987
▁Doaa	-10988
▁Envi	-10989
▁Fant	-10990
▁Jane	-10991
▁Part	-10992
▁Saud	-10993
▁Seis	-10994
▁Uber	-10995
▁Vejo	-10996
▁anci	-10997
▁apla	-10998
▁baby	-10999
▁buro	-11000
▁croc	-11001
▁elog	-11002
▁emer	-11003
▁ergu	-11004
▁gram	-11005
▁juda	-11006
▁lanz	-11007
▁mono	-11008
▁nojo	-11009
▁orqu	-11010
▁palp	-11011
▁pesc	-11012
▁péss	-11013
▁raiz	-11014
▁ramo	-11015
▁vosa	-11016
▁voso	-11017
▁xene	-11018
bração	-11019
entina	-11020
uições	-11021
ódulos	-11022
▁Bitco	-11023
▁Charl	-11024
▁Fazem	-11025
▁Façam	-11026
▁Ilhas	-11027
▁Líbia	-11028
▁Moham	-11029
▁Neces	-11030
▁Pouco	-11031
▁Preoc	-11032
▁abord	-11033
▁acúst	-11034
▁adorm	-11035
▁agrup	-11036
▁anaco	-11037
▁asegu	-11038
▁belas	-11039
▁cales	-11040
▁casal	-11041
▁cated	-11042
▁clube	-11043
▁colar	-11044
▁colid	-11045
▁darem	-11046
▁decat	-11047
▁exclu	-11048
▁fruta	-11049
▁haber	-11050
▁homos	-11051
▁impos	-11052
▁julho	-11053
▁movem	-11054
▁ouvia	-11055
▁porto	-11056
▁puder	-11057
▁relóg	-11058
▁retal	-11059
▁rodar	-11060
▁roubo	-11061
▁segui	-11062
▁sitio	-11063
▁vitam	-11064
▁xeral	-11065
▁óssea	-11066
bastian	-11067
isfério	-11068
▁Arquim	-11069
▁Devido	-11070
▁Global	-11071
▁Graças	-11072
▁Mostra	-11073
▁Nenhum	-11074
▁acceso	-11075
▁adapta	-11076
▁bolsas	-11077
▁cardio	-11078
▁celebr	-11079
▁combat	-11080
▁convic	-11081
▁custar	-11082
▁descan	-11083
▁dilema	-11084
▁embaix	-11085
▁emoção	-11086
▁estima	-11087
▁estrés	-11088
▁fraude	-11089
▁fêmeas	-11090
▁hábito	-11091
▁idades	-11092
▁idiota	-11093
▁inclui	-11094
▁libros	-11095
▁longos	-11096
▁merece	-11097
▁ostras	-11098
▁piloto	-11099
▁remoto	-11100
▁requis	-11101
▁resume	-11102
▁semelh	-11103
▁sintet	-11104
▁subtil	-11105
▁varias	-11106
▁verbal	-11107
▁ótimas	-11108
▁Naquele	-11109
▁Segunda	-11110
▁Somália	-11111
▁abstrac	-11112
▁adopção	-11113
▁assinal	-11114
▁avanços	-11115
▁brilhar	-11116
▁cadáver	-11117
▁canción	-11118
▁cerveja	-11119
▁chegada	-11120
▁content	-11121
▁correla	-11122
▁culpado	-11123
▁debates	-11124
▁diagnos	-11125
▁dixital	-11126
▁enterra	-11127
▁escadas	-11128
▁esferas	-11129
▁esperto	-11130
▁estudei	-11131
▁feridas	-11132
▁formado	-11133
▁función	-11134
▁fórmula	-11135
▁helicóp	-11136
▁humilde	-11137
▁hábitos	-11138
▁ilegais	-11139
▁infeção	-11140
▁irónico	-11141
▁lâmpada	-11142
▁olharam	-11143
▁ouvirem	-11144
▁pagamos	-11145
▁parcial	-11146
▁pasando	-11147
▁pedidos	-11148
▁prender	-11149
▁pássaro	-11150
▁querida	-11151
▁recorda	-11152
▁redefin	-11153
▁resumir	-11154
▁rexións	-11155
▁sinxelo	-11156
▁tentado	-11157
▁visitas	-11158
▁vitória	-11159
idelidade	-11160
▁Brooklyn	-11161
▁Exército	-11162
▁Mulheres	-11163
▁absoluta	-11164
▁anúncios	-11165
▁blockcha	-11166
▁caridade	-11167
▁colocado	-11168
▁conducir	-11169
▁cultivos	-11170
▁dependem	-11171
▁depender	-11172
▁detecção	-11173
▁divisões	-11174
▁editores	-11175
▁estudado	-11176
▁fertiliz	-11177
▁hardware	-11178
▁horizont	-11179
▁imprimir	-11180
▁infinito	-11181
▁iniciais	-11182
▁interfer	-11183
▁levantou	-11184
▁musicais	-11185
▁namorada	-11186
▁poidamos	-11187
▁privadas	-11188
▁producir	-11189
▁recomend	-11190
▁recupera	-11191
▁ridículo	-11192
▁salários	-11193
▁seguimos	-11194
▁subestim	-11195
▁tampouco	-11196
▁traduzir	-11197
▁tremenda	-11198
▁urgência	-11199
▁Professor	-11200
▁Realmente	-11201
▁Revolução	-11202
▁Sebastian	-11203
▁adivinhar	-11204
▁ancestral	-11205
▁apercebeu	-11206
▁biológico	-11207
▁colocamos	-11208
▁começando	-11209
▁confiante	-11210
▁descreveu	-11211
▁destruída	-11212
▁distancia	-11213
▁edificios	-11214
▁eleitoral	-11215
▁escolares	-11216
▁escondido	-11217
▁fenómenos	-11218
▁hipocampo	-11219
▁integrado	-11220
▁navegador	-11221
▁negativas	-11222
▁permissão	-11223
▁perseguir	-11224
▁populares	-11225
▁progredir	-11226
▁proporção	-11227
▁sensación	-11228
▁utilidade	-11229
▁variações	-11230
▁Arquimedes	-11231
▁StoryCorps	-11232
▁académicos	-11233
▁acontecerá	-11234
▁apareceram	-11235
▁argumentos	-11236
▁arquitetos	-11237
▁automático	-11238
▁caracteres	-11239
▁declaração	-11240
▁disciplina	-11241
▁humilhação	-11242
▁integração	-11243
▁interacção	-11244
▁moralidade	-11245
▁mutuamente	-11246
▁preferidos	-11247
▁realidades	-11248
▁totalidade	-11249
▁transferir	-11250
▁vulnerável	-11251
▁autorização	-11252
▁construíram	-11253
▁corresponde	-11254
▁democracias	-11255
▁desempenhar	-11256
▁diapositivo	-11257
▁empresários	-11258
▁encontrarem	-11259
▁específicos	-11260
▁industriais	-11261
▁observarmos	-11262
▁prioridades	-11263
▁sexualmente	-11264
▁subitamente	-11265
▁telescópios	-11266
▁transplante	-11267
▁Departamento	-11268
▁adolescencia	-11269
▁apartamentos	-11270
▁conferências	-11271
▁consideração	-11272
▁contribuição	-11273
▁departamento	-11274
▁empreendedor	-11275
▁propriamente	-11276
▁restaurantes	-11277
▁visualização	-11278
▁efectivamente	-11279
▁entusiasmados	-11280
▁introvertidos	-11281
▁programadores	-11282
▁surpreendidos	-11283
▁desconfortável	-11284
▁familiarizados	-11285
▁probabilidades	-11286
-1	-11287
ES	-11288
VC	-11289
ox	-11290
si	-11291
ARN	-11292
ati	-11293
eir	-11294
fas	-11295
gal	-11296
iço	-11297
mer	-11298
old	-11299
sil	-11300
uos	-11301
val	-11302
xas	-11303
íqu	-11304
ómo	-11305
▁55	-11306
▁86	-11307
▁Ba	-11308
▁CD	-11309
▁Dê	-11310
▁EH	-11311
▁Er	-11312
▁Fe	-11313
▁Ke	-11314
▁Km	-11315
▁Wi	-11316
▁ré	-11317
agan	-11318
alth	-11319
chos	-11320
dese	-11321
edas	-11322
imes	-11323
ison	-11324
ited	-11325
leos	-11326
ogra	-11327
phic	-11328
rill	-11329
róns	-11330
umin	-11331
urou	-11332
usal	-11333
▁Ará	-11334
▁Ata	-11335
▁Bla	-11336
▁Boy	-11337
▁Den	-11338
▁Dra	-11339
▁Fez	-11340
▁Lit	-11341
▁Pai	-11342
▁Wat	-11343
▁ang	-11344
▁ate	-11345
▁ced	-11346
▁fom	-11347
▁gai	-11348
▁inx	-11349
▁ous	-11350
▁pon	-11351
▁sar	-11352
▁tód	-11353
▁vín	-11354
ecess	-11355
elada	-11356
enhos	-11357
faces	-11358
inter	-11359
iplos	-11360
ntese	-11361
ortos	-11362
right	-11363
velas	-11364
ábase	-11365
ádeme	-11366
ámolo	-11367
áteis	-11368
érias	-11369
ígena	-11370
ítica	-11371
óloga	-11372
▁1945	-11373
▁1960	-11374
▁2030	-11375
▁Abra	-11376
▁Aper	-11377
▁Bron	-11378
▁Dixo	-11379
▁Ever	-11380
▁Gore	-11381
▁Hans	-11382
▁Jord	-11383
▁King	-11384
▁Prot	-11385
▁Quão	-11386
▁Seja	-11387
▁Sist	-11388
▁West	-11389
▁bata	-11390
▁cosm	-11391
▁danç	-11392
▁debe	-11393
▁dron	-11394
▁ench	-11395
▁estô	-11396
▁fumo	-11397
▁golf	-11398
▁gris	-11399
▁mape	-11400
▁marg	-11401
▁moch	-11402
▁nena	-11403
▁niso	-11404
▁pega	-11405
▁pest	-11406
▁pigm	-11407
▁punt	-11408
▁rúas	-11409
▁serm	-11410
▁sexy	-11411
▁tang	-11412
▁tsun	-11413
ciares	-11414
crever	-11415
ibiliz	-11416
sexual	-11417
ulares	-11418
ussani	-11419
éricas	-11420
▁Dever	-11421
▁Earth	-11422
▁Golfo	-11423
▁Peter	-11424
▁Recon	-11425
▁Sejam	-11426
▁Wikip	-11427
▁abril	-11428
▁afund	-11429
▁anual	-11430
▁banqu	-11431
▁barul	-11432
▁benéf	-11433
▁betão	-11434
▁bosão	-11435
▁campe	-11436
▁corda	-11437
▁cujas	-11438
▁denom	-11439
▁diabo	-11440
▁dinam	-11441
▁dirão	-11442
▁estát	-11443
▁etapa	-11444
▁expul	-11445
▁fraco	-11446
▁gasta	-11447
▁golpe	-11448
▁grand	-11449
▁inund	-11450
▁juntá	-11451
▁lutas	-11452
▁mando	-11453
▁maxim	-11454
▁minim	-11455
▁mozos	-11456
▁ostra	-11457
▁ouvem	-11458
▁paraf	-11459
▁param	-11460
▁prato	-11461
▁sabía	-11462
▁sonda	-11463
▁tenda	-11464
▁tomam	-11465
▁íamos	-11466
ioneiro	-11467
▁Arábia	-11468
▁Chegou	-11469
▁Conhec	-11470
▁Gandhi	-11471
▁Geogra	-11472
▁Kansas	-11473
▁Levant	-11474
▁Mirade	-11475
▁Nathan	-11476
▁Veneza	-11477
▁aborto	-11478
▁abstra	-11479
▁acadar	-11480
▁adoram	-11481
▁alugar	-11482
▁autent	-11483
▁cambia	-11484
▁causou	-11485
▁darlle	-11486
▁defend	-11487
▁desexo	-11488
▁deuses	-11489
▁dádiva	-11490
▁emails	-11491
▁enriba	-11492
▁expeta	-11493
▁fronte	-11494
▁haviam	-11495
▁impede	-11496
▁inútil	-11497
▁liguei	-11498
▁litros	-11499
▁malici	-11500
▁meados	-11501
▁millón	-11502
▁moscas	-11503
▁pensas	-11504
▁pontas	-11505
▁provid	-11506
▁reside	-11507
▁resson	-11508
▁revest	-11509
▁submet	-11510
▁usarem	-11511
▁vivido	-11512
ariedade	-11513
cionados	-11514
itamento	-11515
orrentes	-11516
posições	-11517
▁Começou	-11518
▁Conheci	-11519
▁Fizeram	-11520
▁Holanda	-11521
▁Parecia	-11522
▁Scratch	-11523
▁afectar	-11524
▁amizade	-11525
▁anfitri	-11526
▁baratas	-11527
▁cancros	-11528
▁charlas	-11529
▁chegado	-11530
▁compens	-11531
▁confusa	-11532
▁contudo	-11533
▁cultivo	-11534
▁desmont	-11535
▁difusão	-11536
▁elabora	-11537
▁entorno	-11538
▁especul	-11539
▁espello	-11540
▁espiral	-11541
▁esquema	-11542
▁estigma	-11543
▁flutuar	-11544
▁incapac	-11545
▁indifer	-11546
▁joelhos	-11547
▁limpeza	-11548
▁polares	-11549
▁provoca	-11550
▁prótese	-11551
▁psiquia	-11552
▁puderam	-11553
▁retrato	-11554
▁revisão	-11555
▁secreto	-11556
▁sequera	-11557
▁tortura	-11558
▁traumat	-11559
▁tráfego	-11560
▁tódalas	-11561
▁vestido	-11562
▁virtude	-11563
ceramente	-11564
▁Giussani	-11565
▁absorver	-11566
▁adequada	-11567
▁africana	-11568
▁analogia	-11569
▁animação	-11570
▁anónimas	-11571
▁arterial	-11572
▁atingido	-11573
▁ausência	-11574
▁avançado	-11575
▁baseados	-11576
▁basquete	-11577
▁chamaram	-11578
▁concordo	-11579
▁conectar	-11580
▁controla	-11581
▁corredor	-11582
▁cuestión	-11583
▁desempre	-11584
▁desligar	-11585
▁dificult	-11586
▁ecologia	-11587
▁endereço	-11588
▁episódio	-11589
▁escritas	-11590
▁estatuto	-11591
▁expostos	-11592
▁feminino	-11593
▁imediata	-11594
▁importam	-11595
▁instalar	-11596
▁interrup	-11597
▁invulgar	-11598
▁microARN	-11599
▁neuronal	-11600
▁passados	-11601
▁períodos	-11602
▁pilhagem	-11603
▁prevenir	-11604
▁primatas	-11605
▁prossegu	-11606
▁protegem	-11607
▁recebido	-11608
▁reflexão	-11609
▁resultar	-11610
▁utilizam	-11611
▁xenética	-11612
▁Começamos	-11613
▁Microsoft	-11614
▁Trabalhei	-11615
▁altruísmo	-11616
▁artístico	-11617
▁atributos	-11618
▁aventuras	-11619
▁cirurgias	-11620
▁cognitiva	-11621
▁concertos	-11622
▁correntes	-11623
▁desenhado	-11624
▁dinosauro	-11625
▁estimular	-11626
▁existente	-11627
▁facilitar	-11628
▁fascinado	-11629
▁mencionei	-11630
▁minúsculo	-11631
▁múltiplos	-11632
▁preparado	-11633
▁sepultura	-11634
▁simpático	-11635
▁simulação	-11636
▁tornarmos	-11637
▁trouxeram	-11638
▁Entretanto	-11639
▁Geographic	-11640
▁Matemática	-11641
▁aleatórias	-11642
▁aplicación	-11643
▁beneficiar	-11644
▁categorias	-11645
▁composição	-11646
▁compromiso	-11647
▁congestion	-11648
▁distâncias	-11649
▁essenciais	-11650
▁facilidade	-11651
▁fizéssemos	-11652
▁hemisfério	-11653
▁históricos	-11654
▁interessam	-11655
▁interfaces	-11656
▁observando	-11657
▁pormenores	-11658
▁preferidas	-11659
▁restrições	-11660
▁substância	-11661
▁superficie	-11662
▁variedades	-11663
mediatamente	-11664
▁artificiais	-11665
▁construídos	-11666
▁disciplinas	-11667
▁estimulante	-11668
▁identidades	-11669
▁informático	-11670
▁integridade	-11671
▁interpretar	-11672
▁tecnoloxías	-11673
▁trabalhador	-11674
▁concentração	-11675
▁diagnósticos	-11676
▁escaravelhos	-11677
▁intervenções	-11678
▁supermercado	-11679
▁temperaturas	-11680
▁geneticamente	-11681
▁automaticamente	-11682
40	-11683
BC	-11684
bn	-11685
iá	-11686
▁$	-11687
▁=	-11688
For	-11689
bas	-11690
bie	-11691
bur	-11692
cat	-11693
dan	-11694
esc	-11695
gén	-11696
hem	-11697
ini	-11698
iná	-11699
ips	-11700
oud	-11701
ría	-11702
tua	-11703
uck	-11704
úen	-11705
úrg	-11706
▁43	-11707
▁46	-11708
▁96	-11709
▁Dy	-11710
▁GC	-11711
▁Ug	-11712
▁it	-11713
,000	-11714
abel	-11715
acta	-11716
anal	-11717
arão	-11718
coço	-11719
iles	-11720
issa	-11721
ollo	-11722
orth	-11723
plan	-11724
plar	-11725
rida	-11726
rime	-11727
timo	-11728
vapo	-11729
ísia	-11730
▁195	-11731
▁2,5	-11732
▁Bru	-11733
▁Eng	-11734
▁Jon	-11735
▁Lab	-11736
▁Lim	-11737
▁Men	-11738
▁Mou	-11739
▁Ram	-11740
▁Rei	-11741
▁Rio	-11742
▁Sho	-11743
▁Sir	-11744
▁alz	-11745
▁ama	-11746
▁amp	-11747
▁ard	-11748
▁ave	-11749
▁ceo	-11750
▁env	-11751
▁ful	-11752
▁lab	-11753
▁nít	-11754
▁ovo	-11755
▁rod	-11756
▁ves	-11757
alina	-11758
ation	-11759
berta	-11760
erada	-11761
ernas	-11762
errad	-11763
essar	-11764
estru	-11765
idões	-11766
inton	-11767
istes	-11768
itaba	-11769
lação	-11770
monos	-11771
oster	-11772
rizes	-11773
rolar	-11774
urada	-11775
âmico	-11776
ésimo	-11777
íxome	-11778
▁2002	-11779
▁2003	-11780
▁4000	-11781
▁5000	-11782
▁Atop	-11783
▁Cant	-11784
▁Esqu	-11785
▁Flor	-11786
▁Fund	-11787
▁Jeff	-11788
▁PSPT	-11789
▁Resp	-11790
▁Senh	-11791
▁Wood	-11792
▁Zimb	-11793
▁acal	-11794
▁acep	-11795
▁atre	-11796
▁bamb	-11797
▁cave	-11798
▁enxe	-11799
▁esto	-11800
▁fasc	-11801
▁fres	-11802
▁gado	-11803
▁gras	-11804
▁gust	-11805
▁lama	-11806
▁mede	-11807
▁mito	-11808
▁pede	-11809
▁piso	-11810
▁puro	-11811
▁quei	-11812
▁scan	-11813
▁velo	-11814
Speech	-11815
erados	-11816
inaria	-11817
inente	-11818
nipres	-11819
prende	-11820
presas	-11821
émonos	-11822
ómicas	-11823
ómicos	-11824
úpiter	-11825
▁Glass	-11826
▁Jiade	-11827
▁Metro	-11828
▁Tanto	-11829
▁Tempo	-11830
▁Video	-11831
▁acamp	-11832
▁adest	-11833
▁aglom	-11834
▁alfab	-11835
▁arbit	-11836
▁arrep	-11837
▁asfal	-11838
▁asoci	-11839
▁auton	-11840
▁aérea	-11841
▁campa	-11842
▁capit	-11843
▁cemit	-11844
▁cicat	-11845
▁debat	-11846
▁desce	-11847
▁dobra	-11848
▁dobre	-11849
▁duras	-11850
▁durou	-11851
▁embri	-11852
▁engol	-11853
▁fagan	-11854
▁injet	-11855
▁justa	-11856
▁lente	-11857
▁loita	-11858
▁manut	-11859
▁mesqu	-11860
▁pagos	-11861
▁pingü	-11862
▁posib	-11863
▁puxar	-11864
▁recip	-11865
▁socio	-11866
▁séria	-11867
▁tiram	-11868
▁trast	-11869
▁venho	-11870
▁xemel	-11871
▁átomo	-11872
▁áudio	-11873
cedores	-11874
inações	-11875
remente	-11876
vemente	-11877
vereiro	-11878
▁Bonica	-11879
▁Contra	-11880
▁Cresci	-11881
▁Câmara	-11882
▁Invest	-11883
▁Parque	-11884
▁Uganda	-11885
▁Utiliz	-11886
▁abenço	-11887
▁abismo	-11888
▁alarme	-11889
▁antide	-11890
▁arreci	-11891
▁brilho	-11892
▁calças	-11893
▁campus	-11894
▁cancer	-11895
▁catast	-11896
▁cheias	-11897
▁contêm	-11898
▁decide	-11899
▁define	-11900
▁descod	-11901
▁discre	-11902
▁disfun	-11903
▁doação	-11904
▁empolg	-11905
▁enviam	-11906
▁gastos	-11907
▁impera	-11908
▁inovar	-11909
▁juntou	-11910
▁legais	-11911
▁macaco	-11912
▁massas	-11913
▁montañ	-11914
▁museus	-11915
▁módulo	-11916
▁niveis	-11917
▁pensan	-11918
▁proven	-11919
▁psicos	-11920
▁quanta	-11921
▁quinto	-11922
▁reabil	-11923
▁reator	-11924
▁recuar	-11925
▁revela	-11926
▁ritual	-11927
▁saíram	-11928
▁sentou	-11929
▁sessão	-11930
▁suport	-11931
▁surgem	-11932
▁sussur	-11933
▁súpeto	-11934
▁tranqu	-11935
▁versus	-11936
▁óculos	-11937
aramente	-11938
icultura	-11939
▁Digamos	-11940
▁Espanha	-11941
▁Jerusal	-11942
▁Saudita	-11943
▁Tunísia	-11944
▁Vexamos	-11945
▁afectam	-11946
▁alargar	-11947
▁andamos	-11948
▁antecip	-11949
▁atingem	-11950
▁causado	-11951
▁coorden	-11952
▁criadas	-11953
▁deixado	-11954
▁descend	-11955
▁dixeron	-11956
▁entende	-11957
▁escolhi	-11958
▁escrevo	-11959
▁escuras	-11960
▁espetro	-11961
▁faciais	-11962
▁famosos	-11963
▁focados	-11964
▁futuras	-11965
▁inserir	-11966
▁intríns	-11967
▁mellora	-11968
▁nalguns	-11969
▁oferece	-11970
▁passeio	-11971
▁pediram	-11972
▁peritos	-11973
▁pertenc	-11974
▁pescoço	-11975
▁piscina	-11976
▁problem	-11977
▁prémios	-11978
▁quadros	-11979
▁quantit	-11980
▁queimar	-11981
▁recuper	-11982
▁reserva	-11983
▁sentiam	-11984
▁soberan	-11985
▁soldado	-11986
▁tiveron	-11987
▁traição	-11988
▁tratava	-11989
▁trivial	-11990
▁títulos	-11991
▁urbanos	-11992
▁Funciona	-11993
▁Imaxinen	-11994
▁aconselh	-11995
▁apreciar	-11996
▁baterias	-11997
▁calidade	-11998
▁contínua	-11999
▁contínuo	-12000
▁diagnose	-12001
▁diminuiu	-12002
▁diretora	-12003
▁disparar	-12004
▁dividida	-12005
▁divulgar	-12006
▁escribir	-12007
▁estímulo	-12008
▁estômago	-12009
▁externos	-12010
▁falecido	-12011
▁feminina	-12012
▁forneced	-12013
▁gobernos	-12014
▁gravação	-12015
▁ilustrar	-12016
▁imprevis	-12017
▁impulsos	-12018
▁juntaram	-12019
▁lançámos	-12020
▁mudarmos	-12021
▁mutações	-12022
▁neurológ	-12023
▁oposição	-12024
▁orgânica	-12025
▁paralelo	-12026
▁passeios	-12027
▁pirâmide	-12028
▁progress	-12029
▁reconcil	-12030
▁seguindo	-12031
▁singular	-12032
▁sozinhas	-12033
▁sucedida	-12034
▁suportar	-12035
▁telhados	-12036
▁terrenos	-12037
▁vermello	-12038
▁violação	-12039
▁Esperamos	-12040
▁Liberdade	-12041
▁Queríamos	-12042
▁abundante	-12043
▁apresenta	-12044
▁artística	-12045
▁bombeiros	-12046
▁brillante	-12047
▁brinquedo	-12048
▁cardíacas	-12049
▁colocadas	-12050
▁concordar	-12051
▁determina	-12052
▁dissessem	-12053
▁distinção	-12054
▁ensinaram	-12055
▁entidades	-12056
▁escritora	-12057
▁estudamos	-12058
▁expedição	-12059
▁expressar	-12060
▁favoritos	-12061
▁financiar	-12062
▁franceses	-12063
▁frequente	-12064
▁glaciares	-12065
▁interagem	-12066
▁investido	-12067
▁localizar	-12068
▁modificar	-12069
▁mostrando	-12070
▁mostraram	-12071
▁neurociru	-12072
▁orixinais	-12073
▁tiroteios	-12074
▁ultrasson	-12075
isticamente	-12076
▁FreeSpeech	-12077
▁Gustaríame	-12078
▁apresentou	-12079
▁centímetro	-12080
▁comentário	-12081
▁compreende	-12082
▁desenvolvi	-12083
▁disposição	-12084
▁energético	-12085
▁envelhecer	-12086
▁espetáculo	-12087
▁esquecemos	-12088
▁estilistas	-12089
▁fortemente	-12090
▁habituados	-12091
▁improvável	-12092
▁imunitário	-12093
▁jornalismo	-12094
▁manuscrito	-12095
▁manutenção	-12096
▁minúsculas	-12097
▁preparação	-12098
▁protegidas	-12099
▁recolhemos	-12100
▁religiosos	-12101
▁tolerância	-12102
▁trajetória	-12103
▁vencedores	-12104
▁actividades	-12105
▁certificado	-12106
▁compreendem	-12107
▁democrático	-12108
▁descubrimos	-12109
▁experimento	-12110
▁financeiras	-12111
▁funcionário	-12112
▁manuscritos	-12113
▁perguntamos	-12114
▁perspetivas	-12115
▁resiliência	-12116
▁testemunhar	-12117
▁Simplesmente	-12118
▁desconhecida	-12119
▁desenvolvida	-12120
▁diagnosticar	-12121
▁encontrarmos	-12122
▁expectativas	-12123
▁regularmente	-12124
▁continuamente	-12125
▁desapareceram	-12126
▁desenvolvidos	-12127
▁personalizada	-12128
▁politicamente	-12129
▁preservativos	-12130
▁comportamental	-12131
▁historicamente	-12132
▁ocasionalmente	-12133
▁universitários	-12134
OC	-12135
cé	-12136
op	-12137
yl	-12138
ác	-12139
ETI	-12140
abu	-12141
adi	-12142
avo	-12143
bnb	-12144
eis	-12145
gil	-12146
hen	-12147
hid	-12148
lei	-12149
lop	-12150
tle	-12151
viv	-12152
yan	-12153
íbr	-12154
▁SS	-12155
▁UN	-12156
▁fú	-12157
▁Ás	-12158
asal	-12159
cada	-12160
cool	-12161
cton	-12162
egar	-12163
enny	-12164
esía	-12165
irib	-12166
itch	-12167
ivoc	-12168
name	-12169
obra	-12170
oder	-12171
oura	-12172
rabe	-12173
rude	-12174
ston	-12175
ting	-12176
unes	-12177
usos	-12178
util	-12179
vais	-12180
vers	-12181
▁Amy	-12182
▁Bal	-12183
▁Boa	-12184
▁CEO	-12185
▁Die	-12186
▁GCH	-12187
▁Gro	-12188
▁Has	-12189
▁Hel	-12190
▁Kat	-12191
▁Lee	-12192
▁Liv	-12193
▁Moi	-12194
▁Ouv	-12195
▁Pou	-12196
▁Rem	-12197
▁Sec	-12198
▁Tre	-12199
▁Vin	-12200
▁bro	-12201
▁dob	-12202
▁hes	-12203
▁hig	-12204
▁oll	-12205
▁pne	-12206
▁sig	-12207
▁séc	-12208
attle	-12209
cados	-12210
enses	-12211
entan	-12212
esses	-12213
essou	-12214
forme	-12215
kespe	-12216
ondas	-12217
ongar	-12218
orado	-12219
ouros	-12220
regar	-12221
uario	-12222
uncia	-12223
édios	-12224
ítico	-12225
▁Bali	-12226
▁Buda	-12227
▁Gaza	-12228
▁Hawk	-12229
▁Hong	-12230
▁Real	-12231
▁SETI	-12232
▁TEDT	-12233
▁Tanz	-12234
▁Tens	-12235
▁acid	-12236
▁almo	-12237
▁anel	-12238
▁anom	-12239
▁cicl	-12240
▁cubo	-12241
▁deco	-12242
▁fich	-12243
▁fita	-12244
▁igno	-12245
▁inib	-12246
▁intu	-12247
▁long	-12248
▁lume	-12249
▁peza	-12250
▁pist	-12251
▁plut	-12252
▁polu	-12253
▁porn	-12254
▁rebo	-12255
▁rema	-12256
▁rosa	-12257
▁sali	-12258
▁soño	-12259
▁supl	-12260
▁suxe	-12261
▁teia	-12262
▁usem	-12263
▁xurd	-12264
aldade	-12265
formas	-12266
héimer	-12267
icasse	-12268
ulados	-12269
unciar	-12270
ándose	-12271
óticas	-12272
óticos	-12273
▁Bronx	-12274
▁Cinco	-12275
▁Comez	-12276
▁Fazer	-12277
▁Frequ	-12278
▁Inclu	-12279
▁Inici	-12280
▁Porén	-12281
▁Vimos	-12282
▁achas	-12283
▁adopt	-12284
▁adora	-12285
▁algas	-12286
▁alinh	-12287
▁aquel	-12288
▁arrog	-12289
▁bizar	-12290
▁bombe	-12291
▁borda	-12292
▁bossa	-12293
▁bruto	-12294
▁cativ	-12295
▁deixe	-12296
▁dicía	-12297
▁encom	-12298
▁entes	-12299
▁enviá	-12300
▁escas	-12301
▁evapo	-12302
▁exige	-12303
▁fenom	-12304
▁girar	-12305
▁grego	-12306
▁japon	-12307
▁linda	-12308
▁liñas	-12309
▁mesas	-12310
▁minia	-12311
▁multa	-12312
▁multi	-12313
▁obtém	-12314
▁obtêm	-12315
▁orixe	-12316
▁palia	-12317
▁palma	-12318
▁pedem	-12319
▁pleno	-12320
▁pract	-12321
▁praça	-12322
▁prove	-12323
▁quint	-12324
▁recre	-12325
▁relix	-12326
▁relva	-12327
▁retro	-12328
▁senta	-12329
▁silic	-12330
▁tende	-12331
▁terri	-12332
▁tería	-12333
▁tirou	-12334
▁tribo	-12335
▁usava	-12336
▁venha	-12337
▁vocab	-12338
▁votos	-12339
▁xubil	-12340
▁Archie	-12341
▁Cidade	-12342
▁Curios	-12343
▁Grécia	-12344
▁Indust	-12345
▁Itália	-12346
▁Proust	-12347
▁Sentia	-12348
▁Talibã	-12349
▁Tornou	-12350
▁baleia	-12351
▁brasil	-12352
▁cobrir	-12353
▁coluna	-12354
▁comezo	-12355
▁crocod	-12356
▁defens	-12357
▁derrad	-12358
▁desgra	-12359
▁direta	-12360
▁embara	-12361
▁encher	-12362
▁estend	-12363
▁estufa	-12364
▁exista	-12365
▁gelado	-12366
▁gordos	-12367
▁gratos	-12368
▁gustar	-12369
▁implac	-12370
▁increm	-12371
▁linear	-12372
▁loitar	-12373
▁manhãs	-12374
▁morren	-12375
▁outono	-12376
▁permít	-12377
▁pesado	-12378
▁poemas	-12379
▁presum	-12380
▁proxim	-12381
▁pulmão	-12382
▁retorn	-12383
▁salvou	-12384
▁seguen	-12385
▁sofreu	-12386
▁subida	-12387
▁sábado	-12388
▁tijolo	-12389
▁trocas	-12390
▁unidos	-12391
▁vinham	-12392
▁vizinh	-12393
▁Éramos	-12394
▁àquele	-12395
▁Devemos	-12396
▁Falamos	-12397
▁Percebi	-12398
▁Seattle	-12399
▁Stephen	-12400
▁Stewart	-12401
▁acertar	-12402
▁adquiri	-12403
▁apostar	-12404
▁barriga	-12405
▁batalla	-12406
▁biólogo	-12407
▁cambiou	-12408
▁colunas	-12409
▁confuso	-12410
▁conside	-12411
▁consiga	-12412
▁códigos	-12413
▁designs	-12414
▁egoísta	-12415
▁espacio	-12416
▁estiven	-12417
▁estável	-12418
▁faremos	-12419
▁ficando	-12420
▁fornece	-12421
▁funeral	-12422
▁incluem	-12423
▁indiano	-12424
▁lembram	-12425
▁levando	-12426
▁metabol	-12427
▁músculo	-12428
▁origami	-12429
▁pegadas	-12430
▁perform	-12431
▁piratas	-12432
▁produce	-12433
▁prático	-12434
▁publica	-12435
▁rapidez	-12436
▁reacção	-12437
▁recordo	-12438
▁reduzem	-12439
▁reflete	-12440
▁rituais	-12441
▁secular	-12442
▁seringa	-12443
▁suicida	-12444
▁trágico	-12445
▁tsunami	-12446
▁tubarão	-12447
▁térmica	-12448
endimento	-12449
▁Mohammed	-12450
▁Shakespe	-12451
▁Vietname	-12452
▁adoramos	-12453
▁adquirir	-12454
▁afastado	-12455
▁alimenta	-12456
▁bombarde	-12457
▁capturar	-12458
▁celebrar	-12459
▁coletivo	-12460
▁colónias	-12461
▁conforto	-12462
▁consigam	-12463
▁constrói	-12464
▁consulta	-12465
▁consumir	-12466
▁contente	-12467
▁contrair	-12468
▁convidar	-12469
▁corações	-12470
▁crescido	-12471
▁curiosos	-12472
▁declínio	-12473
▁devolver	-12474
▁direções	-12475
▁diversão	-12476
▁document	-12477
▁elevados	-12478
▁elétrica	-12479
▁encaixar	-12480
▁encolher	-12481
▁espanhol	-12482
▁europeus	-12483
▁explodir	-12484
▁exprimir	-12485
▁gratuita	-12486
▁gravidez	-12487
▁habitual	-12488
▁harmonia	-12489
▁interrom	-12490
▁leopardo	-12491
▁licencia	-12492
▁mandarim	-12493
▁manterem	-12494
▁marítimo	-12495
▁ministro	-12496
▁mosquito	-12497
▁notáveis	-12498
▁omnipres	-12499
▁passavam	-12500
▁policial	-12501
▁posicion	-12502
▁privados	-12503
▁privileg	-12504
▁práctica	-12505
▁rabiscar	-12506
▁recorrer	-12507
▁registar	-12508
▁suicidas	-12509
▁teléfono	-12510
▁temporal	-12511
▁tentaram	-12512
▁tristeza	-12513
▁tropical	-12514
▁virtuais	-12515
▁Decidimos	-12516
▁Desculpem	-12517
▁Jerusalém	-12518
▁Palestina	-12519
▁aceitação	-12520
▁alzhéimer	-12521
▁andamento	-12522
▁armadilha	-12523
▁bastantes	-12524
▁cardiovas	-12525
▁concebido	-12526
▁controlam	-12527
▁desculpas	-12528
▁enfrentam	-12529
▁envolvido	-12530
▁escolhido	-12531
▁estabiliz	-12532
▁estejamos	-12533
▁evidência	-12534
▁evolucion	-12535
▁incidente	-12536
▁limitados	-12537
▁obstáculo	-12538
▁orgulhosa	-12539
▁orgânicos	-12540
▁parecidas	-12541
▁permitido	-12542
▁pesquisas	-12543
▁protestos	-12544
▁receberam	-12545
▁renovável	-12546
▁resolvido	-12547
▁restantes	-12548
▁solucións	-12549
ectivamente	-12550
▁Certamente	-12551
▁Parlamento	-12552
▁amplamente	-12553
▁apaixonado	-12554
▁apropriado	-12555
▁assinatura	-12556
▁brevemente	-12557
▁colocarmos	-12558
▁consigamos	-12559
▁demasiadas	-12560
▁demonstram	-12561
▁diminuição	-12562
▁espantosas	-12563
▁esqueletos	-12564
▁funcionava	-12565
▁hidrogénio	-12566
▁impressora	-12567
▁intentando	-12568
▁interações	-12569
▁justificar	-12570
▁metrónomos	-12571
▁qualidades	-12572
▁quotidiana	-12573
▁reconhecem	-12574
▁relevantes	-12575
▁residentes	-12576
▁silenciosa	-12577
▁smartphone	-12578
▁território	-12579
▁visitantes	-12580
▁apercebemos	-12581
▁basquetebol	-12582
▁comprometer	-12583
▁coñecemento	-12584
▁fascinantes	-12585
▁intelixente	-12586
▁lonxevidade	-12587
▁marabillosa	-12588
▁perturbação	-12589
▁plataformas	-12590
▁ressonância	-12591
▁surpreender	-12592
▁tecnológico	-12593
▁transformam	-12594
▁urbanização	-12595
▁corretamente	-12596
▁equipamentos	-12597
▁fluorescente	-12598
▁fornecimento	-12599
▁honestamente	-12600
▁investigador	-12601
▁posibilidade	-12602
▁prostituição	-12603
▁reabilitação	-12604
▁abastecimento	-12605
▁independência	-12606
▁solidariedade	-12607
▁conseguíssemos	-12608
AL	-12609
ER	-12610
IA	-12611
IV	-12612
ki	-12613
ob	-12614
ég	-12615
úb	-12616
▁^	-12617
She	-12618
ace	-12619
box	-12620
cor	-12621
dom	-12622
flu	-12623
gen	-12624
hat	-12625
heu	-12626
mel	-12627
oth	-12628
xen	-12629
ígd	-12630
ímp	-12631
ñan	-12632
▁48	-12633
▁93	-12634
▁Az	-12635
▁FM	-12636
▁Gl	-12637
▁JC	-12638
▁JF	-12639
▁JH	-12640
▁NL	-12641
▁NO	-12642
▁Ur	-12643
▁Va	-12644
▁Vá	-12645
▁És	-12646
▁Ós	-12647
anza	-12648
bida	-12649
cais	-12650
comp	-12651
dney	-12652
etra	-12653
icía	-12654
ilos	-12655
inat	-12656
mann	-12657
odia	-12658
oste	-12659
pete	-12660
rade	-12661
rane	-12662
tasi	-12663
ulle	-12664
umbo	-12665
usas	-12666
áron	-12667
énix	-12668
▁AVC	-12669
▁Ace	-12670
▁Ann	-12671
▁Bel	-12672
▁Civ	-12673
▁Dev	-12674
▁ELA	-12675
▁Emp	-12676
▁Hon	-12677
▁Mor	-12678
▁Nam	-12679
▁Pes	-12680
▁Pop	-12681
▁Sky	-12682
▁Stu	-12683
▁aux	-12684
▁bes	-12685
▁bis	-12686
▁cóp	-12687
▁dit	-12688
▁eco	-12689
▁goz	-12690
▁lex	-12691
▁nel	-12692
▁pát	-12693
▁sós	-12694
▁uuh	-12695
▁vix	-12696
▁vía	-12697
enlle	-12698
estas	-12699
gosto	-12700
iário	-12701
landa	-12702
negie	-12703
nésia	-12704
peuta	-12705
peção	-12706
racha	-12707
rifug	-12708
seram	-12709
támos	-12710
ufici	-12711
uliar	-12712
ustos	-12713
xinas	-12714
élado	-12715
émica	-12716
ómodo	-12717
ónios	-12718
órica	-12719
óxica	-12720
▁1980	-12721
▁1990	-12722
▁Caso	-12723
▁Conn	-12724
▁Dick	-12725
▁Expl	-12726
▁Faça	-12727
▁Gold	-12728
▁ISIS	-12729
▁Long	-12730
▁Mara	-12731
▁News	-12732
▁Podo	-12733
▁Tiña	-12734
▁Yale	-12735
▁abur	-12736
▁bord	-12737
▁bron	-12738
▁caem	-12739
▁caça	-12740
▁cron	-12741
▁céus	-12742
▁desn	-12743
▁doar	-12744
▁fede	-12745
▁fric	-12746
▁geom	-12747
▁gota	-12748
▁inje	-12749
▁nave	-12750
▁obsc	-12751
▁orde	-12752
▁paix	-12753
▁reún	-12754
▁sede	-12755
▁sofá	-12756
▁teór	-12757
▁viax	-12758
▁ving	-12759
▁volv	-12760
ForShe	-12761
eições	-12762
entava	-12763
icando	-12764
icipal	-12765
iscipl	-12766
istros	-12767
iários	-12768
rontal	-12769
rátase	-12770
versão	-12771
ásemos	-12772
ástico	-12773
ónicos	-12774
▁Babil	-12775
▁Black	-12776
▁Henry	-12777
▁Sobre	-12778
▁South	-12779
▁Stasi	-12780
▁Verão	-12781
▁XVIII	-12782
▁abrig	-12783
▁amígd	-12784
▁aonde	-12785
▁asist	-12786
▁axiña	-12787
▁bateu	-12788
▁cadea	-12789
▁canad	-12790
▁clave	-12791
▁conci	-12792
▁confi	-12793
▁devas	-12794
▁dimin	-12795
▁drast	-12796
▁espon	-12797
▁exato	-12798
▁faixa	-12799
▁falem	-12800
▁genoc	-12801
▁incên	-12802
▁indes	-12803
▁irmán	-12804
▁irrad	-12805
▁laser	-12806
▁leões	-12807
▁manuf	-12808
▁milho	-12809
▁notar	-12810
▁persu	-12811
▁pesad	-12812
▁pólio	-12813
▁renda	-12814
▁requi	-12815
▁restr	-12816
▁robot	-12817
▁sacos	-12818
▁selva	-12819
▁slide	-12820
▁suger	-12821
▁tubos	-12822
▁vacas	-12823
▁valer	-12824
▁virus	-12825
▁Árabe	-12826
▁óbvia	-12827
beração	-12828
dutores	-12829
umentos	-12830
violeta	-12831
▁Airbnb	-12832
▁Christ	-12833
▁Columb	-12834
▁Health	-12835
▁Líbano	-12836
▁Newton	-12837
▁Oceano	-12838
▁Parker	-12839
▁Senhor	-12840
▁Steven	-12841
▁Sydney	-12842
▁Tentei	-12843
▁Watson	-12844
▁actuar	-12845
▁agosto	-12846
▁amamos	-12847
▁arriba	-12848
▁astero	-12849
▁autora	-12850
▁barris	-12851
▁blogue	-12852
▁bosque	-12853
▁botões	-12854
▁brutal	-12855
▁chegue	-12856
▁cheios	-12857
▁ciclos	-12858
▁clique	-12859
▁coches	-12860
▁colate	-12861
▁comece	-12862
▁crânio	-12863
▁debido	-12864
▁deriva	-12865
▁dispoñ	-12866
▁décimo	-12867
▁enigma	-12868
▁entran	-12869
▁esquad	-12870
▁esquis	-12871
▁estere	-12872
▁excess	-12873
▁expans	-12874
▁faltam	-12875
▁ficará	-12876
▁frágil	-12877
▁guitar	-12878
▁intang	-12879
▁ironia	-12880
▁lembre	-12881
▁mastro	-12882
▁nalgún	-12883
▁orient	-12884
▁pontes	-12885
▁possui	-12886
▁postal	-12887
▁precip	-12888
▁presta	-12889
▁preval	-12890
▁proces	-12891
▁quedar	-12892
▁queijo	-12893
▁razóns	-12894
▁recife	-12895
▁refiro	-12896
▁refrig	-12897
▁reimpl	-12898
▁restos	-12899
▁simbol	-12900
▁sólida	-12901
▁tornem	-12902
▁travar	-12903
▁trinta	-12904
▁vestíg	-12905
▁xornal	-12906
ificador	-12907
ificaram	-12908
iguidade	-12909
▁Bitcoin	-12910
▁Cheguei	-12911
▁Escrevi	-12912
▁Gracias	-12913
▁Júpiter	-12914
▁Nixeria	-12915
▁Noutras	-12916
▁Rosetta	-12917
▁abraçar	-12918
▁abrimos	-12919
▁aceitou	-12920
▁admirar	-12921
▁afirmar	-12922
▁andares	-12923
▁aptidão	-12924
▁aquecer	-12925
▁armados	-12926
▁atentos	-12927
▁austral	-12928
▁basebol	-12929
▁batedor	-12930
▁bocados	-12931
▁bonitos	-12932
▁capaces	-12933
▁cereais	-12934
▁comando	-12935
▁comecem	-12936
▁conexão	-12937
▁criarem	-12938
▁defeito	-12939
▁deitado	-12940
▁descubr	-12941
▁desvant	-12942
▁directo	-12943
▁doutras	-12944
▁enfront	-12945
▁forçado	-12946
▁furacão	-12947
▁galinha	-12948
▁incompl	-12949
▁limitar	-12950
▁líquida	-12951
▁miramos	-12952
▁missões	-12953
▁moldura	-12954
▁mortais	-12955
▁mostras	-12956
▁nascido	-12957
▁negação	-12958
▁ocasião	-12959
▁ocorrem	-12960
▁paixões	-12961
▁percebo	-12962
▁pesados	-12963
▁petição	-12964
▁precoce	-12965
▁prefiro	-12966
▁primata	-12967
▁project	-12968
▁protege	-12969
▁puseram	-12970
▁reboque	-12971
▁recifes	-12972
▁reducir	-12973
▁rápidas	-12974
▁seleção	-12975
▁sinxela	-12976
▁sotaque	-12977
▁tremend	-12978
▁urgente	-12979
▁vostede	-12980
▁xigante	-12981
ostamente	-12982
▁Academia	-12983
▁Carnegie	-12984
▁Encélado	-12985
▁HeForShe	-12986
▁Primeira	-12987
▁analizar	-12988
▁animados	-12989
▁bioloxía	-12990
▁borracha	-12991
▁calcário	-12992
▁cantores	-12993
▁carteira	-12994
▁catastró	-12995
▁catedral	-12996
▁cenários	-12997
▁coidados	-12998
▁coloquei	-12999
▁comboios	-13000
▁começava	-13001
▁concepto	-13002
▁consomem	-13003
▁criarmos	-13004
▁decorrer	-13005
▁dedicado	-13006
▁desertos	-13007
▁distinta	-13008
▁distinto	-13009
▁entidade	-13010
▁entregar	-13011
▁esencial	-13012
▁especies	-13013
▁espingar	-13014
▁etiqueta	-13015
▁falarmos	-13016
▁ficarmos	-13017
▁fizessem	-13018
▁ganharam	-13019
▁grandeza	-13020
▁hormonal	-13021
▁incómodo	-13022
▁inimigos	-13023
▁intermed	-13024
▁inventor	-13025
▁marginal	-13026
▁medições	-13027
▁memorial	-13028
▁nanopart	-13029
▁naquelas	-13030
▁nasceram	-13031
▁observam	-13032
▁oradores	-13033
▁panorama	-13034
▁parasita	-13035
▁parecida	-13036
▁peculiar	-13037
▁percebam	-13038
▁perdidas	-13039
▁precisos	-13040
▁previsto	-13041
▁propriet	-13042
▁proxeria	-13043
▁rastreio	-13044
▁silencio	-13045
▁silicone	-13046
▁sujeitos	-13047
▁supervis	-13048
▁tentarem	-13049
▁terminal	-13050
▁tratados	-13051
▁tremendo	-13052
▁voltamos	-13053
▁voltarem	-13054
▁xenético	-13055
ectividade	-13056
▁Aconteceu	-13057
▁Americana	-13058
▁Babilónia	-13059
▁Comecemos	-13060
▁Perguntei	-13061
▁Poderemos	-13062
▁Wikipedia	-13063
▁aceitável	-13064
▁aleatória	-13065
▁atravessa	-13066
▁audiencia	-13067
▁barbearia	-13068
▁candidato	-13069
▁caçadores	-13070
▁chimpanzé	-13071
▁colheitas	-13072
▁colocámos	-13073
▁compostos	-13074
▁conquista	-13075
▁continuei	-13076
▁culinária	-13077
▁deixarmos	-13078
▁descobrem	-13079
▁desfrutar	-13080
▁destroços	-13081
▁dirección	-13082
▁educativa	-13083
▁enganados	-13084
▁evoluímos	-13085
▁flexíveis	-13086
▁habitação	-13087
▁habituais	-13088
▁histórica	-13089
▁ideologia	-13090
▁indicador	-13091
▁libertado	-13092
▁magnética	-13093
▁obtivemos	-13094
▁orquestra	-13095
▁parecidos	-13096
▁percebido	-13097
▁precisión	-13098
▁prosperar	-13099
▁separadas	-13100
▁separados	-13101
▁tatuagens	-13102
▁terminado	-13103
▁trabalhou	-13104
▁tradición	-13105
▁Ministério	-13106
▁agricultor	-13107
▁aumentando	-13108
▁avaliações	-13109
▁certificar	-13110
▁compreendo	-13111
▁consumimos	-13112
▁controlado	-13113
▁dicionário	-13114
▁enfermaria	-13115
▁enfermeira	-13116
▁exigências	-13117
▁fortalecer	-13118
▁fotografía	-13119
▁fragmentos	-13120
▁governação	-13121
▁habitación	-13122
▁infeccións	-13123
▁inspirados	-13124
▁interessar	-13125
▁isolamento	-13126
▁lindamente	-13127
▁orçamentos	-13128
▁pagamentos	-13129
▁potenciais	-13130
▁relatórios	-13131
▁satisfação	-13132
▁seriamente	-13133
▁significam	-13134
▁sufrimento	-13135
▁telescopio	-13136
▁tentativas	-13137
▁testemunho	-13138
▁vendedores	-13139
▁Encontrámos	-13140
▁Shakespeare	-13141
▁competência	-13142
▁compreendia	-13143
▁conseguisse	-13144
▁construindo	-13145
▁desaparecem	-13146
▁enfermeiras	-13147
▁filantropia	-13148
▁helicóptero	-13149
▁humanitário	-13150
▁interacções	-13151
▁perguntámos	-13152
▁seguramente	-13153
▁socialmente	-13154
▁sofisticado	-13155
▁telefónicas	-13156
▁tempestades	-13157
▁trabalharam	-13158
▁aparecimento	-13159
▁disponibiliz	-13160
▁relacionados	-13161
▁reverberação	-13162
▁ultravioleta	-13163
▁biotecnologia	-13164
▁discriminação	-13165
▁drasticamente	-13166
▁evidentemente	-13167
▁extrovertidos	-13168
▁habitualmente	-13169
▁inacreditável	-13170
▁infinitamente	-13171
▁institucional	-13172
▁aleatoriamente	-13173
▁conseguiríamos	-13174
▁surpreendentes	-13175
▁relacionamentos	-13176
▁simultaneamente	-13177
EA	-13178
IC	-13179
my	-13180
tz	-13181
ue	-13182
wi	-13183
ye	-13184
edy	-13185
hal	-13186
ilt	-13187
iné	-13188
iri	-13189
itz	-13190
lho	-13191
ody	-13192
olé	-13193
pet	-13194
río	-13195
uel	-13196
uti	-13197
vaz	-13198
way	-13199
ênd	-13200
órn	-13201
▁3,	-13202
▁44	-13203
▁85	-13204
▁AK	-13205
▁Ai	-13206
▁Ax	-13207
▁Di	-13208
▁HG	-13209
▁Ju	-13210
▁Ku	-13211
▁SP	-13212
▁TB	-13213
▁UU	-13214
▁Ul	-13215
▁eB	-13216
▁fã	-13217
▁mó	-13218
▁nó	-13219
▁ta	-13220
Rabb	-13221
acci	-13222
ager	-13223
agon	-13224
alog	-13225
alor	-13226
anes	-13227
aría	-13228
avas	-13229
avor	-13230
cent	-13231
ecom	-13232
elle	-13233
elly	-13234
eoff	-13235
esen	-13236
etic	-13237
ibon	-13238
icul	-13239
idou	-13240
ight	-13241
ilia	-13242
ingu	-13243
iven	-13244
iñas	-13245
meia	-13246
omon	-13247
oton	-13248
pará	-13249
pler	-13250
rate	-13251
tese	-13252
tora	-13253
usor	-13254
ácia	-13255
▁192	-13256
▁404	-13257
▁Aud	-13258
▁Aut	-13259
▁Daí	-13260
▁Doc	-13261
▁Fey	-13262
▁Fri	-13263
▁Him	-13264
▁Kar	-13265
▁Kev	-13266
▁Lou	-13267
▁Max	-13268
▁Mon	-13269
▁Mun	-13270
▁Paz	-13271
▁Reb	-13272
▁Sor	-13273
▁Tas	-13274
▁Vas	-13275
▁Vem	-13276
▁ame	-13277
▁bul	-13278
▁díg	-13279
▁gat	-13280
▁hax	-13281
▁kit	-13282
▁mei	-13283
▁mur	-13284
▁oso	-13285
▁ran	-13286
▁rim	-13287
▁sed	-13288
▁túm	-13289
▁zap	-13290
domin	-13291
grama	-13292
guste	-13293
hando	-13294
ingos	-13295
istan	-13296
logia	-13297
ordes	-13298
râneo	-13299
tando	-13300
taram	-13301
urado	-13302
çadas	-13303
úrbio	-13304
▁1989	-13305
▁2016	-13306
▁Ariz	-13307
▁Bell	-13308
▁Bern	-13309
▁Chef	-13310
▁Gert	-13311
▁Hall	-13312
▁Inde	-13313
▁Line	-13314
▁ONGs	-13315
▁País	-13316
▁Perf	-13317
▁Peço	-13318
▁Post	-13319
▁Roma	-13320
▁Ross	-13321
▁Russ	-13322
▁Shar	-13323
▁Sher	-13324
▁aban	-13325
▁afog	-13326
▁apet	-13327
▁blog	-13328
▁chea	-13329
▁cord	-13330
▁coro	-13331
▁crea	-13332
▁deca	-13333
▁diam	-13334
▁embl	-13335
▁fert	-13336
▁firm	-13337
▁fuga	-13338
▁gala	-13339
▁híbr	-13340
▁irra	-13341
▁late	-13342
▁lido	-13343
▁malo	-13344
▁ouço	-13345
▁prós	-13346
▁rumo	-13347
▁secu	-13348
▁sost	-13349
▁surf	-13350
▁tamb	-13351
▁urso	-13352
▁vaga	-13353
▁vent	-13354
▁válv	-13355
▁árdu	-13356
aduras	-13357
bergue	-13358
ecções	-13359
enções	-13360
essões	-13361
etores	-13362
icámos	-13363
itório	-13364
nética	-13365
radora	-13366
rática	-13367
áronse	-13368
ública	-13369
▁Alice	-13370
▁Aliás	-13371
▁Artes	-13372
▁Canto	-13373
▁Corre	-13374
▁Diego	-13375
▁Elvis	-13376
▁Envol	-13377
▁Fibon	-13378
▁Geoff	-13379
▁Hanna	-13380
▁Idade	-13381
▁Leste	-13382
▁Misso	-13383
▁Oeste	-13384
▁Rapar	-13385
▁Sabia	-13386
▁Sandy	-13387
▁Sarah	-13388
▁Senho	-13389
▁Stein	-13390
▁Tendo	-13391
▁agard	-13392
▁alarm	-13393
▁aliás	-13394
▁anima	-13395
▁arder	-13396
▁asilo	-13397
▁atrac	-13398
▁atrai	-13399
▁cauda	-13400
▁cenas	-13401
▁chapé	-13402
▁cobre	-13403
▁dadas	-13404
▁debil	-13405
▁deixá	-13406
▁drama	-13407
▁edito	-13408
▁emerx	-13409
▁fezes	-13410
▁filas	-13411
▁fique	-13412
▁fosen	-13413
▁gener	-13414
▁golfe	-13415
▁irreg	-13416
▁irrig	-13417
▁laran	-13418
▁maçãs	-13419
▁mistu	-13420
▁polím	-13421
▁posse	-13422
▁proba	-13423
▁puido	-13424
▁saiba	-13425
▁torre	-13426
▁trilh	-13427
▁ursos	-13428
▁viaxe	-13429
▁virou	-13430
▁vosas	-13431
▁Óscar	-13432
▁ícone	-13433
acional	-13434
ionário	-13435
ogramas	-13436
viética	-13437
ándonos	-13438
ângulos	-13439
▁Albert	-13440
▁Costum	-13441
▁Decidi	-13442
▁Edward	-13443
▁Joshua	-13444
▁Kepler	-13445
▁Metade	-13446
▁Odisse	-13447
▁Quatro	-13448
▁Repres	-13449
▁Sabiam	-13450
▁alívio	-13451
▁aposta	-13452
▁aposto	-13453
▁calend	-13454
▁causam	-13455
▁cheira	-13456
▁cineas	-13457
▁cirúrg	-13458
▁colher	-13459
▁compat	-13460
▁custam	-13461
▁dental	-13462
▁desvan	-13463
▁divide	-13464
▁durado	-13465
▁espess	-13466
▁establ	-13467
▁festas	-13468
▁filtro	-13469
▁formid	-13470
▁furios	-13471
▁gerais	-13472
▁gémeos	-13473
▁incend	-13474
▁incont	-13475
▁infect	-13476
▁inflam	-13477
▁isolar	-13478
▁lacuna	-13479
▁matriz	-13480
▁mestre	-13481
▁montón	-13482
▁máxima	-13483
▁músico	-13484
▁oposta	-13485
▁piscar	-13486
▁podían	-13487
▁poeira	-13488
▁poesía	-13489
▁praias	-13490
▁pronta	-13491
▁prédio	-13492
▁póster	-13493
▁queixa	-13494
▁reconf	-13495
▁resumo	-13496
▁sintam	-13497
▁subtis	-13498
▁sucess	-13499
▁tartar	-13500
▁tentem	-13501
▁tintas	-13502
▁toalha	-13503
▁trasei	-13504
▁urbana	-13505
▁venham	-13506
▁visões	-13507
▁álcool	-13508
▁Aperceb	-13509
▁Arizona	-13510
▁Auguste	-13511
▁Clinton	-13512
▁Irlanda	-13513
▁Justine	-13514
▁Justiça	-13515
▁Mentres	-13516
▁Pensava	-13517
▁Podedes	-13518
▁Projeto	-13519
▁TEDTalk	-13520
▁aceitei	-13521
▁acostum	-13522
▁agência	-13523
▁armazém	-13524
▁arquite	-13525
▁cativos	-13526
▁clínico	-13527
▁compass	-13528
▁comprou	-13529
▁costume	-13530
▁decidín	-13531
▁dedicar	-13532
▁deixava	-13533
▁descobr	-13534
▁dicindo	-13535
▁entrega	-13536
▁enzimas	-13537
▁escasse	-13538
▁escreve	-13539
▁esperem	-13540
▁estando	-13541
▁estranh	-13542
▁evoluiu	-13543
▁falarem	-13544
▁façamos	-13545
▁ficaria	-13546
▁fricção	-13547
▁gravado	-13548
▁histori	-13549
▁incapaz	-13550
▁inferno	-13551
▁lançado	-13552
▁malaria	-13553
▁mantido	-13554
▁melhora	-13555
▁memoria	-13556
▁mudámos	-13557
▁multina	-13558
▁mutação	-13559
▁olhemos	-13560
▁presión	-13561
▁pretend	-13562
▁propias	-13563
▁puderem	-13564
▁pusemos	-13565
▁racismo	-13566
▁recolha	-13567
▁recorde	-13568
▁relógio	-13569
▁reorgan	-13570
▁sexting	-13571
▁sugeriu	-13572
▁termina	-13573
▁tomadas	-13574
▁tomaram	-13575
▁utiliza	-13576
▁viñetas	-13577
▁vínculo	-13578
▁zangado	-13579
cionistas	-13580
ologistas	-13581
▁Constitu	-13582
▁Independ	-13583
▁Jennifer	-13584
▁Missouri	-13585
▁Passámos	-13586
▁Perdemos	-13587
▁Tanzânia	-13588
▁abandono	-13589
▁afetadas	-13590
▁ajudarem	-13591
▁aprendeu	-13592
▁armadura	-13593
▁arrancar	-13594
▁arriscar	-13595
▁atitudes	-13596
▁atraente	-13597
▁bacteria	-13598
▁baseadas	-13599
▁cachorro	-13600
▁cavernas	-13601
▁collemos	-13602
▁compañía	-13603
▁comprend	-13604
▁concerto	-13605
▁concurso	-13606
▁conduzem	-13607
▁converte	-13608
▁descrito	-13609
▁desejava	-13610
▁destacar	-13611
▁disposto	-13612
▁empregar	-13613
▁enviamos	-13614
▁escrevem	-13615
▁espalhou	-13616
▁esqueçam	-13617
▁estúpida	-13618
▁executar	-13619
▁extremos	-13620
▁forçados	-13621
▁ganhamos	-13622
▁garantia	-13623
▁gastamos	-13624
▁habitats	-13625
▁indícios	-13626
▁inovador	-13627
▁instinto	-13628
▁interese	-13629
▁invasiva	-13630
▁mediante	-13631
▁membrana	-13632
▁nascemos	-13633
▁noticias	-13634
▁partilhá	-13635
▁passando	-13636
▁passarem	-13637
▁pensades	-13638
▁percorre	-13639
▁porcenta	-13640
▁pressões	-13641
▁probable	-13642
▁projeção	-13643
▁puidemos	-13644
▁reparado	-13645
▁replicar	-13646
▁reproduz	-13647
▁síntomas	-13648
▁tornamos	-13649
▁tornámos	-13650
▁xemelgos	-13651
iabilidade	-13652
▁Atlântico	-13653
▁Fibonacci	-13654
▁Indonésia	-13655
▁adaptação	-13656
▁arredores	-13657
▁benefício	-13658
▁biolóxica	-13659
▁campanhas	-13660
▁centrifug	-13661
▁cidadania	-13662
▁começarem	-13663
▁contracep	-13664
▁contrario	-13665
▁cresceram	-13666
▁critérios	-13667
▁crocodilo	-13668
▁decisións	-13669
▁desastres	-13670
▁eléctrica	-13671
▁estaremos	-13672
▁exercicio	-13673
▁feminista	-13674
▁genocídio	-13675
▁impulsion	-13676
▁inspirado	-13677
▁magnético	-13678
▁magnífico	-13679
▁masculino	-13680
▁microbios	-13681
▁milleiros	-13682
▁paralisia	-13683
▁pioneiros	-13684
▁preocupem	-13685
▁produzido	-13686
▁projeções	-13687
▁protecção	-13688
▁recompens	-13689
▁reimplant	-13690
▁religiosa	-13691
▁repararam	-13692
▁sabedoría	-13693
▁selvagens	-13694
▁situación	-13695
▁treinador	-13696
▁utilizada	-13697
▁valorizar	-13698
itariamente	-13699
▁Industrial	-13700
▁Tecnologia	-13701
▁abordagens	-13702
▁administra	-13703
▁aprenderem	-13704
▁associados	-13705
▁casamentos	-13706
▁circulação	-13707
▁conclusões	-13708
▁conectados	-13709
▁confiantes	-13710
▁distribuir	-13711
▁eletrónico	-13712
▁encontrava	-13713
▁equilibrar	-13714
▁estrutural	-13715
▁faculdades	-13716
▁flutuações	-13717
▁fotografar	-13718
▁hambúrguer	-13719
▁inesperado	-13720
▁inventores	-13721
▁israelitas	-13722
▁objectivos	-13723
▁pensávamos	-13724
▁permaneceu	-13725
▁predadores	-13726
▁procurando	-13727
▁progressos	-13728
▁protótipos	-13729
▁psicólogos	-13730
▁quarteirão	-13731
▁repórteres	-13732
▁subjacente	-13733
▁televisión	-13734
▁tempestade	-13735
▁terrestres	-13736
▁vizinhança	-13737
▁Construímos	-13738
▁acampamento	-13739
▁antidepress	-13740
▁assustadora	-13741
▁centímetros	-13742
▁conferencia	-13743
▁considerada	-13744
▁enfermeiros	-13745
▁escravatura	-13746
▁extremidade	-13747
▁fundamentos	-13748
▁gargalladas	-13749
▁imaxinación	-13750
▁longevidade	-13751
▁moleculares	-13752
▁multiplicar	-13753
▁partilhados	-13754
▁preconceito	-13755
▁programados	-13756
▁programável	-13757
▁smartphones	-13758
▁coincidência	-13759
▁colaborativo	-13760
▁condicionado	-13761
▁configuração	-13762
▁consideradas	-13763
▁creatividade	-13764
▁entusiasmada	-13765
▁instalacións	-13766
▁licenciatura	-13767
▁neurociência	-13768
▁questionário	-13769
▁surpreendido	-13770
▁autenticidade	-13771
▁flexibilidade	-13772
▁identificação	-13773
▁sensibilidade	-13774
▁significativos	-13775
▁estadounidenses	-13776
GO	-13777
IP	-13778
MA	-13779
NG	-13780
cl	-13781
çá	-13782
ôn	-13783
ain	-13784
ake	-13785
apé	-13786
aqu	-13787
azz	-13788
cto	-13789
eil	-13790
erd	-13791
erm	-13792
eth	-13793
fim	-13794
inf	-13795
ism	-13796
isp	-13797
out	-13798
ped	-13799
sey	-13800
tea	-13801
▁33	-13802
▁34	-13803
▁42	-13804
▁97	-13805
▁AG	-13806
▁Cá	-13807
▁HP	-13808
▁MW	-13809
▁RV	-13810
▁ST	-13811
▁pê	-13812
▁sk	-13813
conj	-13814
ejar	-13815
erou	-13816
etal	-13817
gate	-13818
ires	-13819
iria	-13820
itro	-13821
içam	-13822
odão	-13823
olle	-13824
onda	-13825
ouqu	-13826
paço	-13827
pint	-13828
plex	-13829
poño	-13830
real	-13831
remo	-13832
rost	-13833
udos	-13834
ágio	-13835
élia	-13836
íbia	-13837
▁180	-13838
▁All	-13839
▁Bat	-13840
▁Cou	-13841
▁Dep	-13842
▁Dos	-13843
▁HIV	-13844
▁Hot	-13845
▁Isa	-13846
▁LOL	-13847
▁McK	-13848
▁NSA	-13849
▁Net	-13850
▁Oak	-13851
▁Pan	-13852
▁Ret	-13853
▁She	-13854
▁Sra	-13855
▁TBP	-13856
▁Tah	-13857
▁Tar	-13858
▁Tri	-13859
▁Van	-13860
▁Vic	-13861
▁Voa	-13862
▁Voy	-13863
▁Wil	-13864
▁apt	-13865
▁bin	-13866
▁cim	-13867
▁cob	-13868
▁enx	-13869
▁fir	-13870
▁flo	-13871
▁gav	-13872
▁jul	-13873
▁leu	-13874
▁láp	-13875
▁meg	-13876
▁qui	-13877
▁sop	-13878
▁tip	-13879
▁táx	-13880
▁xef	-13881
adequ	-13882
afric	-13883
ariam	-13884
ceton	-13885
enter	-13886
gadas	-13887
hahid	-13888
iclop	-13889
idado	-13890
ornia	-13891
perim	-13892
ritos	-13893
tuais	-13894
vente	-13895
watts	-13896
xemos	-13897
ábame	-13898
íduos	-13899
▁1984	-13900
▁1995	-13901
▁2020	-13902
▁Alan	-13903
▁Amer	-13904
▁Berk	-13905
▁Chám	-13906
▁City	-13907
▁Coll	-13908
▁Devo	-13909
▁Educ	-13910
▁Faço	-13911
▁Hond	-13912
▁Hosp	-13913
▁Kenn	-13914
▁Pont	-13915
▁Prem	-13916
▁Proc	-13917
▁Rach	-13918
▁Test	-13919
▁Tora	-13920
▁Toro	-13921
▁Trou	-13922
▁abut	-13923
▁ador	-13924
▁alic	-13925
▁avoa	-13926
▁cano	-13927
▁cela	-13928
▁chic	-13929
▁coti	-13930
▁diri	-13931
▁dita	-13932
▁eBay	-13933
▁evac	-13934
▁flui	-13935
▁foie	-13936
▁fral	-13937
▁fria	-13938
▁glor	-13939
▁lema	-13940
▁maio	-13941
▁mast	-13942
▁osos	-13943
▁oído	-13944
▁pand	-13945
▁papa	-13946
▁pará	-13947
▁poli	-13948
▁ress	-13949
▁revi	-13950
▁rins	-13951
▁saio	-13952
▁stop	-13953
▁suma	-13954
▁tren	-13955
▁tron	-13956
▁util	-13957
▁xard	-13958
bólico	-13959
eriram	-13960
inador	-13961
itavam	-13962
izámos	-13963
landia	-13964
vindos	-13965
âncton	-13966
ósitos	-13967
▁Bangl	-13968
▁Canal	-13969
▁Estat	-13970
▁Fénix	-13971
▁Harry	-13972
▁Helen	-13973
▁Jones	-13974
▁Levei	-13975
▁Levou	-13976
▁adren	-13977
▁amava	-13978
▁arcos	-13979
▁ativa	-13980
▁atuar	-13981
▁bocas	-13982
▁camis	-13983
▁carav	-13984
▁cargo	-13985
▁cerne	-13986
▁cinta	-13987
▁comen	-13988
▁crias	-13989
▁davam	-13990
▁densa	-13991
▁desac	-13992
▁desex	-13993
▁dinám	-13994
▁doado	-13995
▁drone	-13996
▁emite	-13997
▁enrol	-13998
▁estag	-13999
▁estea	-14000
▁falan	-14001
▁fardo	-14002
▁fatal	-14003
▁feste	-14004
▁furac	-14005
▁galax	-14006
▁grato	-14007
▁gruta	-14008
▁imort	-14009
▁inqui	-14010
▁intre	-14011
▁leito	-14012
▁levan	-14013
▁libre	-14014
▁lidam	-14015
▁matou	-14016
▁medra	-14017
▁merda	-14018
▁nasce	-14019
▁notei	-14020
▁oprim	-14021
▁parei	-14022
▁perpé	-14023
▁pondo	-14024
▁pregu	-14025
▁remix	-14026
▁revol	-14027
▁sinta	-14028
▁sodes	-14029
▁tomei	-14030
▁torne	-14031
▁vagas	-14032
▁valem	-14033
▁veñen	-14034
▁vigor	-14035
▁vinda	-14036
▁vinte	-14037
endente	-14038
itáveis	-14039
umático	-14040
étricas	-14041
▁10.000	-14042
▁Donald	-14043
▁Haverá	-14044
▁Johnny	-14045
▁Partil	-14046
▁Virgin	-14047
▁Vouvos	-14048
▁aderir	-14049
▁afetam	-14050
▁agarra	-14051
▁amendo	-14052
▁apagar	-14053
▁atores	-14054
▁biomas	-14055
▁camisa	-14056
▁chaves	-14057
▁chefes	-14058
▁claros	-14059
▁corria	-14060
▁cuarto	-14061
▁desceu	-14062
▁descol	-14063
▁dicían	-14064
▁difund	-14065
▁dirige	-14066
▁disfar	-14067
▁dissem	-14068
▁disser	-14069
▁edific	-14070
▁edição	-14071
▁eletro	-14072
▁escand	-14073
▁escuta	-14074
▁espada	-14075
▁falsas	-14076
▁fóssil	-14077
▁gaiola	-14078
▁germes	-14079
▁higien	-14080
▁hotéis	-14081
▁ideais	-14082
▁interc	-14083
▁involu	-14084
▁juízes	-14085
▁maluco	-14086
▁manada	-14087
▁meiran	-14088
▁mínima	-14089
▁oferta	-14090
▁olhava	-14091
▁orelha	-14092
▁origin	-14093
▁pacote	-14094
▁papéis	-14095
▁plasma	-14096
▁pratel	-14097
▁prende	-14098
▁pretos	-14099
▁provém	-14100
▁queima	-14101
▁rodeia	-14102
▁rotina	-14103
▁russos	-14104
▁sorrir	-14105
▁séries	-14106
▁sólido	-14107
▁transg	-14108
▁tweets	-14109
▁vislum	-14110
▁vissem	-14111
▁óptimo	-14112
ernidade	-14113
ificámos	-14114
ministro	-14115
ográfico	-14116
vivencia	-14117
▁Aquelas	-14118
▁Consigo	-14119
▁Direito	-14120
▁Experim	-14121
▁General	-14122
▁Kennedy	-14123
▁Libéria	-14124
▁Permite	-14125
▁Podería	-14126
▁Project	-14127
▁Quizais	-14128
▁Recordo	-14129
▁Solomon	-14130
▁Teremos	-14131
▁Toronto	-14132
▁Ushahid	-14133
▁Velaquí	-14134
▁absurdo	-14135
▁ademais	-14136
▁ambição	-14137
▁andarem	-14138
▁andavam	-14139
▁atrasar	-14140
▁auditor	-14141
▁autocon	-14142
▁bondade	-14143
▁cavalos	-14144
▁coleção	-14145
▁controv	-14146
▁coopera	-14147
▁definem	-14148
▁dereita	-14149
▁desport	-14150
▁destrut	-14151
▁dicimos	-14152
▁dificil	-14153
▁discord	-14154
▁diários	-14155
▁empezar	-14156
▁encarar	-14157
▁enlouqu	-14158
▁entendo	-14159
▁equivoc	-14160
▁esforzo	-14161
▁estende	-14162
▁europeu	-14163
▁falavam	-14164
▁fechada	-14165
▁federal	-14166
▁fermoso	-14167
▁herança	-14168
▁honesto	-14169
▁império	-14170
▁iniciei	-14171
▁invasão	-14172
▁liberta	-14173
▁manteve	-14174
▁medimos	-14175
▁milénio	-14176
▁mochila	-14177
▁mudamos	-14178
▁mudaria	-14179
▁ocupado	-14180
▁orelhas	-14181
▁pasaría	-14182
▁permita	-14183
▁pressup	-14184
▁profeta	-14185
▁prontas	-14186
▁quantia	-14187
▁quintas	-14188
▁solidão	-14189
▁tiramos	-14190
▁tirando	-14191
▁tribais	-14192
▁tristes	-14193
▁urbanas	-14194
icultores	-14195
tenimento	-14196
▁Devíamos	-14197
▁Gertrude	-14198
▁Honduras	-14199
▁Observem	-14200
▁Voltando	-14201
▁Zelândia	-14202
▁acordado	-14203
▁acústica	-14204
▁afrontar	-14205
▁altitude	-14206
▁amadores	-14207
▁anunciou	-14208
▁aplicada	-14209
▁asiático	-14210
▁ativismo	-14211
▁autistas	-14212
▁autónomo	-14213
▁calorias	-14214
▁castanha	-14215
▁centavos	-14216
▁chamavam	-14217
▁chegando	-14218
▁conceção	-14219
▁conexión	-14220
▁controle	-14221
▁convidou	-14222
▁deixámos	-14223
▁derreter	-14224
▁descobre	-14225
▁distrito	-14226
▁embarcar	-14227
▁empurrar	-14228
▁ensinada	-14229
▁envolvem	-14230
▁espelhos	-14231
▁fechados	-14232
▁foguetão	-14233
▁formando	-14234
▁formigas	-14235
▁gratuito	-14236
▁guitarra	-14237
▁honestos	-14238
▁inclusão	-14239
▁inconven	-14240
▁infinita	-14241
▁inocente	-14242
▁inteiras	-14243
▁intervir	-14244
▁isolados	-14245
▁juntamos	-14246
▁lâmpadas	-14247
▁mantemos	-14248
▁mecânico	-14249
▁migração	-14250
▁minorias	-14251
▁montañas	-14252
▁munições	-14253
▁novembro	-14254
▁obsessão	-14255
▁patrocin	-14256
▁perdidos	-14257
▁permitam	-14258
▁protesto	-14259
▁quântico	-14260
▁reformar	-14261
▁resíduos	-14262
▁reuniram	-14263
▁saibamos	-14264
▁sectores	-14265
▁sensível	-14266
▁sentiram	-14267
▁separado	-14268
▁seríamos	-14269
▁soamente	-14270
▁tecnolóx	-14271
▁tonelada	-14272
▁tranquil	-14273
▁vendidos	-14274
▁vitamina	-14275
▁Argentina	-14276
▁Nathaniel	-14277
▁Princeton	-14278
▁Segurança	-14279
▁afastados	-14280
▁afectadas	-14281
▁amplitude	-14282
▁armazenar	-14283
▁arrecifes	-14284
▁beneficia	-14285
▁carreiras	-14286
▁colectiva	-14287
▁comecemos	-14288
▁começavam	-14289
▁condenado	-14290
▁confiamos	-14291
▁constitui	-14292
▁constrang	-14293
▁contratar	-14294
▁converteu	-14295
▁demonstra	-14296
▁depresión	-14297
▁envolvida	-14298
▁esperando	-14299
▁espessura	-14300
▁existisse	-14301
▁gostariam	-14302
▁gramática	-14303
▁hidróxeno	-14304
▁homicídio	-14305
▁humildade	-14306
▁idênticos	-14307
▁imaginado	-14308
▁impressos	-14309
▁indígenas	-14310
▁infección	-14311
▁inovadora	-14312
▁instituto	-14313
▁inventado	-14314
▁maximizar	-14315
▁mecânicas	-14316
▁mostramos	-14317
▁parcerias	-14318
▁persuadir	-14319
▁pirataria	-14320
▁portáteis	-14321
▁preparada	-14322
▁profundos	-14323
▁proibição	-14324
▁psicólogo	-14325
▁publicada	-14326
▁quisessem	-14327
▁revelação	-14328
▁sensíveis	-14329
▁utilizado	-14330
▁violentos	-14331
▁Associação	-14332
▁California	-14333
▁Considerem	-14334
▁aborrecido	-14335
▁adicionais	-14336
▁adrenalina	-14337
▁altruístas	-14338
▁apercebemo	-14339
▁argumentar	-14340
▁assistente	-14341
▁bailarinos	-14342
▁beneficios	-14343
▁brinquedos	-14344
▁consumidor	-14345
▁contextual	-14346
▁corredores	-14347
▁diplomacia	-14348
▁eléctricos	-14349
▁escaleiras	-14350
▁existencia	-14351
▁influencia	-14352
▁interativo	-14353
▁intrigante	-14354
▁livremente	-14355
▁marcadores	-14356
▁narrativas	-14357
▁palestinos	-14358
▁perfurados	-14359
▁permitindo	-14360
▁publicados	-14361
▁realização	-14362
▁requisitos	-14363
▁resolvidos	-14364
▁sequenciar	-14365
▁submarinos	-14366
▁Descobriram	-14367
▁aprendermos	-14368
▁classificar	-14369
▁comunitário	-14370
▁construções	-14371
▁convincente	-14372
▁diapositiva	-14373
▁distribuído	-14374
▁educacional	-14375
▁electrónica	-14376
▁empresarial	-14377
▁entendermos	-14378
▁frequências	-14379
▁importancia	-14380
▁iniciativas	-14381
▁intersecção	-14382
▁minimamente	-14383
▁necesitamos	-14384
▁neurogénese	-14385
▁passageiros	-14386
▁performance	-14387
▁pornografia	-14388
▁proximidade	-14389
▁responderam	-14390
▁secundários	-14391
▁sofisticada	-14392
▁traballamos	-14393
▁adolescência	-14394
▁conseguíamos	-14395
▁curiosamente	-14396
▁determinação	-14397
▁experimental	-14398
▁fragmentação	-14399
▁gradualmente	-14400
▁inconsciente	-14401
▁intelixentes	-14402
▁intensamente	-14403
▁mosquiteiros	-14404
▁problemático	-14405
▁sorprendente	-14406
▁cualificación	-14407
▁desconhecidos	-14408
▁diagnosticado	-14409
▁gratuitamente	-14410
▁procedimentos	-14411
▁supervivencia	-14412
▁regulamentação	-14413
▁impressionantes	-14414
▁inevitavelmente	-14415
70	-14416
80	-14417
AC	-14418
BI	-14419
GF	-14420
NA	-14421
ao	-14422
bs	-14423
ek	-14424
fi	-14425
pr	-14426
íz	-14427
ôm	-14428
aga	-14429
bat	-14430
cho	-14431
cib	-14432
cro	-14433
cuo	-14434
eci	-14435
ett	-14436
fre	-14437
hoo	-14438
ilv	-14439
ink	-14440
ish	-14441
lay	-14442
rez	-14443
roc	-14444
sag	-14445
ulp	-14446
umi	-14447
çou	-14448
únt	-14449
▁39	-14450
▁4.	-14451
▁52	-14452
▁53	-14453
▁74	-14454
▁AM	-14455
▁CP	-14456
▁Du	-14457
▁IW	-14458
▁LT	-14459
▁Ri	-14460
▁TK	-14461
▁Ze	-14462
▁pú	-14463
▁xo	-14464
abas	-14465
asen	-14466
cede	-14467
cept	-14468
cipe	-14469
ectu	-14470
edor	-14471
eley	-14472
fiti	-14473
ican	-14474
ield	-14475
ille	-14476
iten	-14477
ixar	-14478
izas	-14479
leto	-14480
lock	-14481
ocel	-14482
ogen	-14483
oras	-14484
oros	-14485
quez	-14486
quím	-14487
raig	-14488
rano	-14489
rump	-14490
rupo	-14491
stem	-14492
talm	-14493
taña	-14494
ucky	-14495
ília	-14496
ólio	-14497
▁1,3	-14498
▁193	-14499
▁Art	-14500
▁Blo	-14501
▁Bot	-14502
▁Bra	-14503
▁Cur	-14504
▁Deu	-14505
▁Dru	-14506
▁FBI	-14507
▁Gei	-14508
▁IGF	-14509
▁Irm	-14510
▁Jud	-14511
▁Las	-14512
▁Mah	-14513
▁McD	-14514
▁Moz	-14515
▁Ore	-14516
▁Pad	-14517
▁Qué	-14518
▁Saf	-14519
▁Toy	-14520
▁Tão	-14521
▁bip	-14522
▁bla	-14523
▁duv	-14524
▁elo	-14525
▁exa	-14526
▁gor	-14527
▁het	-14528
▁hie	-14529
▁jar	-14530
▁lun	-14531
▁mág	-14532
▁oit	-14533
▁onc	-14534
▁pio	-14535
▁piz	-14536
▁píl	-14537
▁rol	-14538
▁sav	-14539
▁veh	-14540
▁vil	-14541
▁xam	-14542
▁Índ	-14543
▁ést	-14544
cioso	-14545
copia	-14546
ecemo	-14547
eller	-14548
endar	-14549
endor	-14550
gamos	-14551
givas	-14552
guson	-14553
havam	-14554
iguel	-14555
iriam	-14556
itney	-14557
ivind	-14558
ordem	-14559
ranse	-14560
ridas	-14561
rosão	-14562
ución	-14563
ulose	-14564
ulsão	-14565
álise	-14566
ánica	-14567
énios	-14568
íblia	-14569
ísimo	-14570
ónimo	-14571
órdia	-14572
úncia	-14573
▁1991	-14574
▁1999	-14575
▁Ajud	-14576
▁Cabo	-14577
▁Canc	-14578
▁Coch	-14579
▁Colo	-14580
▁Evan	-14581
▁Falo	-14582
▁Hill	-14583
▁Igre	-14584
▁Kong	-14585
▁Milo	-14586
▁Nalg	-14587
▁Orle	-14588
▁Phil	-14589
▁Plan	-14590
▁Pola	-14591
▁Publ	-14592
▁Sete	-14593
▁Soci	-14594
▁TEDx	-14595
▁Titã	-14596
▁Trib	-14597
▁Turk	-14598
▁Vêem	-14599
▁acom	-14600
▁afeg	-14601
▁agem	-14602
▁ando	-14603
▁apod	-14604
[...]
