<unk>	0
<s>	0
</s>	0
▁t	-0
in	-1
▁a	-2
er	-3
▁b	-4
▁.	-5
▁,	-6
▁th	-7
ar	-8
▁o	-9
an	-10
▁s	-11
en	-12
▁d	-13
▁i	-14
▁w	-15
at	-16
▁&	-17
ir	-18
or	-19
▁the	-20
▁y	-21
nd	-22
▁h	-23
▁g	-24
ap	-25
le	-26
▁k	-27
al	-28
▁m	-29
os	-30
on	-31
re	-32
ou	-33
ot	-34
▁c	-35
il	-36
ve	-37
▁p	-38
▁f	-39
apos	-40
es	-41
lar	-42
ed	-43
ak	-44
ing	-45
as	-46
▁to	-47
▁in	-48
el	-49
is	-50
im	-51
ay	-52
qu	-53
it	-54
▁bir	-55
ın	-56
ek	-57
et	-58
▁of	-59
quot	-60
un	-61
▁n	-62
▁I	-63
am	-64
ad	-65
▁and	-66
▁A	-67
▁B	-68
iz	-69
om	-70
▁bu	-71
ik	-72
▁l	-73
▁that	-74
ic	-75
ler	-76
▁is	-77
▁e	-78
▁ol	-79
yor	-80
us	-81
▁ve	-82
ur	-83
▁ç	-84
ey	-85
ec	-86
ac	-87
▁you	-88
▁v	-89
▁wh	-90
▁T	-91
ol	-92
ow	-93
ün	-94
de	-95
▁on	-96
▁it	-97
▁de	-98
ion	-99
um	-100
ut	-101
▁S	-102
ım	-103
▁we	-104
ent	-105
ok	-106
ly	-107
aş	-108
ere	-109
em	-110
ab	-111
▁re	-112
▁al	-113
▁ş	-114
ır	-115
▁da	-116
ız	-117
di	-118
▁an	-119
lı	-120
ul	-121
ter	-122
ce	-123
gh	-124
du	-125
▁Th	-126
▁be	-127
▁And	-128
id	-129
▁?	-130
ro	-131
ld	-132
ış	-133
▁ö	-134
▁this	-135
az	-136
iy	-137
▁st	-138
ver	-139
iyor	-140
▁gö	-141
▁do	-142
iş	-143
ık	-144
▁iç	-145
uz	-146
ınd	-147
▁—	-148
▁for	-149
▁W	-150
▁ha	-151
la	-152
st	-153
ıl	-154
ra	-155
op	-156
üz	-157
▁için	-158
se	-159
▁ne	-160
and	-161
▁was	-162
▁ar	-163
▁yap	-164
▁or	-165
▁as	-166
▁H	-167
ma	-168
▁se	-169
▁)	-170
▁(	-171
ith	-172
ine	-173
ah	-174
▁are	-175
▁Bu	-176
li	-177
▁u	-178
▁r	-179
th	-180
ally	-181
▁M	-182
ağ	-183
▁:	-184
▁ver	-185
▁can	-186
ini	-187
▁with	-188
ib	-189
ların	-190
▁have	-191
▁ab	-192
ind	-193
▁V	-194
▁Y	-195
▁z	-196
▁en	-197
if	-198
▁D	-199
▁at	-200
▁go	-201
ük	-202
▁they	-203
ür	-204
ant	-205
ation	-206
▁G	-207
ları	-208
üş	-209
ch	-210
ığ	-211
ist	-212
▁N	-213
out	-214
unu	-215
▁oldu	-216
ile	-217
od	-218
ct	-219
▁pro	-220
ght	-221
▁E	-222
ers	-223
san	-224
use	-225
ha	-226
▁şey	-227
▁O	-228
ilir	-229
▁com	-230
üm	-231
▁wor	-232
▁1	-233
▁K	-234
▁So	-235
▁so	-236
est	-237
ould	-238
▁he	-239
ive	-240
▁what	-241
▁ger	-242
ard	-243
iğ	-244
ında	-245
ge	-246
▁me	-247
▁çok	-248
▁not	-249
end	-250
▁değ	-251
▁about	-252
▁Ve	-253
▁sh	-254
▁ed	-255
art	-256
ust	-257
▁L	-258
ıyor	-259
lan	-260
▁et	-261
ip	-262
ell	-263
▁j	-264
▁C	-265
▁fr	-266
▁baş	-267
ill	-268
▁ex	-269
mek	-270
▁all	-271
alar	-272
▁daha	-273
iniz	-274
mak	-275
▁le	-276
▁my	-277
▁som	-278
▁her	-279
ig	-280
da	-281
imiz	-282
▁ch	-283
ını	-284
eler	-285
▁son	-286
▁bil	-287
yle	-288
te	-289
ore	-290
ike	-291
▁P	-292
ight	-293
▁pe	-294
▁var	-295
▁gör	-296
▁there	-297
aya	-298
▁olduğ	-299
▁insan	-300
ople	-301
iler	-302
▁con	-303
uş	-304
ect	-305
ure	-306
leri	-307
ası	-308
▁ben	-309
ity	-310
▁It	-311
▁people	-312
▁like	-313
ark	-314
▁tr	-315
ans	-316
▁one	-317
▁il	-318
▁gel	-319
ül	-320
▁lo	-321
▁from	-322
ast	-323
lam	-324
▁our	-325
▁get	-326
▁F	-327
ece	-328
▁ki	-329
ate	-330
ies	-331
uk	-332
▁bec	-333
▁olm	-334
▁kn	-335
inde	-336
▁sa	-337
▁ön	-338
ya	-339
▁but	-340
▁us	-341
▁İ	-342
den	-343
ada	-344
ink	-345
nda	-346
ear	-347
▁kar	-348
ibi	-349
▁out	-350
▁düş	-351
▁bü	-352
▁just	-353
▁sp	-354
ımız	-355
eb	-356
▁kad	-357
ta	-358
▁2	-359
▁su	-360
ause	-361
ıs	-362
aki	-363
▁if	-364
her	-365
larak	-366
ake	-367
öyle	-368
00	-369
▁We	-370
oc	-371
▁know	-372
tir	-373
ess	-374
og	-375
▁zam	-376
lem	-377
▁ev	-378
▁gibi	-379
ru	-380
▁ay	-381
ki	-382
▁..	-383
▁olarak	-384
▁But	-385
sel	-386
▁thing	-387
ort	-388
▁them	-389
▁ad	-390
▁The	-391
▁ge	-392
inin	-393
▁iş	-394
▁ist	-395
pp	-396
▁these	-397
ime	-398
▁...	-399
ci	-400
▁kon	-401
▁olan	-402
▁te	-403
▁up	-404
▁very	-405
▁think	-406
ound	-407
▁say	-408
ten	-409
▁who	-410
▁by	-411
▁değil	-412
çek	-413
ına	-414
▁biz	-415
ost	-416
abilir	-417
ich	-418
▁çal	-419
uy	-420
ide	-421
▁bun	-422
▁when	-423
▁see	-424
üç	-425
▁had	-426
▁act	-427
lay	-428
eki	-429
▁more	-430
▁going	-431
ack	-432
▁bo	-433
lu	-434
▁R	-435
▁because	-436
▁year	-437
iv	-438
▁yer	-439
▁Wh	-440
▁çalış	-441
tr	-442
diğ	-443
lık	-444
▁your	-445
▁ever	-446
ence	-447
▁would	-448
▁int	-449
acak	-450
dan	-451
▁Bir	-452
▁don	-453
all	-454
act	-455
our	-456
▁yaş	-457
▁kadar	-458
lik	-459
▁büy	-460
▁were	-461
▁zaman	-462
ca	-463
▁their	-464
ose	-465
▁un	-466
ame	-467
au	-468
▁some	-469
ous	-470
▁how	-471
ayı	-472
üre	-473
▁comp	-474
▁mu	-475
▁look	-476
itt	-477
ren	-478
▁gerçek	-479
▁kul	-480
kü	-481
hing	-482
fer	-483
▁which	-484
▁ile	-485
av	-486
▁sor	-487
tı	-488
▁work	-489
ön	-490
▁want	-491
▁really	-492
▁gen	-493
ually	-494
▁par	-495
▁tek	-496
▁hay	-497
▁pr	-498
me	-499
▁has	-500
▁yüz	-501
▁bak	-502
üyor	-503
eye	-504
ınız	-505
ından	-506
dı	-507
▁im	-508
reat	-509
ep	-510
yon	-511
▁Ç	-512
ang	-513
ild	-514
alk	-515
ghter	-516
eden	-517
▁per	-518
ew	-519
miş	-520
▁way	-521
▁world	-522
ize	-523
les	-524
ünkü	-525
▁time	-526
▁man	-527
res	-528
▁;	-529
▁iy	-530
▁düşün	-531
esi	-532
▁yar	-533
unuz	-534
led	-535
▁gr	-536
tır	-537
▁You	-538
ther	-539
▁Ş	-540
▁Al	-541
ough	-542
lara	-543
▁bel	-544
ment	-545
▁exp	-546
▁This	-547
▁then	-548
▁here	-549
▁Lau	-550
lad	-551
ace	-552
eş	-553
tığ	-554
ions	-555
af	-556
▁Laughter	-557
man	-558
▁J	-559
eri	-560
ong	-561
ıy	-562
▁qu	-563
ag	-564
▁şek	-565
▁his	-566
▁could	-567
nder	-568
▁into	-569
▁will	-570
▁den	-571
▁çık	-572
▁dün	-573
▁ya	-574
▁fark	-575
ər	-576
▁actually	-577
ob	-578
▁ama	-579
uyor	-580
app	-581
oğ	-582
▁har	-583
cı	-584
▁tar	-585
adece	-586
▁In	-587
▁ag	-588
▁büyük	-589
▁kullan	-590
▁♫	-591
ör	-592
▁kal	-593
▁hi	-594
ach	-595
ev	-596
▁doğ	-597
▁gerek	-598
orm	-599
ani	-600
ain	-601
▁bul	-602
▁years	-603
aç	-604
▁now	-605
mış	-606
▁dur	-607
▁aç	-608
▁where	-609
ken	-610
▁olduğunu	-611
▁did	-612
▁geç	-613
▁things	-614
▁other	-615
▁res	-616
iyorum	-617
acağ	-618
▁every	-619
asıl	-620
imdi	-621
▁top	-622
▁prob	-623
siniz	-624
▁yen	-625
ünd	-626
laş	-627
▁el	-628
▁ilg	-629
isi	-630
▁fir	-631
▁somet	-632
mer	-633
ff	-634
▁bunu	-635
▁Now	-636
ının	-637
▁inter	-638
▁U	-639
oun	-640
▁pl	-641
let	-642
▁sonra	-643
ical	-644
▁Ama	-645
▁iyi	-646
▁been	-647
▁bur	-648
▁part	-649
nol	-650
üc	-651
▁nasıl	-652
▁kur	-653
▁sah	-654
▁They	-655
▁make	-656
▁üz	-657
leş	-658
▁eğ	-659
▁yıl	-660
▁değiş	-661
▁than	-662
▁dif	-663
ice	-664
ana	-665
üğ	-666
▁bas	-667
ti	-668
▁need	-669
wo	-670
▁am	-671
▁göre	-672
lında	-673
ite	-674
▁dis	-675
ster	-676
▁happ	-677
ond	-678
unda	-679
inden	-680
▁hak	-681
▁start	-682
▁sağ	-683
▁öğ	-684
own	-685
▁sadece	-686
ili	-687
▁right	-688
▁şekil	-689
▁ro	-690
▁On	-691
tur	-692
ade	-693
imi	-694
▁no	-695
▁mo	-696
abil	-697
dır	-698
▁over	-699
iye	-700
▁yol	-701
▁ac	-702
ome	-703
anın	-704
ely	-705
▁uz	-706
▁imp	-707
▁day	-708
ceğ	-709
▁3	-710
ory	-711
▁any	-712
larını	-713
lerin	-714
▁gün	-715
so	-716
are	-717
▁faz	-718
▁düny	-719
▁something	-720
ie	-721
pt	-722
ens	-723
lat	-724
ia	-725
▁said	-726
ass	-727
▁tan	-728
▁yok	-729
▁kend	-730
ud	-731
▁much	-732
uc	-733
land	-734
▁back	-735
▁çünkü	-736
ika	-737
▁those	-738
▁first	-739
ree	-740
cek	-741
▁art	-742
ife	-743
ign	-744
▁yak	-745
maya	-746
▁two	-747
able	-748
meler	-749
nı	-750
▁tam	-751
one	-752
mem	-753
▁differ	-754
▁tak	-755
▁new	-756
und	-757
▁ort	-758
alı	-759
▁şekilde	-760
▁ak	-761
tiğ	-762
ret	-763
▁göster	-764
ecek	-765
▁kind	-766
▁problem	-767
ents	-768
▁also	-769
ıld	-770
akat	-771
ber	-772
ult	-773
ittle	-774
ley	-775
▁hal	-776
▁cl	-777
▁got	-778
▁dev	-779
oj	-780
sa	-781
▁zor	-782
▁öz	-783
ən	-784
raf	-785
▁little	-786
ork	-787
▁An	-788
dir	-789
▁po	-790
▁lot	-791
age	-792
iğer	-793
▁des	-794
▁ek	-795
oss	-796
ram	-797
▁bet	-798
way	-799
▁br	-800
ech	-801
▁yet	-802
ez	-803
ediğ	-804
azı	-805
▁most	-806
▁ph	-807
cent	-808
▁üzer	-809
ple	-810
▁çoc	-811
▁under	-812
▁Bun	-813
▁That	-814
000	-815
▁söyle	-816
ebilir	-817
oy	-818
▁uy	-819
▁Af	-820
▁she	-821
▁ok	-822
▁hakk	-823
lığ	-824
▁Ben	-825
▁mil	-826
▁bilg	-827
▁thr	-828
▁mat	-829
▁even	-830
iyoruz	-831
ht	-832
lerini	-833
gan	-834
▁only	-835
▁mak	-836
tü	-837
ici	-838
▁hum	-839
len	-840
▁life	-841
ations	-842
iver	-843
▁kay	-844
ven	-845
rain	-846
▁dol	-847
ank	-848
ıp	-849
sunuz	-850
bir	-851
ede	-852
▁karş	-853
▁kö	-854
▁dön	-855
vel	-856
▁bağ	-857
▁App	-858
▁talk	-859
men	-860
ody	-861
▁fe	-862
▁siz	-863
▁fazla	-864
ick	-865
▁şu	-866
▁benim	-867
▁insanlar	-868
eyi	-869
▁anlam	-870
▁önce	-871
vi	-872
tan	-873
▁gerçekten	-874
▁önem	-875
▁As	-876
▁iki	-877
int	-878
liğ	-879
▁take	-880
▁many	-881
öz	-882
▁konuş	-883
meye	-884
▁What	-885
▁sy	-886
▁aynı	-887
▁bit	-888
▁hayat	-889
▁duy	-890
per	-891
ated	-892
ka	-893
▁19	-894
other	-895
▁Amer	-896
▁pol	-897
▁20	-898
▁ide	-899
ict	-900
ileceğ	-901
▁hiç	-902
▁sen	-903
eğ	-904
adığ	-905
ry	-906
▁tüm	-907
mam	-908
form	-909
ish	-910
▁different	-911
▁Yani	-912
arı	-913
▁real	-914
▁col	-915
lause	-916
lıyor	-917
▁kiş	-918
onom	-919
▁Applause	-920
adan	-921
eceğ	-922
▁em	-923
▁az	-924
▁yeni	-925
▁around	-926
edi	-927
ater	-928
▁boy	-929
▁Şimdi	-930
ue	-931
ular	-932
ood	-933
ful	-934
▁farklı	-935
ri	-936
ars	-937
▁sahip	-938
day	-939
▁diğer	-940
▁mon	-941
▁down	-942
anda	-943
▁ilk	-944
▁through	-945
▁gir	-946
▁Ch	-947
▁inc	-948
▁vard	-949
▁bunun	-950
▁There	-951
ll	-952
▁cal	-953
▁does	-954
▁10	-955
ih	-956
asında	-957
ülüş	-958
▁çocuk	-959
▁der	-960
▁taraf	-961
▁good	-962
▁oluş	-963
ary	-964
▁san	-965
cak	-966
endi	-967
tık	-968
▁5	-969
▁ele	-970
▁ter	-971
tün	-972
arak	-973
▁hakkında	-974
xt	-975
▁öl	-976
kış	-977
▁may	-978
als	-979
ors	-980
▁put	-981
ça	-982
▁mod	-983
▁comm	-984
ning	-985
ase	-986
lere	-987
▁show	-988
▁neden	-989
ves	-990
▁yarat	-991
ilm	-992
iyle	-993
▁coun	-994
▁live	-995
▁er	-996
aları	-997
ether	-998
ord	-999
▁being	-1000
▁Gülüş	-1001
uğ	-1002
ress	-1003
▁süre	-1004
▁olduğu	-1005
▁He	-1006
▁küç	-1007
▁durum	-1008
ange	-1009
▁Ar	-1010
▁fik	-1011
ub	-1012
▁tell	-1013
▁bö	-1014
ought	-1015
▁ask	-1016
dum	-1017
▁use	-1018
▁bl	-1019
▁bile	-1020
ject	-1021
▁tem	-1022
▁üç	-1023
▁4	-1024
ons	-1025
▁kat	-1026
▁met	-1027
▁same	-1028
üst	-1029
▁Alkış	-1030
umuz	-1031
▁oy	-1032
▁İn	-1033
▁co	-1034
istem	-1035
▁Ö	-1036
dim	-1037
▁plan	-1038
▁pat	-1039
▁yan	-1040
▁Afr	-1041
▁bey	-1042
ayan	-1043
▁etk	-1044
▁happen	-1045
▁yaz	-1046
▁sm	-1047
ting	-1048
▁göz	-1049
▁yön	-1050
▁tech	-1051
wn	-1052
▁size	-1053
▁böyle	-1054
ower	-1055
ance	-1056
tern	-1057
▁sim	-1058
bilir	-1059
▁olur	-1060
▁şeyler	-1061
stem	-1062
▁fact	-1063
▁pers	-1064
▁come	-1065
cess	-1066
▁veya	-1067
▁aslında	-1068
▁sev	-1069
▁try	-1070
up	-1071
▁görd	-1072
▁öğren	-1073
ilen	-1074
▁ilgili	-1075
▁human	-1076
▁görün	-1077
dik	-1078
▁Well	-1079
▁küçük	-1080
▁başlad	-1081
▁doğru	-1082
▁tas	-1083
▁içinde	-1084
▁dec	-1085
▁If	-1086
▁es	-1087
▁Gülüşmeler	-1088
gin	-1089
lardan	-1090
▁hat	-1091
ogy	-1092
ılm	-1093
▁wr	-1094
ıt	-1095
▁af	-1096
▁sur	-1097
▁olduk	-1098
ces	-1099
▁!	-1100
▁off	-1101
▁pre	-1102
▁inan	-1103
▁cr	-1104
▁big	-1105
▁aş	-1106
▁iht	-1107
▁ser	-1108
▁hast	-1109
▁doing	-1110
▁great	-1111
▁end	-1112
▁hep	-1113
iyorlar	-1114
▁iz	-1115
▁çek	-1116
▁ağ	-1117
▁bizim	-1118
vet	-1119
▁kendi	-1120
▁find	-1121
old	-1122
be	-1123
ımı	-1124
▁sistem	-1125
▁kap	-1126
▁geliş	-1127
▁getir	-1128
▁three	-1129
imes	-1130
▁ins	-1131
▁tur	-1132
▁&#	-1133
ındaki	-1134
▁&#9	-1135
illion	-1136
gün	-1137
▁ener	-1138
▁mi	-1139
▁hel	-1140
idir	-1141
▁Bur	-1142
▁percent	-1143
▁system	-1144
ible	-1145
▁ob	-1146
si	-1147
▁ima	-1148
una	-1149
asını	-1150
ty	-1151
ically	-1152
▁başka	-1153
▁Son	-1154
▁called	-1155
noloj	-1156
he	-1157
thing	-1158
ving	-1159
▁sür	-1160
lü	-1161
ese	-1162
ran	-1163
▁sc	-1164
▁kıs	-1165
▁again	-1166
▁countr	-1167
kin	-1168
▁tür	-1169
▁burada	-1170
we	-1171
▁ise	-1172
▁eğer	-1173
▁child	-1174
larda	-1175
▁app	-1176
▁quest	-1177
kür	-1178
▁Eğ	-1179
▁bazı	-1180
▁ör	-1181
▁let	-1182
▁kim	-1183
imizi	-1184
ities	-1185
▁made	-1186
▁bana	-1187
▁ül	-1188
▁build	-1189
,000	-1190
▁bütün	-1191
ıcı	-1192
▁lear	-1193
ama	-1194
▁well	-1195
ics	-1196
▁own	-1197
ition	-1198
eh	-1199
▁yük	-1200
ft	-1201
▁yaptığ	-1202
fore	-1203
▁Fakat	-1204
self	-1205
▁İş	-1206
▁wom	-1207
▁önemli	-1208
▁ul	-1209
▁organ	-1210
ph	-1211
tim	-1212
ığı	-1213
ıyoruz	-1214
okt	-1215
▁Her	-1216
▁biri	-1217
▁tut	-1218
ved	-1219
ahk	-1220
▁long	-1221
▁sec	-1222
sek	-1223
ekkür	-1224
ial	-1225
▁underst	-1226
▁technol	-1227
▁alan	-1228
iden	-1229
olut	-1230
▁olacak	-1231
▁bi	-1232
▁eder	-1233
▁car	-1234
set	-1235
▁açık	-1236
▁topl	-1237
▁today	-1238
▁böl	-1239
▁give	-1240
▁str	-1241
eli	-1242
eket	-1243
enin	-1244
▁-	-1245
▁soci	-1246
ates	-1247
▁biraz	-1248
aha	-1249
▁tamam	-1250
sanız	-1251
▁rec	-1252
▁insanların	-1253
ica	-1254
▁teknoloj	-1255
▁prog	-1256
ating	-1257
▁import	-1258
▁trans	-1259
▁Eğer	-1260
▁should	-1261
▁after	-1262
▁feel	-1263
▁change	-1264
sin	-1265
aştır	-1266
trol	-1267
üy	-1268
rı	-1269
▁why	-1270
ket	-1271
alık	-1272
duğ	-1273
▁ner	-1274
▁didn	-1275
ds	-1276
▁ra	-1277
▁hik	-1278
ise	-1279
▁Thank	-1280
▁ülk	-1281
leştir	-1282
▁St	-1283
▁dem	-1284
▁design	-1285
ılar	-1286
▁mer	-1287
▁num	-1288
▁brain	-1289
▁parç	-1290
▁person	-1291
cho	-1292
▁Biz	-1293
▁idea	-1294
▁creat	-1295
▁inst	-1296
ily	-1297
▁ihtiy	-1298
ıyorum	-1299
▁alt	-1300
ünüz	-1301
iyet	-1302
ope	-1303
▁Or	-1304
▁started	-1305
▁its	-1306
tım	-1307
ardım	-1308
▁ent	-1309
▁thought	-1310
▁tasar	-1311
▁ark	-1312
ması	-1313
lər	-1314
▁hareket	-1315
ısı	-1316
▁help	-1317
ider	-1318
▁high	-1319
üzel	-1320
▁çoğ	-1321
▁değiştir	-1322
▁üre	-1323
lic	-1324
▁last	-1325
ileri	-1326
min	-1327
▁important	-1328
ıyla	-1329
▁understand	-1330
ək	-1331
▁hem	-1332
abileceğ	-1333
▁cour	-1334
▁might	-1335
▁rep	-1336
▁exam	-1337
▁mü	-1338
▁dış	-1339
▁Bunu	-1340
tik	-1341
▁him	-1342
▁seç	-1343
▁sci	-1344
tür	-1345
ire	-1346
iving	-1347
▁mean	-1348
ümüz	-1349
ital	-1350
▁gü	-1351
unun	-1352
▁interest	-1353
ists	-1354
▁6	-1355
duk	-1356
deki	-1357
▁better	-1358
▁before	-1359
asyon	-1360
ned	-1361
ger	-1362
▁olmak	-1363
ıyorlar	-1364
gen	-1365
adaki	-1366
▁olabilir	-1367
▁bah	-1368
▁tog	-1369
malar	-1370
ata	-1371
▁mus	-1372
▁200	-1373
▁together	-1374
▁yüzden	-1375
larının	-1376
▁never	-1377
▁yaşam	-1378
▁able	-1379
▁went	-1380
▁benz	-1381
▁pay	-1382
▁play	-1383
▁cons	-1384
▁karşı	-1385
▁another	-1386
ual	-1387
▁geri	-1388
rar	-1389
chool	-1390
kaç	-1391
eniz	-1392
▁prot	-1393
▁fam	-1394
▁anlat	-1395
ilecek	-1396
▁story	-1397
▁few	-1398
▁fin	-1399
▁çev	-1400
ellik	-1401
▁kol	-1402
larla	-1403
▁point	-1404
gine	-1405
▁commun	-1406
▁produ	-1407
ks	-1408
ism	-1409
▁power	-1410
▁sır	-1411
üs	-1412
tain	-1413
dur	-1414
ands	-1415
ivers	-1416
▁gl	-1417
▁bin	-1418
▁şimdi	-1419
▁yapmak	-1420
▁vardı	-1421
▁Çünkü	-1422
▁tab	-1423
▁koy	-1424
larımız	-1425
ünü	-1426
▁gele	-1427
endir	-1428
▁form	-1429
uv	-1430
▁med	-1431
ılan	-1432
▁belie	-1433
▁cre	-1434
▁found	-1435
▁onu	-1436
▁güç	-1437
▁hız	-1438
yal	-1439
ave	-1440
▁En	-1441
▁Kahk	-1442
▁kadın	-1443
▁model	-1444
aj	-1445
ather	-1446
ince	-1447
asına	-1448
lerde	-1449
▁still	-1450
▁örn	-1451
oth	-1452
mayı	-1453
ağı	-1454
▁zamanda	-1455
▁adam	-1456
▁course	-1457
▁tarafından	-1458
ady	-1459
low	-1460
ilik	-1461
▁çöz	-1462
▁next	-1463
▁ago	-1464
▁kid	-1465
▁yardım	-1466
diği	-1467
▁New	-1468
▁ec	-1469
esin	-1470
ideo	-1471
▁q	-1472
esini	-1473
ath	-1474
▁came	-1475
▁stud	-1476
▁program	-1477
▁hikay	-1478
iyi	-1479
▁call	-1480
▁Dün	-1481
▁def	-1482
▁spec	-1483
▁istediğ	-1484
▁fikir	-1485
▁üzerinde	-1486
▁far	-1487
▁dr	-1488
▁oluştur	-1489
larına	-1490
ünde	-1491
▁When	-1492
iss	-1493
ys	-1494
▁oluyor	-1495
ale	-1496
ited	-1497
▁nın	-1498
▁din	-1499
▁onun	-1500
▁school	-1501
▁each	-1502
dım	-1503
▁min	-1504
gul	-1505
ction	-1506
luk	-1507
▁düşünd	-1508
▁düz	-1509
▁inv	-1510
uç	-1511
▁used	-1512
▁sat	-1513
velop	-1514
▁yıld	-1515
▁sort	-1516
▁ik	-1517
▁etmek	-1518
ail	-1519
ward	-1520
▁istiyorum	-1521
▁9	-1522
▁kit	-1523
▁İşte	-1524
▁sav	-1525
▁polit	-1526
▁technology	-1527
▁kaç	-1528
unca	-1529
▁yaklaş	-1530
ween	-1531
▁di	-1532
▁üst	-1533
çok	-1534
orn	-1535
▁diye	-1536
▁place	-1537
muş	-1538
ures	-1539
▁çıkar	-1540
▁cont	-1541
▁Çok	-1542
acı	-1543
amp	-1544
▁7	-1545
alth	-1546
▁kab	-1547
▁milyon	-1548
ges	-1549
▁question	-1550
ized	-1551
▁How	-1552
▁cell	-1553
▁dep	-1554
edim	-1555
▁water	-1556
▁kaz	-1557
▁develop	-1558
erek	-1559
co	-1560
mey	-1561
elim	-1562
▁old	-1563
▁rob	-1564
▁deney	-1565
▁ortaya	-1566
sed	-1567
imin	-1568
cer	-1569
▁və	-1570
▁between	-1571
olog	-1572
ızı	-1573
▁incre	-1574
mel	-1575
▁uzun	-1576
▁eş	-1577
▁Bunun	-1578
ways	-1579
▁too	-1580
▁15	-1581
iliyor	-1582
ix	-1583
ye	-1584
▁lar	-1585
▁tele	-1586
lerine	-1587
▁gelen	-1588
▁comput	-1589
arch	-1590
aret	-1591
▁sol	-1592
▁güzel	-1593
▁bize	-1594
mez	-1595
aber	-1596
van	-1597
isay	-1598
ness	-1599
▁görüyor	-1600
eleri	-1601
əy	-1602
oş	-1603
ings	-1604
▁şeyi	-1605
gy	-1606
▁grow	-1607
▁taş	-1608
▁women	-1609
▁love	-1610
ırs	-1611
▁uç	-1612
▁stu	-1613
▁oldukça	-1614
▁Ay	-1615
▁data	-1616
rup	-1617
▁birkaç	-1618
▁example	-1619
▁op	-1620
tar	-1621
▁ext	-1622
alım	-1623
formation	-1624
▁fakat	-1625
siz	-1626
▁Un	-1627
ət	-1628
angi	-1629
adaş	-1630
▁dir	-1631
▁Bec	-1632
▁şeh	-1633
▁mes	-1634
aph	-1635
▁olması	-1636
▁8	-1637
▁30	-1638
ndan	-1639
▁dan	-1640
şey	-1641
ED	-1642
▁gördüğ	-1643
▁sorun	-1644
ift	-1645
▁onları	-1646
▁yay	-1647
▁devam	-1648
idi	-1649
imde	-1650
▁partic	-1651
▁robot	-1652
▁’	-1653
▁Peki	-1654
▁test	-1655
▁kan	-1656
▁beni	-1657
▁Böyle	-1658
ss	-1659
▁wanted	-1660
lo	-1661
▁eff	-1662
▁mom	-1663
▁looking	-1664
▁nat	-1665
sun	-1666
ced	-1667
▁sal	-1668
▁la	-1669
▁cent	-1670
▁herk	-1671
▁100	-1672
▁four	-1673
istan	-1674
▁nokt	-1675
ne	-1676
▁doesn	-1677
▁yani	-1678
▁konus	-1679
mesi	-1680
▁mı	-1681
▁sö	-1682
▁Because	-1683
▁50	-1684
▁Ne	-1685
indeki	-1686
▁gitt	-1687
▁ın	-1688
cept	-1689
lerden	-1690
▁chang	-1691
▁done	-1692
ırak	-1693
▁bilim	-1694
liği	-1695
ron	-1696
▁od	-1697
▁mut	-1698
ılmış	-1699
▁film	-1700
▁move	-1701
▁Aslında	-1702
▁teş	-1703
ox	-1704
▁light	-1705
▁Z	-1706
▁hüc	-1707
rop	-1708
▁ulaş	-1709
▁kayn	-1710
▁kötü	-1711
iydi	-1712
ırım	-1713
ational	-1714
▁boyunca	-1715
▁karar	-1716
▁hard	-1717
▁kil	-1718
▁içer	-1719
ets	-1720
▁seb	-1721
lerinin	-1722
ins	-1723
▁değer	-1724
larında	-1725
▁anda	-1726
▁bırak	-1727
▁hav	-1728
▁düşünüyor	-1729
iyordu	-1730
▁second	-1731
edir	-1732
▁mem	-1733
▁always	-1734
tu	-1735
yp	-1736
▁güven	-1737
▁kor	-1738
isayar	-1739
▁whole	-1740
abiliriz	-1741
ably	-1742
▁away	-1743
▁kız	-1744
▁poss	-1745
atch	-1746
selves	-1747
▁arkadaş	-1748
▁tekrar	-1749
▁alm	-1750
▁araştır	-1751
▁experi	-1752
▁Alkışlar	-1753
▁toplum	-1754
elik	-1755
ters	-1756
▁Burada	-1757
▁spe	-1758
▁dest	-1759
daki	-1760
lars	-1761
▁git	-1762
▁tra	-1763
▁kork	-1764
▁belir	-1765
▁cap	-1766
▁children	-1767
idd	-1768
arth	-1769
ilmiş	-1770
amam	-1771
ative	-1772
▁less	-1773
▁İnsan	-1774
inizi	-1775
inç	-1776
esinde	-1777
▁econom	-1778
likte	-1779
▁turn	-1780
▁av	-1781
acağım	-1782
▁colle	-1783
sız	-1784
lant	-1785
▁Teş	-1786
▁bunlar	-1787
▁gener	-1788
ris	-1789
ific	-1790
▁trying	-1791
▁believe	-1792
olution	-1793
▁TED	-1794
▁dönüş	-1795
▁hayal	-1796
▁reas	-1797
hip	-1798
▁care	-1799
▁att	-1800
lamak	-1801
▁bilm	-1802
▁eğit	-1803
▁million	-1804
nect	-1805
▁using	-1806
irket	-1807
oup	-1808
any	-1809
▁working	-1810
▁information	-1811
▁acc	-1812
▁bab	-1813
▁olmadığ	-1814
▁Teşekkür	-1815
▁vis	-1816
▁mal	-1817
oloj	-1818
ock	-1819
▁fut	-1820
ruct	-1821
lığı	-1822
▁fot	-1823
▁pict	-1824
▁anim	-1825
▁Ger	-1826
▁birçok	-1827
oğraf	-1828
ble	-1829
dığ	-1830
ov	-1831
▁ke	-1832
ian	-1833
▁fri	-1834
üt	-1835
▁bek	-1836
▁söy	-1837
▁Ü	-1838
eyse	-1839
▁mark	-1840
ahalar	-1841
▁friend	-1842
net	-1843
der	-1844
▁book	-1845
▁gez	-1846
▁resp	-1847
▁means	-1848
▁enerj	-1849
▁det	-1850
▁ris	-1851
▁onlar	-1852
▁yüksek	-1853
eks	-1854
▁sub	-1855
▁project	-1856
▁pop	-1857
ines	-1858
▁Daha	-1859
air	-1860
▁sık	-1861
aces	-1862
▁guy	-1863
▁bulun	-1864
▁country	-1865
▁konu	-1866
▁small	-1867
▁dav	-1868
▁Ancak	-1869
imizin	-1870
▁geçir	-1871
eceğim	-1872
▁birbir	-1873
inc	-1874
ilt	-1875
▁space	-1876
▁thinking	-1877
▁supp	-1878
lerle	-1879
▁My	-1880
▁basit	-1881
gs	-1882
▁hiçbir	-1883
▁create	-1884
▁dik	-1885
▁belki	-1886
ina	-1887
▁lead	-1888
mal	-1889
edik	-1890
▁çeş	-1891
ility	-1892
▁Hay	-1893
▁ış	-1894
dık	-1895
▁yüzde	-1896
▁dünya	-1897
▁sit	-1898
▁process	-1899
▁inf	-1900
▁Evet	-1901
aut	-1902
ılmaz	-1903
▁mind	-1904
əl	-1905
▁vi	-1906
ral	-1907
▁home	-1908
1;	-1909
▁&#91;	-1910
▁stand	-1911
ied	-1912
▁took	-1913
▁lab	-1914
ilerin	-1915
bet	-1916
vern	-1917
▁sonr	-1918
kan	-1919
▁One	-1920
▁aile	-1921
▁everything	-1922
▁open	-1923
▁health	-1924
▁üret	-1925
3;	-1926
▁&#93;	-1927
▁money	-1928
ara	-1929
▁gidi	-1930
▁maybe	-1931
▁öyle	-1932
▁list	-1933
▁keş	-1934
▁kids	-1935
ever	-1936
less	-1937
▁Br	-1938
▁yat	-1939
▁Ind	-1940
▁prof	-1941
▁söz	-1942
▁bilgisayar	-1943
▁sing	-1944
▁become	-1945
▁best	-1946
▁mik	-1947
obal	-1948
ellikle	-1949
▁ekonom	-1950
diğimiz	-1951
▁hand	-1952
atik	-1953
▁tamamen	-1954
alan	-1955
▁set	-1956
elen	-1957
ts	-1958
ıma	-1959
▁bar	-1960
▁video	-1961
▁şirket	-1962
▁buna	-1963
▁savaş	-1964
çe	-1965
kek	-1966
yone	-1967
body	-1968
▁York	-1969
▁ediyor	-1970
▁Kahkahalar	-1971
▁run	-1972
atı	-1973
▁um	-1974
▁pub	-1975
▁ses	-1976
▁arasında	-1977
▁okul	-1978
▁number	-1979
gi	-1980
▁pek	-1981
ories	-1982
▁arab	-1983
▁cev	-1984
▁yı	-1985
▁hücre	-1986
▁future	-1987
▁proj	-1988
▁dedi	-1989
ef	-1990
lama	-1991
▁She	-1992
▁vir	-1993
▁çeşit	-1994
▁geliyor	-1995
▁bugün	-1996
▁Ok	-1997
met	-1998
manın	-1999
meyi	-2000
landır	-2001
vir	-2002
wh	-2003
▁dünyanın	-2004
izi	-2005
▁sizin	-2006
▁Ge	-2007
üne	-2008
▁yerine	-2009
ouse	-2010
▁five	-2011
▁month	-2012
▁enough	-2013
▁çiz	-2014
▁norm	-2015
▁men	-2016
▁cle	-2017
▁govern	-2018
▁birlikte	-2019
its	-2020
adı	-2021
elf	-2022
may	-2023
arly	-2024
ling	-2025
▁dör	-2026
▁demek	-2027
▁connect	-2028
▁read	-2029
▁left	-2030
ax	-2031
əs	-2032
▁making	-2033
▁tah	-2034
▁sonuç	-2035
▁sı	-2036
▁fun	-2037
▁food	-2038
lük	-2039
▁nin	-2040
ric	-2041
▁örnek	-2042
asının	-2043
▁id	-2044
işim	-2045
▁mot	-2046
▁mily	-2047
▁şöyle	-2048
▁kişi	-2049
▁group	-2050
diğim	-2051
▁times	-2052
▁gereken	-2053
▁pi	-2054
ımızı	-2055
lendir	-2056
▁elect	-2057
▁pret	-2058
lerinde	-2059
abilirsiniz	-2060
sw	-2061
yla	-2062
iting	-2063
▁walk	-2064
aps	-2065
▁cur	-2066
▁social	-2067
ımda	-2068
▁San	-2069
▁comes	-2070
▁No	-2071
▁These	-2072
ternet	-2073
▁Is	-2074
▁quite	-2075
▁interesting	-2076
▁eng	-2077
▁saat	-2078
▁getting	-2079
▁Go	-2080
▁sense	-2081
▁dö	-2082
ross	-2083
▁energy	-2084
▁without	-2085
▁For	-2086
▁haz	-2087
▁sk	-2088
▁pass	-2089
ues	-2090
▁fotoğraf	-2091
iği	-2092
osyal	-2093
▁war	-2094
ention	-2095
luğ	-2096
usu	-2097
▁karşıl	-2098
▁artık	-2099
▁happened	-2100
▁daki	-2101
ety	-2102
▁pres	-2103
cu	-2104
▁cer	-2105
▁sign	-2106
ments	-2107
▁soru	-2108
esine	-2109
ms	-2110
▁ölç	-2111
lim	-2112
▁add	-2113
▁net	-2114
▁ettiğ	-2115
diğini	-2116
NA	-2117
şa	-2118
▁begin	-2119
reen	-2120
ately	-2121
▁head	-2122
▁ru	-2123
▁sil	-2124
amız	-2125
▁üzerine	-2126
▁cor	-2127
isini	-2128
▁temel	-2129
▁countries	-2130
ices	-2131
▁wo	-2132
▁önc	-2133
▁Bil	-2134
uluk	-2135
cy	-2136
lek	-2137
gest	-2138
▁answ	-2139
▁youn	-2140
▁paylaş	-2141
omet	-2142
▁yaptık	-2143
▁lives	-2144
▁onların	-2145
ook	-2146
▁room	-2147
▁organiz	-2148
▁İl	-2149
▁hist	-2150
▁beaut	-2151
▁cho	-2152
▁Let	-2153
▁uygul	-2154
▁harika	-2155
gr	-2156
ner	-2157
▁air	-2158
ural	-2159
▁eden	-2160
abilecek	-2161
▁body	-2162
▁seem	-2163
▁sound	-2164
ogr	-2165
▁Afrika	-2166
▁val	-2167
▁erkek	-2168
oz	-2169
▁ihtiyac	-2170
mi	-2171
kat	-2172
ont	-2173
fon	-2174
▁hatır	-2175
▁probably	-2176
▁rem	-2177
▁sun	-2178
▁orada	-2179
▁across	-2180
▁sin	-2181
ously	-2182
▁geliştir	-2183
▁Böylece	-2184
▁oyun	-2185
cr	-2186
▁yem	-2187
▁uzak	-2188
▁biliyor	-2189
▁told	-2190
acağını	-2191
▁coming	-2192
▁global	-2193
▁Dünya	-2194
▁işte	-2195
▁moment	-2196
ern	-2197
▁özel	-2198
▁talking	-2199
▁job	-2200
▁opp	-2201
viron	-2202
aydı	-2203
▁Earth	-2204
▁stuff	-2205
▁öğret	-2206
▁pretty	-2207
▁phys	-2208
▁yakın	-2209
amer	-2210
andır	-2211
▁family	-2212
▁ederim	-2213
iter	-2214
▁allow	-2215
▁vardır	-2216
▁ot	-2217
▁bre	-2218
▁fig	-2219
▁12	-2220
əm	-2221
ican	-2222
layan	-2223
▁ass	-2224
bol	-2225
maz	-2226
▁kontrol	-2227
mamız	-2228
▁birşey	-2229
ead	-2230
▁keep	-2231
▁wonder	-2232
▁dollars	-2233
lex	-2234
▁40	-2235
hangi	-2236
ortun	-2237
▁such	-2238
▁stop	-2239
ull	-2240
▁iliş	-2241
▁güc	-2242
▁Africa	-2243
▁reg	-2244
rim	-2245
▁saw	-2246
aln	-2247
arda	-2248
▁hope	-2249
lerinden	-2250
▁loc	-2251
▁simple	-2252
▁environ	-2253
▁otur	-2254
▁reason	-2255
lerce	-2256
▁planet	-2257
▁half	-2258
▁hızlı	-2259
▁exper	-2260
▁anything	-2261
suz	-2262
▁At	-2263
▁şehir	-2264
▁söyley	-2265
sal	-2266
▁ara	-2267
alnız	-2268
rıca	-2269
▁else	-2270
▁building	-2271
▁dist	-2272
▁Here	-2273
kez	-2274
▁diy	-2275
▁mas	-2276
▁gelir	-2277
▁oyn	-2278
▁yür	-2279
▁suc	-2280
▁educ	-2281
▁asked	-2282
▁Why	-2283
▁ür	-2284
▁dok	-2285
▁gelecek	-2286
▁buy	-2287
▁bizi	-2288
▁genç	-2289
▁having	-2290
red	-2291
imize	-2292
▁ann	-2293
▁etkile	-2294
ird	-2295
▁etm	-2296
▁istem	-2297
▁sanat	-2298
▁ancak	-2299
gu	-2300
ially	-2301
▁kaynak	-2302
ided	-2303
allen	-2304
▁learn	-2305
▁control	-2306
▁bulu	-2307
▁phot	-2308
iyon	-2309
▁keşf	-2310
▁bring	-2311
▁experience	-2312
▁işe	-2313
▁kır	-2314
▁ilginç	-2315
▁Tamam	-2316
▁kolay	-2317
▁living	-2318
ekt	-2319
▁alg	-2320
▁Amerika	-2321
cover	-2322
▁sosyal	-2323
▁konusunda	-2324
lış	-2325
▁dair	-2326
▁side	-2327
▁scient	-2328
▁eas	-2329
▁haf	-2330
▁rest	-2331
▁yeniden	-2332
▁bal	-2333
▁Sadece	-2334
▁hey	-2335
▁mar	-2336
▁onlara	-2337
▁mad	-2338
də	-2339
▁Bel	-2340
likle	-2341
▁conf	-2342
▁hayvan	-2343
▁fel	-2344
▁müz	-2345
ality	-2346
▁hisset	-2347
amaz	-2348
iyiz	-2349
▁kom	-2350
▁mach	-2351
adır	-2352
▁amaz	-2353
eni	-2354
siness	-2355
▁ways	-2356
▁business	-2357
ute	-2358
▁makes	-2359
▁yaklaşık	-2360
work	-2361
▁kes	-2362
▁sure	-2363
▁gu	-2364
ebil	-2365
▁Baş	-2366
▁elek	-2367
▁sonunda	-2368
▁DNA	-2369
ograph	-2370
▁remem	-2371
eğin	-2372
▁ona	-2373
▁days	-2374
▁later	-2375
▁rese	-2376
▁billion	-2377
▁pot	-2378
▁computer	-2379
▁ind	-2380
▁young	-2381
▁aut	-2382
▁picture	-2383
▁%	-2384
lemek	-2385
▁seen	-2386
▁science	-2387
▁bölg	-2388
▁risk	-2389
▁hazır	-2390
ii	-2391
▁mor	-2392
▁dört	-2393
ream	-2394
▁geldi	-2395
▁olmayan	-2396
yan	-2397
line	-2398
▁indi	-2399
til	-2400
▁particular	-2401
▁almost	-2402
▁inside	-2403
▁tasarım	-2404
▁case	-2405
▁del	-2406
▁thous	-2407
▁single	-2408
▁Sonra	-2409
▁remember	-2410
▁hour	-2411
rem	-2412
▁matter	-2413
cin	-2414
▁ister	-2415
oh	-2416
▁girl	-2417
▁ref	-2418
▁equ	-2419
▁dolar	-2420
anı	-2421
▁happens	-2422
▁Fr	-2423
▁çoğu	-2424
ape	-2425
▁dise	-2426
▁yönet	-2427
▁Bunlar	-2428
▁ber	-2429
▁başar	-2430
▁El	-2431
▁bad	-2432
▁18	-2433
ott	-2434
▁davran	-2435
larından	-2436
▁self	-2437
▁normal	-2438
▁sağlık	-2439
▁research	-2440
iç	-2441
▁tanım	-2442
dür	-2443
▁beyn	-2444
acağız	-2445
leme	-2446
▁answer	-2447
müş	-2448
▁araç	-2449
▁pain	-2450
▁exc	-2451
▁hear	-2452
▁effect	-2453
▁environment	-2454
▁challen	-2455
iel	-2456
▁kut	-2457
▁goes	-2458
▁Benim	-2459
▁while	-2460
▁herhangi	-2461
avi	-2462
iful	-2463
▁fol	-2464
memiz	-2465
▁hemen	-2466
▁amazing	-2467
▁teşekkür	-2468
▁ün	-2469
▁elektr	-2470
▁inanılmaz	-2471
ount	-2472
ready	-2473
▁elde	-2474
▁typ	-2475
▁grup	-2476
▁Şu	-2477
▁öld	-2478
▁cells	-2479
▁milyar	-2480
▁tarih	-2481
par	-2482
▁All	-2483
ences	-2484
▁char	-2485
▁şeyleri	-2486
▁Av	-2487
lish	-2488
larım	-2489
kinci	-2490
▁says	-2491
lak	-2492
ote	-2493
aşır	-2494
▁gerektiğ	-2495
adık	-2496
▁dağ	-2497
▁city	-2498
pect	-2499
▁Gün	-2500
where	-2501
▁often	-2502
ash	-2503
▁cou	-2504
str	-2505
lig	-2506
menin	-2507
▁pos	-2508
▁geze	-2509
▁inşa	-2510
▁mag	-2511
▁Har	-2512
gı	-2513
▁dak	-2514
kı	-2515
▁yerde	-2516
▁böylece	-2517
▁possible	-2518
▁ila	-2519
▁değişik	-2520
vers	-2521
▁üçün	-2522
▁public	-2523
ury	-2524
acy	-2525
▁community	-2526
adi	-2527
uge	-2528
▁kısm	-2529
▁tane	-2530
bil	-2531
kün	-2532
ucu	-2533
▁kaf	-2534
▁kazan	-2535
▁ölüm	-2536
▁study	-2537
▁contin	-2538
▁çalışan	-2539
▁biy	-2540
▁bilgi	-2541
▁watch	-2542
▁yapıyor	-2543
▁order	-2544
▁rel	-2545
▁myself	-2546
▁Teşekkürler	-2547
oot	-2548
▁Ever	-2549
▁already	-2550
▁nothing	-2551
▁discover	-2552
asındaki	-2553
▁insanları	-2554
▁25	-2555
▁geniş	-2556
▁telefon	-2557
dü	-2558
▁six	-2559
▁once	-2560
▁etraf	-2561
uğu	-2562
avaş	-2563
▁Do	-2564
▁para	-2565
▁Gerçek	-2566
▁looked	-2567
hat	-2568
ıyız	-2569
to	-2570
osed	-2571
▁aff	-2572
seniz	-2573
▁Amerik	-2574
ebiliriz	-2575
▁problems	-2576
ela	-2577
vest	-2578
▁ren	-2579
▁olduğumuz	-2580
pr	-2581
▁dil	-2582
ari	-2583
tığımız	-2584
▁product	-2585
▁months	-2586
ants	-2587
▁eğitim	-2588
▁uğ	-2589
▁kül	-2590
▁cevap	-2591
ınır	-2592
▁level	-2593
eği	-2594
▁saying	-2595
▁mis	-2596
bon	-2597
▁someone	-2598
▁beautiful	-2599
▁hale	-2600
▁müm	-2601
▁both	-2602
▁yalnız	-2603
▁hala	-2604
▁ilet	-2605
uma	-2606
▁kulland	-2607
▁Sh	-2608
▁fiz	-2609
▁cost	-2610
▁speak	-2611
▁dey	-2612
▁zorunda	-2613
▁whether	-2614
iverse	-2615
▁sw	-2616
▁ted	-2617
▁olay	-2618
ases	-2619
edeyse	-2620
▁history	-2621
udi	-2622
ement	-2623
▁istediğim	-2624
side	-2625
▁tep	-2626
itive	-2627
üp	-2628
uck	-2629
.000	-2630
ulation	-2631
ışı	-2632
▁ideas	-2633
br	-2634
▁Internet	-2635
ünden	-2636
▁bahset	-2637
▁güçlü	-2638
▁imagine	-2639
ebilirsiniz	-2640
aların	-2641
▁dah	-2642
elerin	-2643
▁merkez	-2644
maş	-2645
ush	-2646
▁wrong	-2647
▁nes	-2648
▁fund	-2649
▁beş	-2650
▁certain	-2651
▁60	-2652
▁pati	-2653
▁düzen	-2654
igh	-2655
▁exact	-2656
çi	-2657
lardı	-2658
▁direct	-2659
▁kabul	-2660
▁dünyada	-2661
▁ps	-2662
▁ye	-2663
▁yetiş	-2664
▁face	-2665
▁looks	-2666
umu	-2667
▁destek	-2668
▁benzer	-2669
gun	-2670
azen	-2671
▁Size	-2672
ebileceğ	-2673
▁görüntü	-2674
▁görebilir	-2675
imate	-2676
ildi	-2677
diler	-2678
undan	-2679
angu	-2680
▁dig	-2681
▁incredi	-2682
▁Bugün	-2683
▁anlay	-2684
▁başarı	-2685
▁hund	-2686
▁object	-2687
yn	-2688
gın	-2689
▁izin	-2690
▁haber	-2691
▁within	-2692
▁complet	-2693
ayacak	-2694
▁dal	-2695
▁vüc	-2696
▁result	-2697
▁news	-2698
▁figure	-2699
▁başladı	-2700
▁istiyor	-2701
light	-2702
sınız	-2703
▁bat	-2704
▁bilir	-2705
▁CA	-2706
htem	-2707
get	-2708
▁biç	-2709
ığını	-2710
▁night	-2711
bers	-2712
▁parçası	-2713
lə	-2714
▁də	-2715
▁hatta	-2716
alt	-2717
▁anal	-2718
▁sent	-2719
▁heart	-2720
▁words	-2721
ental	-2722
▁heard	-2723
▁treat	-2724
çı	-2725
▁age	-2726
▁harc	-2727
▁materi	-2728
▁friends	-2729
▁İs	-2730
iven	-2731
urs	-2732
üf	-2733
ham	-2734
▁gal	-2735
▁line	-2736
▁Neden	-2737
▁built	-2738
▁11	-2739
▁kitap	-2740
▁çözüm	-2741
ığımız	-2742
▁kesin	-2743
▁altında	-2744
ole	-2745
ivity	-2746
maları	-2747
▁works	-2748
▁Goog	-2749
▁görüş	-2750
lerimiz	-2751
▁bunları	-2752
▁mümkün	-2753
vidu	-2754
iddle	-2755
ional	-2756
▁deep	-2757
▁individu	-2758
▁oper	-2759
▁perf	-2760
▁yine	-2761
▁langu	-2762
▁karmaş	-2763
lin	-2764
▁Siz	-2765
na	-2766
▁internet	-2767
▁iler	-2768
ıyordu	-2769
▁government	-2770
ging	-2771
▁sey	-2772
▁insanlara	-2773
▁Mars	-2774
ınızda	-2775
ology	-2776
iyat	-2777
isinde	-2778
▁const	-2779
▁dedim	-2780
▁piece	-2781
tem	-2782
▁past	-2783
ılıyor	-2784
▁land	-2785
▁basically	-2786
üğü	-2787
▁Mus	-2788
▁beha	-2789
▁terr	-2790
▁çevre	-2791
▁edin	-2792
▁true	-2793
▁resim	-2794
▁herkes	-2795
▁kav	-2796
▁teh	-2797
▁boyut	-2798
▁dikkat	-2799
▁sebep	-2800
iqu	-2801
ıyı	-2802
▁şunu	-2803
üresel	-2804
▁İlk	-2805
▁class	-2806
rak	-2807
ıştır	-2808
▁beyin	-2809
▁iss	-2810
▁bağlı	-2811
ton	-2812
outh	-2813
ünün	-2814
▁until	-2815
ulture	-2816
▁çift	-2817
▁201	-2818
▁Hind	-2819
▁ayak	-2820
▁sayı	-2821
▁gönder	-2822
larca	-2823
leyen	-2824
diğiniz	-2825
▁ta	-2826
ator	-2827
▁Doğ	-2828
▁must	-2829
isinin	-2830
▁Bence	-2831
ilerini	-2832
▁bağlant	-2833
▁ayr	-2834
lanmış	-2835
▁Google	-2836
▁enerji	-2837
ala	-2838
ious	-2839
▁Hep	-2840
▁sınır	-2841
ged	-2842
▁Oh	-2843
amak	-2844
ayım	-2845
▁gördüğünüz	-2846
kli	-2847
uvar	-2848
▁red	-2849
▁wasn	-2850
▁bence	-2851
▁places	-2852
etik	-2853
▁Gör	-2854
▁diz	-2855
▁lim	-2856
acter	-2857
▁sene	-2858
▁learned	-2859
▁stories	-2860
▁emp	-2861
▁yas	-2862
▁serv	-2863
▁universe	-2864
▁tool	-2865
▁United	-2866
▁experim	-2867
utes	-2868
▁education	-2869
▁kr	-2870
▁market	-2871
lus	-2872
▁nature	-2873
▁mey	-2874
▁share	-2875
▁woman	-2876
▁yanlış	-2877
▁cond	-2878
▁hastalık	-2879
▁Can	-2880
▁Gen	-2881
▁against	-2882
▁dra	-2883
▁saf	-2884
▁though	-2885
▁lik	-2886
▁genel	-2887
▁öğrenc	-2888
▁law	-2889
▁happening	-2890
▁became	-2891
▁değildir	-2892
bs	-2893
▁siy	-2894
▁decided	-2895
▁teknoloji	-2896
▁completely	-2897
▁wa	-2898
▁isn	-2899
ware	-2900
▁hes	-2901
▁inn	-2902
ane	-2903
▁evren	-2904
▁kez	-2905
▁knew	-2906
▁large	-2907
alarını	-2908
▁follow	-2909
cle	-2910
▁sizi	-2911
▁engine	-2912
ourn	-2913
▁sab	-2914
▁sens	-2915
▁yeter	-2916
ıldı	-2917
omes	-2918
▁idi	-2919
ebody	-2920
▁fl	-2921
anız	-2922
▁ilişk	-2923
▁couple	-2924
▁taking	-2925
▁tahmin	-2926
iber	-2927
▁neler	-2928
▁species	-2929
▁başlay	-2930
▁neredeyse	-2931
fic	-2932
ser	-2933
▁Ad	-2934
aper	-2935
▁spend	-2936
▁success	-2937
mos	-2938
▁pen	-2939
▁team	-2940
▁quick	-2941
▁hissed	-2942
▁abs	-2943
lüyor	-2944
▁struct	-2945
▁America	-2946
▁questions	-2947
ision	-2948
▁karmaşık	-2949
▁olduğuna	-2950
gil	-2951
medi	-2952
▁meas	-2953
▁India	-2954
▁invest	-2955
masını	-2956
ogn	-2957
▁etti	-2958
▁view	-2959
▁key	-2960
htemelen	-2961
▁sometimes	-2962
▁themselves	-2963
uyu	-2964
▁Pro	-2965
madan	-2966
▁black	-2967
ones	-2968
▁expl	-2969
▁deniz	-2970
▁fizik	-2971
ames	-2972
ayız	-2973
▁ones	-2974
▁çar	-2975
aba	-2976
lect	-2977
▁aşağı	-2978
ying	-2979
▁music	-2980
ımın	-2981
▁society	-2982
▁durumda	-2983
▁bahsed	-2984
ages	-2985
▁since	-2986
▁özellikle	-2987
oktor	-2988
▁itself	-2989
ee	-2990
▁Büy	-2991
arken	-2992
etic	-2993
▁company	-2994
▁hük	-2995
▁ders	-2996
▁çağ	-2997
ented	-2998
▁yere	-2999
▁everybody	-3000
▁vers	-3001
of	-3002
▁gezegen	-3003
▁opt	-3004
ined	-3005
▁boş	-3006
▁word	-3007
▁hepsi	-3008
ability	-3009
▁everyone	-3010
▁şans	-3011
▁teach	-3012
▁zorund	-3013
eydi	-3014
ential	-3015
▁exactly	-3016
▁ışık	-3017
illions	-3018
▁network	-3019
▁gerekiyor	-3020
haps	-3021
▁fly	-3022
▁ourselves	-3023
etr	-3024
▁Sp	-3025
iyim	-3026
▁muh	-3027
▁olmuş	-3028
▁yapmaya	-3029
face	-3030
andan	-3031
▁simp	-3032
▁içine	-3033
ization	-3034
itting	-3035
▁şeyin	-3036
oke	-3037
▁fre	-3038
▁bundan	-3039
▁oce	-3040
▁front	-3041
▁labor	-3042
▁disease	-3043
▁hâ	-3044
ield	-3045
▁relations	-3046
imal	-3047
▁199	-3048
▁States	-3049
▁created	-3050
▁protect	-3051
ein	-3052
▁prov	-3053
▁yolu	-3054
▁kinds	-3055
▁makin	-3056
▁ihtiyaç	-3057
▁mess	-3058
▁doğal	-3059
▁Eur	-3060
▁house	-3061
▁train	-3062
▁bulund	-3063
▁animals	-3064
iles	-3065
▁meet	-3066
▁pick	-3067
▁mother	-3068
▁somebody	-3069
▁araya	-3070
▁yapan	-3071
▁cancer	-3072
asi	-3073
sak	-3074
tığı	-3075
▁eski	-3076
▁heyec	-3077
▁instead	-3078
▁başladım	-3079
cc	-3080
▁Düny	-3081
ats	-3082
okr	-3083
▁gets	-3084
asından	-3085
▁tük	-3086
▁modern	-3087
▁çö	-3088
▁politik	-3089
▁opportun	-3090
▁exist	-3091
ired	-3092
▁Tek	-3093
▁neur	-3094
▁along	-3095
▁80	-3096
▁akt	-3097
▁sca	-3098
▁deneyim	-3099
▁düşünün	-3100
ocr	-3101
▁fak	-3102
▁Çin	-3103
▁name	-3104
▁thousands	-3105
ıydı	-3106
▁God	-3107
▁dru	-3108
ilere	-3109
▁beraber	-3110
▁hold	-3111
▁huge	-3112
larınız	-3113
▁language	-3114
ılır	-3115
▁gaz	-3116
▁complex	-3117
▁gerekir	-3118
▁gösteriyor	-3119
ayet	-3120
▁gider	-3121
aca	-3122
▁least	-3123
▁worked	-3124
abiliyor	-3125
▁fazl	-3126
imizde	-3127
▁gidiyor	-3128
▁ülkeler	-3129
▁koş	-3130
thers	-3131
▁arch	-3132
▁mant	-3133
▁rahat	-3134
▁rather	-3135
▁sağlay	-3136
▁Hindistan	-3137
▁OK	-3138
enek	-3139
▁rol	-3140
ficult	-3141
▁Dev	-3142
▁halk	-3143
▁kullanarak	-3144
▁Be	-3145
aten	-3146
ides	-3147
iliğ	-3148
uyla	-3149
▁Yap	-3150
▁ettik	-3151
cul	-3152
▁behavi	-3153
▁civ	-3154
yi	-3155
▁Tan	-3156
▁difficult	-3157
▁disc	-3158
▁dönem	-3159
▁geçen	-3160
▁liter	-3161
▁bunların	-3162
▁hiz	-3163
▁hours	-3164
ladı	-3165
▁giz	-3166
▁mass	-3167
ump	-3168
▁heyecan	-3169
▁Kend	-3170
▁ince	-3171
els	-3172
▁free	-3173
▁couldn	-3174
▁Kar	-3175
▁indust	-3176
▁ey	-3177
▁cir	-3178
▁ürün	-3179
adım	-3180
▁zar	-3181
▁recent	-3182
▁gar	-3183
▁tip	-3184
▁Okay	-3185
▁deal	-3186
▁dediğ	-3187
▁Every	-3188
▁Am	-3189
▁journ	-3190
▁tes	-3191
▁Nor	-3192
ently	-3193
▁ortak	-3194
▁expect	-3195
ex	-3196
ared	-3197
▁Tüm	-3198
arsanız	-3199
▁söylüyor	-3200
not	-3201
atic	-3202
ocuk	-3203
▁kısa	-3204
▁çox	-3205
▁wind	-3206
▁görür	-3207
▁öd	-3208
▁beh	-3209
▁miss	-3210
▁özg	-3211
anies	-3212
▁Then	-3213
▁pred	-3214
▁sex	-3215
mişti	-3216
▁bakın	-3217
▁listen	-3218
▁yöntem	-3219
▁değildi	-3220
▁systems	-3221
▁Pe	-3222
▁Aynı	-3223
▁uğr	-3224
▁arasındaki	-3225
cing	-3226
ocus	-3227
▁contr	-3228
▁olmadığını	-3229
▁dam	-3230
▁ilaç	-3231
▁yüzy	-3232
arım	-3233
▁fas	-3234
▁rağ	-3235
▁sok	-3236
wards	-3237
▁kans	-3238
▁sını	-3239
▁bölüm	-3240
▁outside	-3241
ağa	-3242
▁vo	-3243
meyen	-3244
▁innov	-3245
▁yoktu	-3246
▁middle	-3247
lue	-3248
▁Ön	-3249
▁şaşır	-3250
read	-3251
rend	-3252
▁fil	-3253
▁appro	-3254
▁others	-3255
▁interact	-3256
▁yaptığımız	-3257
əc	-3258
▁bes	-3259
▁adv	-3260
ively	-3261
▁taken	-3262
ier	-3263
▁mən	-3264
▁üzere	-3265
▁entire	-3266
amb	-3267
▁Bazı	-3268
▁ep	-3269
isel	-3270
ınızı	-3271
▁math	-3272
▁park	-3273
emin	-3274
▁derin	-3275
▁collect	-3276
cü	-3277
▁state	-3278
▁Kahkaha	-3279
▁students	-3280
ütün	-3281
▁sebeb	-3282
▁reality	-3283
▁mic	-3284
▁send	-3285
▁sürü	-3286
rew	-3287
eyim	-3288
▁akıl	-3289
▁alın	-3290
▁rağmen	-3291
▁machine	-3292
▁communic	-3293
▁poor	-3294
▁tart	-3295
▁görmek	-3296
▁sonraki	-3297
▁ihtiyacımız	-3298
▁Onlar	-3299
▁learning	-3300
▁biliyoruz	-3301
ck	-3302
memiş	-3303
▁step	-3304
▁seviy	-3305
▁küresel	-3306
▁relationship	-3307
omp	-3308
miyor	-3309
▁break	-3310
▁focus	-3311
▁görev	-3312
omb	-3313
▁alıp	-3314
▁minutes	-3315
aw	-3316
əb	-3317
ony	-3318
▁ic	-3319
▁hoş	-3320
▁insanın	-3321
▁ıs	-3322
isine	-3323
▁sever	-3324
▁record	-3325
▁early	-3326
leriyle	-3327
▁seeing	-3328
▁Joh	-3329
▁yuk	-3330
ature	-3331
tılar	-3332
▁Belki	-3333
▁fa	-3334
▁boz	-3335
▁canlı	-3336
▁hafta	-3337
▁death	-3338
avor	-3339
▁derec	-3340
▁düşündüğ	-3341
arr	-3342
meden	-3343
azar	-3344
▁kaldır	-3345
istic	-3346
olojik	-3347
med	-3348
▁ap	-3349
▁mek	-3350
ident	-3351
apt	-3352
▁won	-3353
▁lots	-3354
▁extra	-3355
▁takes	-3356
▁Europe	-3357
▁companies	-3358
▁ı	-3359
ots	-3360
olved	-3361
▁bott	-3362
oğun	-3363
▁dolayı	-3364
▁changed	-3365
ayd	-3366
▁yağ	-3367
▁düşünür	-3368
▁düşünüyorum	-3369
ısını	-3370
▁turns	-3371
üle	-3372
▁cid	-3373
▁difference	-3374
▁buz	-3375
▁sak	-3376
mesini	-3377
▁Büyük	-3378
▁hizmet	-3379
▁görüyorsunuz	-3380
abı	-3381
dies	-3382
▁gave	-3383
▁verir	-3384
▁kültür	-3385
▁beginning	-3386
ming	-3387
▁intel	-3388
▁16	-3389
▁Tab	-3390
▁nec	-3391
▁dönd	-3392
abilmek	-3393
ove	-3394
▁pattern	-3395
▁ə	-3396
▁cut	-3397
▁leg	-3398
▁olsun	-3399
ug	-3400
asa	-3401
edef	-3402
▁götür	-3403
▁seven	-3404
▁öneml	-3405
▁doktor	-3406
▁laz	-3407
▁müh	-3408
▁stre	-3409
▁cities	-3410
▁karşılaş	-3411
▁yiy	-3412
acağı	-3413
ke	-3414
▁Bana	-3415
▁Some	-3416
▁week	-3417
▁anlaş	-3418
▁natural	-3419
ann	-3420
bed	-3421
▁fear	-3422
▁kelim	-3423
▁ikinci	-3424
▁century	-3425
▁görebilirsiniz	-3426
sam	-3427
teş	-3428
▁başlıyor	-3429
▁AB	-3430
ajor	-3431
▁ca	-3432
▁oran	-3433
▁expla	-3434
cut	-3435
▁Not	-3436
▁cih	-3437
▁sand	-3438
esinin	-3439
▁close	-3440
ither	-3441
▁parents	-3442
▁yaptığı	-3443
▁nedir	-3444
▁moving	-3445
▁technolog	-3446
▁x	-3447
▁leave	-3448
▁needed	-3449
▁perhaps	-3450
▁To	-3451
▁May	-3452
▁güneş	-3453
▁öldür	-3454
▁gerçekleş	-3455
▁mev	-3456
▁ettim	-3457
▁olmam	-3458
▁support	-3459
ene	-3460
▁suç	-3461
▁bank	-3462
▁hava	-3463
▁Video	-3464
▁eyes	-3465
iversity	-3466
▁düşündüm	-3467
ros	-3468
ardan	-3469
arlar	-3470
liyor	-3471
▁Çocuk	-3472
▁Ayrıca	-3473
▁muhtemelen	-3474
▁ayır	-3475
▁fırs	-3476
▁happy	-3477
▁sınıf	-3478
udur	-3479
▁emin	-3480
▁access	-3481
ives	-3482
uzey	-3483
ering	-3484
iddet	-3485
▁full	-3486
▁phone	-3487
▁main	-3488
▁70	-3489
ased	-3490
itut	-3491
unch	-3492
▁John	-3493
▁dream	-3494
▁tartış	-3495
▁American	-3496
ert	-3497
▁Ev	-3498
▁dom	-3499
▁Just	-3500
▁olsa	-3501
▁bazen	-3502
▁yaşayan	-3503
▁Ya	-3504
▁Avrup	-3505
▁Bütün	-3506
▁kurul	-3507
▁super	-3508
ılım	-3509
▁bed	-3510
▁olup	-3511
▁birisi	-3512
▁common	-3513
▁davranış	-3514
▁Eng	-3515
▁verici	-3516
▁culture	-3517
lilik	-3518
itions	-3519
▁almak	-3520
▁third	-3521
▁gid	-3522
▁kuş	-3523
▁Buna	-3524
▁balık	-3525
▁image	-3526
▁powerful	-3527
ümet	-3528
▁mim	-3529
astic	-3530
▁turned	-3531
eme	-3532
▁stay	-3533
▁bakış	-3534
▁press	-3535
▁wonderful	-3536
▁90	-3537
▁Ör	-3538
▁hands	-3539
▁kural	-3540
tığım	-3541
verage	-3542
▁began	-3543
▁major	-3544
▁keşfet	-3545
▁strate	-3546
▁yardımcı	-3547
year	-3548
▁inde	-3549
50	-3550
▁uc	-3551
emat	-3552
aring	-3553
▁merak	-3554
▁yavaş	-3555
▁vermek	-3556
sh	-3557
▁kı	-3558
▁Jap	-3559
▁Ste	-3560
▁atmos	-3561
▁engel	-3562
ırı	-3563
▁cannot	-3564
▁yapılan	-3565
ydı	-3566
usal	-3567
▁Dem	-3568
▁beb	-3569
▁dayan	-3570
▁başına	-3571
▁nd	-3572
▁area	-3573
▁favor	-3574
▁behind	-3575
▁easy	-3576
▁bilin	-3577
▁terms	-3578
▁akl	-3579
▁vak	-3580
▁lider	-3581
▁humans	-3582
dən	-3583
cial	-3584
▁ess	-3585
lerdi	-3586
▁duyg	-3587
▁ident	-3588
▁geleceğ	-3589
eyen	-3590
▁low	-3591
▁dünyayı	-3592
rees	-3593
▁mole	-3594
▁mesaj	-3595
▁sistemi	-3596
▁realized	-3597
ükem	-3598
▁Bak	-3599
▁trad	-3600
▁çarp	-3601
▁needs	-3602
▁geçmiş	-3603
gar	-3604
▁green	-3605
▁population	-3606
iny	-3607
▁14	-3608
▁Hiç	-3609
▁altı	-3610
ılması	-3611
▁büyüm	-3612
▁during	-3613
▁meydan	-3614
▁economic	-3615
urt	-3616
▁ant	-3617
▁guys	-3618
▁Bizim	-3619
▁finally	-3620
▁game	-3621
▁yapıl	-3622
▁düşünc	-3623
eter	-3624
▁given	-3625
▁bor	-3626
▁enc	-3627
▁hesap	-3628
por	-3629
▁zih	-3630
▁coll	-3631
▁kalan	-3632
▁sorum	-3633
▁grand	-3634
▁parts	-3635
▁short	-3636
udience	-3637
▁behavior	-3638
▁stat	-3639
▁yapı	-3640
▁occ	-3641
▁okyan	-3642
▁seçim	-3643
▁kendini	-3644
▁ekonomik	-3645
▁çalışıyor	-3646
uyorum	-3647
▁198	-3648
ısıyla	-3649
▁dışarı	-3650
▁yukarı	-3651
eah	-3652
▁Ph	-3653
▁ana	-3654
▁pan	-3655
▁sym	-3656
▁büyü	-3657
▁ciddi	-3658
▁impro	-3659
▁ocean	-3660
▁çevir	-3661
▁değişim	-3662
▁Müz	-3663
▁chem	-3664
▁felt	-3665
ində	-3666
▁takip	-3667
diğinde	-3668
iversit	-3669
larıyla	-3670
▁öt	-3671
▁açı	-3672
▁yılda	-3673
▁hikaye	-3674
▁yüksel	-3675
osp	-3676
ison	-3677
▁fac	-3678
▁China	-3679
▁color	-3680
▁local	-3681
▁olmalı	-3682
▁sl	-3683
▁Par	-3684
itect	-3685
▁uzay	-3686
▁amount	-3687
▁etmeye	-3688
▁recogn	-3689
uss	-3690
imli	-3691
▁doct	-3692
▁father	-3693
▁başarılı	-3694
alara	-3695
lığın	-3696
teşem	-3697
▁odak	-3698
▁longer	-3699
▁görüyoruz	-3700
▁kesinlikle	-3701
▁mov	-3702
ordin	-3703
▁hastal	-3704
▁perform	-3705
bor	-3706
oph	-3707
ilar	-3708
▁Our	-3709
▁surv	-3710
▁media	-3711
▁başlam	-3712
▁strong	-3713
▁measure	-3714
▁surface	-3715
▁/	-3716
inize	-3717
▁beri	-3718
▁dark	-3719
▁viol	-3720
▁17	-3721
▁tot	-3722
ource	-3723
▁Le	-3724
▁Pek	-3725
▁non	-3726
▁tekn	-3727
▁çalışma	-3728
▁görünüyor	-3729
ded	-3730
▁Pr	-3731
ükemmel	-3732
inal	-3733
▁clos	-3734
▁fikr	-3735
▁inclu	-3736
▁repres	-3737
▁ability	-3738
▁ear	-3739
▁mah	-3740
ırlar	-3741
idence	-3742
▁scale	-3743
▁quickly	-3744
bette	-3745
manız	-3746
▁şiddet	-3747
▁special	-3748
▁Q	-3749
▁eşit	-3750
▁sürekli	-3751
▁İnsanlar	-3752
▁People	-3753
▁ilgilen	-3754
mediğ	-3755
▁iletişim	-3756
▁challenge	-3757
illa	-3758
▁nüf	-3759
▁vur	-3760
▁prop	-3761
▁dışında	-3762
amera	-3763
ladık	-3764
▁Right	-3765
alif	-3766
▁Mer	-3767
▁tav	-3768
tiler	-3769
▁deki	-3770
hood	-3771
ried	-3772
▁orig	-3773
▁Diğer	-3774
▁democr	-3775
ileş	-3776
▁mob	-3777
▁yourself	-3778
▁feed	-3779
▁hedef	-3780
▁simply	-3781
ıyorsunuz	-3782
▁kurt	-3783
▁yoğun	-3784
▁perfect	-3785
▁ler	-3786
▁zen	-3787
▁fall	-3788
▁devlet	-3789
▁kurtar	-3790
ledge	-3791
▁Öyle	-3792
▁growth	-3793
▁leaders	-3794
▁yapabilir	-3795
▁gerektiğini	-3796
▁13	-3797
ards	-3798
▁sek	-3799
▁event	-3800
▁absolut	-3801
ted	-3802
▁uf	-3803
mamış	-3804
▁asla	-3805
meleri	-3806
▁tried	-3807
▁başladık	-3808
▁şeye	-3809
ological	-3810
▁laborat	-3811
▁anlamına	-3812
düğ	-3813
ouch	-3814
rist	-3815
▁Dav	-3816
▁vol	-3817
uring	-3818
▁seri	-3819
▁personal	-3820
mekte	-3821
▁veri	-3822
▁relat	-3823
▁uygun	-3824
▁bulunan	-3825
▁physical	-3826
▁political	-3827
rum	-3828
ığın	-3829
▁teac	-3830
▁fight	-3831
▁yemek	-3832
▁Gerçekten	-3833
reds	-3834
rodu	-3835
▁Yeah	-3836
▁insp	-3837
▁priv	-3838
uyoruz	-3839
▁kimse	-3840
esinden	-3841
▁Birleş	-3842
▁bağlantı	-3843
▁binlerce	-3844
tıcı	-3845
▁Man	-3846
▁birey	-3847
▁eight	-3848
▁çocuklar	-3849
crib	-3850
▁ait	-3851
adığı	-3852
alama	-3853
▁konuda	-3854
tuğ	-3855
uydu	-3856
▁nef	-3857
▁tat	-3858
▁born	-3859
▁feet	-3860
▁işlem	-3861
▁ortam	-3862
▁haline	-3863
▁possib	-3864
loy	-3865
uth	-3866
▁lost	-3867
▁metre	-3868
▁ground	-3869
▁sitting	-3870
ele	-3871
row	-3872
▁ah	-3873
▁yes	-3874
▁obvi	-3875
▁harit	-3876
▁çocuğ	-3877
▁öğrend	-3878
▁nedenle	-3879
▁yaratıcı	-3880
▁zamanlar	-3881
▁yerleştir	-3882
oud	-3883
taki	-3884
duğum	-3885
▁evet	-3886
▁field	-3887
▁yaptım	-3888
▁architect	-3889
lerim	-3890
▁emot	-3891
▁gone	-3892
eceğiz	-3893
▁neigh	-3894
ills	-3895
▁che	-3896
▁dünyadaki	-3897
aman	-3898
▁Yes	-3899
▁ded	-3900
lıkla	-3901
▁defa	-3902
ımızın	-3903
▁Hat	-3904
▁requ	-3905
▁pract	-3906
▁yatırım	-3907
▁whatever	-3908
▁21	-3909
türe	-3910
▁adı	-3911
▁adım	-3912
ources	-3913
▁gidip	-3914
▁işaret	-3915
▁yılında	-3916
▁Car	-3917
▁Geç	-3918
▁yapm	-3919
▁Hayır	-3920
▁edecek	-3921
oon	-3922
▁Su	-3923
ived	-3924
▁known	-3925
▁changes	-3926
▁kah	-3927
▁squ	-3928
▁alış	-3929
▁spent	-3930
orld	-3931
▁oil	-3932
▁aldı	-3933
▁respons	-3934
endis	-3935
▁bağım	-3936
duğumuz	-3937
▁Avrupa	-3938
▁box	-3939
▁olduğum	-3940
▁emer	-3941
▁reach	-3942
▁interested	-3943
▁opportunity	-3944
bi	-3945
abor	-3946
▁arada	-3947
ısından	-3948
▁ediyorum	-3949
illi	-3950
▁weeks	-3951
▁elem	-3952
▁ifade	-3953
▁kurum	-3954
for	-3955
emiz	-3956
omen	-3957
▁ple	-3958
cious	-3959
▁caus	-3960
▁şark	-3961
ığında	-3962
▁Music	-3963
▁müzik	-3964
▁cha	-3965
▁gib	-3966
▁işi	-3967
fully	-3968
rafik	-3969
▁draw	-3970
▁telev	-3971
▁ziy	-3972
enden	-3973
▁şekl	-3974
▁kaybet	-3975
▁yalnızca	-3976
▁aw	-3977
▁ols	-3978
▁ağır	-3979
▁fish	-3980
lardır	-3981
▁lazım	-3982
▁value	-3983
▁suy	-3984
▁fast	-3985
▁kalk	-3986
▁derece	-3987
▁climate	-3988
▁olmadan	-3989
▁ten	-3990
unuyor	-3991
▁tabii	-3992
▁yayın	-3993
enüz	-3994
▁rek	-3995
▁başk	-3996
▁varsa	-3997
▁wouldn	-3998
▁present	-3999
▁elektrik	-4000
▁içerisinde	-4001
ych	-4002
▁tarz	-4003
▁based	-4004
▁düşük	-4005
▁olurdu	-4006
▁hundreds	-4007
▁ağaç	-4008
▁wall	-4009
▁shows	-4010
▁uzman	-4011
▁economy	-4012
▁hükümet	-4013
mur	-4014
▁giy	-4015
▁rev	-4016
▁white	-4017
▁predict	-4018
lüğ	-4019
▁Ken	-4020
inizin	-4021
▁consum	-4022
▁consider	-4023
▁sayesinde	-4024
şim	-4025
room	-4026
▁rap	-4027
anger	-4028
▁özgür	-4029
▁kas	-4030
aught	-4031
ladım	-4032
▁yıldız	-4033
umb	-4034
elere	-4035
▁conv	-4036
ematik	-4037
▁images	-4038
▁impact	-4039
com	-4040
pec	-4041
luğu	-4042
▁ill	-4043
▁mekan	-4044
▁silah	-4045
▁temiz	-4046
▁fundam	-4047
▁mükemmel	-4048
SA	-4049
io	-4050
▁alone	-4051
▁paper	-4052
▁techn	-4053
▁structure	-4054
iti	-4055
▁slow	-4056
▁material	-4057
▁photograph	-4058
▁understanding	-4059
bly	-4060
▁Örn	-4061
ırken	-4062
▁olma	-4063
▁brought	-4064
▁convers	-4065
▁experiment	-4066
IV	-4067
gn	-4068
mun	-4069
andı	-4070
ığım	-4071
▁kayı	-4072
▁fikri	-4073
tiğimiz	-4074
ites	-4075
▁ham	-4076
tığını	-4077
ij	-4078
ansız	-4079
▁görül	-4080
▁göstermek	-4081
üsü	-4082
▁lif	-4083
▁veren	-4084
▁zengin	-4085
▁gördük	-4086
▁feeling	-4087
▁evolution	-4088
▁vac	-4089
laştır	-4090
arlı	-4091
ding	-4092
üler	-4093
▁Kim	-4094
▁est	-4095
▁sum	-4096
▁tıp	-4097
▁ayrı	-4098
▁olası	-4099
▁mevcut	-4100
▁musunuz	-4101
ələr	-4102
▁die	-4103
▁endi	-4104
▁soft	-4105
▁çıktı	-4106
▁either	-4107
▁numbers	-4108
ray	-4109
▁tw	-4110
▁yazı	-4111
▁başlan	-4112
▁demokr	-4113
entially	-4114
ban	-4115
▁24	-4116
abet	-4117
tiği	-4118
▁ABD	-4119
▁HIV	-4120
▁korum	-4121
▁İngil	-4122
bileceğ	-4123
▁giving	-4124
▁profess	-4125
▁ste	-4126
▁blood	-4127
ades	-4128
▁diyor	-4129
▁sıcak	-4130
▁write	-4131
▁ayrıca	-4132
▁yıldır	-4133
▁birinin	-4134
▁morning	-4135
▁muhteşem	-4136
oid	-4137
▁Mu	-4138
ival	-4139
▁blue	-4140
▁gece	-4141
▁areas	-4142
▁millions	-4143
okta	-4144
ustain	-4145
▁aldığ	-4146
▁books	-4147
▁anlamak	-4148
▁approach	-4149
▁developed	-4150
▁scientists	-4151
▁verdi	-4152
▁maliyet	-4153
▁biliyorum	-4154
▁bilirsiniz	-4155
▁ice	-4156
▁köp	-4157
ımıza	-4158
▁fail	-4159
▁seems	-4160
▁pur	-4161
▁çat	-4162
▁dahil	-4163
▁endiş	-4164
▁mutlu	-4165
▁sinir	-4166
▁incredible	-4167
teki	-4168
▁Mes	-4169
▁tools	-4170
ipp	-4171
tle	-4172
view	-4173
▁fur	-4174
▁radi	-4175
▁road	-4176
go	-4177
▁camp	-4178
▁situ	-4179
▁average	-4180
əz	-4181
cum	-4182
▁cy	-4183
▁hon	-4184
letler	-4185
ümüzde	-4186
▁individual	-4187
meniz	-4188
▁sahib	-4189
▁fırsat	-4190
▁deg	-4191
▁bitir	-4192
▁dakika	-4193
▁growing	-4194
▁institut	-4195
▁patients	-4196
▁win	-4197
▁digital	-4198
▁telling	-4199
sil	-4200
ısız	-4201
▁text	-4202
▁psych	-4203
ression	-4204
erv	-4205
▁lay	-4206
▁malz	-4207
▁sayf	-4208
▁ters	-4209
▁cihaz	-4210
▁evrim	-4211
▁kanser	-4212
▁technologies	-4213
üstü	-4214
lanan	-4215
▁intellig	-4216
ışık	-4217
iness	-4218
▁Lond	-4219
▁cars	-4220
▁birini	-4221
alarının	-4222
▁ihtimal	-4223
▁kişisel	-4224
▁dönüştür	-4225
itch	-4226
▁araba	-4227
aban	-4228
▁gru	-4229
▁olduğunuz	-4230
lif	-4231
ayla	-4232
ibut	-4233
▁ball	-4234
▁girls	-4235
▁plant	-4236
▁bulmak	-4237
▁travel	-4238
▁hayatta	-4239
▁hepimiz	-4240
▁realize	-4241
▁starting	-4242
▁Dr	-4243
▁nun	-4244
▁yor	-4245
▁nokta	-4246
əh	-4247
malıyız	-4248
▁bottom	-4249
▁özellik	-4250
üb	-4251
eck	-4252
▁ur	-4253
▁foot	-4254
▁orman	-4255
▁takım	-4256
lıyorum	-4257
▁literally	-4258
rik	-4259
▁Tw	-4260
ardı	-4261
▁Mar	-4262
ators	-4263
▁hangi	-4264
▁uğraş	-4265
▁kilomet	-4266
▁uygulam	-4267
▁olabileceğ	-4268
aged	-4269
▁sud	-4270
▁comb	-4271
▁renk	-4272
▁medic	-4273
▁motor	-4274
▁süreç	-4275
sem	-4276
▁crit	-4277
▁enter	-4278
▁yaşında	-4279
▁tradition	-4280
▁kem	-4281
▁web	-4282
▁World	-4283
▁online	-4284
▁söyledi	-4285
▁X	-4286
eyin	-4287
sine	-4288
üper	-4289
▁İki	-4290
▁prom	-4291
▁attention	-4292
əd	-4293
▁kop	-4294
▁Chris	-4295
▁trust	-4296
▁çıkan	-4297
elerini	-4298
▁spread	-4299
ayısıyla	-4300
lies	-4301
▁soy	-4302
▁tanış	-4303
▁forward	-4304
▁olmadığı	-4305
cis	-4306
pan	-4307
▁fab	-4308
▁çap	-4309
▁knowledge	-4310
diy	-4311
iyel	-4312
▁unut	-4313
▁sudden	-4314
▁okyanus	-4315
▁öğretmen	-4316
▁flo	-4317
▁hap	-4318
▁asıl	-4319
▁teor	-4320
▁nerede	-4321
▁explain	-4322
▁veriyor	-4323
▁Üç	-4324
port	-4325
▁piy	-4326
▁dolu	-4327
▁olacağını	-4328
▁beyaz	-4329
▁hy	-4330
▁ayn	-4331
▁sem	-4332
▁miles	-4333
▁wrote	-4334
▁proper	-4335
▁tedavi	-4336
▁development	-4337
▁ileri	-4338
iyy	-4339
luluk	-4340
ption	-4341
▁clear	-4342
▁geçer	-4343
▁Amerikan	-4344
▁yaptığım	-4345
like	-4346
▁Rob	-4347
etrol	-4348
▁post	-4349
▁touch	-4350
ilebilir	-4351
bu	-4352
ny	-4353
izm	-4354
emez	-4355
▁197	-4356
▁ach	-4357
▁eat	-4358
ilmesi	-4359
inizde	-4360
▁Müzik	-4361
▁İngiliz	-4362
echan	-4363
liğin	-4364
▁Yeni	-4365
▁hosp	-4366
▁tabi	-4367
▁thank	-4368
▁yaptı	-4369
▁theory	-4370
larımızı	-4371
lerimizi	-4372
▁söylemek	-4373
ıntı	-4374
▁arg	-4375
▁gücü	-4376
▁parça	-4377
aliforn	-4378
▁fiziksel	-4379
cil	-4380
▁jo	-4381
eşil	-4382
▁kir	-4383
izing	-4384
▁kavram	-4385
▁oluşan	-4386
▁sebebi	-4387
▁describ	-4388
▁Sor	-4389
▁hit	-4390
▁hor	-4391
ister	-4392
▁vide	-4393
▁animal	-4394
▁buraya	-4395
▁Uz	-4396
▁sn	-4397
asal	-4398
▁500	-4399
▁Kon	-4400
▁ces	-4401
▁müc	-4402
▁rad	-4403
▁bomb	-4404
irst	-4405
▁Onun	-4406
▁mühendis	-4407
▁recently	-4408
▁sağlıyor	-4409
oğu	-4410
▁ut	-4411
asit	-4412
▁imagin	-4413
▁herkesin	-4414
▁Es	-4415
amay	-4416
▁yapabileceğ	-4417
ete	-4418
duğu	-4419
asing	-4420
urity	-4421
▁With	-4422
▁amaç	-4423
▁redu	-4424
▁aldım	-4425
▁voice	-4426
meliyiz	-4427
▁intern	-4428
▁tehlik	-4429
▁movement	-4430
lah	-4431
▁kel	-4432
▁zek	-4433
mıştı	-4434
▁flow	-4435
▁rele	-4436
▁gittiğ	-4437
adığımız	-4438
▁çab	-4439
▁soon	-4440
ikleri	-4441
▁Artık	-4442
▁South	-4443
▁truth	-4444
▁zaten	-4445
▁çoğun	-4446
▁anyone	-4447
pecially	-4448
▁kendimi	-4449
▁creating	-4450
▁birleştir	-4451
▁Re	-4452
ency	-4453
▁bay	-4454
▁vere	-4455
▁kısmı	-4456
▁worth	-4457
din	-4458
▁oğ	-4459
erson	-4460
sünüz	-4461
▁tiny	-4462
▁karak	-4463
dit	-4464
▁Öz	-4465
▁map	-4466
▁sar	-4467
diniz	-4468
▁edil	-4469
▁nice	-4470
▁center	-4471
aly	-4472
ows	-4473
sul	-4474
▁peri	-4475
▁pazar	-4476
▁smart	-4477
▁saldır	-4478
▁196	-4479
▁ton	-4480
anlık	-4481
lamaya	-4482
▁Hayat	-4483
▁dakik	-4484
▁gives	-4485
▁forest	-4486
▁sustain	-4487
▁araştırma	-4488
▁hayır	-4489
▁polic	-4490
▁verdim	-4491
▁Örneğin	-4492
▁Birleşik	-4493
▁çalışmak	-4494
▁generation	-4495
bo	-4496
azz	-4497
▁Brit	-4498
▁solar	-4499
lâ	-4500
ps	-4501
inci	-4502
▁avail	-4503
▁dünyaya	-4504
▁yapacak	-4505
▁electric	-4506
▁mathemat	-4507
▁şeylerden	-4508
ero	-4509
haf	-4510
▁Ak	-4511
dığı	-4512
▁mult	-4513
▁villa	-4514
▁concept	-4515
▁gerekli	-4516
▁gerçekleştir	-4517
▁Don	-4518
▁cool	-4519
▁curr	-4520
▁henüz	-4521
▁yakal	-4522
▁eg	-4523
▁Ver	-4524
▁sea	-4525
▁azal	-4526
▁fakir	-4527
▁gözük	-4528
▁carbon	-4529
▁journey	-4530
▁adlandır	-4531
▁changing	-4532
▁kadınlar	-4533
▁By	-4534
▁Of	-4535
tract	-4536
▁Herk	-4537
▁vücud	-4538
▁similar	-4539
▁kam	-4540
▁sug	-4541
▁yık	-4542
▁path	-4543
▁distr	-4544
▁asking	-4545
▁matematik	-4546
▁affect	-4547
ung	-4548
▁arm	-4549
uyorlar	-4550
▁başlat	-4551
▁visual	-4552
ülebilir	-4553
▁Inst	-4554
▁alak	-4555
▁industry	-4556
▁rak	-4557
▁gelip	-4558
▁solve	-4559
▁gördüm	-4560
▁bakalım	-4561
mızı	-4562
▁Dol	-4563
▁diş	-4564
▁guess	-4565
▁nüfus	-4566
▁gelenek	-4567
▁discovered	-4568
ky	-4569
head	-4570
itiz	-4571
▁ufak	-4572
▁benef	-4573
▁siyah	-4574
▁depend	-4575
las	-4576
▁Se	-4577
inda	-4578
▁fır	-4579
▁aren	-4580
lığa	-4581
▁dou	-4582
▁ruh	-4583
icans	-4584
▁fayd	-4585
▁umut	-4586
▁sürdür	-4587
▁solution	-4588
ıb	-4589
yen	-4590
▁hot	-4591
müyor	-4592
▁aracı	-4593
▁stage	-4594
▁meydana	-4595
iyorlardı	-4596
▁yetiştir	-4597
▁gec	-4598
▁tec	-4599
▁dead	-4600
▁belli	-4601
▁oraya	-4602
▁tüket	-4603
ersiniz	-4604
▁endüst	-4605
▁transform	-4606
▁defin	-4607
▁yıllık	-4608
▁English	-4609
▁istedik	-4610
▁putting	-4611
▁pictures	-4612
▁computers	-4613
▁especially	-4614
eff	-4615
ülü	-4616
aceb	-4617
aller	-4618
▁port	-4619
▁attack	-4620
▁produce	-4621
lete	-4622
▁Yaş	-4623
▁ult	-4624
▁dalg	-4625
▁rate	-4626
iya	-4627
▁1.	-4628
adem	-4629
emey	-4630
▁eye	-4631
▁prim	-4632
▁track	-4633
▁device	-4634
▁Və	-4635
ağan	-4636
pris	-4637
▁cop	-4638
obody	-4639
▁Güney	-4640
▁çalışmalar	-4641
əş	-4642
amı	-4643
iled	-4644
uluğ	-4645
▁hab	-4646
▁neg	-4647
sın	-4648
▁mechan	-4649
▁suggest	-4650
ept	-4651
mas	-4652
▁Yak	-4653
▁div	-4654
▁Kuzey	-4655
▁bebek	-4656
▁meaning	-4657
▁running	-4658
▁subject	-4659
▁şeylerin	-4660
anlar	-4661
▁disp	-4662
▁kimi	-4663
▁vari	-4664
▁ülke	-4665
▁among	-4666
▁eğlen	-4667
▁force	-4668
▁imkan	-4669
alarına	-4670
▁period	-4671
▁showed	-4672
▁yiyecek	-4673
aks	-4674
▁Gr	-4675
▁gerç	-4676
▁likely	-4677
▁mücade	-4678
ılabilir	-4679
▁karakter	-4680
arası	-4681
▁lived	-4682
▁görsel	-4683
ebilirim	-4684
▁biçimde	-4685
▁available	-4686
▁absolutely	-4687
ube	-4688
ahat	-4689
▁300	-4690
▁hid	-4691
yse	-4692
▁AI	-4693
ınca	-4694
ciler	-4695
itter	-4696
▁baby	-4697
▁kalp	-4698
▁ulus	-4699
▁olmaz	-4700
▁choice	-4701
▁search	-4702
▁sounds	-4703
ebilecek	-4704
▁sanırım	-4705
ücü	-4706
▁bacter	-4707
▁yaratmak	-4708
tadır	-4709
ımızda	-4710
▁olmaya	-4711
▁several	-4712
insel	-4713
▁David	-4714
▁algor	-4715
▁Char	-4716
▁alet	-4717
▁issue	-4718
▁karde	-4719
▁shape	-4720
▁chance	-4721
▁neighbor	-4722
gıç	-4723
eral	-4724
▁dij	-4725
phere	-4726
▁auth	-4727
▁kamp	-4728
▁çizg	-4729
iction	-4730
▁Where	-4731
▁apart	-4732
▁drive	-4733
▁gittim	-4734
uly	-4735
▁eks	-4736
▁saç	-4737
dular	-4738
ısınız	-4739
▁beyond	-4740
▁ir	-4741
▁nör	-4742
▁okum	-4743
▁save	-4744
▁groups	-4745
▁azından	-4746
▁innovation	-4747
▁nam	-4748
▁conc	-4749
leyici	-4750
▁çocukların	-4751
ıc	-4752
▁kok	-4753
izyon	-4754
▁rain	-4755
▁sess	-4756
ısında	-4757
eceğini	-4758
▁bakter	-4759
▁sayıda	-4760
▁bitk	-4761
▁doğr	-4762
▁yerel	-4763
▁iyileş	-4764
▁developing	-4765
▁Kan	-4766
▁mir	-4767
▁atom	-4768
ilerine	-4769
▁becomes	-4770
▁yanında	-4771
▁ediyoruz	-4772
▁topluluk	-4773
▁bakarsanız	-4774
iğin	-4775
▁Col	-4776
▁Hey	-4777
▁soğ	-4778
▁died	-4779
▁galax	-4780
▁yüzey	-4781
▁designed	-4782
▁yapıyoruz	-4783
idge	-4784
ique	-4785
tiğim	-4786
▁heps	-4787
▁mese	-4788
▁finan	-4789
▁verdik	-4790
▁yenilik	-4791
▁incredibly	-4792
▁iP	-4793
▁kill	-4794
▁sefer	-4795
▁extrem	-4796
▁nedeni	-4797
▁dijital	-4798
▁edilmiş	-4799
▁♪	-4800
aur	-4801
itu	-4802
▁pul	-4803
▁cause	-4804
▁capital	-4805
▁kişinin	-4806
▁playing	-4807
▁Per	-4808
ledik	-4809
▁rules	-4810
▁yaşlı	-4811
▁kendisi	-4812
▁audience	-4813
ised	-4814
▁kök	-4815
▁Look	-4816
▁Nasıl	-4817
▁yapar	-4818
▁petrol	-4819
▁yüzyıl	-4820
▁yapılmış	-4821
by	-4822
▁hər	-4823
▁Arab	-4824
▁mikt	-4825
▁Sonuç	-4826
▁derecede	-4827
maq	-4828
osy	-4829
▁kıy	-4830
▁tic	-4831
▁plat	-4832
▁kanıt	-4833
▁micro	-4834
▁action	-4835
▁danger	-4836
▁medical	-4837
▁acı	-4838
▁imk	-4839
▁alır	-4840
masına	-4841
▁achie	-4842
▁cover	-4843
▁sabah	-4844
▁altern	-4845
▁bigger	-4846
▁talked	-4847
▁towards	-4848
▁resources	-4849
rin	-4850
▁TV	-4851
▁haven	-4852
▁olursa	-4853
▁istedim	-4854
adın	-4855
▁ard	-4856
▁tit	-4857
▁unf	-4858
▁patient	-4859
▁reasons	-4860
▁perspect	-4861
▁ken	-4862
▁mağ	-4863
▁code	-4864
▁dile	-4865
▁fant	-4866
▁Hatta	-4867
▁movie	-4868
iyordum	-4869
▁gittik	-4870
▁objects	-4871
▁olacaktır	-4872
▁değişiklik	-4873
▁olduklarını	-4874
ffer	-4875
▁aldık	-4876
▁aşırı	-4877
▁Christ	-4878
▁yeterli	-4879
iliyorsunuz	-4880
ibr	-4881
▁prev	-4882
▁reli	-4883
▁First	-4884
▁activ	-4885
acebook	-4886
▁plants	-4887
▁bununla	-4888
▁gösteren	-4889
ai	-4890
yl	-4891
▁Ek	-4892
ledi	-4893
ıklı	-4894
▁kod	-4895
▁yum	-4896
▁rece	-4897
▁stru	-4898
▁uyum	-4899
▁speed	-4900
▁kendine	-4901
▁buradaki	-4902
▁evidence	-4903
▁function	-4904
▁extraordin	-4905
▁biliyorsunuz	-4906
itor	-4907
▁sle	-4908
▁nine	-4909
▁gözlem	-4910
▁kişiler	-4911
▁showing	-4912
▁Facebook	-4913
▁potential	-4914
▁insanlarla	-4915
ku	-4916
ınday	-4917
▁dans	-4918
▁etme	-4919
▁bilər	-4920
▁react	-4921
▁stick	-4922
▁issues	-4923
ustr	-4924
cient	-4925
▁fair	-4926
▁except	-4927
▁software	-4928
▁yerlerde	-4929
▁communities	-4930
▁particularly	-4931
son	-4932
örü	-4933
over	-4934
▁War	-4935
▁flu	-4936
▁sad	-4937
elerde	-4938
ughter	-4939
▁basic	-4940
ountain	-4941
ırsınız	-4942
▁involved	-4943
enn	-4944
iple	-4945
ples	-4946
▁cep	-4947
alarda	-4948
▁bazıları	-4949
▁İç	-4950
▁Ber	-4951
▁ast	-4952
▁haft	-4953
▁necess	-4954
▁temsil	-4955
▁message	-4956
▁pil	-4957
ender	-4958
tedir	-4959
▁gide	-4960
▁alıyor	-4961
▁appear	-4962
▁kurtul	-4963
▁tap	-4964
ınıza	-4965
▁type	-4966
▁yans	-4967
▁sanki	-4968
▁Birkaç	-4969
▁fem	-4970
▁near	-4971
▁psik	-4972
▁sağlayan	-4973
▁character	-4974
▁ox	-4975
atif	-4976
▁Mic	-4977
▁nor	-4978
▁hikâ	-4979
assion	-4980
▁süper	-4981
▁açısından	-4982
gg	-4983
şı	-4984
ali	-4985
oes	-4986
▁breat	-4987
▁Mesela	-4988
▁fundamental	-4989
▁milyonlarca	-4990
▁Gö	-4991
▁arr	-4992
▁role	-4993
▁sell	-4994
▁sesi	-4995
▁clean	-4996
▁resmi	-4997
▁Sanırım	-4998
▁surpris	-4999
DS	-5000
ati	-5001
▁mavi	-5002
▁ilham	-5003
▁compet	-5004
əq	-5005
lict	-5006
▁Top	-5007
ersiz	-5008
▁craz	-5009
▁kimy	-5010
▁concer	-5011
▁yüzünden	-5012
▁zamanlarda	-5013
▁teşekkürler	-5014
▁ma	-5015
▁Dar	-5016
▁ateş	-5017
lığını	-5018
▁Tanrı	-5019
▁camera	-5020
▁screen	-5021
▁vision	-5022
▁connected	-5023
▁Hol	-5024
▁Who	-5025
ified	-5026
▁göst	-5027
▁işin	-5028
alıyız	-5029
▁Başka	-5030
▁birden	-5031
▁yapabil	-5032
▁kullanmak	-5033
uf	-5034
rav	-5035
tum	-5036
▁Er	-5037
▁Ol	-5038
ores	-5039
▁Mil	-5040
▁Maybe	-5041
▁secret	-5042
▁African	-5043
▁hundred	-5044
▁conscious	-5045
▁situation	-5046
gth	-5047
alle	-5048
fort	-5049
iliği	-5050
▁After	-5051
adığını	-5052
▁olağan	-5053
▁yetenek	-5054
ze	-5055
cih	-5056
tuk	-5057
▁Fran	-5058
▁princ	-5059
▁mesela	-5060
▁ortalama	-5061
iet	-5062
ished	-5063
▁edir	-5064
▁citiz	-5065
▁report	-5066
▁girişim	-5067
▁progress	-5068
yr	-5069
unç	-5070
ümü	-5071
ellow	-5072
irler	-5073
▁Kendi	-5074
licated	-5075
▁knows	-5076
▁malzem	-5077
▁walking	-5078
▁Tr	-5079
▁Sağ	-5080
arily	-5081
istik	-5082
ishing	-5083
▁trees	-5084
▁virus	-5085
▁push	-5086
▁etkili	-5087
▁examples	-5088
▁security	-5089
▁şaşırtıcı	-5090
▁NA	-5091
mers	-5092
▁skin	-5093
▁North	-5094
▁starts	-5095
▁schools	-5096
iyorsunuz	-5097
akes	-5098
▁syn	-5099
verty	-5100
▁köpek	-5101
▁meant	-5102
▁değilim	-5103
▁konuşma	-5104
▁poverty	-5105
▁violence	-5106
liğe	-5107
▁pros	-5108
▁civil	-5109
▁drugs	-5110
▁moved	-5111
▁akıllı	-5112
▁molecu	-5113
▁results	-5114
▁writing	-5115
▁platform	-5116
▁üzerinden	-5117
aket	-5118
▁corn	-5119
▁indir	-5120
▁kitab	-5121
▁yaban	-5122
▁yeşil	-5123
▁street	-5124
▁tercih	-5125
▁colleag	-5126
more	-5127
▁400	-5128
▁Düş	-5129
▁Adam	-5130
▁represent	-5131
uel	-5132
▁Onu	-5133
stein	-5134
▁drug	-5135
▁proje	-5136
ference	-5137
▁tanesi	-5138
▁fazlası	-5139
▁istiyoruz	-5140
ior	-5141
▁Was	-5142
▁kum	-5143
antly	-5144
oloji	-5145
ounds	-5146
▁onto	-5147
▁safe	-5148
▁azalt	-5149
▁crazy	-5150
▁karbon	-5151
▁further	-5152
▁konuşmak	-5153
aul	-5154
ıyım	-5155
astik	-5156
oming	-5157
▁halde	-5158
▁baktığ	-5159
▁bulduk	-5160
▁deliver	-5161
▁general	-5162
▁gördüğümüz	-5163
üld	-5164
▁Ann	-5165
▁yoksa	-5166
▁choose	-5167
▁söylen	-5168
ilerinin	-5169
▁continue	-5170
▁scientific	-5171
▁göstereceğim	-5172
▁log	-5173
mıyor	-5174
▁ucuz	-5175
▁stars	-5176
▁farket	-5177
▁sahibi	-5178
▁biggest	-5179
▁Amerikalı	-5180
▁certainly	-5181
▁inanıyorum	-5182
ify	-5183
rom	-5184
▁kuv	-5185
▁Park	-5186
▁buld	-5187
▁tend	-5188
▁sokak	-5189
▁national	-5190
iq	-5191
icle	-5192
▁gəl	-5193
icians	-5194
▁molek	-5195
▁satın	-5196
▁anlamda	-5197
mək	-5198
▁Yüz	-5199
▁Most	-5200
▁blog	-5201
▁herşey	-5202
▁noktada	-5203
▁revolution	-5204
▁yapıyorlar	-5205
▁Sec	-5206
▁enj	-5207
▁AIDS	-5208
▁kims	-5209
▁oldum	-5210
▁toplam	-5211
▁anybody	-5212
▁Tam	-5213
▁fix	-5214
▁eriş	-5215
ressed	-5216
▁iklim	-5217
▁işler	-5218
▁ready	-5219
▁senin	-5220
ibility	-5221
▁faster	-5222
olf	-5223
ilim	-5224
▁dog	-5225
▁fit	-5226
▁kart	-5227
▁yedi	-5228
▁budur	-5229
▁offer	-5230
▁compassion	-5231
sü	-5232
▁Mc	-5233
landı	-5234
▁okuy	-5235
▁rich	-5236
▁writ	-5237
▁wants	-5238
▁başlar	-5239
▁İkinci	-5240
▁çeşitli	-5241
▁materials	-5242
▁olduğundan	-5243
road	-5244
text	-5245
ısına	-5246
▁eyle	-5247
▁explor	-5248
▁keşfed	-5249
▁zamanı	-5250
▁yapabiliriz	-5251
gü	-5252
▁ip	-5253
▁Bar	-5254
▁deb	-5255
▁West	-5256
▁hang	-5257
▁wish	-5258
▁garip	-5259
▁print	-5260
▁durdur	-5261
▁olanlar	-5262
▁bilimsel	-5263
▁Are	-5264
▁Tod	-5265
▁öde	-5266
▁Batı	-5267
▁isim	-5268
▁rema	-5269
ensive	-5270
▁carry	-5271
▁creative	-5272
▁getirmek	-5273
con	-5274
emi	-5275
▁Ah	-5276
▁Ün	-5277
ilies	-5278
▁rast	-5279
▁spir	-5280
lemeye	-5281
▁ilgil	-5282
▁notice	-5283
▁sağlam	-5284
larımızın	-5285
▁olmasını	-5286
▁perspective	-5287
▁olun	-5288
enomen	-5289
isions	-5290
▁democracy	-5291
eces	-5292
edom	-5293
ucle	-5294
▁vat	-5295
imden	-5296
▁işle	-5297
▁gitmek	-5298
▁günlük	-5299
malarını	-5300
dın	-5301
geç	-5302
ips	-5303
lit	-5304
▁door	-5305
▁sahn	-5306
▁higher	-5307
▁threat	-5308
▁üretim	-5309
▁exciting	-5310
▁gerçekte	-5311
can	-5312
mit	-5313
malı	-5314
amaya	-5315
edeki	-5316
ultur	-5317
▁adlı	-5318
asyonu	-5319
▁etmiş	-5320
▁accept	-5321
▁kırmızı	-5322
▁ihtiyacı	-5323
▁sağlıklı	-5324
▁Dolayısıyla	-5325
▁uçak	-5326
mesine	-5327
▁Tabii	-5328
▁alanı	-5329
▁obser	-5330
▁introdu	-5331
▁içindeki	-5332
hi	-5333
▁eve	-5334
▁link	-5335
▁öner	-5336
▁genes	-5337
▁immedi	-5338
▁rights	-5339
▁terror	-5340
melerini	-5341
▁improve	-5342
▁korkunç	-5343
▁protein	-5344
▁örneğin	-5345
▁projects	-5346
▁genellikle	-5347
▁Em	-5348
▁Ob	-5349
▁Değ	-5350
osing	-5351
▁Geor	-5352
▁tree	-5353
lished	-5354
▁kapat	-5355
▁college	-5356
▁families	-5357
ami	-5358
cel	-5359
ped	-5360
ült	-5361
ılı	-5362
redi	-5363
ection	-5364
liğini	-5365
ustral	-5366
▁çıkıyor	-5367
▁edebilir	-5368
▁machines	-5369
▁Sw	-5370
ires	-5371
▁Pol	-5372
▁grew	-5373
▁meth	-5374
lerdir	-5375
▁aktiv	-5376
▁duvar	-5377
▁ölçek	-5378
▁totally	-5379
▁conflict	-5380
▁İnternet	-5381
mes	-5382
ney	-5383
▁Öğ	-5384
▁table	-5385
▁models	-5386
▁potans	-5387
▁sorular	-5388
▁favorite	-5389
▁olduğunda	-5390
▁seviyorum	-5391
how	-5392
cape	-5393
ləri	-5394
▁Con	-5395
▁2000	-5396
▁okay	-5397
▁blind	-5398
▁tedav	-5399
▁virüs	-5400
▁prison	-5401
▁suffer	-5402
olutions	-5403
▁karanlık	-5404
▁obviously	-5405
▁bilmiyorum	-5406
▁extraordinary	-5407
▁nə	-5408
örün	-5409
▁Bey	-5410
▁hop	-5411
arsak	-5412
itary	-5413
▁icin	-5414
▁dolaş	-5415
▁mikro	-5416
acaktır	-5417
▁anlama	-5418
acağımız	-5419
▁oldukları	-5420
▁conversation	-5421
jen	-5422
▁Bab	-5423
antum	-5424
▁Even	-5425
▁diag	-5426
▁Biraz	-5427
▁cross	-5428
▁türlü	-5429
▁miktar	-5430
▁daughter	-5431
wood	-5432
▁fon	-5433
▁led	-5434
ances	-5435
▁anne	-5436
▁assum	-5437
▁becer	-5438
▁denem	-5439
▁taught	-5440
▁collabor	-5441
▁Ex	-5442
ense	-5443
çiler	-5444
▁dram	-5445
▁star	-5446
▁relig	-5447
▁source	-5448
▁Twitter	-5449
▁village	-5450
acık	-5451
▁gay	-5452
▁köy	-5453
▁wife	-5454
▁buluş	-5455
▁largest	-5456
▁particip	-5457
▁everywhere	-5458
▁complicated	-5459
dük	-5460
madı	-5461
▁şah	-5462
ksiyon	-5463
▁birth	-5464
▁shown	-5465
▁açıdan	-5466
▁yoktur	-5467
▁context	-5468
▁chemical	-5469
▁bunlardan	-5470
▁karşılaştır	-5471
oo	-5472
lıy	-5473
mic	-5474
▁nde	-5475
andaş	-5476
▁virt	-5477
▁Afrik	-5478
▁giden	-5479
▁yarar	-5480
▁nereye	-5481
▁elbette	-5482
▁görebil	-5483
▁rahatsız	-5484
▁eventually	-5485
▁essentially	-5486
kn	-5487
cisi	-5488
▁150	-5489
▁Den	-5490
▁Ner	-5491
lenmiş	-5492
▁miyiz	-5493
▁Onları	-5494
▁edilen	-5495
▁passion	-5496
▁quality	-5497
▁olmayacak	-5498
düm	-5499
igr	-5500
▁gı	-5501
iyer	-5502
▁Ima	-5503
lukla	-5504
makta	-5505
ruction	-5506
▁increase	-5507
▁üzerindeki	-5508
key	-5509
▁Kur	-5510
▁ettir	-5511
▁buldum	-5512
▁genetik	-5513
▁individuals	-5514
▁kendilerini	-5515
lav	-5516
▁Kö	-5517
▁üc	-5518
▁adult	-5519
▁gazet	-5520
▁nucle	-5521
▁separ	-5522
▁waste	-5523
▁student	-5524
▁hospital	-5525
▁patterns	-5526
▁standing	-5527
▁teachers	-5528
▁watching	-5529
▁yüzlerce	-5530
▁başarısız	-5531
amm	-5532
ipt	-5533
▁Sc	-5534
onse	-5535
▁Rus	-5536
▁yax	-5537
▁fing	-5538
▁lose	-5539
ission	-5540
▁babam	-5541
▁göreb	-5542
▁lower	-5543
▁retur	-5544
▁sleep	-5545
▁teknik	-5546
▁bacteria	-5547
fen	-5548
ief	-5549
the	-5550
▁ko	-5551
celi	-5552
isik	-5553
ısının	-5554
▁izley	-5555
▁yürüy	-5556
▁sinyal	-5557
ford	-5558
▁dim	-5559
▁scr	-5560
▁aray	-5561
others	-5562
▁Orada	-5563
▁önceki	-5564
▁sağlamak	-5565
▁önemlisi	-5566
ortunately	-5567
▁buildings	-5568
▁geleneksel	-5569
▁intelligence	-5570
kop	-5571
▁cli	-5572
▁siv	-5573
▁mine	-5574
▁orta	-5575
ilities	-5576
▁launch	-5577
▁office	-5578
▁bilgiyi	-5579
▁activity	-5580
▁supposed	-5581
pend	-5582
rage	-5583
▁teşv	-5584
▁worse	-5585
▁sonsuz	-5586
lararası	-5587
▁üstünde	-5588
▁including	-5589
▁traditional	-5590
əyə	-5591
come	-5592
eyle	-5593
ilər	-5594
ners	-5595
ured	-5596
ildik	-5597
▁hack	-5598
▁hiss	-5599
▁hâlâ	-5600
▁icat	-5601
▁named	-5602
▁yarış	-5603
▁kardeş	-5604
▁robots	-5605
▁extremely	-5606
▁dek	-5607
▁cart	-5608
▁etik	-5609
▁motiv	-5610
▁older	-5611
▁tells	-5612
▁doctor	-5613
▁üçüncü	-5614
ebiliyor	-5615
▁thousand	-5616
▁kendimizi	-5617
çuk	-5618
▁üy	-5619
anan	-5620
isms	-5621
▁Sen	-5622
▁İyi	-5623
▁grad	-5624
▁rady	-5625
▁stra	-5626
▁Japan	-5627
▁Today	-5628
▁yapmış	-5629
▁yoksul	-5630
▁ziyaret	-5631
akt	-5632
kın	-5633
mür	-5634
ches	-5635
rial	-5636
▁Sah	-5637
▁gül	-5638
enler	-5639
▁goal	-5640
▁deter	-5641
▁taşıy	-5642
arsınız	-5643
▁durumu	-5644
▁imposs	-5645
▁nobody	-5646
▁allowed	-5647
▁decision	-5648
▁mücadele	-5649
ateg	-5650
mail	-5651
umun	-5652
eceği	-5653
ground	-5654
▁above	-5655
▁kayıt	-5656
▁liber	-5657
▁response	-5658
▁değiştirmek	-5659
▁Gel	-5660
▁köş	-5661
ımdan	-5662
▁Beni	-5663
▁cris	-5664
▁sequ	-5665
▁check	-5666
▁graph	-5667
▁parad	-5668
▁truly	-5669
▁effici	-5670
▁gerektir	-5671
▁products	-5672
ops	-5673
sef	-5674
ulu	-5675
▁tu	-5676
▁bus	-5677
▁lau	-5678
▁nesn	-5679
▁webs	-5680
isiniz	-5681
▁brains	-5682
abilirim	-5683
▁görecek	-5684
▁neurons	-5685
lüm	-5686
eria	-5687
sequ	-5688
urken	-5689
▁Paul	-5690
▁madd	-5691
▁Those	-5692
▁düşünmeye	-5693
▁İnsanların	-5694
bit	-5695
ium	-5696
▁Um	-5697
▁va	-5698
▁ödül	-5699
▁earli	-5700
▁games	-5701
▁teles	-5702
▁Birçok	-5703
▁Bundan	-5704
▁adında	-5705
▁sessiz	-5706
▁alakalı	-5707
▁usually	-5708
▁jump	-5709
▁site	-5710
▁larger	-5711
▁temper	-5712
ims	-5713
▁gas	-5714
▁Alman	-5715
▁biçim	-5716
▁block	-5717
▁zarar	-5718
elerden	-5719
▁hastan	-5720
alarında	-5721
▁güvenli	-5722
▁değerlendir	-5723
pe	-5724
▁Ə	-5725
lor	-5726
ığa	-5727
▁Ed	-5728
▁Med	-5729
▁Mən	-5730
▁cez	-5731
▁tecr	-5732
▁lands	-5733
▁Pekala	-5734
▁disapp	-5735
▁region	-5736
▁söyler	-5737
▁karşılık	-5738
▁yaparken	-5739
▁poz	-5740
▁tanı	-5741
▁günde	-5742
▁lines	-5743
▁vücut	-5744
▁düşündük	-5745
▁birbirine	-5746
▁increasing	-5747
aid	-5748
bat	-5749
eren	-5750
▁Act	-5751
▁ret	-5752
▁rüz	-5753
▁sıf	-5754
uştur	-5755
▁late	-5756
▁purp	-5757
▁sekiz	-5758
ultural	-5759
▁sorunu	-5760
▁yaşıyor	-5761
▁suddenly	-5762
▁arkadaşım	-5763
▁successful	-5764
▁çalışıyoruz	-5765
ror	-5766
une	-5767
▁Aç	-5768
▁Bl	-5769
▁cat	-5770
▁sli	-5771
icial	-5772
ılgın	-5773
▁vars	-5774
▁bunch	-5775
▁dedik	-5776
▁işbir	-5777
▁işlet	-5778
▁Burası	-5779
▁altına	-5780
▁effort	-5781
▁etkisi	-5782
▁insanı	-5783
▁parmak	-5784
▁achieve	-5785
▁odaklan	-5786
▁anlamaya	-5787
▁sırasında	-5788
▁yönlendir	-5789
zer	-5790
▁nö	-5791
▁yi	-5792
ehir	-5793
▁influ	-5794
duğunuz	-5795
▁allows	-5796
▁pieces	-5797
▁remind	-5798
▁respond	-5799
▁Californ	-5800
▁painting	-5801
▁signific	-5802
▁yeterince	-5803
bur	-5804
beve	-5805
▁nan	-5806
▁pah	-5807
aking	-5808
▁aşam	-5809
▁rakam	-5810
▁teacher	-5811
▁yaparak	-5812
RI	-5813
▁tır	-5814
cılar	-5815
uyordu	-5816
▁Geçen	-5817
▁moral	-5818
▁profes	-5819
▁sahibiz	-5820
▁medicine	-5821
▁De	-5822
▁Et	-5823
oken	-5824
▁Mat	-5825
▁koc	-5826
▁earth	-5827
▁kamer	-5828
meyecek	-5829
▁geriye	-5830
▁belirli	-5831
▁excited	-5832
▁serious	-5833
▁etrafında	-5834
▁conditions	-5835
▁impossible	-5836
cal	-5837
eci	-5838
gery	-5839
▁Cent	-5840
▁ikna	-5841
▁ilgi	-5842
▁nesil	-5843
▁peace	-5844
▁Herkes	-5845
▁detail	-5846
▁zorluk	-5847
ümüzdeki	-5848
▁service	-5849
▁recognize	-5850
▁architecture	-5851
▁”	-5852
det	-5853
sey	-5854
ason	-5855
emen	-5856
▁müş	-5857
▁rom	-5858
▁tel	-5859
▁Bang	-5860
beveyn	-5861
estern	-5862
▁bilinç	-5863
▁kuvvet	-5864
▁olmasına	-5865
▁geldiğini	-5866
▁governments	-5867
▁CO	-5868
▁Ein	-5869
▁City	-5870
▁wait	-5871
▁forms	-5872
leriniz	-5873
▁indeed	-5874
▁ediyorlar	-5875
▁kadınların	-5876
▁olağanüstü	-5877
win	-5878
liliğ	-5879
thern	-5880
ütfen	-5881
▁bekl	-5882
▁fire	-5883
lıklar	-5884
▁düzey	-5885
▁afford	-5886
▁points	-5887
▁toprak	-5888
▁önünde	-5889
▁finding	-5890
▁olsaydı	-5891
▁happiness	-5892
▁electricity	-5893
ipl	-5894
mağ	-5895
vert	-5896
▁Hav	-5897
▁Ort	-5898
▁nit	-5899
▁rid	-5900
▁Afgh	-5901
▁grub	-5902
▁wild	-5903
▁docum	-5904
▁address	-5905
▁specific	-5906
dy	-5907
kil	-5908
mada	-5909
onda	-5910
▁esk	-5911
▁nak	-5912
azzam	-5913
▁cold	-5914
▁drop	-5915
▁kere	-5916
▁song	-5917
▁studi	-5918
▁verin	-5919
▁birleş	-5920
▁edebil	-5921
▁memory	-5922
imb	-5923
▁Gal	-5924
cular	-5925
ising	-5926
▁pull	-5927
▁böcek	-5928
▁cases	-5929
▁yapma	-5930
▁German	-5931
▁belirt	-5932
▁yapmam	-5933
▁continu	-5934
▁çalışıyorum	-5935
▁“	-5936
fet	-5937
lace	-5938
▁amac	-5939
adığım	-5940
▁beden	-5941
▁birine	-5942
▁yıllar	-5943
▁account	-5944
▁smaller	-5945
▁Einstein	-5946
▁positive	-5947
▁California	-5948
IT	-5949
rep	-5950
▁Web	-5951
▁ang	-5952
▁sky	-5953
▁mist	-5954
▁upon	-5955
ilerle	-5956
▁Kenya	-5957
▁adapt	-5958
▁fascin	-5959
▁minute	-5960
▁teşvik	-5961
▁yağmur	-5962
▁anymore	-5963
▁kendime	-5964
▁yetişkin	-5965
şeyi	-5966
▁esas	-5967
▁kept	-5968
▁Demek	-5969
▁algıl	-5970
▁corre	-5971
▁davet	-5972
▁enorm	-5973
▁istey	-5974
▁tıpkı	-5975
▁demektir	-5976
20	-5977
lüğü	-5978
tery	-5979
iliar	-5980
▁detay	-5981
▁duygu	-5982
▁killed	-5983
▁freedom	-5984
▁univers	-5985
▁hakkındaki	-5986
şam	-5987
ansa	-5988
▁NASA	-5989
▁luck	-5990
▁alive	-5991
▁mimar	-5992
▁sorts	-5993
lanıyor	-5994
▁artist	-5995
▁beynin	-5996
▁decades	-5997
▁düşünce	-5998
▁stratej	-5999
ği	-6000
thiş	-6001
üncü	-6002
▁ful	-6003
▁hus	-6004
▁Mart	-6005
▁Rich	-6006
▁jobs	-6007
▁pack	-6008
▁dokun	-6009
▁sonuc	-6010
▁yeten	-6011
▁employ	-6012
▁genetic	-6013
▁solutions	-6014
▁institutions	-6015
ağıt	-6016
ulan	-6017
▁şiş	-6018
ustom	-6019
▁katı	-6020
▁phil	-6021
▁ölçü	-6022
miştim	-6023
▁yapmayı	-6024
▁somewhere	-6025
▁görürsünüz	-6026
▁Res	-6027
▁cins	-6028
▁sekt	-6029
though	-6030
tiğini	-6031
▁Afgan	-6032
▁Japon	-6033
▁danış	-6034
▁ended	-6035
▁final	-6036
▁spect	-6037
▁elektron	-6038
▁mountain	-6039
eth	-6040
mon	-6041
▁Fin	-6042
▁Mal	-6043
▁cry	-6044
▁hom	-6045
▁loved	-6046
▁konusu	-6047
▁çıkart	-6048
▁biology	-6049
▁planets	-6050
▁yapmamız	-6051
▁interview	-6052
inə	-6053
uct	-6054
urur	-6055
▁Mon	-6056
▁ran	-6057
▁sus	-6058
oking	-6059
▁Chin	-6060
▁capt	-6061
▁fine	-6062
adılar	-6063
▁Savaş	-6064
▁Somet	-6065
▁enjoy	-6066
▁manag	-6067
▁weren	-6068
itation	-6069
▁Afghan	-6070
▁policy	-6071
▁healthy	-6072
▁somehow	-6073
▁citizens	-6074
▁neighborhood	-6075
▁organization	-6076
sen	-6077
lekt	-6078
ükle	-6079
▁East	-6080
▁adına	-6081
▁remark	-6082
▁soruyu	-6083
▁kimyasal	-6084
gal	-6085
ruf	-6086
atur	-6087
itik	-6088
oint	-6089
rens	-6090
▁arz	-6091
▁bag	-6092
▁göç	-6093
▁Times	-6094
▁giriş	-6095
▁karış	-6096
▁koşul	-6097
▁onunla	-6098
▁perfor	-6099
▁series	-6100
▁societ	-6101
▁molekül	-6102
▁reading	-6103
▁Americans	-6104
▁decisions	-6105
bre	-6106
han	-6107
▁Ag	-6108
▁Te	-6109
ümde	-6110
▁dür	-6111
▁meş	-6112
▁nöron	-6113
miyorum	-6114
▁başkan	-6115
▁bodies	-6116
▁boyutlu	-6117
▁mention	-6118
▁version	-6119
▁greatest	-6120
ibar	-6121
iced	-6122
ring	-6123
▁Tit	-6124
▁cam	-6125
▁vaz	-6126
ulate	-6127
useum	-6128
▁term	-6129
▁olmay	-6130
▁anlamı	-6131
▁famous	-6132
ologists	-6133
▁genelde	-6134
▁düşünmek	-6135
▁sonrasında	-6136
▁35	-6137
▁Mo	-6138
ceed	-6139
emli	-6140
▁Dan	-6141
▁Kız	-6142
kenin	-6143
▁laws	-6144
maktan	-6145
▁apply	-6146
▁hikây	-6147
▁worry	-6148
▁crisis	-6149
▁kelime	-6150
▁strugg	-6151
▁position	-6152
off	-6153
▁1,	-6154
aced	-6155
ısır	-6156
▁hun	-6157
▁müd	-6158
▁araz	-6159
▁email	-6160
▁ikisi	-6161
▁occur	-6162
▁doldur	-6163
▁insect	-6164
▁protot	-6165
▁yaygın	-6166
▁colleagues	-6167
▁yaptıkları	-6168
put	-6169
uit	-6170
erken	-6171
ician	-6172
▁narr	-6173
▁autom	-6174
▁costs	-6175
▁fiyat	-6176
▁minds	-6177
▁dimens	-6178
▁phenomen	-6179
▁treatment	-6180
▁Üniversit	-6181
hal	-6182
cope	-6183
▁Ona	-6184
isyon	-6185
▁Fark	-6186
▁ther	-6187
▁zihn	-6188
amıyor	-6189
elikle	-6190
▁düzel	-6191
▁floor	-6192
▁actual	-6193
▁detect	-6194
▁sonucu	-6195
▁sırada	-6196
▁Washing	-6197
dom	-6198
▁li	-6199
ayıp	-6200
time	-6201
▁dro	-6202
▁hip	-6203
▁mez	-6204
ander	-6205
ining	-6206
▁adet	-6207
ıkları	-6208
▁erken	-6209
▁becoming	-6210
▁diseases	-6211
▁dangerous	-6212
▁performan	-6213
vv	-6214
ended	-6215
▁rock	-6216
▁eylem	-6217
▁madde	-6218
▁metal	-6219
▁mental	-6220
▁çılgın	-6221
▁clearly	-6222
▁consequ	-6223
▁çalışmaya	-6224
ga	-6225
▁$	-6226
üph	-6227
▁2.	-6228
atör	-6229
medik	-6230
▁kriz	-6231
▁yılı	-6232
▁store	-6233
▁yorum	-6234
▁author	-6235
▁olabil	-6236
▁Francis	-6237
▁discuss	-6238
▁provide	-6239
▁önceden	-6240
▁Dünyanın	-6241
▁olduğumu	-6242
▁ada	-6243
▁desp	-6244
▁otom	-6245
dikleri	-6246
▁Gördüğ	-6247
▁Imagine	-6248
▁respect	-6249
▁written	-6250
▁Washington	-6251
▁challenges	-6252
cl	-6253
hib	-6254
rah	-6255
acity	-6256
▁Hast	-6257
▁tale	-6258
▁tutk	-6259
▁hasta	-6260
▁ondan	-6261
▁şarkı	-6262
imizden	-6263
▁mobile	-6264
▁weight	-6265
▁seconds	-6266
▁studies	-6267
▁yerinde	-6268
▁güvenlik	-6269
▁military	-6270
30	-6271
oci	-6272
reet	-6273
tens	-6274
▁veh	-6275
▁başa	-6276
▁cele	-6277
▁dahi	-6278
▁Bazen	-6279
▁Which	-6280
▁adını	-6281
▁10,000	-6282
▁beings	-6283
▁private	-6284
▁Öyleyse	-6285
▁pressure	-6286
▁straight	-6287
▁vatandaş	-6288
iri	-6289
▁Ab	-6290
▁Ma	-6291
ikal	-6292
▁ign	-6293
▁oxy	-6294
▁şef	-6295
lidir	-6296
▁tiss	-6297
▁zero	-6298
▁şart	-6299
▁aktar	-6300
▁kısım	-6301
▁radio	-6302
bilecek	-6303
▁calcul	-6304
▁ederek	-6305
▁ülkede	-6306
▁physics	-6307
▁öğrenciler	-6308
ux	-6309
▁əs	-6310
plan	-6311
itude	-6312
ograf	-6313
▁page	-6314
▁gayet	-6315
▁okula	-6316
▁saniy	-6317
▁kaybol	-6318
▁fikirler	-6319
▁75	-6320
▁Ha	-6321
▁tor	-6322
iyyət	-6323
ufact	-6324
▁clin	-6325
▁yeah	-6326
▁genom	-6327
▁range	-6328
▁trick	-6329
▁slight	-6330
▁tehdit	-6331
▁ardından	-6332
▁expensive	-6333
▁international	-6334
osu	-6335
cles	-6336
tegr	-6337
used	-6338
▁esn	-6339
menizi	-6340
ündeki	-6341
▁Sizin	-6342
▁terör	-6343
▁urban	-6344
▁ücret	-6345
▁police	-6346
▁shared	-6347
▁skills	-6348
▁muazzam	-6349
▁anlatmak	-6350
▁imkansız	-6351
▁yaklaşım	-6352
▁başlangıç	-6353
▁hücreleri	-6354
▁University	-6355
ery	-6356
ima	-6357
vard	-6358
▁Pat	-6359
▁gun	-6360
▁Bilg	-6361
▁Like	-6362
▁sonu	-6363
duğunu	-6364
▁gizli	-6365
▁glass	-6366
▁price	-6367
▁shift	-6368
▁yaşay	-6369
▁şekill	-6370
▁Chinese	-6371
▁olmamız	-6372
▁harekete	-6373
▁humanity	-6374
▁öğrendim	-6375
eğe	-6376
▁45	-6377
weet	-6378
ədər	-6379
andom	-6380
erler	-6381
▁katıl	-6382
▁savun	-6383
▁çatış	-6384
acaklar	-6385
alardan	-6386
lıkları	-6387
▁bizler	-6388
▁çıkard	-6389
▁himself	-6390
▁waiting	-6391
▁willing	-6392
▁şeylere	-6393
tığımızda	-6394
▁training	-6395
▁gerekiyordu	-6396
▁environmental	-6397
uzz	-6398
▁ilə	-6399
aydım	-6400
mayın	-6401
▁yolc	-6402
▁delik	-6403
▁surve	-6404
▁custom	-6405
▁female	-6406
▁saving	-6407
▁seyahat	-6408
▁familiar	-6409
▁immediately	-6410
rag	-6411
▁lis	-6412
▁Ulus	-6413
▁gene	-6414
▁heav	-6415
▁trou	-6416
▁yarı	-6417
▁artır	-6418
▁dağıt	-6419
▁kaldı	-6420
▁types	-6421
▁please	-6422
▁values	-6423
▁driving	-6424
▁farkına	-6425
▁onlarla	-6426
ıyorlardı	-6427
▁Buradaki	-6428
▁anywhere	-6429
▁tasarruf	-6430
▁çalıştık	-6431
▁therefore	-6432
▁Ağ	-6433
atür	-6434
eyiz	-6435
lesi	-6436
ored	-6437
▁Any	-6438
▁MIT	-6439
▁fed	-6440
▁şif	-6441
incisi	-6442
▁bisik	-6443
▁istek	-6444
▁sanal	-6445
▁arttır	-6446
▁unique	-6447
▁current	-6448
▁earlier	-6449
▁etkiley	-6450
▁tarafta	-6451
abilirler	-6452
▁miktarda	-6453
▁fantastic	-6454
▁çocukları	-6455
▁üniversit	-6456
▁organizations	-6457
şi	-6458
ayıf	-6459
inct	-6460
▁His	-6461
ember	-6462
▁Many	-6463
▁astr	-6464
▁yada	-6465
laması	-6466
▁Kadın	-6467
▁koruy	-6468
▁manufact	-6469
▁biyolojik	-6470
▁bulunuyor	-6471
▁transport	-6472
▁atmosphere	-6473
▁throughout	-6474
▁istediğimiz	-6475
ua	-6476
ayn	-6477
▁Küç	-6478
▁cok	-6479
▁jud	-6480
▁tum	-6481
ulmuş	-6482
▁birer	-6483
▁etkin	-6484
▁limit	-6485
erseniz	-6486
▁London	-6487
▁Onlara	-6488
▁isteyen	-6489
▁National	-6490
ılda	-6491
▁Tom	-6492
▁ing	-6493
▁mid	-6494
▁uns	-6495
ables	-6496
eller	-6497
itted	-6498
▁Yine	-6499
▁hair	-6500
ferans	-6501
▁qədər	-6502
ination	-6503
▁celebr	-6504
▁invent	-6505
▁content	-6506
▁strange	-6507
▁bağımsız	-6508
▁electron	-6509
▁erkekler	-6510
▁following	-6511
ola	-6512
▁Tur	-6513
▁Yar	-6514
enced	-6515
luyor	-6516
▁Amaz	-6517
▁mahk	-6518
▁Güneş	-6519
▁drink	-6520
▁beklen	-6521
▁flying	-6522
▁devices	-6523
▁ettiler	-6524
abileceği	-6525
▁öğrenmek	-6526
▁Oy	-6527
gilt	-6528
rene	-6529
undaki	-6530
▁Bilir	-6531
▁encou	-6532
▁taşım	-6533
▁beauty	-6534
▁müthiş	-6535
▁spirit	-6536
▁Another	-6537
▁hayatın	-6538
▁kaynağı	-6539
▁plastic	-6540
lıq	-6541
▁Aş	-6542
▁km	-6543
▁oh	-6544
itim	-6545
oper	-6546
reme	-6547
▁rot	-6548
▁olum	-6549
▁diren	-6550
▁forth	-6551
▁kaybed	-6552
▁çekici	-6553
▁various	-6554
▁kullanım	-6555
▁distribut	-6556
mini	-6557
▁tom	-6558
▁Bill	-6559
▁male	-6560
▁spor	-6561
▁uçuş	-6562
asınız	-6563
miştir	-6564
▁board	-6565
▁kaçır	-6566
▁soğuk	-6567
▁mesele	-6568
▁choices	-6569
▁nuclear	-6570
▁critical	-6571
▁standart	-6572
▁hepimizin	-6573
▁societies	-6574
▁engineering	-6575
üme	-6576
▁Co	-6577
▁Bre	-6578
▁böy	-6579
▁küt	-6580
üğünü	-6581
▁rise	-6582
acılar	-6583
▁ideal	-6584
▁neyse	-6585
▁sürec	-6586
▁tepki	-6587
▁bölges	-6588
▁decade	-6589
▁müşter	-6590
▁pahalı	-6591
▁walked	-6592
▁wealth	-6593
▁workers	-6594
▁communicate	-6595
ls	-6596
▁Kal	-6597
▁doz	-6598
▁piş	-6599
▁öng	-6600
▁iddi	-6601
▁İnan	-6602
▁Instead	-6603
▁greater	-6604
▁Bunların	-6605
▁financial	-6606
▁connection	-6607
▁performans	-6608
atin	-6609
resh	-6610
▁Mod	-6611
▁Ter	-6612
▁Two	-6613
▁obj	-6614
indən	-6615
▁Bank	-6616
▁shap	-6617
sizlik	-6618
giltere	-6619
ologist	-6620
▁finans	-6621
▁method	-6622
▁satell	-6623
▁kuruluş	-6624
▁verilen	-6625
üyle	-6626
▁reh	-6627
▁tıb	-6628
apped	-6629
ındır	-6630
▁Your	-6631
▁town	-6632
▁uyar	-6633
▁akşam	-6634
▁buçuk	-6635
▁mesaf	-6636
▁nefes	-6637
▁zayıf	-6638
ilerden	-6639
▁hayatı	-6640
▁yazılım	-6641
▁direction	-6642
bar	-6643
rast	-6644
▁Önc	-6645
▁ayar	-6646
▁scan	-6647
▁Küçük	-6648
▁bakım	-6649
▁birik	-6650
▁demon	-6651
▁throw	-6652
▁whose	-6653
▁George	-6654
▁Second	-6655
▁beslen	-6656
▁yerler	-6657
acağınız	-6658
▁Harvard	-6659
▁Western	-6660
▁bağımlı	-6661
▁benimle	-6662
▁contain	-6663
▁dediler	-6664
▁religion	-6665
▁services	-6666
▁iyileştir	-6667
rağ	-6668
back	-6669
▁Sol	-6670
ingly	-6671
▁vict	-6672
▁Think	-6673
▁edici	-6674
▁kağıt	-6675
ructure	-6676
▁alanda	-6677
▁ebeveyn	-6678
▁hatırlat	-6679
▁politics	-6680
▁performance	-6681
▁teknolojinin	-6682
▁relationships	-6683
kar	-6684
oks	-6685
əsi	-6686
ries	-6687
▁cla	-6688
▁kör	-6689
▁vad	-6690
ığına	-6691
▁Açık	-6692
▁Sonr	-6693
▁sana	-6694
umuzun	-6695
▁aydın	-6696
▁medya	-6697
▁olmal	-6698
▁tuhaf	-6699
▁devrim	-6700
▁ettiği	-6701
▁random	-6702
▁reklam	-6703
▁şeyden	-6704
▁başında	-6705
▁instrum	-6706
▁çalıştığım	-6707
▁göreceksiniz	-6708
za	-6709
iki	-6710
oles	-6711
▁Ark	-6712
▁Big	-6713
▁sap	-6714
▁dışı	-6715
▁embr	-6716
▁legs	-6717
▁sect	-6718
▁zeki	-6719
asıyla	-6720
lığına	-6721
▁artış	-6722
▁polis	-6723
imately	-6724
▁sayısı	-6725
▁benzeri	-6726
acaksınız	-6727
▁atmosfer	-6728
▁speaking	-6729
▁understood	-6730
PS	-6731
ırdı	-6732
lecek	-6733
▁Kong	-6734
▁shot	-6735
▁eksik	-6736
▁Hiçbir	-6737
▁helped	-6738
▁sordum	-6739
▁comfort	-6740
▁seçenek	-6741
▁directly	-6742
▁standard	-6743
▁teaching	-6744
▁gerektiği	-6745
▁laboratuvar	-6746
iğe	-6747
pit	-6748
load	-6749
▁mel	-6750
iling	-6751
▁2008	-6752
▁görə	-6753
▁medi	-6754
▁advan	-6755
▁buydu	-6756
▁kalit	-6757
▁commer	-6758
▁honest	-6759
▁enormous	-6760
▁kullanıyor	-6761
▁olduğumuzu	-6762
rete	-6763
▁dar	-6764
▁kuy	-6765
▁neh	-6766
phone	-6767
▁anah	-6768
▁swim	-6769
▁ahead	-6770
▁hızla	-6771
▁trend	-6772
▁burası	-6773
▁forget	-6774
▁infect	-6775
▁massive	-6776
▁invented	-6777
▁çalıştım	-6778
▁birşeyler	-6779
▁etkileşim	-6780
▁tehlikeli	-6781
akı	-6782
nde	-6783
▁yö	-6784
ocks	-6785
▁whe	-6786
ersek	-6787
▁ifad	-6788
▁ünlü	-6789
▁broad	-6790
▁catch	-6791
▁numar	-6792
▁ışığı	-6793
kincisi	-6794
▁Richard	-6795
▁kilometre	-6796
▁bildiğimiz	-6797
▁ka	-6798
wise	-6799
▁pig	-6800
▁sou	-6801
istics	-6802
▁Apple	-6803
▁geçiş	-6804
▁oppos	-6805
▁Atlant	-6806
▁closer	-6807
▁patent	-6808
▁yolcul	-6809
▁Hepimiz	-6810
▁explore	-6811
▁infrast	-6812
▁journal	-6813
▁olmanın	-6814
▁çapında	-6815
▁potansiyel	-6816
▁experiments	-6817
ids	-6818
lum	-6819
▁CE	-6820
olve	-6821
mayan	-6822
▁trem	-6823
▁anyway	-6824
▁levels	-6825
▁nation	-6826
▁speech	-6827
▁yarısı	-6828
atically	-6829
▁sıradan	-6830
alarından	-6831
▁araştırm	-6832
▁programs	-6833
▁listening	-6834
▁edebileceğ	-6835
▁kullanılan	-6836
▁production	-6837
liy	-6838
▁22	-6839
▁pu	-6840
▁Los	-6841
▁cru	-6842
▁hyd	-6843
aster	-6844
iğini	-6845
ladığı	-6846
▁burad	-6847
▁almaya	-6848
▁destro	-6849
▁yönetim	-6850
▁yolculuk	-6851
▁İngiltere	-6852
add	-6853
asın	-6854
mark	-6855
▁bol	-6856
▁org	-6857
▁tal	-6858
lands	-6859
▁doub	-6860
▁iron	-6861
▁uses	-6862
▁zinc	-6863
▁Şöyle	-6864
▁grafik	-6865
▁buluyor	-6866
▁express	-6867
▁değiller	-6868
▁consciousness	-6869
rest	-6870
rimi	-6871
▁cüm	-6872
▁sig	-6873
iplom	-6874
▁Kore	-6875
▁stem	-6876
▁şüph	-6877
manızı	-6878
▁olanı	-6879
▁sıfır	-6880
▁belief	-6881
▁decide	-6882
▁income	-6883
▁useful	-6884
amayacak	-6885
▁ancient	-6886
▁endüstr	-6887
ladığımız	-6888
▁instance	-6889
▁sağlayacak	-6890
iant	-6891
ping	-6892
▁döv	-6893
▁nut	-6894
▁belə	-6895
▁önces	-6896
▁nefret	-6897
▁olmayı	-6898
▁purpose	-6899
lerimizin	-6900
▁duygusal	-6901
▁televizyon	-6902
▁yapabilirsiniz	-6903
cə	-6904
imer	-6905
tyap	-6906
▁gor	-6907
▁iPh	-6908
aging	-6909
iding	-6910
▁arka	-6911
▁fore	-6912
▁günü	-6913
▁quot	-6914
▁sold	-6915
abilen	-6916
ükleer	-6917
▁Darwin	-6918
▁square	-6919
▁Elbette	-6920
▁effects	-6921
▁etkileş	-6922
▁sizinle	-6923
ago	-6924
▁99	-6925
▁Gu	-6926
▁Sm	-6927
əcək	-6928
▁sez	-6929
dunuz	-6930
▁Tabi	-6931
▁komş	-6932
▁race	-6933
▁vacc	-6934
▁yeri	-6935
▁Çoğu	-6936
▁feels	-6937
lardaki	-6938
▁geldik	-6939
▁mostly	-6940
▁summer	-6941
▁doctors	-6942
▁konular	-6943
▁meeting	-6944
▁Anderson	-6945
▁eğlenceli	-6946
▁hastalığı	-6947
▁experiences	-6948
hur	-6949
ınc	-6950
ancy	-6951
▁Com	-6952
▁Min	-6953
▁Cong	-6954
▁ekip	-6955
▁hass	-6956
▁mill	-6957
▁artif	-6958
▁magic	-6959
▁Devlet	-6960
▁corner	-6961
▁saniye	-6962
▁üstüne	-6963
▁şeydir	-6964
▁cesaret	-6965
▁reflect	-6966
▁yabancı	-6967
▁benziyor	-6968
▁demonstr	-6969
▁hikayeler	-6970
ns	-6971
ört	-6972
▁hə	-6973
akin	-6974
▁bug	-6975
▁roc	-6976
aving	-6977
yalet	-6978
lusion	-6979
▁argum	-6980
▁düşür	-6981
▁keşif	-6982
▁worst	-6983
▁Amazon	-6984
▁career	-6985
▁meters	-6986
▁resist	-6987
▁zorundayız	-6988
▁Afghanistan	-6989
▁sürdürülebilir	-6990
osh	-6991
udu	-6992
ütü	-6993
▁na	-6994
ptal	-6995
ırız	-6996
▁neye	-6997
liliği	-6998
▁bulut	-6999
▁içind	-7000
▁katkı	-7001
▁prens	-7002
▁contact	-7003
▁görünen	-7004
▁stopped	-7005
▁streets	-7006
▁designers	-7007
▁önemlidir	-7008
▁0	-7009
iir	-7010
▁ır	-7011
aign	-7012
asız	-7013
raid	-7014
▁Bay	-7015
▁edip	-7016
▁etki	-7017
▁rule	-7018
▁Bilim	-7019
▁aware	-7020
▁expand	-7021
▁ilişki	-7022
▁giderek	-7023
▁halinde	-7024
▁merkezi	-7025
▁toplant	-7026
▁gelecekte	-7027
▁yapıyorum	-7028
▁yaşındaki	-7029
abileceğimiz	-7030
oe	-7031
ori	-7032
unk	-7033
▁isə	-7034
iğeri	-7035
usunu	-7036
▁2010	-7037
▁Doğu	-7038
▁Hadi	-7039
▁hole	-7040
▁kalb	-7041
▁loss	-7042
lerimi	-7043
▁şekli	-7044
isinden	-7045
▁afraid	-7046
▁birlik	-7047
▁etiket	-7048
▁symbol	-7049
▁değiliz	-7050
▁profound	-7051
▁terrible	-7052
▁Rom	-7053
▁Sun	-7054
▁dad	-7055
▁fos	-7056
▁gem	-7057
layıp	-7058
▁Bize	-7059
▁bitt	-7060
▁denk	-7061
▁hous	-7062
▁mutl	-7063
▁surr	-7064
▁Great	-7065
lıyoruz	-7066
▁bakmak	-7067
▁flight	-7068
▁kahram	-7069
▁seemed	-7070
▁noktaya	-7071
▁noticed	-7072
▁popular	-7073
▁verecek	-7074
▁yaşamak	-7075
lications	-7076
▁bölgeler	-7077
▁onlardan	-7078
▁Francisco	-7079
▁disappear	-7080
▁ortasında	-7081
▁infrastructure	-7082
reg	-7083
▁Cl	-7084
cise	-7085
ener	-7086
otik	-7087
pped	-7088
▁Tas	-7089
▁amb	-7090
▁düğ	-7091
▁tax	-7092
▁çök	-7093
ledim	-7094
▁Take	-7095
▁amel	-7096
▁serg	-7097
alarla	-7098
▁diagn	-7099
▁habit	-7100
▁associ	-7101
▁causes	-7102
▁edildi	-7103
▁capacity	-7104
▁problemi	-7105
▁oluşturmak	-7106
tın	-7107
indir	-7108
▁gent	-7109
▁kutu	-7110
▁yola	-7111
▁deyil	-7112
▁gezeg	-7113
▁laugh	-7114
▁oranı	-7115
▁piyas	-7116
▁tough	-7117
▁bilmek	-7118
▁integr	-7119
▁states	-7120
▁plastik	-7121
hum	-7122
▁İk	-7123
stit	-7124
ukuk	-7125
əyir	-7126
▁eth	-7127
▁pal	-7128
▁tık	-7129
arter	-7130
rench	-7131
ending	-7132
liğine	-7133
▁balon	-7134
▁etmem	-7135
▁isters	-7136
▁Sonunda	-7137
▁kültüre	-7138
▁survive	-7139
acağımızı	-7140
amazsınız	-7141
▁addition	-7142
▁although	-7143
▁olmaları	-7144
▁organize	-7145
▁ettiğimiz	-7146
▁remarkable	-7147
oyu	-7148
▁23	-7149
adir	-7150
best	-7151
raft	-7152
▁emb	-7153
▁haq	-7154
board	-7155
▁grav	-7156
▁tepk	-7157
ıldığı	-7158
▁1,000	-7159
▁ayakk	-7160
▁below	-7161
▁bozuk	-7162
▁doğum	-7163
▁inanç	-7164
▁highly	-7165
▁yandan	-7166
ıldığını	-7167
▁Charles	-7168
▁Onların	-7169
▁evolved	-7170
▁gelişmiş	-7171
▁kullanıl	-7172
▁networks	-7173
▁possibly	-7174
▁yaşınday	-7175
▁organizasyon	-7176
band	-7177
esiz	-7178
içek	-7179
ynam	-7180
▁From	-7181
▁Phil	-7182
▁crow	-7183
▁suyu	-7184
▁baskı	-7185
▁korku	-7186
▁raise	-7187
diğimde	-7188
▁analiz	-7189
▁korkut	-7190
▁kapasit	-7191
▁algorith	-7192
▁şirketler	-7193
▁communication	-7194
evk	-7195
uva	-7196
▁Ac	-7197
▁qar	-7198
tered	-7199
ırsak	-7200
▁bahç	-7201
▁günd	-7202
▁vast	-7203
▁sabit	-7204
leyecek	-7205
reprene	-7206
▁Indian	-7207
▁attract	-7208
▁prevent	-7209
▁ülkenin	-7210
diğinizde	-7211
▁practice	-7212
▁uluslararası	-7213
ibe	-7214
ales	-7215
empt	-7216
iger	-7217
▁Yer	-7218
▁magn	-7219
▁tens	-7220
arında	-7221
cience	-7222
lywood	-7223
▁Micha	-7224
▁Obama	-7225
▁amacı	-7226
▁bileş	-7227
▁dance	-7228
▁yarım	-7229
biliriz	-7230
▁complete	-7231
▁slightly	-7232
tal	-7233
▁Sev	-7234
▁gök	-7235
eness	-7236
prise	-7237
▁iste	-7238
▁James	-7239
▁edile	-7240
▁Thanks	-7241
▁görmüş	-7242
▁çevres	-7243
adıkları	-7244
▁görmeye	-7245
▁korumak	-7246
▁kısmını	-7247
▁mission	-7248
▁ortadan	-7249
▁bulunduğ	-7250
▁inspired	-7251
▁creativity	-7252
aff	-7253
▁ku	-7254
▁İz	-7255
atom	-7256
▁194	-7257
▁Tem	-7258
▁sam	-7259
aling	-7260
▁nevi	-7261
▁paid	-7262
elling	-7263
▁basis	-7264
▁devre	-7265
▁edilm	-7266
▁rough	-7267
▁slide	-7268
▁visit	-7269
▁altyap	-7270
▁fabrik	-7271
▁genome	-7272
larınızı	-7273
▁anlayış	-7274
▁missing	-7275
▁ülkelerde	-7276
los	-7277
ruk	-7278
ula	-7279
▁Dur	-7280
▁bax	-7281
▁pir	-7282
order	-7283
▁coff	-7284
atives	-7285
▁barış	-7286
▁gitti	-7287
▁kolon	-7288
▁oyunu	-7289
▁yakıt	-7290
meliyim	-7291
▁iPhone	-7292
▁sağlar	-7293
▁supply	-7294
▁artists	-7295
▁duruyor	-7296
▁hepsini	-7297
▁noktası	-7298
▁bilmiyor	-7299
▁mantıklı	-7300
▁Devletler	-7301
▁effective	-7302
▁Bilirsiniz	-7303
▁Gördüğünüz	-7304
▁insanlardan	-7305
▁sustainable	-7306
aka	-7307
raq	-7308
▁27	-7309
umda	-7310
▁Som	-7311
▁baz	-7312
▁enf	-7313
▁mix	-7314
gious	-7315
istry	-7316
▁seks	-7317
▁task	-7318
ediler	-7319
ülüyor	-7320
▁dying	-7321
▁kısıt	-7322
▁yazar	-7323
▁insana	-7324
▁myster	-7325
▁nearly	-7326
▁Bununla	-7327
▁matters	-7328
▁princip	-7329
▁bisiklet	-7330
▁campaign	-7331
▁galaxies	-7332
▁molecules	-7333
▁Afganistan	-7334
▁olabilecek	-7335
▁çoğunlukla	-7336
rım	-7337
alam	-7338
anım	-7339
▁Göz	-7340
▁Kat	-7341
▁şim	-7342
geles	-7343
▁1980	-7344
▁1990	-7345
▁kara	-7346
▁lack	-7347
▁mamm	-7348
▁sert	-7349
▁bulam	-7350
▁trade	-7351
▁yapay	-7352
▁babies	-7353
▁olanak	-7354
▁justice	-7355
▁misiniz	-7356
▁protest	-7357
▁çocuğun	-7358
▁independ	-7359
▁karıştır	-7360
▁yaptığını	-7361
cop	-7362
pro	-7363
▁çı	-7364
ises	-7365
▁GPS	-7366
water	-7367
▁poll	-7368
mekten	-7369
▁brand	-7370
▁böyük	-7371
▁match	-7372
▁Angeles	-7373
▁airplan	-7374
▁geçerli	-7375
▁hearing	-7376
▁sağladı	-7377
▁original	-7378
▁sonuçlar	-7379
▁öğrendik	-7380
bilirsiniz	-7381
▁canlandır	-7382
▁İngilizce	-7383
▁television	-7384
▁arkadaşlarım	-7385
▁hatırlıyorum	-7386
-1	-7387
irt	-7388
amin	-7389
ıştı	-7390
▁gön	-7391
▁İst	-7392
iydim	-7393
▁Alex	-7394
▁dost	-7395
▁seni	-7396
▁sick	-7397
▁sıra	-7398
▁büyüy	-7399
▁total	-7400
▁gotten	-7401
▁makine	-7402
▁görünür	-7403
▁sizlere	-7404
▁astronom	-7405
▁engineer	-7406
▁surround	-7407
▁hayvanlar	-7408
▁differently	-7409
zil	-7410
esis	-7411
▁Yet	-7412
▁bio	-7413
iyeti	-7414
▁2009	-7415
▁anti	-7416
iciler	-7417
▁besin	-7418
▁gurur	-7419
▁magaz	-7420
▁neyin	-7421
▁demand	-7422
▁switch	-7423
▁element	-7424
▁partner	-7425
▁tremend	-7426
▁Birincisi	-7427
▁paylaşmak	-7428
ius	-7429
ənd	-7430
▁Me	-7431
▁öy	-7432
▁ən	-7433
ağın	-7434
meli	-7435
▁Bin	-7436
anmış	-7437
cript	-7438
lanma	-7439
▁Braz	-7440
▁edeb	-7441
▁join	-7442
aching	-7443
▁Doğru	-7444
▁Steve	-7445
▁annem	-7446
▁korun	-7447
▁stren	-7448
▁electr	-7449
▁göründ	-7450
▁conserv	-7451
▁değerli	-7452
▁sevdiğim	-7453
▁gerekirse	-7454
▁söylediği	-7455
▁entreprene	-7456
ees	-7457
▁Kor	-7458
house	-7459
▁1960	-7460
▁Orta	-7461
▁Thom	-7462
▁heat	-7463
▁yana	-7464
▁analy	-7465
▁asker	-7466
▁fully	-7467
▁pengu	-7468
▁taşın	-7469
▁şuydu	-7470
▁Muslim	-7471
▁bought	-7472
▁compon	-7473
▁gather	-7474
▁hassas	-7475
▁reform	-7476
▁target	-7477
▁yerleş	-7478
▁ölçüde	-7479
▁bilinen	-7480
▁etkilen	-7481
▁gelişim	-7482
▁cultural	-7483
▁konuştuğ	-7484
▁geldiğinde	-7485
▁responsibility	-7486
ays	-7487
rey	-7488
▁Mr	-7489
rail	-7490
▁Hig	-7491
▁Pak	-7492
▁moon	-7493
▁almış	-7494
▁entir	-7495
acağına	-7496
▁adamın	-7497
▁parlak	-7498
▁siyasi	-7499
▁Bunları	-7500
▁diyorum	-7501
▁sharing	-7502
▁website	-7503
▁published	-7504
▁başladılar	-7505
▁temperature	-7506
asy	-7507
tüm	-7508
Tube	-7509
rupt	-7510
ısal	-7511
▁vah	-7512
▁vot	-7513
▁şək	-7514
▁gain	-7515
▁held	-7516
▁kapı	-7517
▁agree	-7518
▁invis	-7519
▁Street	-7520
▁adalet	-7521
▁forces	-7522
▁inspir	-7523
▁played	-7524
ographic	-7525
▁YouTube	-7526
▁forever	-7527
▁göstere	-7528
▁virtual	-7529
▁hücreler	-7530
▁strength	-7531
abileceğini	-7532
▁significant	-7533
▁edebilirsiniz	-7534
öv	-7535
ume	-7536
çak	-7537
▁je	-7538
cies	-7539
unus	-7540
▁bud	-7541
▁dəy	-7542
▁nda	-7543
atory	-7544
eyken	-7545
▁Paris	-7546
▁aktif	-7547
▁giant	-7548
▁hafif	-7549
▁cinsel	-7550
▁easily	-7551
▁hayata	-7552
▁members	-7553
▁obvious	-7554
veç	-7555
oses	-7556
aries	-7557
irken	-7558
▁Asya	-7559
▁Mary	-7560
▁none	-7561
▁yanı	-7562
larımı	-7563
▁gradu	-7564
▁traff	-7565
ography	-7566
▁sexual	-7567
imizdeki	-7568
▁central	-7569
▁evrenin	-7570
▁versiyon	-7571
▁structures	-7572
▁imagination	-7573
əli	-7574
rian	-7575
▁Sır	-7576
▁Tah	-7577
▁Iraq	-7578
ashion	-7579
▁Green	-7580
▁agric	-7581
▁birds	-7582
▁dokuz	-7583
▁dynam	-7584
▁faith	-7585
▁frame	-7586
▁photo	-7587
▁phones	-7588
▁rüzgar	-7589
▁olabilirsiniz	-7590
yer	-7591
▁Gl	-7592
altı	-7593
here	-7594
▁Sil	-7595
▁Sim	-7596
▁Ven	-7597
▁Isra	-7598
▁boys	-7599
action	-7600
▁burda	-7601
▁shoot	-7602
▁çizgi	-7603
▁önüne	-7604
▁Harika	-7605
▁aspect	-7606
▁dinley	-7607
▁refuge	-7608
▁tissue	-7609
▁göreceğ	-7610
▁percept	-7611
▁trouble	-7612
▁yapıldı	-7613
▁doğrudan	-7614
▁gösterdi	-7615
▁mutluluk	-7616
▁çıkarmak	-7617
▁particles	-7618
▁şekillendir	-7619
ria	-7620
əni	-7621
airs	-7622
meme	-7623
dığım	-7624
eğini	-7625
▁seed	-7626
▁wire	-7627
▁Higgs	-7628
▁Konuş	-7629
▁easier	-7630
▁histor	-7631
▁nereden	-7632
▁veriler	-7633
▁produced	-7634
▁yaptılar	-7635
▁bulunduğu	-7636
▁biological	-7637
caq	-7638
▁ib	-7639
resi	-7640
▁aid	-7641
leşme	-7642
▁Good	-7643
▁derg	-7644
▁epey	-7645
▁sant	-7646
▁arası	-7647
▁count	-7648
▁kaçın	-7649
▁şeydi	-7650
mission	-7651
▁Londra	-7652
▁itibar	-7653
▁kalmış	-7654
▁oxygen	-7655
▁philos	-7656
▁Michael	-7657
▁markets	-7658
larındaki	-7659
▁kullanıcı	-7660
taj	-7661
şet	-7662
▁US	-7663
ihir	-7664
otic	-7665
▁dök	-7666
▁fer	-7667
▁hek	-7668
▁zir	-7669
renin	-7670
uluğu	-7671
▁King	-7672
▁edem	-7673
▁fuel	-7674
▁medy	-7675
▁wear	-7676
thetic	-7677
ınızın	-7678
▁rapid	-7679
▁twice	-7680
▁vazgeç	-7681
maktadır	-7682
▁brother	-7683
▁moments	-7684
▁surgery	-7685
▁demokras	-7686
▁entirely	-7687
▁partners	-7688
▁condition	-7689
▁scientist	-7690
▁teknolojiyi	-7691
▁olabileceğini	-7692
car	-7693
gele	-7694
üllü	-7695
▁gür	-7696
layın	-7697
▁card	-7698
▁drag	-7699
▁mort	-7700
▁yayı	-7701
isiyle	-7702
▁Islam	-7703
▁funny	-7704
▁büyüme	-7705
▁lütfen	-7706
▁yerden	-7707
▁örneği	-7708
▁creates	-7709
▁helping	-7710
▁isterim	-7711
▁nükleer	-7712
▁verdiği	-7713
▁Actually	-7714
▁billions	-7715
▁bringing	-7716
▁importantly	-7717
▁kullanıyoruz	-7718
âr	-7719
işi	-7720
lied	-7721
▁Did	-7722
▁Haw	-7723
▁Kit	-7724
▁Sur	-7725
▁inj	-7726
▁kıt	-7727
▁sıv	-7728
arian	-7729
ondan	-7730
▁Over	-7731
▁exer	-7732
▁kilo	-7733
▁istif	-7734
▁legal	-7735
▁Thomas	-7736
▁eyalet	-7737
▁kapalı	-7738
▁koruma	-7739
▁prepar	-7740
▁spaces	-7741
▁turning	-7742
▁şimdiye	-7743
▁Teknoloj	-7744
▁landscape	-7745
▁gelişmekte	-7746
ecut	-7747
kyüz	-7748
term	-7749
▁Pan	-7750
▁Val	-7751
▁aşk	-7752
▁şem	-7753
orders	-7754
▁epide	-7755
▁komik	-7756
masının	-7757
▁answers	-7758
▁degrees	-7759
▁ticaret	-7760
▁emotional	-7761
▁industrial	-7762
▁istiyorlar	-7763
▁leadership	-7764
▁differences	-7765
▁opportunities	-7766
ened	-7767
etro	-7768
▁Bul	-7769
▁Kıs	-7770
▁obs	-7771
▁hata	-7772
▁teen	-7773
▁adamı	-7774
▁misin	-7775
▁şifre	-7776
osystem	-7777
▁inform	-7778
▁passed	-7779
▁window	-7780
▁sanatçı	-7781
▁fazlasını	-7782
▁gerçeklik	-7783
fi	-7784
ədə	-7785
imle	-7786
▁Bah	-7787
▁tər	-7788
▁yav	-7789
ediği	-7790
▁2007	-7791
▁ends	-7792
▁fold	-7793
▁terk	-7794
▁türü	-7795
▁weap	-7796
atures	-7797
elerle	-7798
heimer	-7799
imizle	-7800
▁shock	-7801
▁yanıt	-7802
▁çiçek	-7803
lığıyla	-7804
▁French	-7805
▁broken	-7806
▁gelmiş	-7807
▁tespit	-7808
▁correct	-7809
▁verimli	-7810
▁cinsiyet	-7811
▁gittikçe	-7812
▁çalıştır	-7813
▁collective	-7814
ba	-7815
oda	-7816
ype	-7817
▁iğ	-7818
gram	-7819
hand	-7820
onun	-7821
reci	-7822
ülen	-7823
▁Alz	-7824
▁Des	-7825
▁boğ	-7826
▁fat	-7827
▁pap	-7828
▁çöp	-7829
ields	-7830
imler	-7831
ihayet	-7832
▁Bakın	-7833
▁görme	-7834
▁kemik	-7835
tığında	-7836
ıyordum	-7837
▁düzelt	-7838
▁eating	-7839
▁bakarak	-7840
▁diyoruz	-7841
▁Pakistan	-7842
▁hayatını	-7843
▁dediğimiz	-7844
▁investment	-7845
ino	-7846
▁ez	-7847
iped	-7848
▁sch	-7849
▁Çal	-7850
adışı	-7851
▁forg	-7852
▁puzz	-7853
▁bakıp	-7854
▁malar	-7855
▁pilot	-7856
eksiyon	-7857
▁açıkça	-7858
▁monkey	-7859
▁sektör	-7860
▁süreci	-7861
▁karışık	-7862
▁spending	-7863
▁yaşıyoruz	-7864
süz	-7865
amın	-7866
berg	-7867
▁600	-7868
▁Bas	-7869
▁Kap	-7870
▁Kol	-7871
▁fle	-7872
▁çıx	-7873
acing	-7874
laraq	-7875
medim	-7876
▁More	-7877
▁eser	-7878
▁golf	-7879
▁kamu	-7880
▁wood	-7881
▁bacak	-7882
▁lights	-7883
▁reduce	-7884
▁bulmaya	-7885
▁sesleri	-7886
▁bahsetmek	-7887
do	-7888
oom	-7889
ball	-7890
cest	-7891
ties	-7892
▁muc	-7893
antaj	-7894
unuzu	-7895
verse	-7896
▁Arap	-7897
▁arac	-7898
▁bone	-7899
▁gıda	-7900
▁host	-7901
▁kast	-7902
antage	-7903
▁aptal	-7904
▁dönüp	-7905
▁prote	-7906
dığımız	-7907
▁kişiye	-7908
▁taklit	-7909
larımıza	-7910
▁Araştır	-7911
▁despite	-7912
▁dönüşüm	-7913
▁mekaniz	-7914
▁öğrenme	-7915
▁distance	-7916
▁elements	-7917
▁anlamıyla	-7918
▁getiriyor	-7919
▁edebiliriz	-7920
hy	-7921
▁Uy	-7922
▁Del	-7923
▁Mex	-7924
▁keç	-7925
▁Stan	-7926
▁akış	-7927
▁yürü	-7928
layıcı	-7929
lektaş	-7930
▁bitki	-7931
▁calls	-7932
▁kulak	-7933
▁mouth	-7934
▁musun	-7935
▁smell	-7936
▁tarım	-7937
lanması	-7938
▁Yaklaş	-7939
▁bildir	-7940
▁coffee	-7941
▁letter	-7942
mektedir	-7943
▁British	-7944
▁herşeyi	-7945
▁farkında	-7946
▁majority	-7947
▁ecosystem	-7948
▁sorunları	-7949
▁kilometers	-7950
▁kullandığımız	-7951
abol	-7952
▁Nig	-7953
▁vul	-7954
▁Bost	-7955
▁Have	-7956
▁deng	-7957
▁kayb	-7958
▁taşı	-7959
▁trip	-7960
▁yönel	-7961
ecektir	-7962
layacak	-7963
lığında	-7964
▁sayede	-7965
▁sembol	-7966
lerinizi	-7967
▁farkınd	-7968
▁Audience	-7969
▁describe	-7970
▁olmaktan	-7971
▁opposite	-7972
▁verileri	-7973
▁childhood	-7974
▁engineers	-7975
▁definition	-7976
▁çalıştığımız	-7977
ils	-7978
isin	-7979
osta	-7980
▁göl	-7981
icken	-7982
dığını	-7983
▁Latin	-7984
▁Söyle	-7985
▁cheap	-7986
▁deyiş	-7987
▁kıyas	-7988
▁tıbbi	-7989
mıyorum	-7990
ırsanız	-7991
▁ancest	-7992
▁desire	-7993
▁diplom	-7994
▁photos	-7995
▁geldiği	-7996
▁holding	-7997
▁büyüklüğ	-7998
▁dolarlık	-7999
▁complexity	-8000
▁ihtiyacınız	-8001
mp	-8002
cık	-8003
▁65	-8004
aves	-8005
usur	-8006
ysis	-8007
▁End	-8008
▁cos	-8009
▁Aile	-8010
▁Life	-8011
▁dizi	-8012
▁necə	-8013
▁uydu	-8014
anları	-8015
mamızı	-8016
unuzun	-8017
▁avoid	-8018
▁rapor	-8019
▁colors	-8020
▁dollar	-8021
▁dürüst	-8022
▁gender	-8023
▁kaydet	-8024
▁olaraq	-8025
iversite	-8026
▁100,000	-8027
▁figured	-8028
▁Alzheimer	-8029
▁invisible	-8030
erve	-8031
▁Asia	-8032
▁Kral	-8033
▁Mich	-8034
▁glob	-8035
▁Frank	-8036
▁Zaman	-8037
▁haklı	-8038
▁previ	-8039
▁bağlam	-8040
▁modeli	-8041
▁sermay	-8042
▁tecrüb	-8043
▁çocuğu	-8044
▁gentlem	-8045
▁kariyer	-8046
▁alanında	-8047
▁fighting	-8048
▁yolculuğ	-8049
abiliyoruz	-8050
▁kendilerine	-8051
▁Üniversitesi	-8052
asif	-8053
▁Din	-8054
▁Dis	-8055
▁Ses	-8056
▁Tar	-8057
▁peş	-8058
ormal	-8059
ulous	-8060
▁fakt	-8061
▁kent	-8062
▁ekran	-8063
▁kimin	-8064
▁saygı	-8065
▁ettiğim	-8066
▁failure	-8067
▁serbest	-8068
▁ulaşmak	-8069
▁yerlere	-8070
▁Afrikalı	-8071
▁believed	-8072
▁creation	-8073
▁kültürel	-8074
▁ban	-8075
icles	-8076
ilyon	-8077
itely	-8078
ladığ	-8079
▁Irak	-8080
▁bina	-8081
▁reve	-8082
▁Hepsi	-8083
▁chair	-8084
▁suyun	-8085
▁çıkıp	-8086
▁active	-8087
▁brilli	-8088
▁dediği	-8089
▁etmeyi	-8090
▁maymun	-8091
▁stress	-8092
▁anahtar	-8093
▁leading	-8094
▁regular	-8095
▁transfer	-8096
▁şeklinde	-8097
▁görüyorum	-8098
▁religious	-8099
▁sonuçları	-8100
▁possibility	-8101
uru	-8102
ısın	-8103
▁Yıl	-8104
▁tri	-8105
▁ırk	-8106
rogen	-8107
▁Port	-8108
▁adop	-8109
ording	-8110
▁etmək	-8111
▁indic	-8112
▁soldi	-8113
▁stuck	-8114
▁tüken	-8115
▁olmadı	-8116
▁yolunu	-8117
eceğiniz	-8118
ediğimiz	-8119
▁Austral	-8120
▁uzaklaş	-8121
▁European	-8122
▁kullanan	-8123
▁parçaları	-8124
▁araştırmalar	-8125
har	-8126
ida	-8127
▁II	-8128
çası	-8129
▁mac	-8130
▁wis	-8131
▁ölü	-8132
▁Uzun	-8133
▁tavs	-8134
▁uçur	-8135
▁Again	-8136
▁Güzel	-8137
▁istat	-8138
▁yaxşı	-8139
▁benden	-8140
▁brings	-8141
▁makale	-8142
▁ulusal	-8143
▁husband	-8144
▁içinden	-8145
▁benefits	-8146
▁identity	-8147
▁ötesinde	-8148
▁construct	-8149
▁edersiniz	-8150
▁düşünüyoruz	-8151
ləş	-8152
nun	-8153
olu	-8154
▁ih	-8155
imet	-8156
▁CEO	-8157
based	-8158
lemiş	-8159
organ	-8160
▁Russ	-8161
▁repe	-8162
▁ısın	-8163
▁bulaş	-8164
▁bulur	-8165
▁optim	-8166
▁pleas	-8167
▁şeker	-8168
▁Boston	-8169
▁iletiş	-8170
▁kayded	-8171
▁zamana	-8172
ifically	-8173
▁algorit	-8174
▁attempt	-8175
▁olursak	-8176
▁everyday	-8177
▁diversity	-8178
▁tremendous	-8179
osqu	-8180
▁ker	-8181
arden	-8182
right	-8183
▁1970	-8184
▁core	-8185
▁fell	-8186
▁shop	-8187
andaki	-8188
apping	-8189
▁bölge	-8190
▁party	-8191
▁recon	-8192
▁tutul	-8193
▁Öğren	-8194
leyerek	-8195
▁cooper	-8196
▁damage	-8197
▁double	-8198
▁opened	-8199
▁tarihi	-8200
▁vulner	-8201
▁şehrin	-8202
▁However	-8203
▁necessary	-8204
▁karşısında	-8205
▁ultimately	-8206
abileceğiniz	-8207
▁consequences	-8208
des	-8209
▁ni	-8210
arız	-8211
urch	-8212
▁imm	-8213
▁yox	-8214
▁şar	-8215
amızı	-8216
atlar	-8217
inter	-8218
▁cult	-8219
▁fort	-8220
▁oksi	-8221
▁şiir	-8222
▁cloud	-8223
▁inand	-8224
▁kayıp	-8225
▁volun	-8226
ruption	-8227
▁alacak	-8228
▁berbat	-8229
▁boşluk	-8230
▁galaxy	-8231
▁kazand	-8232
▁therap	-8233
▁yıldan	-8234
▁studying	-8235
▁toplumun	-8236
▁classroom	-8237
▁creatures	-8238
▁işbirliği	-8239
▁tasarımcı	-8240
kel	-8241
▁3.	-8242
amik	-8243
▁Sal	-8244
▁göm	-8245
▁sla	-8246
ildim	-8247
ocket	-8248
▁lens	-8249
▁otob	-8250
▁spot	-8251
▁alkış	-8252
▁domin	-8253
▁hukuk	-8254
▁kanun	-8255
▁Çalış	-8256
▁Merkez	-8257
▁commit	-8258
▁origin	-8259
▁return	-8260
▁yaptır	-8261
▁appreci	-8262
▁foreign	-8263
▁knowing	-8264
▁parçacık	-8265
▁Sometimes	-8266
▁depression	-8267
sı	-8268
ald	-8269
bin	-8270
▁Mü	-8271
▁Sy	-8272
gini	-8273
irdi	-8274
mamı	-8275
▁Dış	-8276
▁Kut	-8277
▁pla	-8278
isyen	-8279
rough	-8280
çılar	-8281
▁accur	-8282
▁helps	-8283
▁lucky	-8284
▁sivil	-8285
▁dizayn	-8286
▁dreams	-8287
▁işleri	-8288
eceğimiz	-8289
ensional	-8290
▁benefit	-8291
▁extreme	-8292
▁herkese	-8293
▁succeed	-8294
▁uygulan	-8295
▁ihtiyacım	-8296
▁önümüzdeki	-8297
▁mathematics	-8298
▁Biliyorsunuz	-8299
ayın	-8300
▁250	-8301
▁Cam	-8302
▁Kul	-8303
▁sac	-8304
aydık	-8305
muyor	-8306
▁dörd	-8307
▁fill	-8308
▁kafa	-8309
ifying	-8310
▁Titan	-8311
▁bound	-8312
▁denen	-8313
▁dinos	-8314
▁novel	-8315
▁sordu	-8316
ladılar	-8317
▁eğilim	-8318
▁kurmak	-8319
▁lesson	-8320
▁motion	-8321
▁focused	-8322
▁gerçeği	-8323
▁görünüş	-8324
▁recover	-8325
▁ediliyor	-8326
▁contribut	-8327
▁efficient	-8328
▁commercial	-8329
nam	-8330
▁joy	-8331
▁harm	-8332
▁öykü	-8333
itable	-8334
lation	-8335
▁lerde	-8336
▁mater	-8337
▁yazık	-8338
▁ürünü	-8339
osistem	-8340
▁Brazil	-8341
▁raised	-8342
▁Germany	-8343
▁beklent	-8344
▁managed	-8345
▁rekabet	-8346
▁traffic	-8347
lerindeki	-8348
▁yüzyılda	-8349
▁gözüküyor	-8350
▁hissettir	-8351
▁dimensions	-8352
▁istediğiniz	-8353
▁professional	-8354
dem	-8355
ucak	-8356
wide	-8357
▁Jul	-8358
▁etc	-8359
liler	-8360
▁agre	-8361
▁iske	-8362
▁ment	-8363
▁teşh	-8364
memizi	-8365
▁aster	-8366
▁domuz	-8367
▁geçti	-8368
▁güney	-8369
▁işlev	-8370
▁nadir	-8371
▁noise	-8372
▁walls	-8373
▁weird	-8374
acağımı	-8375
lection	-8376
▁cevabı	-8377
▁corpor	-8378
▁depres	-8379
▁notion	-8380
▁yerini	-8381
▁evrensel	-8382
▁kimsenin	-8383
▁ihtimalle	-8384
▁çocuklara	-8385
▁Bilgisayar	-8386
▁necessarily	-8387
araq	-8388
uyum	-8389
▁Far	-8390
▁Vir	-8391
▁rit	-8392
▁çam	-8393
anızı	-8394
orrow	-8395
yafet	-8396
▁emek	-8397
▁kahk	-8398
▁mekt	-8399
▁sıkı	-8400
▁bağış	-8401
▁hafız	-8402
▁paint	-8403
▁proud	-8404
▁belong	-8405
▁eminim	-8406
▁engage	-8407
▁videos	-8408
▁farmers	-8409
▁getirdi	-8410
▁insects	-8411
▁malaria	-8412
▁çalışır	-8413
▁compared	-8414
▁document	-8415
▁telefonu	-8416
▁phenomenon	-8417
ni	-8418
phan	-8419
ürek	-8420
▁Red	-8421
▁Yok	-8422
▁göğ	-8423
▁qal	-8424
▁tun	-8425
umuzu	-8426
▁Once	-8427
▁chim	-8428
▁doku	-8429
▁farm	-8430
▁horr	-8431
▁Kesin	-8432
▁femin	-8433
▁kuzey	-8434
▁talep	-8435
▁teker	-8436
▁yalan	-8437
layarak	-8438
▁closed	-8439
▁magnet	-8440
▁metaph	-8441
▁museum	-8442
▁sorgul	-8443
▁destroy	-8444
▁wearing	-8445
▁zamanlı	-8446
▁Yaklaşık	-8447
▁strategy	-8448
▁olmasının	-8449
▁fascinating	-8450
▁responsible	-8451
▁istiyorsanız	-8452
yüz	-8453
▁Ot	-8454
▁kl	-8455
enty	-8456
mine	-8457
▁Hal	-8458
▁büt	-8459
linik	-8460
osity	-8461
riage	-8462
uries	-8463
▁evde	-8464
▁flat	-8465
▁foss	-8466
▁fresh	-8467
▁newsp	-8468
lerdeki	-8469
▁Yalnız	-8470
▁aksine	-8471
▁alarak	-8472
▁finger	-8473
▁türden	-8474
▁dönüyor	-8475
▁kadının	-8476
▁determin	-8477
▁değişimi	-8478
▁geleceği	-8479
▁İkincisi	-8480
▁discovery	-8481
▁existence	-8482
my	-8483
500	-8484
pir	-8485
▁ef	-8486
üven	-8487
▁Egy	-8488
▁Gre	-8489
▁Ple	-8490
▁heç	-8491
itute	-8492
▁bast	-8493
▁cogn	-8494
▁valu	-8495
▁Sanat	-8496
▁kanal	-8497
▁mosqu	-8498
▁Tekrar	-8499
▁breath	-8500
▁tırman	-8501
▁limited	-8502
▁signals	-8503
▁yoluyla	-8504
▁ettiğini	-8505
▁programı	-8506
dimensional	-8507
▁edilebilir	-8508
▁olduğunuzu	-8509
▁unfortunately	-8510
dam	-8511
▁36	-8512
▁si	-8513
king	-8514
lari	-8515
▁Sar	-8516
▁Sey	-8517
ounts	-8518
▁Mark	-8519
▁Sizi	-8520
▁intr	-8521
▁taki	-8522
▁Allah	-8523
▁Deniz	-8524
▁click	-8525
▁manip	-8526
▁river	-8527
▁ürete	-8528
▁Sağlık	-8529
▁dayalı	-8530
▁diğeri	-8531
▁ibaret	-8532
▁restor	-8533
alarımız	-8534
elerinin	-8535
▁acceler	-8536
▁birinde	-8537
▁paradig	-8538
▁sonrası	-8539
▁ameliyat	-8540
▁negative	-8541
▁sahiptir	-8542
▁conference	-8543
▁isterseniz	-8544
box	-8545
dol	-8546
mama	-8547
panz	-8548
ındı	-8549
▁Gir	-8550
▁dus	-8551
▁ekr	-8552
▁lat	-8553
▁sız	-8554
▁tons	-8555
ılacak	-8556
▁Would	-8557
▁bread	-8558
▁mobil	-8559
▁sport	-8560
▁accomp	-8561
▁adults	-8562
▁başard	-8563
▁fairly	-8564
▁kitabı	-8565
▁ortada	-8566
▁yellow	-8567
▁capable	-8568
▁empower	-8569
▁fashion	-8570
▁Bazıları	-8571
▁yakından	-8572
▁elektronik	-8573
▁sistemleri	-8574
▁GD	-8575
Amer	-8576
laki	-8577
olar	-8578
▁Hak	-8579
▁Ros	-8580
▁Tıp	-8581
▁sel	-8582
▁unp	-8583
▁şur	-8584
▁Part	-8585
▁Tele	-8586
▁intu	-8587
▁kaps	-8588
▁manz	-8589
▁şehr	-8590
▁Peter	-8591
▁breast	-8592
▁deeply	-8593
▁gökyüz	-8594
▁poster	-8595
▁signal	-8596
▁takdir	-8597
▁ticari	-8598
▁şefkat	-8599
▁buradan	-8600
▁katılım	-8601
▁sorunun	-8602
▁studied	-8603
▁Bunlardan	-8604
▁kendisini	-8605
▁oluşturan	-8606
▁background	-8607
▁university	-8608
ava	-8609
▁Ap	-8610
acaq	-8611
vant	-8612
▁Sam	-8613
▁due	-8614
dukça	-8615
throp	-8616
ürken	-8617
▁gift	-8618
▁sarı	-8619
▁Şunu	-8620
lerken	-8621
▁Three	-8622
▁basın	-8623
▁cycle	-8624
▁dəyiş	-8625
▁genet	-8626
▁seyir	-8627
▁şudur	-8628
▁caused	-8629
▁grandm	-8630
▁movies	-8631
▁olamaz	-8632
▁anladım	-8633
▁bilgiye	-8634
▁counter	-8635
▁kanseri	-8636
▁mahalle	-8637
▁finished	-8638
▁fonksiyon	-8639
▁toplumsal	-8640
əf	-8641
care	-8642
▁Rem	-8643
▁See	-8644
▁fal	-8645
▁fla	-8646
▁çer	-8647
▁çək	-8648
gener	-8649
▁bear	-8650
itness	-8651
▁paket	-8652
ebilmek	-8653
▁dolara	-8654
▁düşman	-8655
▁istedi	-8656
▁leader	-8657
▁araçlar	-8658
▁emotion	-8659
▁kıyafet	-8660
▁quantum	-8661
▁related	-8662
▁constantly	-8663
▁yapabilecek	-8664
▁32	-8665
▁DH	-8666
▁ax	-8667
▁Bud	-8668
▁Dep	-8669
▁bub	-8670
▁güz	-8671
hamet	-8672
ibute	-8673
lenen	-8674
veriş	-8675
▁burn	-8676
▁harf	-8677
▁circu	-8678
▁immun	-8679
▁events	-8680
▁harder	-8681
▁parent	-8682
▁soruml	-8683
▁stream	-8684
▁yollar	-8685
▁çoğunu	-8686
▁insight	-8687
▁elimizde	-8688
▁ekosistem	-8689
▁ilişkiler	-8690
▁kendinizi	-8691
▁suffering	-8692
gel	-8693
lie	-8694
onu	-8695
▁Qu	-8696
word	-8697
▁Nob	-8698
▁anı	-8699
▁beğ	-8700
known	-8701
▁atık	-8702
▁hell	-8703
▁peki	-8704
▁rout	-8705
▁Görün	-8706
▁Mısır	-8707
▁faces	-8708
▁yılın	-8709
▁düzgün	-8710
▁pollut	-8711
▁reward	-8712
▁display	-8713
▁ederken	-8714
▁married	-8715
lediğimiz	-8716
▁hikayeyi	-8717
▁kullandık	-8718
▁otherwise	-8719
▁alternatif	-8720
▁söylüyorum	-8721
▁increasingly	-8722
ico	-8723
ipe	-8724
▁MS	-8725
ptom	-8726
rave	-8727
▁Bon	-8728
▁Mut	-8729
▁həy	-8730
▁kıv	-8731
yonel	-8732
▁2005	-8733
▁Coun	-8734
▁faal	-8735
▁hate	-8736
▁weak	-8737
encing	-8738
lıktan	-8739
▁Child	-8740
▁bende	-8741
▁coast	-8742
▁exhib	-8743
▁gülüş	-8744
▁yörün	-8745
ilendir	-8746
issions	-8747
mayacak	-8748
▁konuyu	-8749
▁Fransız	-8750
▁aşağıya	-8751
▁trilyon	-8752
ıldığında	-8753
▁gösterir	-8754
▁fikirleri	-8755
▁organisms	-8756
▁businesses	-8757
lip	-8758
▁tə	-8759
anya	-8760
▁Hum	-8761
▁Mac	-8762
▁Müs	-8763
▁Yan	-8764
alığı	-8765
ening	-8766
▁acil	-8767
▁base	-8768
▁bird	-8769
▁tuva	-8770
lement	-8771
▁frequ	-8772
▁pregn	-8773
▁sihir	-8774
ındaydı	-8775
▁Başkan	-8776
▁ahlaki	-8777
▁bağlan	-8778
▁müdaha	-8779
▁oceans	-8780
▁pounds	-8781
▁slowly	-8782
▁anlamlı	-8783
▁bunlara	-8784
▁gönüllü	-8785
▁metabol	-8786
▁sorumlu	-8787
▁materyal	-8788
▁görebileceğ	-8789
▁interaction	-8790
▁düşündüğümüz	-8791
pet	-8792
ille	-8793
osis	-8794
vent	-8795
ünki	-8796
▁Wal	-8797
▁aşı	-8798
▁pun	-8799
eydim	-8800
icago	-8801
▁arms	-8802
▁onay	-8803
▁sevg	-8804
▁tick	-8805
▁Satur	-8806
▁konum	-8807
▁mouse	-8808
▁refer	-8809
▁vakit	-8810
tıkları	-8811
▁anatom	-8812
▁depart	-8813
▁gücünü	-8814
▁memnun	-8815
▁oranda	-8816
▁Küresel	-8817
▁açıklay	-8818
▁bizimle	-8819
▁calling	-8820
▁olmuştu	-8821
▁saldırı	-8822
▁yaratık	-8823
▁öğrenci	-8824
ification	-8825
▁başlamak	-8826
▁verdiler	-8827
▁advantage	-8828
▁gelebilir	-8829
▁artificial	-8830
▁baktığınızda	-8831
nik	-8832
oya	-8833
▁BG	-8834
cons	-8835
uldu	-8836
▁Fil	-8837
ekler	-8838
ışlar	-8839
▁Star	-8840
▁coal	-8841
▁grab	-8842
▁poet	-8843
▁İran	-8844
diğine	-8845
ulated	-8846
▁argue	-8847
▁artan	-8848
▁bayan	-8849
▁scene	-8850
▁sorry	-8851
▁south	-8852
▁yaşan	-8853
▁çağır	-8854
▁Ulusal	-8855
▁alalım	-8856
▁bizden	-8857
▁bölümü	-8858
▁caught	-8859
▁interp	-8860
▁select	-8861
▁tutmak	-8862
▁Almanya	-8863
▁Chicago	-8864
▁Japonya	-8865
▁deyişle	-8866
▁restaur	-8867
▁trained	-8868
▁yakalan	-8869
▁emotions	-8870
▁planning	-8871
▁surprise	-8872
▁zamandan	-8873
▁kendileri	-8874
▁meslektaş	-8875
ayi	-8876
mar	-8877
əcəy	-8878
▁Gez	-8879
▁Hom	-8880
▁hyp	-8881
gency	-8882
▁2011	-8883
▁Amma	-8884
▁Comp	-8885
▁Genç	-8886
▁band	-8887
▁bask	-8888
▁bits	-8889
▁tour	-8890
ediğim	-8891
▁varol	-8892
▁salgın	-8893
▁sector	-8894
▁aktivit	-8895
▁conduct	-8896
▁geçiyor	-8897
▁illustr	-8898
▁vehicle	-8899
▁yönelik	-8900
▁finansal	-8901
▁multiple	-8902
▁sentence	-8903
▁topluluğ	-8904
▁çevresel	-8905
▁nedeniyle	-8906
▁yapacağım	-8907
▁competition	-8908
obi	-8909
oft	-8910
ekte	-8911
▁Art	-8912
▁Bit	-8913
▁Jim	-8914
▁Kaç	-8915
▁duv	-8916
▁işç	-8917
▁sıt	-8918
lated	-8919
zilya	-8920
▁1950	-8921
▁Pres	-8922
▁birç	-8923
▁soil	-8924
▁Willi	-8925
▁beyni	-8926
▁camer	-8927
▁pages	-8928
▁stood	-8929
▁tarif	-8930
▁verim	-8931
▁zehir	-8932
ecekler	-8933
▁bright	-8934
▁isimli	-8935
▁mantık	-8936
▁micros	-8937
▁sister	-8938
adığınız	-8939
larsınız	-8940
▁balance	-8941
▁eleştir	-8942
▁equival	-8943
▁mothers	-8944
▁popüler	-8945
▁uyuştur	-8946
▁vermeye	-8947
▁weather	-8948
▁zihinsel	-8949
▁designing	-8950
▁kendimize	-8951
▁konuşuyor	-8952
▁mentioned	-8953
▁satellite	-8954
▁Özellikle	-8955
▁baktığımızda	-8956
oca	-8957
rol	-8958
▁Bob	-8959
▁Haz	-8960
▁mec	-8961
▁mul	-8962
▁Jeff	-8963
▁Sing	-8964
▁Wall	-8965
▁doğa	-8966
▁hero	-8967
▁opin	-8968
▁orad	-8969
▁scul	-8970
idents	-8971
▁2,000	-8972
▁grown	-8973
▁homes	-8974
▁leads	-8975
▁yapam	-8976
▁yürüm	-8977
▁bridge	-8978
▁katman	-8979
▁alanlar	-8980
▁getiren	-8981
▁istəyir	-8982
▁olacağı	-8983
▁argument	-8984
▁marriage	-8985
▁rastgele	-8986
▁zamandır	-8987
▁bilgileri	-8988
▁fotoğrafı	-8989
▁intellect	-8990
▁konuşmalar	-8991
emb	-8992
equ	-8993
ona	-8994
▁PM	-8995
athy	-8996
ogen	-8997
pper	-8998
▁Bal	-8999
▁Bağ	-9000
▁Hem	-9001
▁tuz	-9002
örler	-9003
▁2004	-9004
▁Hint	-9005
▁boat	-9006
▁wave	-9007
▁yard	-9008
hattan	-9009
▁kusur	-9010
▁layer	-9011
▁ordin	-9012
▁radyo	-9013
▁steps	-9014
▁Martin	-9015
▁failed	-9016
▁galaks	-9017
▁konuya	-9018
▁manage	-9019
▁picked	-9020
lication	-9021
▁bakıyor	-9022
▁invited	-9023
▁Brezilya	-9024
▁başlayan	-9025
▁normally	-9026
▁sequence	-9027
▁konuşmaya	-9028
▁üniversite	-9029
qa	-9030
ams	-9031
aze	-9032
ota	-9033
gent	-9034
▁Rio	-9035
▁hol	-9036
▁ısı	-9037
▁əvv	-9038
araya	-9039
ülmüş	-9040
▁Each	-9041
▁hâle	-9042
ikatür	-9043
lemeyi	-9044
ushing	-9045
ümüzün	-9046
▁Okyan	-9047
▁chain	-9048
▁round	-9049
▁sites	-9050
▁yapım	-9051
▁yürüt	-9052
▁Bizler	-9053
▁begins	-9054
▁degree	-9055
▁frustr	-9056
▁götüre	-9057
mezsiniz	-9058
▁factory	-9059
▁organic	-9060
▁sınırlı	-9061
▁magazine	-9062
▁Manhattan	-9063
▁principles	-9064
AR	-9065
tex	-9066
apse	-9067
atın	-9068
odes	-9069
olds	-9070
▁GDP	-9071
▁era	-9072
▁oku	-9073
▁ust	-9074
ektif	-9075
iques	-9076
▁Meks	-9077
▁ship	-9078
ardaki	-9079
▁Nobel	-9080
▁altın	-9081
▁buldu	-9082
▁daily	-9083
▁eleph	-9084
▁grass	-9085
▁shark	-9086
▁öngör	-9087
▁geomet	-9088
▁göstər	-9089
▁içeren	-9090
▁içerik	-9091
▁parayı	-9092
ulations	-9093
▁diyelim	-9094
▁drawing	-9095
▁hakları	-9096
▁olmanız	-9097
▁radikal	-9098
▁typical	-9099
▁separate	-9100
▁described	-9101
▁güvenilir	-9102
▁düşünmüyor	-9103
▁hissediyorum	-9104
▁ü	-9105
▁fo	-9106
▁öf	-9107
▁üm	-9108
cısı	-9109
oter	-9110
▁Biy	-9111
▁edə	-9112
▁toz	-9113
lasik	-9114
▁Kans	-9115
▁beat	-9116
▁itir	-9117
▁whom	-9118
▁üçte	-9119
anging	-9120
▁Black	-9121
▁brief	-9122
▁categ	-9123
▁maruz	-9124
▁plane	-9125
▁üstün	-9126
mesinin	-9127
▁Middle	-9128
▁charge	-9129
▁devasa	-9130
▁ederiz	-9131
▁exists	-9132
▁kamera	-9133
▁kapsam	-9134
▁klinik	-9135
▁prefer	-9136
▁sürede	-9137
▁çekmek	-9138
▁concent	-9139
▁designer	-9140
▁gördüğüm	-9141
▁insanlık	-9142
▁kazandır	-9143
▁survival	-9144
▁Hollywood	-9145
▁influence	-9146
▁olduğunun	-9147
▁sonucunda	-9148
▁generations	-9149
▁Ox	-9150
▁Mad	-9151
▁hur	-9152
▁lob	-9153
estic	-9154
▁cook	-9155
▁frag	-9156
▁myth	-9157
lamayı	-9158
▁Genel	-9159
▁Neyse	-9160
▁ailem	-9161
▁claim	-9162
▁equal	-9163
▁kenar	-9164
▁kilit	-9165
▁regul	-9166
▁İslam	-9167
anların	-9168
liğinde	-9169
▁bakıma	-9170
▁hidden	-9171
▁kişiyi	-9172
▁sürece	-9173
▁toprağ	-9174
▁zincir	-9175
▁çözmek	-9176
▁hızlıca	-9177
▁watched	-9178
▁zamanla	-9179
▁adamları	-9180
▁property	-9181
▁received	-9182
▁struggle	-9183
▁transpar	-9184
▁arkasında	-9185
▁philosoph	-9186
▁technical	-9187
▁yapılıyor	-9188
▁considered	-9189
▁birbirlerine	-9190
fa	-9191
bab	-9192
eya	-9193
▁Bö	-9194
grad	-9195
ayıcı	-9196
laşma	-9197
ıldım	-9198
▁liqu	-9199
▁repl	-9200
▁scen	-9201
▁stim	-9202
acters	-9203
▁climb	-9204
▁quote	-9205
▁tabak	-9206
▁yatak	-9207
elerine	-9208
lığının	-9209
miyoruz	-9210
▁harcam	-9211
▁master	-9212
▁wisdom	-9213
▁ekonomi	-9214
▁gibiydi	-9215
▁hareketi	-9216
▁olacaktı	-9217
▁tomorrow	-9218
▁seriously	-9219
▁tarafında	-9220
▁Öncelikle	-9221
▁Everything	-9222
▁çalışırken	-9223
▁manufacturing	-9224
▁BM	-9225
▁Je	-9226
▁Ke	-9227
▁Ug	-9228
amda	-9229
▁Beş	-9230
▁deh	-9231
▁fen	-9232
▁ped	-9233
▁tag	-9234
lanır	-9235
▁Prof	-9236
▁Very	-9237
▁kral	-9238
▁names	-9239
▁surge	-9240
▁deeper	-9241
▁filled	-9242
▁finish	-9243
▁tarafı	-9244
▁cameras	-9245
▁leaving	-9246
▁Kaliforn	-9247
▁istediği	-9248
▁launched	-9249
▁sistemin	-9250
▁özgürlük	-9251
▁brilliant	-9252
▁techniques	-9253
▁transformation	-9254
ulf	-9255
unt	-9256
bert	-9257
▁Lad	-9258
▁Nij	-9259
▁Sch	-9260
▁ali	-9261
▁bon	-9262
▁dry	-9263
▁fro	-9264
▁hed	-9265
endim	-9266
esome	-9267
owing	-9268
▁Does	-9269
▁Flor	-9270
▁rein	-9271
▁sund	-9272
▁utan	-9273
suzluk	-9274
▁lunch	-9275
▁prior	-9276
▁suçlu	-9277
▁trial	-9278
▁çerçe	-9279
duğunda	-9280
liğinin	-9281
▁circle	-9282
▁expert	-9283
▁hayran	-9284
▁romant	-9285
▁yüzleş	-9286
melerine	-9287
▁compare	-9288
▁fikrini	-9289
▁highest	-9290
▁monitor	-9291
▁shouldn	-9292
▁volunte	-9293
▁yenilen	-9294
▁advanced	-9295
▁alabilir	-9296
▁asteroid	-9297
▁followed	-9298
▁hikayesi	-9299
▁olmaması	-9300
▁günümüzde	-9301
▁konferans	-9302
▁processes	-9303
▁çalışması	-9304
▁characters	-9305
▁surprising	-9306
▁yaptığınız	-9307
▁milyarlarca	-9308
▁düşündüğünüz	-9309
BI	-9310
ode	-9311
rek	-9312
yar	-9313
lers	-9314
ülük	-9315
▁Tal	-9316
▁dat	-9317
▁egz	-9318
▁ves	-9319
opter	-9320
▁dili	-9321
▁gold	-9322
▁meat	-9323
▁mült	-9324
▁sözc	-9325
▁vibr	-9326
ığımda	-9327
▁abstr	-9328
▁chann	-9329
▁fosil	-9330
▁kabil	-9331
▁moves	-9332
▁Müslüm	-9333
▁attach	-9334
▁safety	-9335
▁sculpt	-9336
▁teklif	-9337
▁unless	-9338
▁versus	-9339
▁deniyor	-9340
▁experts	-9341
eceksiniz	-9342
▁concentr	-9343
▁yapmanın	-9344
▁currently	-9345
▁Kesinlikle	-9346
▁equivalent	-9347
tük	-9348
▁28	-9349
ests	-9350
lock	-9351
udum	-9352
▁Ser	-9353
dılar	-9354
imser	-9355
▁hadn	-9356
▁seat	-9357
▁stup	-9358
▁vote	-9359
▁wide	-9360
▁öldü	-9361
landık	-9362
▁colon	-9363
▁harik	-9364
▁kahve	-9365
▁saved	-9366
▁askeri	-9367
▁circum	-9368
▁değeri	-9369
▁arrived	-9370
▁avantaj	-9371
▁birinci	-9372
▁kişilik	-9373
▁worried	-9374
▁identify	-9375
▁investig	-9376
▁yıllarda	-9377
▁Everybody	-9378
▁olmasıdır	-9379
▁bilmiyoruz	-9380
▁değiştirdi	-9381
▁verdiğimiz	-9382
▁yaptıklarını	-9383
▁conversations	-9384
gic	-9385
vur	-9386
ınt	-9387
ərq	-9388
haba	-9389
▁sıç	-9390
▁tez	-9391
▁təs	-9392
etime	-9393
▁cave	-9394
▁exch	-9395
▁poem	-9396
▁slay	-9397
▁trop	-9398
▁zevk	-9399
ildiği	-9400
▁Erkek	-9401
▁Haiti	-9402
üyorlar	-9403
▁Israel	-9404
▁School	-9405
▁desert	-9406
▁etmesi	-9407
▁konuşm	-9408
▁leaves	-9409
▁pocket	-9410
▁varlık	-9411
▁yansıt	-9412
▁denilen	-9413
▁yaşamın	-9414
▁şirketi	-9415
▁Stanford	-9416
▁concerned	-9417
▁karikatür	-9418
▁principle	-9419
▁yapacağız	-9420
▁oluşturuyor	-9421
▁yaşındayken	-9422
▁çalıştığını	-9423
uh	-9424
▁BF	-9425
oman	-9426
▁195	-9427
▁Der	-9428
▁Hik	-9429
▁gap	-9430
ırsız	-9431
▁Last	-9432
▁edge	-9433
▁köle	-9434
▁nerv	-9435
▁note	-9436
▁warm	-9437
amayan	-9438
ements	-9439
▁halka	-9440
▁içeri	-9441
▁kalab	-9442
▁kalır	-9443
▁risks	-9444
▁sight	-9445
▁Mexico	-9446
▁balığı	-9447
▁battle	-9448
▁baştan	-9449
▁fields	-9450
▁kuyruk	-9451
▁yapılm	-9452
▁basitçe	-9453
▁yapması	-9454
▁alıyoruz	-9455
▁olmuştur	-9456
▁hopefully	-9457
▁ülkelerin	-9458
▁istatistik	-9459
▁sorumluluk	-9460
▁birbirinden	-9461
▁civilization	-9462
iev	-9463
ita	-9464
uda	-9465
cale	-9466
▁dər	-9467
lying	-9468
ogram	-9469
othes	-9470
▁hali	-9471
amızda	-9472
terday	-9473
▁Could	-9474
▁talks	-9475
liyoruz	-9476
▁advert	-9477
▁crimin	-9478
▁dinner	-9479
diğimizi	-9480
▁düşünme	-9481
▁extract	-9482
▁analysis	-9483
▁bilgisay	-9484
▁dikkatli	-9485
▁faaliyet	-9486
▁ordinary	-9487
▁sıklıkla	-9488
▁perfectly	-9489
▁yapılması	-9490
▁connections	-9491
▁experienced	-9492
▁geliştirmek	-9493
adə	-9494
aza	-9495
▁120	-9496
▁Les	-9497
▁caz	-9498
▁çel	-9499
asion	-9500
print	-9501
urlar	-9502
▁diss	-9503
▁hasn	-9504
▁modi	-9505
▁ofis	-9506
imleri	-9507
▁Basit	-9508
▁ahlak	-9509
▁cesur	-9510
▁crime	-9511
▁soyut	-9512
▁spoke	-9513
▁users	-9514
lamalar	-9515
tikleri	-9516
▁duyduk	-9517
▁kritik	-9518
▁shapes	-9519
▁çıkmış	-9520
▁letters	-9521
▁treated	-9522
▁contract	-9523
▁exercise	-9524
▁farklılık	-9525
▁geliyordu	-9526
▁agriculture	-9527
▁comfortable	-9528
ji	-9529
▁Ül	-9530
mede	-9531
ocol	-9532
tesi	-9533
▁Wik	-9534
▁Yen	-9535
▁ald	-9536
▁amp	-9537
▁cin	-9538
▁oğl	-9539
▁İnd	-9540
ümüzü	-9541
▁arts	-9542
▁köpr	-9543
▁neyi	-9544
▁purs	-9545
▁snow	-9546
▁Değil	-9547
▁başta	-9548
▁büyüt	-9549
▁dolph	-9550
▁düşüş	-9551
▁folks	-9552
▁günün	-9553
▁tumor	-9554
▁waves	-9555
▁wheel	-9556
▁çeken	-9557
▁İsveç	-9558
inizden	-9559
ütüphan	-9560
▁Farklı	-9561
▁duymuş	-9562
▁dışına	-9563
▁erişim	-9564
▁fikrim	-9565
▁uzakta	-9566
▁voices	-9567
▁zordur	-9568
▁Oldukça	-9569
▁dealing	-9570
▁kalıyor	-9571
▁nihayet	-9572
▁promise	-9573
▁süredir	-9574
▁accident	-9575
▁airplane	-9576
▁otomatik	-9577
▁Australia	-9578
▁continent	-9579
▁essential	-9580
▁Muhtemelen	-9581
▁başlıyoruz	-9582
▁grandmother	-9583
▁researchers	-9584
▁aracılığıyla	-9585
gər	-9586
imum	-9587
▁Alq	-9588
▁Lib	-9589
▁arı	-9590
▁dük	-9591
▁lez	-9592
▁tək	-9593
abled	-9594
itler	-9595
ublic	-9596
▁batı	-9597
▁migr	-9598
▁roof	-9599
▁suya	-9600
▁wake	-9601
▁Sorun	-9602
▁arama	-9603
▁duran	-9604
▁inner	-9605
▁rates	-9606
▁yapıp	-9607
▁çiftç	-9608
▁çıkış	-9609
ediğini	-9610
▁Robert	-9611
▁incent	-9612
▁obsess	-9613
▁olumlu	-9614
▁yazdım	-9615
▁article	-9616
▁biyoloj	-9617
▁getirir	-9618
▁radical	-9619
▁bilgiler	-9620
▁diyorlar	-9621
▁emerging	-9622
▁messages	-9623
▁metaphor	-9624
▁söyleyen	-9625
▁yüzyılın	-9626
▁surprised	-9627
▁bildiğiniz	-9628
▁biliyordum	-9629
▁corruption	-9630
▁ihtiyaçları	-9631
aq	-9632
ydi	-9633
▁ce	-9634
ilet	-9635
uses	-9636
▁Mag	-9637
▁Pac	-9638
▁elb	-9639
▁tox	-9640
▁Üst	-9641
lerse	-9642
▁Okul	-9643
▁komp	-9644
▁uyan	-9645
mediği	-9646
pected	-9647
üyoruz	-9648
▁Carol	-9649
▁Organ	-9650
▁evlen	-9651
▁farkı	-9652
▁filmi	-9653
▁gördü	-9654
▁heads	-9655
▁heavy	-9656
▁taban	-9657
▁baktım	-9658
▁beklem	-9659
▁bilimi	-9660
▁organs	-9661
▁symmet	-9662
▁kocaman	-9663
▁oyuncak	-9664
▁sebeple	-9665
emezsiniz	-9666
▁uygulama	-9667
▁çalıştığ	-9668
▁wondering	-9669
▁düşünceler	-9670
▁kaynakları	-9671
▁anlatacağım	-9672
▁intelligent	-9673
▁profesyonel	-9674
att	-9675
evi	-9676
ums	-9677
izes	-9678
▁Bro	-9679
▁Cev	-9680
▁Met	-9681
▁ens	-9682
▁fan	-9683
inson	-9684
lərin	-9685
ıldık	-9686
▁hall	-9687
▁king	-9688
▁soph	-9689
▁vaxt	-9690
▁Their	-9691
▁coral	-9692
▁kırık	-9693
▁mezun	-9694
▁rural	-9695
▁shoes	-9696
▁fossil	-9697
▁liquid	-9698
▁mercan	-9699
▁mikros	-9700
▁oradan	-9701
▁paying	-9702
▁İsrail	-9703
▁curious	-9704
▁details	-9705
▁değişti	-9706
▁nervous	-9707
▁roughly	-9708
▁molecule	-9709
▁oluşuyor	-9710
▁cognitive	-9711
▁başlayalım	-9712
▁düşündüğüm	-9713
▁kullanmaya	-9714
▁söyleyebilirim	-9715
▁26	-9716
▁Cr	-9717
leyi	-9718
▁Jon	-9719
▁ağz	-9720
▁küm	-9721
▁sığ	-9722
▁örg	-9723
arsız	-9724
ipped	-9725
olves	-9726
▁Ebol	-9727
▁lock	-9728
▁salg	-9729
▁Scott	-9730
▁appar	-9731
▁cevab	-9732
▁kitle	-9733
▁orbit	-9734
▁quiet	-9735
▁toplu	-9736
▁Umarım	-9737
▁arayüz	-9738
▁duydum	-9739
▁encoun	-9740
▁fourth	-9741
▁karınc	-9742
▁kutsal	-9743
▁stupid	-9744
▁sıkıcı	-9745
▁ziyade	-9746
ımızdaki	-9747
▁dönemde	-9748
▁opening	-9749
▁sending	-9750
▁sonsuza	-9751
▁alanları	-9752
▁expected	-9753
▁feelings	-9754
▁merhamet	-9755
▁operating	-9756
▁management	-9757
▁alternative	-9758
▁effectively	-9759
ae	-9760
mə	-9761
ân	-9762
did	-9763
eti	-9764
ste	-9765
▁Az	-9766
diki	-9767
hbet	-9768
ient	-9769
late	-9770
unan	-9771
▁Yük	-9772
▁içi	-9773
ideki	-9774
▁ants	-9775
▁diet	-9776
▁lies	-9777
▁load	-9778
echnol	-9779
▁esnek	-9780
▁input	-9781
▁isten	-9782
▁mənim	-9783
▁sürük	-9784
itarian	-9785
larımın	-9786
▁Uganda	-9787
▁neuros	-9788
▁eskiden	-9789
▁implant	-9790
▁tersine	-9791
▁tuvalet	-9792
▁geçirdim	-9793
▁olacağız	-9794
▁hissettim	-9795
▁demokratik	-9796
▁bahsettiğim	-9797
▁hayvanların	-9798
▁specifically	-9799
daş	-9800
ora	-9801
pat	-9802
ardo	-9803
book	-9804
fish	-9805
isiz	-9806
▁Fre	-9807
▁Rep	-9808
effaf	-9809
leyip	-9810
▁Iran	-9811
▁shut	-9812
▁user	-9813
alesef	-9814
encies	-9815
umuzda	-9816
▁Düşün	-9817
▁aylık	-9818
▁odada	-9819
▁perce	-9820
▁sahne	-9821
▁seçen	-9822
▁tatlı	-9823
▁yasak	-9824
▁yolla	-9825
▁announ	-9826
▁geldim	-9827
▁hapish	-9828
▁remote	-9829
▁sormak	-9830
▁thinks	-9831
▁trafik	-9832
▁varsay	-9833
▁adamlar	-9834
▁chicken	-9835
▁felaket	-9836
▁forests	-9837
▁illness	-9838
▁kolayca	-9839
▁liberal	-9840
▁oksijen	-9841
▁setting	-9842
ebilirler	-9843
melisiniz	-9844
▁araçları	-9845
▁bireysel	-9846
▁epidemic	-9847
▁feedback	-9848
▁müdahale	-9849
▁reaction	-9850
▁chemistry	-9851
▁endişelen	-9852
▁Kaliforniya	-9853
▁teknolojiler	-9854
▁om	-9855
acle	-9856
bors	-9857
ears	-9858
ered	-9859
onym	-9860
▁Boy	-9861
▁Kaf	-9862
▁Tes	-9863
▁agg	-9864
diven	-9865
illed	-9866
▁Talk	-9867
▁Veya	-9868
▁avuk	-9869
▁bamb	-9870
▁recy	-9871
▁çevr	-9872
▁Since	-9873
▁hissi	-9874
▁vahşi	-9875
▁yavru	-9876
▁yönde	-9877
▁əvvəl	-9878
▁aniden	-9879
▁losing	-9880
▁observ	-9881
▁sonuna	-9882
lıyorlar	-9883
▁England	-9884
▁kelimes	-9885
▁sandaly	-9886
▁variety	-9887
▁Avustral	-9888
▁sorunlar	-9889
▁emissions	-9890
▁kelimeler	-9891
▁movements	-9892
▁professor	-9893
▁importance	-9894
ansı	-9895
avig	-9896
▁Dik	-9897
▁erk	-9898
▁Çev	-9899
▁öne	-9900
meyin	-9901
riend	-9902
umber	-9903
▁alar	-9904
▁isol	-9905
▁rare	-9906
▁Women	-9907
▁alana	-9908
▁equip	-9909
▁estab	-9910
▁falan	-9911
▁holes	-9912
▁kablo	-9913
▁tanıy	-9914
alandır	-9915
▁academ	-9916
▁geçtik	-9917
▁muscle	-9918
▁yanına	-9919
▁Gelecek	-9920
▁bildiği	-9921
▁gravity	-9922
▁organik	-9923
▁testing	-9924
▁istifadə	-9925
▁sahipler	-9926
▁konuşmayı	-9927
▁bahsedeceğim	-9928
bel	-9929
dak	-9930
eed	-9931
▁rö	-9932
elet	-9933
ikir	-9934
oved	-9935
utan	-9936
üldü	-9937
▁Siy	-9938
▁Tor	-9939
ropri	-9940
usion	-9941
▁Hala	-9942
▁Uzay	-9943
▁copy	-9944
▁dots	-9945
▁horm	-9946
▁lift	-9947
▁tail	-9948
▁unex	-9949
▁uzat	-9950
▁vent	-9951
▁özgü	-9952
ctions	-9953
▁crowd	-9954
▁degil	-9955
▁gürül	-9956
▁infin	-9957
▁multi	-9958
▁satış	-9959
▁sevgi	-9960
▁titre	-9961
▁verme	-9962
▁yasal	-9963
▁Micros	-9964
▁facing	-9965
▁forced	-9966
▁göçmen	-9967
▁mimari	-9968
▁gelince	-9969
▁gibidir	-9970
▁yeteneğ	-9971
▁Herhangi	-9972
▁birazcık	-9973
▁seviyede	-9974
▁thoughts	-9975
▁President	-9976
▁carefully	-9977
▁bağlantılı	-9978
▁etkileyici	-9979
▁değişikliği	-9980
▁istemiyorum	-9981
▁kullanılıyor	-9982
sə	-9983
mad	-9984
əcə	-9985
ians	-9986
ucks	-9987
▁adm	-9988
▁len	-9989
lamış	-9990
leyin	-9991
neath	-9992
sever	-9993
ırsal	-9994
▁Biri	-9995
▁Come	-9996
ibrary	-9997
ipedia	-9998
▁Smith	-9999
▁hakkı	-10000
▁pişir	-10001
▁Sosyal	-10002
▁cerrah	-10003
▁debate	-10004
▁edemey	-10005
▁gelmek	-10006
▁houses	-10007
▁koymak	-10008
▁puzzle	-10009
▁strang	-10010
▁toward	-10011
▁worlds	-10012
entional	-10013
▁actions	-10014
▁covered	-10015
▁karşıya	-10016
▁keeping	-10017
▁üretmek	-10018
▁evrimleş	-10019
▁görünmez	-10020
▁location	-10021
▁maintain	-10022
▁printing	-10023
▁resource	-10024
▁robotlar	-10025
▁söyledim	-10026
▁şeylerle	-10027
▁Wikipedia	-10028
▁civarında	-10029
▁demokrasi	-10030
▁İnanılmaz	-10031
▁dünyasında	-10032
▁üstesinden	-10033
cap	-10034
eyn	-10035
pty	-10036
raw	-10037
▁lı	-10038
chen	-10039
icks	-10040
itif	-10041
life	-10042
▁20.	-10043
▁evr	-10044
▁kov	-10045
▁lad	-10046
▁2012	-10047
▁Proj	-10048
▁borç	-10049
▁kest	-10050
▁Inter	-10051
▁bozul	-10052
▁broke	-10053
▁crack	-10054
▁süren	-10055
▁tanıt	-10056
▁veget	-10057
▁yolda	-10058
▁önemi	-10059
ladığım	-10060
lamanın	-10061
▁autism	-10062
▁duruma	-10063
▁skelet	-10064
▁bugünkü	-10065
▁istemez	-10066
▁iyimser	-10067
abilities	-10068
lanabilir	-10069
▁liderlik	-10070
▁Çocuklar	-10071
▁özelliği	-10072
▁yaratıyor	-10073
▁erkeklerin	-10074
▁teknolojik	-10075
▁yaşadığımız	-10076
▁construction	-10077
▁evolutionary	-10078
arm	-10079
cus	-10080
hol	-10081
lyn	-10082
▁Sn	-10083
resp	-10084
ylül	-10085
▁kuz	-10086
▁pet	-10087
eline	-10088
▁Oyun	-10089
▁crop	-10090
▁hurt	-10091
▁ille	-10092
▁ismi	-10093
▁pray	-10094
▁puts	-10095
▁seek	-10096
diğimi	-10097
enleri	-10098
▁Derek	-10099
▁Eylül	-10100
▁açısı	-10101
▁crash	-10102
▁demiş	-10103
▁fiber	-10104
▁hidro	-10105
▁kateg	-10106
▁oldug	-10107
▁olmas	-10108
▁sakin	-10109
▁ölçüm	-10110
▁şeyle	-10111
ressive	-10112
▁France	-10113
▁explan	-10114
▁kopyal	-10115
▁meşgul	-10116
▁umarım	-10117
▁Üçüncü	-10118
malarına	-10119
▁Dünyada	-10120
▁bilimin	-10121
▁consist	-10122
▁courage	-10123
▁dynamic	-10124
▁vaccine	-10125
▁yapılar	-10126
▁yönetic	-10127
üyorsunuz	-10128
▁projeler	-10129
▁yaşadığı	-10130
▁Neredeyse	-10131
▁altındaki	-10132
▁fundament	-10133
▁olursanız	-10134
▁worldwide	-10135
▁collection	-10136
▁electrical	-10137
▁söylediler	-10138
▁uyuşturucu	-10139
▁independent	-10140
ura	-10141
▁95	-10142
gesi	-10143
istr	-10144
▁ble	-10145
▁cup	-10146
▁kıl	-10147
▁səb	-10148
place	-10149
▁2006	-10150
▁Eski	-10151
▁Kork	-10152
▁gras	-10153
▁iken	-10154
▁pair	-10155
▁roll	-10156
esidir	-10157
▁Güven	-10158
▁buzul	-10159
▁explo	-10160
▁subst	-10161
uyordum	-10162
▁aklıma	-10163
▁compar	-10164
▁oturup	-10165
▁oyuncu	-10166
▁repair	-10167
▁season	-10168
▁cutting	-10169
▁eğitimi	-10170
▁killing	-10171
▁sunuyor	-10172
▁yürüyüş	-10173
layabilir	-10174
malısınız	-10175
▁absolute	-10176
▁election	-10177
▁trillion	-10178
▁valuable	-10179
▁economics	-10180
▁president	-10181
▁sophistic	-10182
▁vereceğim	-10183
▁olabilirdi	-10184
▁çalışıyorlar	-10185
▁kullanabiliriz	-10186
azi	-10187
dar	-10188
şaq	-10189
gets	-10190
▁öyr	-10191
lance	-10192
lılar	-10193
▁2001	-10194
▁audi	-10195
▁ekib	-10196
▁enem	-10197
▁ente	-10198
▁init	-10199
▁lapt	-10200
▁sırt	-10201
▁çant	-10202
urally	-10203
▁girdi	-10204
▁kalın	-10205
▁kanat	-10206
▁fellow	-10207
▁hamile	-10208
▁medium	-10209
▁scared	-10210
▁veriyi	-10211
▁Nigeria	-10212
▁confron	-10213
▁gelişme	-10214
▁privile	-10215
▁sources	-10216
▁witness	-10217
▁barındır	-10218
▁kişilerin	-10219
▁bulduğumuz	-10220
▁properties	-10221
▁protection	-10222
▁relatively	-10223
▁underneath	-10224
▁vulnerable	-10225
ebileceğimiz	-10226
baş	-10227
▁Os	-10228
▁oz	-10229
acın	-10230
icon	-10231
opia	-10232
▁21.	-10233
▁700	-10234
▁Jan	-10235
▁Muh	-10236
▁Str	-10237
▁cow	-10238
▁şok	-10239
inced	-10240
▁2003	-10241
▁kare	-10242
▁pure	-10243
father	-10244
istler	-10245
▁Yakın	-10246
▁serve	-10247
areness	-10248
▁Center	-10249
▁assist	-10250
▁ayında	-10251
▁fazlad	-10252
▁pencer	-10253
▁physic	-10254
▁faydalı	-10255
▁mosquit	-10256
▁weapons	-10257
larınızın	-10258
▁oranında	-10259
▁spectrum	-10260
▁farkettim	-10261
▁interface	-10262
▁neighbors	-10263
▁oluyorlar	-10264
▁tamamıyla	-10265
▁associated	-10266
▁healthcare	-10267
ezi	-10268
igu	-10269
▁Di	-10270
▁GS	-10271
▁Ro	-10272
agos	-10273
ario	-10274
ebek	-10275
▁191	-10276
▁Air	-10277
▁Eve	-10278
▁Get	-10279
▁Law	-10280
▁Net	-10281
▁Tim	-10282
▁koz	-10283
▁swe	-10284
amıza	-10285
gment	-10286
küler	-10287
usuna	-10288
▁Four	-10289
▁bees	-10290
▁biom	-10291
▁bütç	-10292
▁desk	-10293
▁gere	-10294
▁graf	-10295
▁kain	-10296
▁kole	-10297
▁pump	-10298
icious	-10299
▁Hemen	-10300
▁Space	-10301
▁ekmek	-10302
▁goals	-10303
▁lerin	-10304
▁müdür	-10305
▁tablo	-10306
▁yuvar	-10307
▁Sistem	-10308
▁driver	-10309
▁height	-10310
▁olmasa	-10311
▁sohbet	-10312
▁vizyon	-10313
▁Arkadaş	-10314
▁artıyor	-10315
▁battery	-10316
▁factors	-10317
▁oradaki	-10318
▁station	-10319
eceğimizi	-10320
▁benzeyen	-10321
▁duygular	-10322
▁dışarıda	-10323
▁söyledik	-10324
▁convinced	-10325
▁equipment	-10326
▁gentlemen	-10327
▁kullanımı	-10328
▁languages	-10329
▁yesterday	-10330
▁processing	-10331
▁exploration	-10332
▁tasarlanmış	-10333
▁başladığımız	-10334
▁düşünüyordum	-10335
GO	-10336
âh	-10337
isf	-10338
orb	-10339
▁La	-10340
cers	-10341
▁und	-10342
itals	-10343
lıkta	-10344
muştu	-10345
▁Anne	-10346
▁High	-10347
▁Viet	-10348
▁boyu	-10349
▁flex	-10350
▁hers	-10351
▁hide	-10352
▁lamb	-10353
▁maaş	-10354
bridge	-10355
ığının	-10356
ığınız	-10357
▁3,000	-10358
▁Annem	-10359
▁Yaşam	-10360
▁bölün	-10361
▁goods	-10362
▁niyet	-10363
▁prost	-10364
▁signs	-10365
▁səbəb	-10366
▁tohum	-10367
▁zihin	-10368
bilirim	-10369
biliyor	-10370
elendir	-10371
▁Ekonom	-10372
▁blocks	-10373
▁conver	-10374
▁engell	-10375
▁gözden	-10376
▁mektup	-10377
▁renkli	-10378
▁servis	-10379
▁awesome	-10380
▁capture	-10381
▁kampany	-10382
▁reached	-10383
▁release	-10384
▁reprodu	-10385
▁victims	-10386
▁warming	-10387
▁Congress	-10388
▁bakarsak	-10389
▁consumer	-10390
▁değişken	-10391
▁hastalar	-10392
▁required	-10393
▁requires	-10394
▁şehirler	-10395
▁Institute	-10396
▁Microsoft	-10397
▁diğerleri	-10398
▁producing	-10399
▁universal	-10400
▁transition	-10401
▁görebiliriz	-10402
▁distribution	-10403
▁kullanıyorlar	-10404
▁possibilities	-10405
tüğ	-10406
▁MR	-10407
onds	-10408
▁Bol	-10409
▁Sek	-10410
▁phr	-10411
isher	-10412
▁Ford	-10413
▁Göre	-10414
▁sona	-10415
likten	-10416
urance	-10417
▁Sanki	-10418
▁ayrım	-10419
▁beğen	-10420
▁keeps	-10421
▁kredi	-10422
▁köken	-10423
▁olayı	-10424
▁prove	-10425
▁umurs	-10426
ülasyon	-10427
▁credit	-10428
▁vessel	-10429
▁yumurt	-10430
▁çoktan	-10431
▁dinamik	-10432
▁görülen	-10433
▁regions	-10434
▁affected	-10435
▁sıradışı	-10436
▁toplantı	-10437
▁hızlandır	-10438
▁organized	-10439
▁components	-10440
▁söylediğim	-10441
▁dolayısıyla	-10442
▁politicians	-10443
vy	-10444
fit	-10445
omm	-10446
übe	-10447
▁33	-10448
afor	-10449
hyth	-10450
icip	-10451
için	-10452
ılma	-10453
▁Wow	-10454
▁kür	-10455
▁lie	-10456
▁rat	-10457
▁çöl	-10458
aters	-10459
▁Prob	-10460
▁bran	-10461
▁cure	-10462
▁hayv	-10463
▁karb	-10464
▁omur	-10465
▁suit	-10466
▁zeka	-10467
▁İşin	-10468
▁Kimse	-10469
▁başqa	-10470
▁gülüm	-10471
▁honor	-10472
▁kutup	-10473
▁navig	-10474
▁north	-10475
▁oynay	-10476
▁polar	-10477
▁siyas	-10478
▁skill	-10479
▁şehri	-10480
▁direkt	-10481
▁endişe	-10482
▁felsef	-10483
▁geçmek	-10484
▁iyidir	-10485
▁remain	-10486
▁Sonuçta	-10487
▁Tamamen	-10488
▁Vietnam	-10489
▁bakteri	-10490
▁etmemiz	-10491
▁iskelet	-10492
▁oldular	-10493
▁prensip	-10494
▁rapidly	-10495
▁visible	-10496
▁şehirde	-10497
▁kahraman	-10498
▁lifetime	-10499
▁password	-10500
▁previous	-10501
▁taraftan	-10502
▁according	-10503
▁naturally	-10504
▁perception	-10505
▁ediyorsunuz	-10506
ano	-10507
nel	-10508
val	-10509
zed	-10510
know	-10511
oons	-10512
tuğu	-10513
əlik	-10514
▁Mot	-10515
▁ord	-10516
ensiz	-10517
opher	-10518
▁alma	-10519
▁blok	-10520
▁sees	-10521
▁unit	-10522
ortion	-10523
▁antib	-10524
▁gelin	-10525
▁incel	-10526
▁inher	-10527
▁maden	-10528
▁oynat	-10529
▁stres	-10530
▁uncle	-10531
▁çabuk	-10532
osition	-10533
▁Kanada	-10534
▁assign	-10535
▁define	-10536
▁deploy	-10537
▁edelim	-10538
▁factor	-10539
▁island	-10540
▁kalmak	-10541
▁teenag	-10542
▁Şirket	-10543
▁Kendisi	-10544
▁nations	-10545
▁olurlar	-10546
▁primary	-10547
▁sürüyor	-10548
▁yapalım	-10549
uyorsunuz	-10550
▁Japanese	-10551
▁arabalar	-10552
▁dakikada	-10553
▁günlerde	-10554
▁hydrogen	-10555
▁recorded	-10556
▁whenever	-10557
adıklarını	-10558
▁entertain	-10559
▁zamanında	-10560
▁environments	-10561
▁mathematical	-10562
icy	-10563
vey	-10564
çik	-10565
▁fu	-10566
down	-10567
ibly	-10568
lice	-10569
obil	-10570
unku	-10571
▁Ham	-10572
▁Hen	-10573
▁ağı	-10574
▁cen	-10575
ayken	-10576
bilen	-10577
gular	-10578
mayla	-10579
▁Film	-10580
▁Will	-10581
▁lady	-10582
▁soul	-10583
▁uzan	-10584
▁yöne	-10585
esiyle	-10586
▁5,000	-10587
▁Ebola	-10588
▁Nijer	-10589
▁Yunan	-10590
▁ların	-10591
▁reven	-10592
▁steel	-10593
▁sweet	-10594
maların	-10595
ışıklık	-10596
▁fırlat	-10597
▁imkanı	-10598
▁kamyon	-10599
▁option	-10600
▁bölgede	-10601
▁encoura	-10602
▁mekanik	-10603
▁sağlığı	-10604
▁ayakkabı	-10605
▁circumst	-10606
▁diğerine	-10607
▁düşünmüş	-10608
▁organism	-10609
▁behaviors	-10610
▁dayanıklı	-10611
▁interpret	-10612
▁çalışarak	-10613
▁kullandığı	-10614
▁profession	-10615
▁transportation	-10616
cül	-10617
▁RB	-10618
aser	-10619
ondi	-10620
▁Kom	-10621
▁Lab	-10622
▁Mas	-10623
▁Yah	-10624
▁Yol	-10625
▁göv	-10626
▁ink	-10627
▁lit	-10628
▁tow	-10629
pping	-10630
▁Arch	-10631
▁dini	-10632
▁mile	-10633
▁scar	-10634
▁silk	-10635
▁empty	-10636
▁iddia	-10637
▁yaram	-10638
▁çeliş	-10639
▁Oxford	-10640
▁clever	-10641
▁döndüm	-10642
▁edilir	-10643
▁forgot	-10644
▁masraf	-10645
▁member	-10646
▁mikrop	-10647
▁falling	-10648
▁temelde	-10649
▁abstract	-10650
▁generate	-10651
▁ancestors	-10652
▁employees	-10653
▁laboratuv	-10654
▁mortality	-10655
▁sistemini	-10656
▁definitely	-10657
▁değiştiren	-10658
▁introduced	-10659
▁statistics	-10660
▁combination	-10661
▁intellectual	-10662
▁fundamentally	-10663
eng	-10664
oma	-10665
uls	-10666
▁Gh	-10667
▁LG	-10668
▁Sk	-10669
aker	-10670
inek	-10671
▁Ant	-10672
▁dun	-10673
▁tim	-10674
mamak	-10675
▁1000	-10676
▁Bizi	-10677
▁Bush	-10678
▁Five	-10679
▁inev	-10680
▁maps	-10681
▁prec	-10682
▁ring	-10683
▁özet	-10684
iosity	-10685
market	-10686
memize	-10687
▁haqda	-10688
▁initi	-10689
▁panel	-10690
▁sides	-10691
▁aldığı	-10692
▁havada	-10693
▁insani	-10694
▁length	-10695
▁mantar	-10696
▁rocket	-10697
▁saatte	-10698
▁sizden	-10699
masından	-10700
▁ilerlem	-10701
▁katkıda	-10702
▁outcome	-10703
diğimizde	-10704
▁aydınlat	-10705
▁bilginin	-10706
▁ediyordu	-10707
▁yetersiz	-10708
▁increased	-10709
▁radiation	-10710
▁activities	-10711
▁enfeksiyon	-10712
▁hikayesini	-10713
▁represents	-10714
▁challenging	-10715
▁entrepreneurs	-10716
MA	-10717
mr	-10718
gıc	-10719
ule	-10720
kate	-10721
uary	-10722
whel	-10723
▁Mor	-10724
▁anx	-10725
▁ate	-10726
▁blu	-10727
▁möv	-10728
landa	-10729
liydi	-10730
retch	-10731
ürler	-10732
▁Also	-10733
▁Pale	-10734
▁döng	-10735
▁elle	-10736
▁orch	-10737
▁surf	-10738
▁sıvı	-10739
▁tank	-10740
▁zoom	-10741
▁Önce	-10742
▁öğle	-10743
▁İtal	-10744
▁Geliş	-10745
▁added	-10746
▁awful	-10747
▁aynen	-10748
▁daima	-10749
▁flies	-10750
▁larda	-10751
▁roads	-10752
▁toler	-10753
▁çözün	-10754
ımızdan	-10755
▁Eğitim	-10756
▁Newton	-10757
▁Please	-10758
▁formed	-10759
▁sesini	-10760
▁şeffaf	-10761
▁Biliyor	-10762
▁Britain	-10763
▁durumun	-10764
▁ederler	-10765
▁gruplar	-10766
▁yaratan	-10767
▁yerleri	-10768
▁biraraya	-10769
▁bırakmak	-10770
▁maliyeti	-10771
▁pleasure	-10772
▁tanıştım	-10773
▁yapmanız	-10774
▁örnekler	-10775
▁Dünyadaki	-10776
▁depresyon	-10777
▁gezegenin	-10778
▁introduce	-10779
▁invention	-10780
▁traveling	-10781
▁conservation	-10782
▁birbirleriyle	-10783
aa	-10784
değ	-10785
oti	-10786
▁Op	-10787
▁fi	-10788
elly	-10789
▁ayı	-10790
▁clu	-10791
▁imz	-10792
▁meg	-10793
▁row	-10794
▁tad	-10795
ament	-10796
icide	-10797
icing	-10798
leceğ	-10799
ürlük	-10800
▁Jack	-10801
▁bond	-10802
▁busy	-10803
▁clus	-10804
▁date	-10805
▁kort	-10806
▁ride	-10807
▁thin	-10808
▁Grand	-10809
▁State	-10810
▁ailes	-10811
▁alıcı	-10812
▁balin	-10813
▁bulan	-10814
▁cümle	-10815
▁eşsiz	-10816
▁grubu	-10817
▁okuma	-10818
▁tərəf	-10819
▁örneğ	-10820
▁Canada	-10821
▁Doktor	-10822
▁Yüksek	-10823
▁advice	-10824
▁alıntı	-10825
▁garden	-10826
▁mutlak	-10827
▁tamamı	-10828
▁yemeği	-10829
▁çevrem	-10830
esindeki	-10831
lerimize	-10832
▁Meksika	-10833
▁Perhaps	-10834
▁biridir	-10835
▁cartoon	-10836
▁doğanın	-10837
▁gürültü	-10838
▁başlamış	-10839
▁bitkiler	-10840
▁soldiers	-10841
▁Cambridge	-10842
▁terrorism	-10843
▁Avustralya	-10844
igi	-10845
ələ	-10846
▁CD	-10847
akar	-10848
ania	-10849
luğa	-10850
əqiq	-10851
▁Kab	-10852
▁yed	-10853
imini	-10854
oksit	-10855
ıcısı	-10856
▁Alan	-10857
▁Beat	-10858
▁Brun	-10859
▁akım	-10860
▁bill	-10861
▁cere	-10862
▁jail	-10863
▁onur	-10864
▁spin	-10865
▁tren	-10866
▁cards	-10867
▁curve	-10868
▁estim	-10869
▁kalem	-10870
▁sugar	-10871
▁teeth	-10872
▁tesis	-10873
▁tipik	-10874
▁Yorker	-10875
▁acting	-10876
▁astron	-10877
▁ayakta	-10878
▁basket	-10879
▁budget	-10880
▁buying	-10881
▁fortun	-10882
▁hoping	-10883
▁kırsal	-10884
▁lisans	-10885
mediğini	-10886
▁Central	-10887
▁applied	-10888
▁denklem	-10889
▁install	-10890
▁concrete	-10891
▁güzellik	-10892
▁olanları	-10893
▁overwhel	-10894
▁prototip	-10895
▁varsayım	-10896
▁wireless	-10897
▁encourage	-10898
▁bilərsiniz	-10899
▁göstereyim	-10900
▁instrument	-10901
▁kahkahalar	-10902
▁institution	-10903
▁bahsediyorum	-10904
eal	-10905
uff	-10906
▁0.	-10907
atar	-10908
bage	-10909
ginç	-10910
iest	-10911
iriz	-10912
▁Kır	-10913
▁Sep	-10914
▁bom	-10915
▁van	-10916
istin	-10917
mamın	-10918
ograp	-10919
owers	-10920
▁Gand	-10921
▁Geri	-10922
▁Leon	-10923
▁kick	-10924
▁reef	-10925
▁Üzer	-10926
▁İlki	-10927
amayız	-10928
isters	-10929
mıştım	-10930
▁aging	-10931
▁bakan	-10932
▁baktı	-10933
▁inequ	-10934
▁macer	-10935
leniyor	-10936
luğunda	-10937
▁advent	-10938
▁contem	-10939
▁explos	-10940
▁former	-10941
▁görevi	-10942
▁konser	-10943
▁player	-10944
▁siyahi	-10945
▁sorduk	-10946
▁Florida	-10947
▁duyarlı	-10948
▁etmenin	-10949
▁hayatım	-10950
▁iyisini	-10951
▁kitchen	-10952
▁mystery	-10953
▁pozitif	-10954
▁silence	-10955
▁cultures	-10956
▁parçalar	-10957
▁refugees	-10958
▁yapıştır	-10959
▁durumunda	-10960
▁güçlendir	-10961
▁interests	-10962
▁kadınlara	-10963
▁çalışmayı	-10964
▁democratic	-10965
▁sisteminin	-10966
▁bilmiyordum	-10967
▁mühendislik	-10968
▁zorundasınız	-10969
▁bilgisayarlar	-10970
SP	-10971
ait	-10972
ldə	-10973
rit	-10974
viç	-10975
əri	-10976
əti	-10977
▁Hy	-10978
▁SS	-10979
▁aj	-10980
▁yu	-10981
adüf	-10982
▁kış	-10983
▁muz	-10984
▁süt	-10985
bilim	-10986
dınız	-10987
oster	-10988
plant	-10989
tiniz	-10990
▁dial	-10991
▁grid	-10992
▁grip	-10993
▁işim	-10994
▁mail	-10995
▁mode	-10996
iğinde	-10997
▁Labor	-10998
▁gören	-10999
▁ikiye	-11000
▁inanc	-11001
▁meyve	-11002
▁occup	-11003
▁sayfa	-11004
▁şansı	-11005
landığı	-11006
▁Fransa	-11007
▁hoşlan	-11008
▁kurban	-11009
▁numara	-11010
▁okulda	-11011
▁regard	-11012
▁winter	-11013
▁İlginç	-11014
▁Nijerya	-11015
▁biriydi	-11016
▁closely	-11017
▁depends	-11018
▁etkiler	-11019
▁replace	-11020
▁yararlı	-11021
▁üretken	-11022
echnology	-11023
▁existing	-11024
▁rational	-11025
▁molecular	-11026
▁algorithms	-11027
▁foundation	-11028
▁olabiliriz	-11029
▁restaurant	-11030
▁araştırmacı	-11031
▁birbirimize	-11032
▁teknolojisi	-11033
▁–	-11034
irm	-11035
▁Iş	-11036
▁gə	-11037
alog	-11038
avüz	-11039
düğü	-11040
izik	-11041
lıca	-11042
orth	-11043
üydü	-11044
ırda	-11045
▁Duy	-11046
▁akr	-11047
▁oda	-11048
athan	-11049
ciğer	-11050
iyatı	-11051
lində	-11052
▁edit	-11053
▁hung	-11054
▁yarg	-11055
▁ötür	-11056
eliyiz	-11057
mamıza	-11058
▁Babam	-11059
▁Etraf	-11060
▁Hikay	-11061
▁ailen	-11062
▁doubt	-11063
▁duyul	-11064
▁miyim	-11065
▁döndür	-11066
▁görmez	-11067
▁komple	-11068
▁kurduk	-11069
▁mirror	-11070
▁vermiş	-11071
▁çıkmak	-11072
elerinde	-11073
ılmasını	-11074
▁centers	-11075
▁dropped	-11076
▁dönüştü	-11077
▁düzeyde	-11078
▁gidecek	-11079
▁görürüz	-11080
▁herkesi	-11081
▁include	-11082
▁lessons	-11083
▁singing	-11084
▁unknown	-11085
▁yolları	-11086
▁soruları	-11087
▁swimming	-11088
▁Günümüzde	-11089
▁centuries	-11090
▁chemicals	-11091
▁explained	-11092
▁hayatımın	-11093
▁newspaper	-11094
▁sistemler	-11095
▁Sonrasında	-11096
▁bazılarını	-11097
▁merkezinde	-11098
▁resistance	-11099
▁çeşitlilik	-11100
▁hayatlarını	-11101
▁teknolojileri	-11102
ET	-11103
MS	-11104
aat	-11105
mik	-11106
que	-11107
zen	-11108
aurs	-11109
hold	-11110
ston	-11111
▁FBI	-11112
▁Gol	-11113
▁aud	-11114
▁mur	-11115
▁tüy	-11116
attle	-11117
tical	-11118
▁Bilm	-11119
▁Emin	-11120
▁Gore	-11121
▁Plan	-11122
▁amma	-11123
▁trib	-11124
▁Arist	-11125
▁Brown	-11126
▁Gates	-11127
▁ayağa	-11128
▁düşen	-11129
▁facts	-11130
▁kalıp	-11131
▁nehir	-11132
▁yapış	-11133
▁ödeme	-11134
aydınız	-11135
▁Birbir	-11136
▁cortex	-11137
▁heykel	-11138
▁kulağa	-11139
▁microb	-11140
▁pulled	-11141
▁survey	-11142
▁Project	-11143
▁dünyası	-11144
▁düzenli	-11145
▁fırsatı	-11146
▁quarter	-11147
▁require	-11148
leyebilir	-11149
meyeceğim	-11150
▁equation	-11151
▁feminist	-11152
▁geçirmek	-11153
▁ilerleme	-11154
▁awareness	-11155
▁computing	-11156
▁dönüştüre	-11157
▁narrative	-11158
▁istiyordum	-11159
▁underwater	-11160
▁veriyorlar	-11161
▁consumption	-11162
▁hareketleri	-11163
▁participate	-11164
▁matematiksel	-11165
adel	-11166
estr	-11167
ətən	-11168
▁Fot	-11169
▁Jes	-11170
▁Sab	-11171
▁cas	-11172
▁rej	-11173
▁toy	-11174
iplin	-11175
lades	-11176
losuz	-11177
luğun	-11178
▁Mand	-11179
▁artı	-11180
▁diam	-11181
▁fərq	-11182
▁shad	-11183
anızda	-11184
porary	-11185
▁Other	-11186
▁Seyir	-11187
▁həyat	-11188
▁komşu	-11189
▁kütle	-11190
▁muhaf	-11191
▁yunus	-11192
irsiniz	-11193
▁Buraya	-11194
▁Health	-11195
▁Normal	-11196
▁Tanrım	-11197
▁elinde	-11198
▁harita	-11199
▁kaldım	-11200
▁kaynağ	-11201
▁multip	-11202
▁pratik	-11203
▁sports	-11204
▁status	-11205
▁üreten	-11206
▁bakacak	-11207
▁federal	-11208
▁however	-11209
▁ileriye	-11210
▁kişiden	-11211
▁olmuyor	-11212
▁ortamda	-11213
▁sensors	-11214
▁zamanın	-11215
▁features	-11216
▁mistakes	-11217
▁occurred	-11218
▁yaparlar	-11219
▁ürünleri	-11220
▁Biliyorum	-11221
▁kuralları	-11222
▁mountains	-11223
▁durumlarda	-11224
▁expression	-11225
▁innovative	-11226
▁potentially	-11227
▁sophisticated	-11228
mm	-11229
iyə	-11230
kob	-11231
lən	-11232
ylv	-11233
ıms	-11234
ıtı	-11235
amış	-11236
cend	-11237
ilde	-11238
ouds	-11239
▁800	-11240
▁Kah	-11241
▁kos	-11242
▁nas	-11243
▁wel	-11244
▁yel	-11245
▁şer	-11246
icted	-11247
madım	-11248
ropol	-11249
unuza	-11250
▁2050	-11251
▁Jane	-11252
▁bant	-11253
▁root	-11254
▁unus	-11255
▁ölen	-11256
unuzda	-11257
▁Haydi	-11258
▁anten	-11259
▁dedic	-11260
▁doğur	-11261
▁false	-11262
▁grant	-11263
▁horiz	-11264
▁quant	-11265
▁sinek	-11266
▁Saturn	-11267
▁akadem	-11268
▁driven	-11269
▁flower	-11270
▁kimlik	-11271
▁senary	-11272
▁yapmaz	-11273
▁yaprak	-11274
▁yayıld	-11275
▁büyüyen	-11276
▁dediğim	-11277
▁feature	-11278
▁players	-11279
▁uzaktan	-11280
▁bekliyor	-11281
▁clinical	-11282
▁edilmesi	-11283
▁internal	-11284
▁released	-11285
▁tasarımı	-11286
▁yazılmış	-11287
▁başlangıc	-11288
▁ettikleri	-11289
▁hospitals	-11290
▁korkutucu	-11291
▁pollution	-11292
▁çalışmaları	-11293
▁düşünürseniz	-11294
zy	-11295
odi	-11296
tes	-11297
öre	-11298
evin	-11299
htiy	-11300
iley	-11301
oice	-11302
tage	-11303
üman	-11304
▁bot	-11305
▁dot	-11306
▁lon	-11307
▁mit	-11308
▁çay	-11309
iğine	-11310
▁Süre	-11311
▁sezg	-11312
▁sözü	-11313
athers	-11314
▁aldat	-11315
▁embed	-11316
▁girip	-11317
▁grain	-11318
▁havuz	-11319
▁hekay	-11320
▁kömür	-11321
▁offic	-11322
▁salon	-11323
▁shall	-11324
▁solid	-11325
▁trave	-11326
▁çünki	-11327
abildik	-11328
iyseniz	-11329
▁anında	-11330
▁coğraf	-11331
▁evolve	-11332
▁faktör	-11333
▁farked	-11334
▁intens	-11335
▁joined	-11336
▁oluşur	-11337
▁volume	-11338
ladığını	-11339
▁Merhaba	-11340
▁Pacific	-11341
▁Science	-11342
▁binanın	-11343
▁engelli	-11344
▁funding	-11345
▁kuantum	-11346
▁options	-11347
▁sisteme	-11348
tığınızda	-11349
▁exchange	-11350
▁kurallar	-11351
▁pozisyon	-11352
▁stronger	-11353
▁tartışma	-11354
▁mechanism	-11355
▁protected	-11356
▁physically	-11357
▁yapabilmek	-11358
▁kullanılabilir	-11359
IS	-11360
dr	-11361
yu	-11362
usi	-11363
zet	-11364
âlâ	-11365
▁190	-11366
▁LED	-11367
▁Mah	-11368
▁Sir	-11369
▁que	-11370
child	-11371
orous	-11372
power	-11373
ümcek	-11374
▁Dört	-11375
▁Nick	-11376
▁clim	-11377
▁clip	-11378
▁tack	-11379
endeki	-11380
making	-11381
▁Steph	-11382
▁Temel	-11383
▁anket	-11384
▁bilen	-11385
▁boxes	-11386
▁buyuk	-11387
▁dalga	-11388
▁idare	-11389
▁stock	-11390
▁tamir	-11391
▁yerin	-11392
▁Valley	-11393
▁başvur	-11394
▁kalıcı	-11395
▁yeryüz	-11396
▁engaged	-11397
▁gelişen	-11398
▁hepiniz	-11399
▁kapital	-11400
▁sonuçta	-11401
▁theater	-11402
▁yükselt	-11403
▁appropri	-11404
▁etkileri	-11405
▁genişlet	-11406
▁hepsinin	-11407
▁makinesi	-11408
▁resimler	-11409
▁Teknoloji	-11410
▁etkileyen	-11411
▁generally	-11412
▁kabiliyet	-11413
▁birbiriyle	-11414
▁meaningful	-11415
▁yapmalıyız	-11416
▁konuşacağım	-11417
▁olabileceği	-11418
gre	-11419
isy	-11420
kır	-11421
▁29	-11422
▁vs	-11423
foot	-11424
iano	-11425
▁Hük	-11426
▁Nat	-11427
▁Ray	-11428
▁Tex	-11429
▁eşy	-11430
▁məs	-11431
▁rub	-11432
cılık	-11433
iform	-11434
lence	-11435
point	-11436
scale	-11437
▁bath	-11438
▁blam	-11439
▁cord	-11440
imdeki	-11441
mezler	-11442
olving	-11443
▁Beyin	-11444
▁Brook	-11445
▁While	-11446
▁chart	-11447
▁denet	-11448
▁fears	-11449
▁frank	-11450
▁gidiş	-11451
▁hakim	-11452
▁retir	-11453
▁slayt	-11454
▁style	-11455
▁sunum	-11456
▁tetik	-11457
▁yığın	-11458
▁örgüt	-11459
▁Global	-11460
▁Toplum	-11461
▁arrest	-11462
▁button	-11463
▁kabile	-11464
▁mahkum	-11465
▁negoti	-11466
▁pollen	-11467
▁string	-11468
▁tarafa	-11469
▁yeteri	-11470
cription	-11471
▁Hareket	-11472
▁clothes	-11473
▁etrafta	-11474
▁gazetec	-11475
▁giriyor	-11476
▁ingredi	-11477
▁selling	-11478
▁uyandır	-11479
▁ölçekte	-11480
abilirsek	-11481
▁carrying	-11482
▁disaster	-11483
▁imagined	-11484
▁noktalar	-11485
▁pregnant	-11486
▁anlatıyor	-11487
▁İnsanları	-11488
▁karşılıklı	-11489
▁grandfather	-11490
▁problemleri	-11491
▁yapabilirim	-11492
nat	-11493
tel	-11494
▁2,	-11495
iban	-11496
isan	-11497
priz	-11498
ımla	-11499
▁Asl	-11500
▁Gar	-11501
▁Ted	-11502
▁Ten	-11503
▁Unf	-11504
▁lic	-11505
▁reç	-11506
▁voc	-11507
ildir	-11508
panze	-11509
tıkça	-11510
▁Beyn	-11511
▁dogs	-11512
▁eğil	-11513
▁glam	-11514
▁mutf	-11515
▁outc	-11516
▁pool	-11517
icient	-11518
isidir	-11519
stream	-11520
▁Tarih	-11521
▁admit	-11522
▁meden	-11523
▁prime	-11524
▁staff	-11525
illance	-11526
malıyım	-11527
▁Demokr	-11528
▁boring	-11529
▁desper	-11530
▁kendim	-11531
▁satisf	-11532
▁secure	-11533
▁solved	-11534
▁attacks	-11535
▁autonom	-11536
▁bakmaya	-11537
▁balloon	-11538
▁borders	-11539
▁miktarı	-11540
▁symptom	-11541
▁süreçte	-11542
▁yakında	-11543
▁yolunda	-11544
▁yöntemi	-11545
▁ötesine	-11546
mayacağım	-11547
▁constant	-11548
▁karbondi	-11549
▁relevant	-11550
▁çözümler	-11551
▁alanlarda	-11552
▁dinosaurs	-11553
▁görülüyor	-11554
▁operation	-11555
▁discussion	-11556
▁duyduğumuz	-11557
▁passionate	-11558
epy	-11559
üel	-11560
▁Eş	-11561
▁Ku	-11562
aran	-11563
eriz	-11564
iday	-11565
roph	-11566
▁adj	-11567
▁gig	-11568
▁hâl	-11569
▁raf	-11570
▁rig	-11571
▁yuz	-11572
rover	-11573
▁Josh	-11574
▁Long	-11575
▁Only	-11576
▁açtı	-11577
▁eggs	-11578
▁nurs	-11579
▁plus	-11580
▁teki	-11581
dından	-11582
usunda	-11583
▁Tıpkı	-11584
▁alien	-11585
▁atoms	-11586
▁duyur	-11587
▁isteğ	-11588
▁sürdü	-11589
▁topic	-11590
▁ultra	-11591
▁uncom	-11592
▁zorlu	-11593
▁execut	-11594
▁sözcük	-11595
▁anlıyor	-11596
▁kategor	-11597
▁opinion	-11598
▁viruses	-11599
▁younger	-11600
▁çarpıcı	-11601
▁büyüklük	-11602
▁faydalan	-11603
▁graduate	-11604
▁memories	-11605
▁normalde	-11606
▁prepared	-11607
▁teleskop	-11608
▁alışveriş	-11609
▁constrain	-11610
▁makineler	-11611
▁olursunuz	-11612
▁oluşturur	-11613
▁yıllardır	-11614
▁çalıştığı	-11615
abiliyorlar	-11616
▁destruction	-11617
▁inspiration	-11618
▁photographs	-11619
▁düşünüyorsunuz	-11620
PA	-11621
imp	-11622
fere	-11623
hips	-11624
▁Buz	-11625
▁Dec	-11626
▁Diy	-11627
▁rac	-11628
▁Şeh	-11629
▁Şey	-11630
▁Şim	-11631
earch	-11632
entic	-11633
meyiz	-11634
tarct	-11635
ville	-11636
▁Aman	-11637
▁Bron	-11638
▁June	-11639
▁acqu	-11640
▁hemş	-11641
▁lect	-11642
▁loud	-11643
▁nden	-11644
▁traj	-11645
ayarak	-11646
cement	-11647
ilerde	-11648
portaj	-11649
ukları	-11650
▁Super	-11651
▁dağın	-11652
▁demir	-11653
▁düştü	-11654
▁hyper	-11655
▁istih	-11656
▁işini	-11657
▁liked	-11658
▁salın	-11659
▁spons	-11660
▁tanrı	-11661
▁teams	-11662
▁terap	-11663
▁zemin	-11664
▁Enstit	-11665
▁Michel	-11666
▁Modern	-11667
▁bubble	-11668
▁bulmuş	-11669
▁futbol	-11670
▁genius	-11671
▁klasik	-11672
▁kısaca	-11673
▁reject	-11674
▁sample	-11675
▁sivris	-11676
▁teslim	-11677
▁Merkezi	-11678
▁aldılar	-11679
▁altyapı	-11680
▁defined	-11681
▁privacy	-11682
▁pushing	-11683
▁tanıdık	-11684
▁tecrübe	-11685
▁unusual	-11686
▁şanslıy	-11687
▁allowing	-11688
▁belirsiz	-11689
▁domestic	-11690
▁dramatic	-11691
▁equality	-11692
▁gördünüz	-11693
▁konuştuk	-11694
▁relative	-11695
▁aldığımız	-11696
▁economies	-11697
▁hikayenin	-11698
▁providing	-11699
▁seferinde	-11700
▁istedikleri	-11701
▁Unfortunately	-11702
▁technological	-11703
yü	-11704
uşu	-11705
vis	-11706
örf	-11707
appy	-11708
ooth	-11709
▁Adı	-11710
▁cik	-11711
▁gut	-11712
▁pin	-11713
▁tüp	-11714
▁wid	-11715
taint	-11716
üzyon	-11717
▁flew	-11718
▁mənə	-11719
▁wash	-11720
▁zone	-11721
estyle	-11722
ipping	-11723
tember	-11724
▁Cevap	-11725
▁Senin	-11726
▁denge	-11727
▁depol	-11728
▁döndü	-11729
▁halen	-11730
▁kiçik	-11731
▁logic	-11732
▁storm	-11733
▁tümör	-11734
▁upper	-11735
▁yapın	-11736
▁çekim	-11737
▁bottle	-11738
▁enable	-11739
▁ilgisi	-11740
▁struck	-11741
▁thanks	-11742
▁yaşına	-11743
▁Antarct	-11744
▁Finally	-11745
▁Taliban	-11746
▁akciğer	-11747
▁alışkan	-11748
▁aspects	-11749
▁circuit	-11750
▁dikkate	-11751
▁düşüyor	-11752
▁efforts	-11753
▁evening	-11754
▁ikisini	-11755
▁mistake	-11756
▁çiftlik	-11757
larımızda	-11758
▁bilinçli	-11759
▁convince	-11760
▁duyduğum	-11761
▁edeceğim	-11762
▁saniyede	-11763
▁tekerlek	-11764
lerimizden	-11765
▁kendinize	-11766
▁appreciate	-11767
▁unexpected	-11768
▁öğrendiğim	-11769
▁özellikleri	-11770
oç	-11771
rif	-11772
tak	-11773
▁Bi	-11774
▁Ir	-11775
▁Cal	-11776
▁Lar	-11777
▁Tak	-11778
▁Vüc	-11779
▁asl	-11780
▁huz	-11781
▁lan	-11782
▁mül	-11783
▁unb	-11784
amayı	-11785
ardır	-11786
orter	-11787
tense	-11788
umdan	-11789
▁2020	-11790
▁Sant	-11791
▁ordu	-11792
▁tape	-11793
▁uçan	-11794
amızın	-11795
iliğin	-11796
▁beach	-11797
▁cents	-11798
▁dozen	-11799
▁dress	-11800
▁expon	-11801
▁jener	-11802
▁kalma	-11803
▁mağar	-11804
▁modif	-11805
▁rocks	-11806
▁tweet	-11807
▁ötürü	-11808
ologlar	-11809
ındadır	-11810
▁Anyway	-11811
▁Russia	-11812
▁Savaşı	-11813
▁direnç	-11814
▁açıklam	-11815
▁coordin	-11816
▁devamlı	-11817
▁electro	-11818
▁harvest	-11819
▁receive	-11820
▁reverse	-11821
ebileceği	-11822
▁giderken	-11823
▁haberler	-11824
▁oluyordu	-11825
▁September	-11826
▁kendisine	-11827
▁sistemine	-11828
▁statement	-11829
▁veriyoruz	-11830
▁greenhouse	-11831
▁gülüşmeler	-11832
▁kaçınılmaz	-11833
▁istiyorsunuz	-11834
▁collaboration	-11835
▁değişiklikler	-11836
▁sustainability	-11837
lon	-11838
mat	-11839
▁Uç	-11840
nden	-11841
rier	-11842
estra	-11843
gence	-11844
lektr	-11845
mekle	-11846
umhur	-11847
▁Sana	-11848
▁açan	-11849
▁hile	-11850
▁kızı	-11851
▁uşaq	-11852
▁örtü	-11853
ieving	-11854
▁Bayan	-11855
▁acaba	-11856
▁chose	-11857
▁memor	-11858
▁refah	-11859
▁renew	-11860
▁tanın	-11861
▁taste	-11862
▁tutan	-11863
▁uydur	-11864
▁yazıl	-11865
▁şahit	-11866
alities	-11867
enlerin	-11868
tığınız	-11869
▁Intern	-11870
▁Nobody	-11871
▁Number	-11872
▁Tahmin	-11873
▁alınan	-11874
▁benzet	-11875
▁extens	-11876
▁limits	-11877
▁sesler	-11878
▁teşhis	-11879
▁whales	-11880
▁writer	-11881
▁yaradı	-11882
▁yaşama	-11883
▁yoldan	-11884
mesinden	-11885
▁aldığım	-11886
▁amounts	-11887
▁burning	-11888
▁causing	-11889
▁değilse	-11890
▁fiction	-11891
▁fingers	-11892
▁habitat	-11893
▁malzeme	-11894
▁musical	-11895
▁remains	-11896
▁çıkardı	-11897
▁şempanz	-11898
▁dinlemek	-11899
▁geldiler	-11900
▁kendimiz	-11901
▁proteins	-11902
▁ücretsiz	-11903
▁değişiyor	-11904
▁recording	-11905
▁sensitive	-11906
▁çoğunluğu	-11907
▁kendisinin	-11908
▁distributed	-11909
▁explanation	-11910
▁implications	-11911
▁surveillance	-11912
och	-11913
ova	-11914
sik	-11915
vas	-11916
▁ju	-11917
gely	-11918
ingu	-11919
lets	-11920
ught	-11921
uşak	-11922
zing	-11923
▁Kir	-11924
▁Kiş	-11925
▁ked	-11926
▁sne	-11927
▁şik	-11928
lines	-11929
makla	-11930
ıplak	-11931
▁Hava	-11932
▁Nels	-11933
▁Prot	-11934
▁Sand	-11935
▁adil	-11936
▁army	-11937
▁bind	-11938
▁kağı	-11939
▁meme	-11940
▁otor	-11941
▁peak	-11942
▁runs	-11943
▁sına	-11944
▁tort	-11945
▁trig	-11946
▁uyku	-11947
▁wars	-11948
▁şuna	-11949
ağında	-11950
lemesi	-11951
▁Found	-11952
▁House	-11953
▁Texas	-11954
▁court	-11955
▁fewer	-11956
▁həqiq	-11957
▁keyif	-11958
▁krizi	-11959
▁pound	-11960
▁sahte	-11961
▁stere	-11962
▁tutuk	-11963
▁tutun	-11964
▁özgün	-11965
tığımda	-11966
▁agreed	-11967
▁bilinc	-11968
▁drives	-11969
▁geride	-11970
▁perman	-11971
▁resili	-11972
▁rising	-11973
▁studio	-11974
▁yaşamı	-11975
▁çarpış	-11976
▁ölüyor	-11977
▁breathe	-11978
▁corresp	-11979
▁embrace	-11980
▁konuşan	-11981
▁nitelik	-11982
▁sıkıntı	-11983
▁çalıştı	-11984
▁Ardından	-11985
▁Everyone	-11986
▁bireyler	-11987
▁geçmişte	-11988
▁hapishan	-11989
▁işlerini	-11990
▁measured	-11991
▁sonradan	-11992
▁wondered	-11993
▁çocukken	-11994
▁açıklamak	-11995
▁curiosity	-11996
▁endüstris	-11997
▁framework	-11998
▁kalabalık	-11999
▁yenilikçi	-12000
▁yoksulluk	-12001
▁Böylelikle	-12002
▁insanlığın	-12003
▁literature	-12004
abilecekleri	-12005
▁gelecekteki	-12006
▁teknolojiye	-12007
▁şirketlerin	-12008
DA	-12009
EC	-12010
arp	-12011
gas	-12012
iff	-12013
laq	-12014
top	-12015
ysa	-12016
▁LT	-12017
▁ug	-12018
emek	-12019
oped	-12020
roid	-12021
uncu	-12022
ılıp	-12023
▁Jew	-12024
▁Pal	-12025
▁Tür	-12026
▁fet	-12027
▁neç	-12028
▁plu	-12029
▁sir	-12030
▁şaş	-12031
cilik	-12032
enizi	-12033
▁Cons	-12034
▁ayda	-12035
▁fare	-12036
▁scho	-12037
▁tall	-12038
alılar	-12039
asıdır	-12040
ebilen	-12041
iciydi	-12042
▁Brian	-12043
▁Delhi	-12044
▁depth	-12045
▁oyunc	-12046
▁prize	-12047
▁ridic	-12048
▁rooms	-12049
▁tests	-12050
▁theme	-12051
▁çizim	-12052
diyimiz	-12053
inction	-12054
▁Nelson	-12055
▁analog	-12056
▁avukat	-12057
▁critic	-12058
▁deaths	-12059
▁extent	-12060
▁garant	-12061
▁kenara	-12062
▁remove	-12063
▁sizler	-12064
▁storyt	-12065
▁çalışm	-12066
larımdan	-12067
▁Tasarım	-12068
▁düşünen	-12069
▁izlemek	-12070
▁ulaştır	-12071
▁evrimsel	-12072
▁hayatımı	-12073
▁instruct	-12074
▁kaynaklı	-12075
▁kontrolü	-12076
larımızdan	-12077
▁customers	-12078
▁düşünelim	-12079
▁hayatının	-12080
▁kadınları	-12081
▁olduğudur	-12082
▁technique	-12083
▁conclusion	-12084
▁istediğini	-12085
▁productive	-12086
▁situations	-12087
▁instruments	-12088
▁yapabiliyor	-12089
məy	-12090
▁85	-12091
▁AM	-12092
▁Rw	-12093
cean	-12094
embe	-12095
memi	-12096
▁Fer	-12097
▁Lin	-12098
▁Oct	-12099
▁Ren	-12100
▁dum	-12101
▁dâh	-12102
▁kaş	-12103
▁qur	-12104
▁raw	-12105
ındak	-12106
ırdım	-12107
▁Altı	-12108
▁Eric	-12109
▁samp	-12110
▁tsun	-12111
arrass	-12112
friend	-12113
lediği	-12114
▁Hayal	-12115
▁Moore	-12116
▁abart	-12117
▁bağır	-12118
▁flood	-12119
▁kasab	-12120
▁uğram	-12121
estival	-12122
lenmesi	-12123
▁immune	-12124
▁kaldık	-12125
▁replic	-12126
▁Charlie	-12127
▁dancing	-12128
▁hiçbiri	-12129
▁illegal	-12130
▁metafor	-12131
▁operate	-12132
▁stretch	-12133
▁tonight	-12134
▁zararlı	-12135
▁çoğunuz	-12136
▁contrast	-12137
▁creature	-12138
▁dersiniz	-12139
▁download	-12140
▁dördüncü	-12141
▁hardware	-12142
▁istasyon	-12143
▁itibaren	-12144
▁tracking	-12145
▁ultimate	-12146
▁yerinden	-12147
▁öylesine	-12148
▁alıyorlar	-12149
▁collected	-12150
▁keşfettik	-12151
▁büyüleyici	-12152
▁fikirlerin	-12153
▁surrounded	-12154
▁applications	-12155
dig	-12156
urb	-12157
▁du	-12158
asıt	-12159
ione	-12160
leye	-12161
manı	-12162
mağa	-12163
umin	-12164
▁Kas	-12165
▁Sin	-12166
▁Van	-12167
▁buc	-12168
▁güv	-12169
▁odd	-12170
▁çak	-12171
▁ömr	-12172
force	-12173
irkin	-12174
müştü	-12175
▁Kötü	-12176
▁Tony	-12177
▁evil	-12178
▁firm	-12179
▁sars	-12180
▁shel	-12181
▁tahr	-12182
▁wine	-12183
mıştır	-12184
phones	-12185
tering	-12186
▁Henry	-12187
▁Robot	-12188
▁Rusya	-12189
▁Teles	-12190
▁angry	-12191
▁açığa	-12192
▁bones	-12193
▁globe	-12194
▁grade	-12195
▁heves	-12196
▁kimya	-12197
▁notes	-12198
▁persp	-12199
▁testi	-12200
▁thick	-12201
▁yayım	-12202
▁youth	-12203
▁Before	-12204
▁Berlin	-12205
▁acknow	-12206
▁baktık	-12207
▁entrop	-12208
▁koltuk	-12209
▁koyduk	-12210
▁otobüs	-12211
▁oturan	-12212
▁review	-12213
▁trials	-12214
▁Seattle	-12215
▁carried	-12216
▁empathy	-12217
▁hücresi	-12218
▁yarıyor	-12219
▁yaşamış	-12220
▁ürünler	-12221
elerinden	-12222
▁bitirmek	-12223
▁bulduğum	-12224
▁criminal	-12225
▁kullanış	-12226
▁magnetic	-12227
▁policies	-12228
▁projenin	-12229
▁Parkinson	-12230
▁embarrass	-12231
▁exploring	-12232
▁ilgilidir	-12233
▁electronic	-12234
▁çalışmanın	-12235
▁şirketleri	-12236
▁gösterdiğim	-12237
sən	-12238
war	-12239
▁4.	-12240
▁Sı	-12241
amet	-12242
▁Pen	-12243
▁aim	-12244
▁bəz	-12245
▁ceb	-12246
▁eğr	-12247
▁fib	-12248
▁təh	-12249
aktif	-12250
lendi	-12251
▁Geze	-12252
▁acts	-12253
▁hits	-12254
▁iniş	-12255
▁ndan	-12256
bilmek	-12257
crimin	-12258
usunun	-12259
▁asset	-12260
▁cyber	-12261
▁kesim	-12262
▁kılan	-12263
▁pitch	-12264
▁plate	-12265
▁torun	-12266
▁weigh	-12267
▁yazdı	-12268
onymous	-12269
▁Museum	-12270
▁placed	-12271
▁Kendimi	-12272
▁cooking	-12273
▁feeding	-12274
▁figures	-12275
▁matemat	-12276
▁projesi	-12277
▁records	-12278
▁tecavüz	-12279
▁şimdiki	-12280
▁Müslüman	-12281
▁deneyimi	-12282
▁vehicles	-12283
▁functions	-12284
▁heyecanlı	-12285
▁operasyon	-12286
▁yapılacak	-12287
▁confidence	-12288
▁personally	-12289
▁International	-12290
▁circumstances	-12291
zi	-12292
diyi	-12293
gies	-12294
iyse	-12295
lank	-12296
oket	-12297
▁Day	-12298
▁MRI	-12299
▁Moz	-12300
▁max	-12301
emizi	-12302
endik	-12303
siyon	-12304
▁Ener	-12305
▁bard	-12306
▁bayı	-12307
▁bicy	-12308
▁dosy	-12309
▁icon	-12310
▁trav	-12311
etroit	-12312
inizle	-12313
iyotik	-12314
▁Beyaz	-12315
▁Değiş	-12316
▁Russi	-12317
▁birim	-12318
▁datab	-12319
▁faced	-12320
▁göğüs	-12321
▁koyun	-12322
▁miydi	-12323
▁recyc	-12324
▁scary	-12325
▁çekil	-12326
▁Şehir	-12327
lanacak	-12328
▁barely	-12329
▁border	-12330
▁handle	-12331
▁inject	-12332
▁okumak	-12333
▁oyunun	-12334
▁ulaşım	-12335
▁Detroit	-12336
▁evlilik	-12337
▁gerekti	-12338
▁haftada	-12339
▁largely	-12340
▁olaylar	-12341
▁tavsiye	-12342
▁violent	-12343
▁Remember	-12344
▁accurate	-12345
▁amacıyla	-12346
▁combined	-12347
▁infected	-12348
▁merdiven	-12349
▁practical	-12350
▁connecting	-12351
▁değiştirebilir	-12352
kol	-12353
cast	-12354
ello	-12355
ells	-12356
ends	-12357
iste	-12358
ollo	-12359
▁Wil	-12360
▁Zor	-12361
▁elə	-12362
▁paz	-12363
andon	-12364
iyeli	-12365
pring	-12366
sızın	-12367
ustur	-12368
çılık	-12369
▁Whit	-12370
▁aday	-12371
▁cast	-12372
▁dişi	-12373
▁mask	-12374
▁ours	-12375
▁pomp	-12376
amadım	-12377
manlık	-12378
▁Egypt	-12379
▁anlar	-12380
▁breed	-12381
▁digər	-12382
▁grows	-12383
▁iyisi	-12384
▁shame	-12385
▁tersi	-12386
▁tiyat	-12387
ılmıştı	-12388
▁Birisi	-12389
▁Singap	-12390
▁aftern	-12391
▁dükkan	-12392
▁fabric	-12393
▁gercek	-12394
▁inşaat	-12395
▁laptop	-12396
▁regret	-12397
▁severe	-12398
▁unlike	-12399
▁çocuğa	-12400
▁öncesi	-12401
▁şaşırt	-12402
▁doğrusu	-12403
▁flowers	-12404
▁frankly	-12405
▁removed	-12406
▁robotic	-12407
▁taşıyan	-12408
iliğinden	-12409
▁durumday	-12410
▁olasılık	-12411
▁provided	-12412
▁vaccines	-12413
▁öncesine	-12414
▁emergency	-12415
▁olmalıdır	-12416
▁parçasını	-12417
▁spreading	-12418
▁collecting	-12419
▁fazlasıyla	-12420
▁inequality	-12421
▁internette	-12422
▁mechanical	-12423
▁recognition	-12424
▁çalışıyordum	-12425
ilə	-12426
ira	-12427
born	-12428
enth	-12429
rors	-12430
ətin	-12431
▁Cur	-12432
▁Kaz	-12433
▁nəz	-12434
▁yuv	-12435
▁çub	-12436
acles	-12437
angel	-12438
night	-12439
▁....	-12440
▁Tanz	-12441
▁bias	-12442
▁chap	-12443
▁davr	-12444
▁gönd	-12445
▁iPod	-12446
▁obst	-12447
▁prep	-12448
▁sets	-12449
amanın	-12450
▁Kevin	-12451
▁Lakin	-12452
▁Oraya	-12453
▁aspir	-12454
▁döngü	-12455
▁nesne	-12456
▁saçma	-12457
▁songs	-12458
▁tarzı	-12459
▁uyarı	-12460
indedir	-12461
mamıştı	-12462
ulating	-12463
▁Sweden	-12464
▁bugüne	-12465
▁candid	-12466
▁duymak	-12467
▁elimin	-12468
▁hacker	-12469
▁hikâye	-12470
▁muhtem	-12471
▁olunca	-12472
▁oluşum	-12473
alarıyla	-12474
estation	-12475
▁Birinci	-12476
▁Program	-12477
▁combine	-12478
▁command	-12479
▁doktora	-12480
▁gitmeye	-12481
▁ilaçlar	-12482
▁tesadüf	-12483
▁topluma	-12484
▁ölümcül	-12485
lerimizde	-12486
▁Africans	-12487
▁belirgin	-12488
▁bildiğim	-12489
▁director	-12490
▁egzersiz	-12491
▁engaging	-12492
▁kablosuz	-12493
▁kararlar	-12494
▁kütüphan	-12495
▁gittiğini	-12496
▁kelimenin	-12497
▁lifestyle	-12498
▁marketing	-12499
▁olacaklar	-12500
▁olmalıyız	-12501
▁sınırları	-12502
▁çıkarıyor	-12503
▁öncelikle	-12504
▁bölgelerde	-12505
▁geliyorlar	-12506
▁microscope	-12507
▁percentage	-12508
▁psychology	-12509
▁resolution	-12510
▁educational	-12511
▁gerektiğine	-12512
ato	-12513
eda	-12514
ema	-12515
ila	-12516
pti	-12517
rel	-12518
▁Pl	-12519
ares	-12520
▁Jen	-12521
▁Kam	-12522
▁Mik	-12523
▁NSA	-12524
▁Vay	-12525
▁jet	-12526
▁müs	-12527
▁ork	-12528
▁stü	-12529
agger	-12530
lemez	-12531
using	-12532
▁Time	-12533
▁başı	-12534
▁bike	-12535
▁dish	-12536
▁yang	-12537
likler	-12538
madığı	-12539
▁adopt	-12540
▁calis	-12541
▁damar	-12542
▁error	-12543
▁films	-12544
▁judge	-12545
▁kafat	-12546
▁pharm	-12547
▁türde	-12548
▁unsur	-12549
▁Öğret	-12550
memişti	-12551
versity	-12552
▁Elektr	-12553
▁bedava	-12554
▁hayret	-12555
▁inters	-12556
▁senses	-12557
▁sonuca	-12558
▁stayed	-12559
▁yapısı	-12560
▁Hindist	-12561
▁January	-12562
▁equally	-12563
▁resimde	-12564
▁türleri	-12565
▁yardımı	-12566
▁şeklini	-12567
abilirsin	-12568
▁presence	-12569
▁toplumda	-12570
▁umuyorum	-12571
▁Christmas	-12572
▁determine	-12573
▁parçalara	-12574
▁yapmaları	-12575
▁Bildiğiniz	-12576
▁controlled	-12577
ym	-12578
əkt	-12579
▁JH	-12580
▁SP	-12581
▁ST	-12582
agon	-12583
ifth	-12584
lymp	-12585
ozor	-12586
sini	-12587
thal	-12588
very	-12589
▁19.	-12590
▁193	-12591
▁Ask	-12592
▁gol	-12593
▁mam	-12594
▁pip	-12595
▁rüy	-12596
ağına	-12597
danın	-12598
memek	-12599
umuza	-12600
ılmak	-12601
ələri	-12602
▁Asıl	-12603
▁Seni	-12604
▁adap	-12605
▁aras	-12606
▁chip	-12607
▁item	-12608
▁rüzg	-12609
▁sett	-12610
▁yüzü	-12611
▁çaba	-12612
▁çağr	-12613
alarca	-12614
▁Bruno	-12615
▁Pasif	-12616
▁Woman	-12617
▁admin	-12618
▁advoc	-12619
▁smile	-12620
▁split	-12621
▁yatır	-12622
▁Geçmiş	-12623
▁assume	-12624
▁church	-12625
▁clouds	-12626
▁compla	-12627
▁crying	-12628
▁deneme	-12629
▁döndüğ	-12630
▁halkın	-12631
▁manzar	-12632
▁phrase	-12633
▁redded	-12634
▁savaşı	-12635
▁signed	-12636
▁spring	-12637
ographer	-12638
▁ayakkab	-12639
▁bulundu	-12640
▁eğlence	-12641
▁fishing	-12642
▁hizmeti	-12643
▁kültürü	-12644
▁overall	-12645
▁oynamak	-12646
▁savaşın	-12647
▁solving	-12648
▁therapy	-12649
▁öncelik	-12650
▁birileri	-12651
▁gelmişti	-12652
▁getirdik	-12653
▁hastanın	-12654
▁hidrojen	-12655
▁horrible	-12656
▁kazanmak	-12657
▁muhtemel	-12658
▁paradigm	-12659
▁politika	-12660
▁röportaj	-12661
▁terörist	-12662
▁Something	-12663
▁anlatmaya	-12664
▁düşünerek	-12665
▁kadarıyla	-12666
▁keresinde	-12667
▁keşfetmek	-12668
▁selection	-12669
▁typically	-12670
▁istiyorsak	-12671
▁recognized	-12672
▁gerçekleşen	-12673
▁olabilirler	-12674
▁populations	-12675
▁transformed	-12676
▁görebileceğiniz	-12677
lıp	-12678
omin	-12679
usuz	-12680
ücük	-12681
ədən	-12682
▁Cor	-12683
▁Lou	-12684
▁maç	-12685
▁naz	-12686
▁shr	-12687
diyim	-12688
iking	-12689
isten	-12690
lavuz	-12691
madık	-12692
▁2015	-12693
▁dens	-12694
▁hadi	-12695
▁kons	-12696
▁kurb	-12697
▁leap	-12698
▁moda	-12699
▁spek	-12700
▁öğre	-12701
abilme	-12702
andığı	-12703
ılmaya	-12704
▁Olymp	-12705
▁anıms	-12706
▁canav	-12707
▁drill	-12708
▁fruit	-12709
▁gözet	-12710
▁gətir	-12711
▁hesab	-12712
▁ispat	-12713
▁seeds	-12714
▁stüdy	-12715
▁temin	-12716
▁zorun	-12717
lediler	-12718
lemenin	-12719
▁Hayvan	-12720
▁escape	-12721
▁immigr	-12722
▁poetry	-12723
▁simetr	-12724
▁worker	-12725
▁William	-12726
▁comment	-12727
▁değişen	-12728
▁library	-12729
▁nowhere	-12730
▁içeriyor	-12731
▁kompleks	-12732
▁kullanma	-12733
▁manyetik	-12734
▁subjects	-12735
▁committed	-12736
▁hesaplama	-12737
▁hissettiğ	-12738
▁iletişime	-12739
▁moleküler	-12740
▁reference	-12741
▁telescope	-12742
▁efficiency	-12743
▁geçtiğimiz	-12744
▁konuşurken	-12745
▁kullanmayı	-12746
▁laboratory	-12747
▁çevresinde	-12748
▁şekillerde	-12749
▁SW	-12750
▁Öd	-12751
aled	-12752
apor	-12753
ayip	-12754
irmi	-12755
▁350	-12756
▁Eth	-12757
▁Joe	-12758
aklar	-12759
iders	-12760
indan	-12761
oxide	-12762
uther	-12763
▁1900	-12764
▁Hawa	-12765
▁Next	-12766
▁avcı	-12767
▁baba	-12768
▁cock	-12769
▁dign	-12770
▁elev	-12771
▁gest	-12772
▁guar	-12773
▁joke	-12774
▁neçə	-12775
▁öden	-12776
▁üzər	-12777
▁İndi	-12778
tuğunu	-12779
ımdaki	-12780
▁Bronx	-12781
▁Stasi	-12782
▁alarm	-12783
▁değin	-12784
▁efsan	-12785
▁gizem	-12786
▁topar	-12787
▁tutku	-12788
agement	-12789
ogether	-12790
▁fisher	-12791
▁geçici	-12792
▁kızlar	-12793
▁linked	-12794
▁millet	-12795
▁pushed	-12796
▁soruya	-12797
▁tatmin	-12798
▁vadede	-12799
▁varmış	-12800
▁vücudu	-12801
leştirme	-12802
miyorlar	-12803
sunuzdur	-12804
▁Hükümet	-12805
▁başkanı	-12806
▁inspire	-12807
▁konuşur	-12808
▁onlarca	-12809
▁opposed	-12810
▁siyaset	-12811
▁Yalnızca	-12812
▁bekleyen	-12813
▁concepts	-12814
▁drinking	-12815
▁edilemez	-12816
▁outcomes	-12817
▁footprint	-12818
▁insurance	-12819
▁paintings	-12820
▁söylemeye	-12821
▁koleksiyon	-12822
▁malzemeler	-12823
▁transplant	-12824
▁interacting	-12825
▁nihayetinde	-12826
▁söylemeliyim	-12827
lis	-12828
obs	-12829
tin	-12830
yni	-12831
ğin	-12832
adic	-12833
irli	-12834
what	-12835
şeye	-12836
▁Cop	-12837
▁Var	-12838
▁cab	-12839
▁Çox	-12840
▁çip	-12841
▁İsk	-12842
ambur	-12843
▁Move	-12844
▁blow	-12845
▁dust	-12846
▁küre	-12847
▁nest	-12848
▁nose	-12849
▁rely	-12850
called	-12851
cisely	-12852
lediye	-12853
▁Power	-12854
▁Trans	-12855
▁fixed	-12856
▁kızın	-12857
▁nasil	-12858
▁tedar	-12859
▁title	-12860
cilerin	-12861
eceğimi	-12862
ilmişti	-12863
lerimin	-12864
mesidir	-12865
through	-12866
▁50,000	-12867
▁antibi	-12868
▁babası	-12869
▁colony	-12870
▁ilerle	-12871
▁ladies	-12872
▁okudum	-12873
▁papers	-12874
▁General	-12875
▁Laborat	-12876
▁Stephen	-12877
▁anticip	-12878
▁biriyle	-12879
▁cheaper	-12880
▁gördüğü	-12881
▁ilişkin	-12882
▁monkeys	-12883
▁saatlik	-12884
▁sahipti	-12885
▁savings	-12886
▁sermaye	-12887
▁suppose	-12888
▁taşımak	-12889
▁vererek	-12890
▁yapamaz	-12891
▁yaparız	-12892
▁çamaşır	-12893
▁arabanın	-12894
▁biyoloji	-12895
▁collapse	-12896
▁düşünces	-12897
▁embedded	-12898
▁enerjiyi	-12899
▁hatırlam	-12900
▁hatırlay	-12901
▁suggests	-12902
▁Birleşmiş	-12903
▁afternoon	-12904
▁authority	-12905
▁gezegende	-12906
▁topluluğu	-12907
▁Foundation	-12908
▁bağışıklık	-12909
▁inanıyoruz	-12910
hop	-12911
▁nı	-12912
aint	-12913
ikes	-12914
izde	-12915
ulum	-12916
▁Had	-12917
▁Seç	-12918
▁Söz	-12919
▁aya	-12920
▁bük	-12921
▁həm	-12922
▁ini	-12923
▁yır	-12924
craft	-12925
iring	-12926
lenme	-12927
▁Hans	-12928
▁Homo	-12929
▁ağrı	-12930
▁cadd	-12931
▁ilan	-12932
▁mini	-12933
▁nano	-12934
▁yasa	-12935
ilikon	-12936
leşmiş	-12937
nected	-12938
source	-12939
▁Evren	-12940
▁White	-12941
▁antik	-12942
▁durup	-12943
▁dâhil	-12944
▁humor	-12945
▁plans	-12946
▁polio	-12947
▁tavuk	-12948
▁wings	-12949
▁yemeğ	-12950
▁10.000	-12951
▁Birden	-12952
▁Palest	-12953
▁bayağı	-12954
▁diabet	-12955
▁gücüne	-12956
▁ignore	-12957
▁latest	-12958
▁parmağ	-12959
▁spinal	-12960
▁tested	-12961
▁çirkin	-12962
▁airport	-12963
▁donanım	-12964
▁edersek	-12965
▁extinct	-12966
▁offered	-12967
▁olumsuz	-12968
▁painful	-12969
▁paranın	-12970
▁poorest	-12971
▁yarattı	-12972
▁çekiyor	-12973
▁çerçeve	-12974
▁çoğunun	-12975
▁çıkacak	-12976
▁Şimdiye	-12977
duğunuzda	-12978
ildikleri	-12979
▁açıklama	-12980
▁floating	-12981
▁görmüyor	-12982
▁infinite	-12983
▁sıcaklık	-12984
abileceğim	-12985
▁apartment	-12986
▁authentic	-12987
▁continued	-12988
▁görmezden	-12989
▁spiritual	-12990
▁tarihinde	-12991
▁veriyorum	-12992
▁öğrenmeye	-12993
▁department	-12994
▁hastaların	-12995
▁hayvanları	-12996
ebileceğiniz	-12997
▁application	-12998
▁interactive	-12999
▁çalışıyordu	-13000
▁Görüyorsunuz	-13001
▁psychological	-13002
bal	-13003
bie	-13004
def	-13005
▁Da	-13006
▁Us	-13007
ogue	-13008
otek	-13009
sünü	-13010
usun	-13011
▁CRI	-13012
▁bow	-13013
▁lun	-13014
▁sən	-13015
aniel	-13016
hythm	-13017
itory	-13018
romos	-13019
▁argu	-13020
▁ears	-13021
▁edən	-13022
▁evin	-13023
▁felç	-13024
▁glac	-13025
▁kıyı	-13026
▁lung	-13027
▁neut	-13028
▁niye	-13029
▁orij	-13030
▁pink	-13031
▁suff	-13032
acular	-13033
imeter	-13034
laşmış	-13035
lusive	-13036
rardan	-13037
▁Yüzde	-13038
▁ancaq	-13039
▁brown	-13040
▁decre	-13041
▁drove	-13042
▁flash	-13043
▁istik	-13044
▁köprü	-13045
▁laser	-13046
▁manif	-13047
▁skull	-13048
▁yaxın	-13049
century	-13050
osphere	-13051
ığından	-13052
▁Nature	-13053
▁gelmez	-13054
▁meslek	-13055
▁propag	-13056
▁recomm	-13057
▁yaşlan	-13058
▁Buradan	-13059
▁ayrıntı	-13060
▁büyüdüm	-13061
▁diagram	-13062
▁diyordu	-13063
▁dönelim	-13064
▁herself	-13065
▁parking	-13066
▁tüketic	-13067
▁vereyim	-13068
▁yürüyor	-13069
▁Carolina	-13070
▁Fotoğraf	-13071
▁kardeşim	-13072
▁kitaplar	-13073
▁kısmında	-13074
▁somewhat	-13075
abiliyorum	-13076
ebiliyoruz	-13077
▁Christian	-13078
▁bakıyoruz	-13079
▁consumers	-13080
▁destroyed	-13081
▁geleceğin	-13082
▁precisely	-13083
▁bölgesinde	-13084
▁perspektif	-13085
▁çeşitliliğ	-13086
▁görebiliyor	-13087
▁yaratıcılık	-13088
▁expectations	-13089
▁hastalıkları	-13090
▁heyecanlandır	-13091
yo	-13092
erm	-13093
qiq	-13094
ses	-13095
▁42	-13096
▁IM	-13097
ayda	-13098
idor	-13099
kins	-13100
oked	-13101
well	-13102
▁Dou	-13103
▁Exp	-13104
▁Has	-13105
▁Say	-13106
▁ath	-13107
▁dop	-13108
▁pas	-13109
▁piz	-13110
▁çim	-13111
andım	-13112
apers	-13113
▁Wats	-13114
▁aşık	-13115
▁deri	-13116
▁fake	-13117
▁kopy	-13118
▁loop	-13119
▁masa	-13120
▁rush	-13121
▁Ölüm	-13122
lessly	-13123
struct	-13124
▁Süper	-13125
▁Union	-13126
▁atmak	-13127
▁bariz	-13128
▁fuels	-13129
▁hariç	-13130
▁ilkel	-13131
▁ought	-13132
▁proof	-13133
▁riski	-13134
▁synth	-13135
▁vital	-13136
▁çekti	-13137
diğince	-13138
▁Dikkat	-13139
▁Lütfen	-13140
▁Rwanda	-13141
▁birçoğ	-13142
▁dehşet	-13143
▁relate	-13144
▁toilet	-13145
▁çıktık	-13146
amıyorum	-13147
▁binalar	-13148
▁bulunur	-13149
▁decline	-13150
▁dioxide	-13151
▁existed	-13152
▁kalmayı	-13153
▁olmakla	-13154
▁paralle	-13155
▁taşıyor	-13156
▁wanting	-13157
▁şikayet	-13158
▁Atlantic	-13159
▁Leonardo	-13160
▁birinden	-13161
▁enerjisi	-13162
▁etmesini	-13163
▁occasion	-13164
▁sıkıştır	-13165
▁ülkedeki	-13166
▁görüntüsü	-13167
▁searching	-13168
▁görüntüler	-13169
▁kolaylaştır	-13170
▁büyüklüğünde	-13171
▁automatically	-13172
▁karbondioksit	-13173
LA	-13174
ads	-13175
▁44	-13176
▁Bo	-13177
▁Od	-13178
▁py	-13179
cüsü	-13180
enda	-13181
erry	-13182
ifik	-13183
isim	-13184
iyan	-13185
izin	-13186
uyuz	-13187
walk	-13188
üntü	-13189
▁Esk	-13190
▁RNA	-13191
▁Rec	-13192
▁cav	-13193
▁gam	-13194
▁god	-13195
▁lük	-13196
▁nic	-13197
▁ric	-13198
▁Çoğ	-13199
gesel	-13200
onlar	-13201
quare	-13202
ünüzü	-13203
▁2030	-13204
▁Bell	-13205
▁Nike	-13206
▁aşağ	-13207
▁coup	-13208
▁devr	-13209
▁ekst	-13210
▁filt	-13211
▁milk	-13212
▁onar	-13213
▁sunu	-13214
▁taht	-13215
▁ugly	-13216
▁ümit	-13217
atları	-13218
azırda	-13219
▁Media	-13220
▁Ondan	-13221
▁döner	-13222
▁ilacı	-13223
▁işley	-13224
▁kucak	-13225
▁plays	-13226
▁roket	-13227
▁score	-13228
▁somut	-13229
▁stack	-13230
▁tanık	-13231
▁whist	-13232
▁önyar	-13233
▁Apollo	-13234
▁Disney	-13235
▁Watson	-13236
▁benzem	-13237
▁devast	-13238
▁fikrin	-13239
▁invite	-13240
▁katına	-13241
▁mesajı	-13242
▁owners	-13243
▁patron	-13244
▁transm	-13245
▁çıplak	-13246
andığını	-13247
▁Muslims	-13248
▁evrende	-13249
▁kalacak	-13250
▁kazandı	-13251
▁kılavuz	-13252
▁origami	-13253
▁suicide	-13254
▁yapamay	-13255
▁zamanki	-13256
acağınızı	-13257
mediğimiz	-13258
▁başardık	-13259
▁biriktir	-13260
▁birthday	-13261
▁breaking	-13262
▁haritası	-13263
▁particle	-13264
▁properly	-13265
▁reaching	-13266
▁transist	-13267
ologically	-13268
▁algorithm	-13269
▁gidiyoruz	-13270
▁uncomfort	-13271
▁yarattığı	-13272
▁yaşadığım	-13273
▁yollarını	-13274
▁İnsanlara	-13275
▁edebilecek	-13276
▁fascinated	-13277
▁gittiğimde	-13278
▁problemler	-13279
▁arkasındaki	-13280
▁electronics	-13281
▁başkalarının	-13282
▁conventional	-13283
▁dramatically	-13284
▁experiencing	-13285
SPR	-13286
ais	-13287
bul	-13288
dek	-13289
iba	-13290
▁Bh	-13291
▁bı	-13292
▁tö	-13293
agan	-13294
azor	-13295
fall	-13296
ober	-13297
oded	-13298
ozom	-13299
uter	-13300
▁Bat	-13301
▁Cap	-13302
▁Git	-13303
▁Jac	-13304
▁Kos	-13305
▁Rev	-13306
▁Sür	-13307
▁Vad	-13308
▁bum	-13309
▁bür	-13310
▁miz	-13311
▁məh	-13312
▁rar	-13313
allow	-13314
arsam	-13315
build	-13316
işsel	-13317
tınız	-13318
▁Jose	-13319
▁Miss	-13320
▁Mont	-13321
▁blah	-13322
▁hook	-13323
▁imal	-13324
▁işit	-13325
▁lets	-13326
▁palm	-13327
▁Aşağı	-13328
▁Bende	-13329
▁Bible	-13330
▁abuse	-13331
▁anger	-13332
▁arazi	-13333
▁aston	-13334
▁colum	-13335
▁denir	-13336
▁dense	-13337
▁enemy	-13338
▁hasar	-13339
▁horse	-13340
▁hərək	-13341
▁kuram	-13342
▁pasif	-13343
▁sahil	-13344
▁terim	-13345
▁uncer	-13346
▁vergi	-13347
▁çelik	-13348
ınızdan	-13349
▁20,000	-13350
▁CRISPR	-13351
▁Island	-13352
▁derken	-13353
▁keskin	-13354
▁lovely	-13355
▁murder	-13356
▁neuron	-13357
▁portra	-13358
▁proced	-13359
▁rehber	-13360
▁stands	-13361
▁uyumlu	-13362
▁ülkeye	-13363
ediğiniz	-13364
lerimden	-13365
▁Johnson	-13366
▁anlattı	-13367
▁appears	-13368
▁classic	-13369
▁götürdü	-13370
▁insanoğ	-13371
▁methods	-13372
▁ortalam	-13373
▁yumuşak	-13374
▁Brooklyn	-13375
▁bulundur	-13376
▁choosing	-13377
▁değildim	-13378
▁estimate	-13379
▁etkisini	-13380
▁kızların	-13381
▁oluyoruz	-13382
▁topluyor	-13383
▁wherever	-13384
▁yeteneği	-13385
▁arasından	-13386
▁depending	-13387
▁dimension	-13388
▁duyuyorum	-13389
▁dışındaki	-13390
▁göreceğiz	-13391
▁verebilir	-13392
▁Geographic	-13393
▁satellites	-13394
▁yaparsınız	-13395
▁productivity	-13396
▁communications	-13397
BA	-13398
əng	-13399
▁72	-13400
▁Po	-13401
ifer	-13402
ikol	-13403
irəm	-13404
mber	-13405
▁Acc	-13406
▁Alt	-13407
▁Mom	-13408
▁neş	-13409
▁sop	-13410
▁zan	-13411
stand	-13412
ılgan	-13413
əktəb	-13414
▁2002	-13415
▁Blue	-13416
▁Hong	-13417
▁Pole	-13418
▁anxi	-13419
▁boom	-13420
▁gray	-13421
▁krom	-13422
▁refr	-13423
▁sera	-13424
▁ster	-13425
▁tarl	-13426
ansion	-13427
malara	-13428
mented	-13429
üldüğü	-13430
▁Yarat	-13431
▁etmez	-13432
▁istis	-13433
▁koyul	-13434
▁mağaz	-13435
▁memel	-13436
▁plast	-13437
▁spark	-13438
▁çoklu	-13439
▁şarap	-13440
▁Really	-13441
▁ailesi	-13442
▁aramak	-13443
▁frozen	-13444
▁fırtın	-13445
▁gitmiş	-13446
▁havaya	-13447
▁hunger	-13448
▁itiraf	-13449
▁koydum	-13450
▁needle	-13451
▁output	-13452
▁şanslı	-13453
malardan	-13454
▁Pasifik	-13455
▁careful	-13456
▁classes	-13457
▁detaylı	-13458
▁disrupt	-13459
▁essence	-13460
▁mindset	-13461
▁nüfusun	-13462
▁passing	-13463
▁toplumu	-13464
▁Children	-13465
▁accepted	-13466
▁captured	-13467
▁deneyler	-13468
▁football	-13469
▁geleceğe	-13470
▁gelmiyor	-13471
▁symptoms	-13472
▁traveled	-13473
▁yararlan	-13474
▁yavaşlat	-13475
▁birisinin	-13476
▁istediler	-13477
▁kitapları	-13478
▁nüfusunun	-13479
▁privilege	-13480
▁accessible	-13481
▁behavioral	-13482
▁elektrikli	-13483
▁geliştirme	-13484
▁gösterdiği	-13485
▁hikayeleri	-13486
▁mechanisms	-13487
▁yaparsanız	-13488
▁diyebiliriz	-13489
▁personality	-13490
▁söylüyorlar	-13491
▁entrepreneur	-13492
▁interactions	-13493
▁entertainment	-13494
▁uncomfortable	-13495
org	-13496
unc	-13497
▁31	-13498
▁Ru	-13499
▁Çö	-13500
▁öb	-13501
bles	-13502
emem	-13503
ihar	-13504
irin	-13505
mert	-13506
▁Gül	-13507
▁Keş	-13508
▁Tay	-13509
▁bac	-13510
▁ola	-13511
ağını	-13512
diğin	-13513
eball	-13514
günüm	-13515
iller	-13516
worth	-13517
ömert	-13518
▁Mike	-13519
▁Rome	-13520
▁arzu	-13521
▁açıp	-13522
▁ceza	-13523
▁disk	-13524
▁haqq	-13525
▁inek	-13526
▁mice	-13527
▁seas	-13528
▁yurt	-13529
licity	-13530
luğunu	-13531
▁Clint	-13532
▁Gelen	-13533
▁arttı	-13534
▁açmak	-13535
▁brave	-13536
▁dilim	-13537
▁eklem	-13538
▁hotel	-13539
▁kader	-13540
▁kayda	-13541
▁maraq	-13542
▁recru	-13543
▁soyle	-13544
▁sınav	-13545
▁truck	-13546
▁utanç	-13547
ildiler	-13548
ilmemiş	-13549
mıyoruz	-13550
▁baylar	-13551
▁hungry	-13552
▁hâline	-13553
▁mainly	-13554
▁marine	-13555
▁müziği	-13556
▁oluruz	-13557
▁stable	-13558
▁traged	-13559
ınızdaki	-13560
▁chromos	-13561
▁regener	-13562
▁sahneye	-13563
▁whereas	-13564
ilerinden	-13565
lenebilir	-13566
▁Research	-13567
▁beyninin	-13568
▁elephant	-13569
▁hükümeti	-13570
▁insandan	-13571
▁meetings	-13572
▁obsessed	-13573
▁overcome	-13574
▁reported	-13575
▁vertical	-13576
▁başladığı	-13577
▁conflicts	-13578
▁elections	-13579
▁ettiğiniz	-13580
▁istəyirəm	-13581
▁practices	-13582
▁presented	-13583
▁şekilleri	-13584
ebileceğini	-13585
▁Devletleri	-13586
▁Yaptığımız	-13587
▁capitalism	-13588
▁commitment	-13589
▁contribute	-13590
▁edebiliyor	-13591
▁philosophy	-13592
▁sivrisinek	-13593
▁advertising	-13594
▁arkadaşları	-13595
▁endüstriyel	-13596
▁öğretmenler	-13597
▁görebiliyoruz	-13598
əx	-13599
rix	-13600
rog	-13601
tif	-13602
əll	-13603
▁AT	-13604
▁EM	-13605
▁Ju	-13606
bire	-13607
uate	-13608
▁Dir	-13609
▁Mim	-13610
▁Mur	-13611
▁Put	-13612
▁nur	-13613
▁ooh	-13614
▁orb	-13615
▁yal	-13616
ailed	-13617
aması	-13618
being	-13619
burgh	-13620
ework	-13621
ürekk	-13622
▁Dedi	-13623
▁Snow	-13624
▁belg	-13625
▁boya	-13626
▁esin	-13627
▁obez	-13628
▁otel	-13629
▁ömür	-13630
cileri	-13631
etical	-13632
inking	-13633
profit	-13634
▁About	-13635
▁Ocean	-13636
▁Siyah	-13637
▁Voice	-13638
▁Yemen	-13639
▁Yeşil	-13640
▁bombs	-13641
▁bulup	-13642
▁enstr	-13643
▁falls	-13644
▁gezin	-13645
▁gücün	-13646
▁konse	-13647
▁liste	-13648
▁lying	-13649
▁mahal	-13650
▁okulu	-13651
▁sıkış	-13652
▁sığın	-13653
▁tired	-13654
eceğine	-13655
itution	-13656
tiğinde	-13657
▁Hawaii	-13658
▁divide	-13659
▁extern	-13660
▁format	-13661
▁heroes	-13662
▁surely	-13663
▁taşınd	-13664
▁yazmak	-13665
▁çözümü	-13666
ığınızda	-13667
▁babamın	-13668
▁designs	-13669
▁etmiyor	-13670
▁kıyasla	-13671
▁çekildi	-13672
▁örümcek	-13673
▁Filistin	-13674
▁achieved	-13675
▁brothers	-13676
▁derinlik	-13677
▁distinct	-13678
▁edeceğiz	-13679
▁ihtimali	-13680
▁orijinal	-13681
▁oyunları	-13682
▁piyasaya	-13683
▁profesör	-13684
▁tanesini	-13685
▁celebrate	-13686
▁elsewhere	-13687
▁getirdiği	-13688
▁intuitive	-13689
▁medeniyet	-13690
▁problemin	-13691
▁Antarctica	-13692
▁exhibition	-13693
▁hastalığın	-13694
▁istersiniz	-13695
▁olabiliyor	-13696
▁oluşturduk	-13697
▁sanmıyorum	-13698
▁yaşıyorlar	-13699
▁beklenmedik	-13700
▁fotoğraflar	-13701
▁gerçekleşti	-13702
▁değiştirecek	-13703
▁değiştiriyor	-13704
▁söyleyeceğim	-13705
▁gerçekleşiyor	-13706
▁globalization	-13707
rat	-13708
▁Hi	-13709
▁MT	-13710
▁UN	-13711
▁ət	-13712
anne	-13713
esia	-13714
ildə	-13715
ndür	-13716
ücre	-13717
üphe	-13718
▁Mak	-13719
▁Nam	-13720
▁Tib	-13721
▁Yat	-13722
▁vit	-13723
▁yil	-13724
inian	-13725
while	-13726
▁1998	-13727
▁boss	-13728
▁dava	-13729
▁dond	-13730
▁emph	-13731
▁frek	-13732
▁plot	-13733
asyona	-13734
epyeni	-13735
lərini	-13736
▁Ancaq	-13737
▁Korea	-13738
▁River	-13739
▁akrab	-13740
▁aslan	-13741
▁dalış	-13742
▁deser	-13743
▁disag	-13744
▁doğan	-13745
▁imkân	-13746
▁males	-13747
▁minor	-13748
▁phase	-13749
▁stone	-13750
▁tasks	-13751
▁walks	-13752
▁yanıl	-13753
▁İster	-13754
anthrop	-13755
masıyla	-13756
ındayız	-13757
▁Dışarı	-13758
▁amaçlı	-13759
▁conclu	-13760
▁derler	-13761
▁dönmek	-13762
▁hearts	-13763
▁hypoth	-13764
▁layers	-13765
▁meşhur	-13766
▁mültec	-13767
▁orange	-13768
▁rating	-13769
▁sanatç	-13770
▁scream	-13771
▁sigara	-13772
▁tavsiy	-13773
▁türler	-13774
▁Birliği	-13775
▁Nothing	-13776
▁bölgesi	-13777
▁citizen	-13778
▁demişti	-13779
▁diction	-13780
▁gizemli	-13781
▁odadaki	-13782
▁picking	-13783
▁scratch	-13784
▁section	-13785
▁surgeon	-13786
▁videoyu	-13787
▁Republic	-13788
▁açıkçası	-13789
▁derinden	-13790
▁fazladan	-13791
▁liderler	-13792
▁minister	-13793
▁yapısını	-13794
▁Alexander	-13795
▁backwards	-13796
▁buradayım	-13797
▁disorders	-13798
▁documents	-13799
▁hayatımda	-13800
▁internete	-13801
▁noktaları	-13802
▁standards	-13803
▁variation	-13804
▁architects	-13805
▁biliyorlar	-13806
▁economists	-13807
▁gösterilen	-13808
▁hücrelerin	-13809
▁incentives	-13810
▁istediğimi	-13811
▁yapılabilir	-13812
▁değiştirmeye	-13813
▁yapıyorsunuz	-13814
▁bulabilirsiniz	-13815
-2	-13816
iat	-13817
opy	-13818
uza	-13819
▁48	-13820
▁JF	-13821
anny	-13822
case	-13823
emde	-13824
irds	-13825
most	-13826
rane	-13827
usta	-13828
utch	-13829
west	-13830
▁Hız	-13831
▁cub	-13832
▁dua	-13833
▁evi	-13834
▁mav	-13835
▁mum	-13836
▁qər	-13837
▁süz	-13838
amadı	-13839
▁Give	-13840
▁Pitt	-13841
▁clar	-13842
▁cute	-13843
▁limb	-13844
▁pale	-13845
▁spon	-13846
düğünü	-13847
larıma	-13848
ünüzde	-13849
▁Bakan	-13850
▁Hangi	-13851
▁Maldi	-13852
▁Prize	-13853
▁accum	-13854
▁adeta	-13855
▁chaos	-13856
▁eseri	-13857
▁gözle	-13858
▁knock	-13859
▁opera	-13860
▁polen	-13861
▁resif	-13862
▁tight	-13863
▁usual	-13864
▁whale	-13865
▁yatan	-13866
indeydi	-13867
▁cihazı	-13868
▁cömert	-13869
▁fright	-13870
▁protez	-13871
▁sensör	-13872
▁sphere	-13873
madığını	-13874
▁channel	-13875
▁distant	-13876
▁imaging	-13877
▁insanla	-13878
▁izleyen	-13879
▁işlerin	-13880
▁prosper	-13881
▁sahnede	-13882
▁visited	-13883
▁windows	-13884
▁çözmeye	-13885
▁çıkarıp	-13886
▁üretimi	-13887
larımızla	-13888
▁dolardan	-13889
▁illusion	-13890
▁insansız	-13891
▁oturuyor	-13892
▁villages	-13893
▁şiddetli	-13894
▁Hepimizin	-13895
▁balıkları	-13896
▁etkiliyor	-13897
▁noktasına	-13898
▁olacağına	-13899
▁responses	-13900
▁strangers	-13901
▁directions	-13902
▁kullanışlı	-13903
▁sorumluluğ	-13904
▁tasarlamak	-13905
▁appropriate	-13906
▁etrafındaki	-13907
▁represented	-13908
▁bulunduğumuz	-13909
▁neighborhoods	-13910
▁edebileceğiniz	-13911
qt	-13912
agh	-13913
nic	-13914
nit	-13915
üyü	-13916
▁55	-13917
▁Up	-13918
▁ov	-13919
okes	-13920
onna	-13921
post	-13922
▁10-	-13923
▁Düz	-13924
▁NGO	-13925
▁Roy	-13926
▁Yaz	-13927
▁kâr	-13928
▁mər	-13929
▁sın	-13930
copes	-13931
masız	-13932
ümüze	-13933
▁Akıl	-13934
▁Gene	-13935
▁Gold	-13936
▁Sier	-13937
▁Tell	-13938
▁Walk	-13939
▁ages	-13940
▁cash	-13941
▁porn	-13942
▁pour	-13943
▁rice	-13944
▁sini	-13945
▁sizə	-13946
▁tube	-13947
▁önde	-13948
dayken	-13949
maması	-13950
ptions	-13951
əsində	-13952
▁Doğal	-13953
▁Ghana	-13954
▁abund	-13955
▁doğdu	-13956
▁fract	-13957
▁huzur	-13958
▁kapak	-13959
▁kilis	-13960
▁verip	-13961
▁yansı	-13962
▁çekip	-13963
mesiyle	-13964
▁Eminim	-13965
▁bekler	-13966
▁benlik	-13967
▁landed	-13968
▁legacy	-13969
▁verilm	-13970
diğinden	-13971
diğinizi	-13972
▁beliefs	-13973
▁bıraktı	-13974
▁divided	-13975
▁ekipman	-13976
▁exposed	-13977
▁çoğumuz	-13978
▁önemsiz	-13979
leştirmek	-13980
▁alanlara	-13981
▁arkadaşı	-13982
▁attached	-13983
▁dolphins	-13984
▁dünyadan	-13985
▁fotograf	-13986
▁stations	-13987
▁sunlight	-13988
▁verdiğim	-13989
▁yarattık	-13990
▁Basically	-13991
▁breathing	-13992
▁colleague	-13993
▁component	-13994
▁corporate	-13995
▁enerjinin	-13996
▁identical	-13997
▁kullandım	-13998
amayacağını	-13999
▁bakteriler	-14000
▁capability	-14001
▁historical	-14002
▁protecting	-14003
▁yapacağını	-14004
▁hastalıklar	-14005
▁yapıldığını	-14006
OL	-14007
hab	-14008
izy	-14009
tig	-14010
▁Fl	-14011
isti	-14012
məyə	-14013
ondu	-14014
rusu	-14015
▁Bor	-14016
▁Inc	-14017
▁Scr	-14018
▁bez	-14019
▁dib	-14020
▁lap	-14021
▁soc	-14022
▁spr	-14023
▁ölk	-14024
▁özü	-14025
▁şun	-14026
cinin	-14027
denin	-14028
irsek	-14029
▁1930	-14030
▁2014	-14031
▁Cass	-14032
▁anki	-14033
▁attr	-14034
▁deli	-14035
▁içgü	-14036
▁slog	-14037
▁özür	-14038
▁ışın	-14039
ifting	-14040
ilerim	-14041
menize	-14042
rition	-14043
▁Henüz	-14044
▁Muham	-14045
▁aside	-14046
▁derdi	-14047
▁dersi	-14048
▁doğuş	-14049
▁fluid	-14050
▁kapan	-14051
▁pyram	-14052
▁tries	-14053
▁çoğal	-14054
▁İklim	-14055
▁ətraf	-14056
icileri	-14057
irseniz	-14058
vention	-14059
▁Steven	-14060
▁borrow	-14061
▁clinic	-14062
▁deneyi	-14063
▁edirəm	-14064
▁fertil	-14065
▁script	-14066
▁silent	-14067
▁thrown	-14068
▁Önemli	-14069
ildiğini	-14070
▁Clinton	-14071
▁Dünyayı	-14072
▁October	-14073
▁anxiety	-14074
▁ağırlık	-14075
▁bölgeye	-14076
▁crucial	-14077
▁dignity	-14078
▁earthqu	-14079
▁kitabın	-14080
▁mammals	-14081
▁mısınız	-14082
▁raising	-14083
▁rehabil	-14084
▁samples	-14085
▁sihirli	-14086
landığını	-14087
▁globally	-14088
▁özgürlüğ	-14089
▁animasyon	-14090
▁animation	-14091
▁dedicated	-14092
▁exception	-14093
▁mikroskop	-14094
▁oluşturul	-14095
▁virtually	-14096
▁böylelikle	-14097
▁düşünmemiz	-14098
▁geleceğini	-14099
▁optimistic	-14100
▁psikolojik	-14101
▁yapılandır	-14102
▁universities	-14103
BM	-14104
▁#	-14105
bah	-14106
dun	-14107
uke	-14108
uli	-14109
▁Eh	-14110
elli	-14111
gers	-14112
ints	-14113
thur	-14114
umet	-14115
ümün	-14116
ətic	-14117
▁Aug	-14118
▁Gaz	-14119
▁Hel	-14120
▁Kül	-14121
▁Mel	-14122
▁gıd	-14123
▁hac	-14124
▁sag	-14125
▁tey	-14126
▁tün	-14127
eliev	-14128
flies	-14129
oring	-14130
saire	-14131
seydi	-14132
əsini	-14133
▁Kalp	-14134
▁Mass	-14135
▁Ocak	-14136
▁Roma	-14137
▁acım	-14138
▁ardı	-14139
▁ağac	-14140
▁inov	-14141
▁olar	-14142
▁uzer	-14143
iğinin	-14144
tainty	-14145
▁Hedef	-14146
▁ayırt	-14147
▁champ	-14148
▁chest	-14149
▁diver	-14150
▁doors	-14151
▁dönen	-14152
▁etkil	-14153
▁exped	-14154
▁immen	-14155
▁march	-14156
▁milli	-14157
▁önems	-14158
dilerde	-14159
iveness	-14160
▁capita	-14161
▁cennet	-14162
▁filtre	-14163
▁katlan	-14164
▁kazanç	-14165
▁sacred	-14166
▁spider	-14167
▁subtle	-14168
▁sunmak	-14169
▁sürücü	-14170
abilmesi	-14171
changing	-14172
sinizdir	-14173
▁Android	-14174
▁Telefon	-14175
▁aileler	-14176
▁aramaya	-14177
▁defense	-14178
▁koyuyor	-14179
▁olmazdı	-14180
▁projeyi	-14181
▁sisters	-14182
▁speaker	-14183
▁sürpriz	-14184
▁trigger	-14185
▁verildi	-14186
▁vesaire	-14187
▁yayılan	-14188
▁yaşadık	-14189
▁Birlikte	-14190
▁Gülüşler	-14191
▁Kadınlar	-14192
▁bağlıdır	-14193
▁modeller	-14194
▁müzisyen	-14195
▁numaralı	-14196
▁olacağım	-14197
▁prototyp	-14198
▁southern	-14199
▁treating	-14200
▁yıllarca	-14201
▁çocukluk	-14202
▁çılgınca	-14203
▁ülkeleri	-14204
▁alırsınız	-14205
▁generated	-14206
▁investing	-14207
▁measuring	-14208
▁merkezine	-14209
▁versiyonu	-14210
▁yanındaki	-14211
leştirilmiş	-14212
▁Geçtiğimiz	-14213
▁Revolution	-14214
▁başlayacak	-14215
▁gelişmeler	-14216
▁heyecanlıy	-14217
▁integrated	-14218
▁permission	-14219
▁çözünürlük	-14220
▁ödüllendir	-14221
▁controlling	-14222
▁geliştirdik	-14223
▁gezegendeki	-14224
▁görünüyordu	-14225
▁bilgisayarın	-14226
▁alabilirsiniz	-14227
ER	-14228
fə	-14229
biy	-14230
cuk	-14231
lağ	-14232
lev	-14233
ünç	-14234
▁38	-14235
▁CR	-14236
▁Vi	-14237
▁Wo	-14238
akta	-14239
esth	-14240
itan	-14241
oots	-14242
orta	-14243
reas	-14244
əndə	-14245
▁1.5	-14246
▁192	-14247
▁Pop	-14248
▁Sea	-14249
▁Sou	-14250
▁sip	-14251
▁öte	-14252
▁şap	-14253
abile	-14254
assem	-14255
ersem	-14256
ginia	-14257
madığ	-14258
posta	-14259
stone	-14260
▁Halk	-14261
▁Lego	-14262
▁Mach	-14263
▁Vict	-14264
▁Zimb	-14265
▁cous	-14266
▁dive	-14267
▁eyni	-14268
▁mülk	-14269
▁okur	-14270
▁plug	-14271
▁poly	-14272
▁suda	-14273
▁vary	-14274
▁ödey	-14275
▁üstü	-14276
ağının	-14277
dollar	-14278
ultane	-14279
▁Anlaş	-14280
▁Burda	-14281
▁Congo	-14282
▁Kitap	-14283
▁cardi	-14284
▁cunku	-14285
▁davam	-14286
▁direk	-14287
▁drawn	-14288
▁dönüm	-14289
▁elini	-14290
▁guide	-14291
▁helic	-14292
▁holds	-14293
▁minik	-14294
▁nazik	-14295
▁nəzər	-14296
▁pione	-14297
▁screw	-14298
▁sperm	-14299
▁units	-14300
▁yolun	-14301
▁şebek	-14302
larımla	-14303
▁adjust	-14304
▁domain	-14305
▁empati	-14306
▁görevl	-14307
▁günler	-14308
▁kısmen	-14309
▁locked	-14310
▁mahkem	-14311
▁motive	-14312
▁mürekk	-14313
▁neural	-14314
▁nüfusu	-14315
▁piyasa	-14316
▁reddet	-14317
lamaları	-14318
▁Genelde	-14319
▁abandon	-14320
▁ceiling	-14321
▁düşündü	-14322
▁harital	-14323
▁housing	-14324
▁inanmak	-14325
▁karınca	-14326
▁letting	-14327
▁seviyor	-14328
▁tedarik	-14329
▁tehlike	-14330
▁tutuyor	-14331
▁yepyeni	-14332
▁Virginia	-14333
▁beslenme	-14334
▁disorder	-14335
▁gerçekçi	-14336
▁kromozom	-14337
▁microbes	-14338
▁oranları	-14339
▁Enstitüsü	-14340
▁calculate	-14341
▁doktorlar	-14342
▁etmeliyiz	-14343
▁getirecek	-14344
▁highlight	-14345
▁okyanusun	-14346
▁religions	-14347
▁apparently	-14348
▁düşünürken	-14349
▁hizmetleri	-14350
▁olmasından	-14351
▁söyleyecek	-14352
▁cooperation	-14353
▁görüntüleri	-14354
▁Amerikalılar	-14355
▁başladığımda	-14356
▁presentation	-14357
gl	-14358
▁96	-14359
▁AL	-14360
▁DV	-14361
▁ED	-14362
▁Ec	-14363
ceği	-14364
erim	-14365
fill	-14366
ihad	-14367
rich	-14368
urta	-14369
viol	-14370
ərək	-14371
▁Böl	-14372
▁Che	-14373
▁Cle	-14374
▁Güç	-14375
▁Lis	-14376
▁Mol	-14377
▁Nep	-14378
▁Sok	-14379
▁phy	-14380
cohol	-14381
going	-14382
illər	-14383
lıdır	-14384
ndaki	-14385
obile	-14386
onald	-14387
ondur	-14388
opard	-14389
ordan	-14390
sters	-14391
▁Kısa	-14392
▁Soru	-14393
▁file	-14394
▁göze	-14395
▁istə	-14396
▁kiss	-14397
▁knee	-14398
▁koku	-14399
▁laid	-14400
▁mush	-14401
▁sque	-14402
▁tast	-14403
▁ultr	-14404
▁çağı	-14405
acılık	-14406
mişler	-14407
▁banks	-14408
▁dolan	-14409
▁elder	-14410
▁hakik	-14411
▁hüküm	-14412
▁imper	-14413
▁işten	-14414
▁mısır	-14415
▁piano	-14416
▁rever	-14417
▁smoke	-14418
▁teori	-14419
▁uygar	-14420
▁viral	-14421
iyorduk	-14422
ocolate	-14423
əmiyyət	-14424
▁Democr	-14425
▁Things	-14426
▁alanın	-14427
▁behave	-14428
▁fought	-14429
▁hardly	-14430
▁ismini	-14431
▁kötüsü	-14432
▁oldest	-14433
▁reveal	-14434
▁shadow	-14435
▁termin	-14436
▁vardım	-14437
▁volcan	-14438
▁çıktım	-14439
▁Atlanta	-14440
▁density	-14441
▁finance	-14442
▁gençler	-14443
▁granted	-14444
▁hanging	-14445
▁istemem	-14446
▁publish	-14447
▁rainfor	-14448
▁yapılır	-14449
▁yaratır	-14450
▁yaşadım	-14451
▁Gerçekte	-14452
▁agencies	-14453
▁focusing	-14454
▁kelimeyi	-14455
▁kuvvetli	-14456
▁parallel	-14457
▁provides	-14458
▁shoulder	-14459
▁değerleri	-14460
▁kullanılm	-14461
▁modelleri	-14462
▁resimleri	-14463
▁yaptığımı	-14464
layabiliriz	-14465
▁additional	-14466
▁bilinmeyen	-14467
▁ekonominin	-14468
▁governance	-14469
▁underlying	-14470
▁probability	-14471
▁bahsediyoruz	-14472
▁breakthrough	-14473
▁ilişkilendir	-14474
▁transparency	-14475
▁ulaşılabilir	-14476
BC	-14477
ws	-14478
lör	-14479
▁nu	-14480
alim	-14481
comp	-14482
este	-14483
hour	-14484
opol	-14485
udes	-14486
əlum	-14487
▁Bet	-14488
▁Dok	-14489
▁Tok	-14490
▁gre	-14491
▁hoc	-14492
▁içe	-14493
▁orm	-14494
▁pis	-14495
▁rəq	-14496
erial	-14497
field	-14498
ikalı	-14499
▁1999	-14500
▁Mavi	-14501
▁Türk	-14502
▁flip	-14503
▁gövd	-14504
▁ildə	-14505
▁oğlu	-14506
emeyiz	-14507
mazlar	-14508
yright	-14509
▁Fikir	-14510
▁balls	-14511
▁crops	-14512
▁innoc	-14513
▁kaybı	-14514
▁maddi	-14515
▁ndeki	-14516
▁neydi	-14517
▁nutri	-14518
▁purch	-14519
▁utter	-14520
▁yarın	-14521
forward	-14522
▁Arabic	-14523
▁Cumhur	-14524
▁Design	-14525
▁Zimbab	-14526
▁adding	-14527
▁curren	-14528
▁dragon	-14529
▁farmer	-14530
▁girdim	-14531
▁günden	-14532
▁missed	-14533
▁olacaq	-14534
▁prices	-14535
▁profit	-14536
▁yerdir	-14537
▁Problem	-14538
▁anladık	-14539
▁birliği	-14540
▁entegre	-14541
▁entered	-14542
▁etmeniz	-14543
▁kentsel	-14544
▁license	-14545
▁neither	-14546
▁printer	-14547
▁refugee	-14548
▁vessels	-14549
▁yavaşça	-14550
▁ülkeden	-14551
ildiğinde	-14552
▁Alqışlar	-14553
▁academic	-14554
▁artistic	-14555
▁değerler	-14556
▁dışarıya	-14557
▁inanıyor	-14558
▁involves	-14559
▁mutluluğ	-14560
▁northern	-14561
▁reminded	-14562
▁sizlerle	-14563
▁yoğunlaş	-14564
▁Öğretmen	-14565
▁biliyordu	-14566
▁continues	-14567
▁delivered	-14568
▁edebilmek	-14569
▁girişimci	-14570
▁affordable	-14571
▁ecosystems	-14572
▁hatırlayın	-14573
▁simulation	-14574
▁strategies	-14575
▁araştırmaya	-14576
▁consequence	-14577
▁destekleyen	-14578
▁olmalısınız	-14579
▁underground	-14580
▁Uluslararası	-14581
▁fotoğrafları	-14582
▁kendiliğinden	-14583
aşı	-14584
edy	-14585
hai	-14586
▁37	-14587
▁Ki	-14588
▁Kn	-14589
▁Oğ	-14590
fold	-14591
iran	-14592
irim	-14593
ivil	-14594
osen	-14595
oust	-14596
undu	-14597
ılaş	-14598
▁Akl	-14599
▁Cra	-14600
▁aer	-14601
▁hic	-14602
▁lok	-14603
▁nar	-14604
▁səh	-14605
cence	-14606
niyet	-14607
otion	-14608
▁Brad	-14609
▁Girl	-14610
▁debt	-14611
▁exha	-14612
▁kaya	-14613
▁sapt	-14614
▁stun	-14615
▁tabl	-14616
▁tied	-14617
▁tuna	-14618
▁çatı	-14619
arters	-14620
imetre	-14621
lektif	-14622
▁Fizik	-14623
▁alkol	-14624
▁assem	-14625
▁dikey	-14626
▁geçip	-14627
▁iyice	-14628
▁miras	-14629
▁otizm	-14630
▁oğlan	-14631
▁oğlum	-14632
▁persu	-14633
▁seats	-14634
▁sürüc	-14635
▁sıtma	-14636
unction	-14637
▁August	-14638
▁Kanser	-14639
▁Square	-14640
▁almayı	-14641
▁eradic	-14642
▁filter	-14643
▁güncel	-14644
▁hayali	-14645
▁ucunda	-14646
▁yörüng	-14647
▁ısınma	-14648
ayabilir	-14649
bileceği	-14650
memiştim	-14651
▁Mandela	-14652
▁Silicon	-14653
▁Sizlere	-14654
▁Sürekli	-14655
▁circles	-14656
▁contrad	-14657
▁fikrine	-14658
▁gücünün	-14659
▁intense	-14660
▁pointed	-14661
▁projeye	-14662
▁touched	-14663
▁tüketim	-14664
▁yaralan	-14665
oteknoloj	-14666
▁bozukluk	-14667
▁büyükann	-14668
▁confused	-14669
▁controls	-14670
▁educated	-14671
▁engeller	-14672
▁kapsamlı	-14673
▁koruyucu	-14674
▁kullanır	-14675
▁produces	-14676
▁yaparsak	-14677
▁yollarla	-14678
▁çıkardık	-14679
▁şimdiden	-14680
▁administr	-14681
▁düşüncesi	-14682
▁həqiqətən	-14683
▁increases	-14684
▁infection	-14685
▁kurtarmak	-14686
▁mechanics	-14687
▁simultane	-14688
▁yaratmaya	-14689
▁baktığımda	-14690
▁disability	-14691
▁gerektiren	-14692
▁gösterecek	-14693
▁journalist	-14694
▁performing	-14695
▁ingredients	-14696
▁spectacular	-14697
▁uzunluğunda	-14698
▁çocuklarını	-14699
▁kullanıyorum	-14700
▁yapabileceğimiz	-14701
duz	-14702
fin	-14703
nes	-14704
oll	-14705
▁ub	-14706
ilit	-14707
▁Bek	-14708
▁Haf	-14709
▁IBM	-14710
▁pey	-14711
▁qoy	-14712
▁ski	-14713
▁yos	-14714
▁yoz	-14715
▁çiç	-14716
atern	-14717
class	-14718
cının	-14719
iliğe	-14720
iydik	-14721
matik	-14722
▁Moon	-14723
▁ağız	-14724
▁earn	-14725
▁kuru	-14726
▁merc	-14727
▁spac	-14728
▁ısır	-14729
▁şair	-14730
larken	-14731
ografi	-14732
rimiçi	-14733
teries	-14734
ılarak	-14735
▁Anlat	-14736
▁Dedim	-14737
▁Italy	-14738
▁Tesla	-14739
▁burst	-14740
▁conce	-14741
▁demək	-14742
▁liver	-14743
▁marry	-14744
▁niçin	-14745
▁optik	-14746
▁pembe	-14747
▁piram	-14748
▁pizza	-14749
▁restr	-14750
▁sales	-14751
▁tatil	-14752
▁toxic	-14753
▁unpre	-14754
▁views	-14755
▁ısrar	-14756
▁şüphe	-14757
liyorum	-14758
lığımız	-14759
mediler	-14760
▁Düşünd	-14761
▁Monter	-14762
▁Sierra	-14763
▁annesi	-14764
▁açıyor	-14765
▁benzin	-14766
▁dinlem	-14767
▁emphas	-14768
▁enstit	-14769
▁esasen	-14770
▁formal	-14771
▁girmek	-14772
▁gördüy	-14773
▁gözler	-14774
▁havalı	-14775
▁kandır	-14776
▁kötüye	-14777
▁rarely	-14778
▁recept	-14779
▁rivers	-14780
▁seyret	-14781
▁toplan	-14782
▁yansım	-14783
▁yapımı	-14784
American	-14785
alısınız	-14786
larınıza	-14787
liyorlar	-14788
liğinden	-14789
▁Everest	-14790
▁Gelenek	-14791
▁aşağıda	-14792
▁büyüyor	-14793
▁guarant	-14794
▁gözleri	-14795
▁instant	-14796
▁istekli	-14797
▁işletme	-14798
▁painted	-14799
▁teorisi	-14800
▁yetecek	-14801
malarının	-14802
▁adındaki	-14803
▁endüstri	-14804
▁ilişkili	-14805
▁kurumlar	-14806
▁mushroom	-14807
▁repeated	-14808
▁tanıştır	-14809
▁bakıyorum	-14810
▁dakikalık	-14811
▁gerekecek	-14812
▁objective	-14813
▁olmalıydı	-14814
▁öğrencisi	-14815
▁düşünürsek	-14816
▁functional	-14817
▁bilgilendir	-14818
▁discoveries	-14819
▁improvement	-14820
▁photography	-14821
▁diyebilirsiniz	-14822
CA	-14823
wr	-14824
arş	-14825
gie	-14826
uar	-14827
▁Öl	-14828
▁Ür	-14829
abir	-14830
adus	-14831
aval	-14832
ctic	-14833
dakı	-14834
enti	-14835
oral	-14836
phia	-14837
▁Cha	-14838
▁McC	-14839
▁alb	-14840
▁hug	-14841
▁ism	-14842
▁kuc	-14843
▁lux	-14844
▁müt	-14845
▁tok	-14846
angle	-14847
enger	-14848
ipher	-14849
lərdə	-14850
ıydım	-14851
▁Back	-14852
▁Benj	-14853
▁Cour	-14854
▁Lord	-14855
▁Noel	-14856
▁Unut	-14857
▁dump	-14858
▁extr	-14859
▁hızı	-14860
▁kedi	-14861
▁kolu	-14862
▁sket	-14863
astern	-14864
▁Craig	-14865
▁blame	-14866
▁ekley	-14867
▁eksen	-14868
▁enfor	-14869
▁evine	-14870
▁hipot	-14871
▁naked	-14872
▁roots	-14873
▁shake	-14874
▁skept	-14875
▁thumb	-14876
▁yirmi	-14877
celadus	-14878
lıyordu	-14879
▁Depart	-14880
▁Indeed	-14881
▁Onunla	-14882
▁başıma	-14883
▁ensure	-14884
▁excell	-14885
▁haberi	-14886
▁kalkın	-14887
▁katılm	-14888
▁lezzet	-14889
▁plenty	-14890
▁repeat	-14891
▁scales	-14892
▁smooth	-14893
▁teşkil	-14894
▁vurgul	-14895
ilmiştir	-14896
lanmıştı	-14897
▁Gezegen	-14898
▁Through	-14899
▁alcohol	-14900
▁amongst	-14901
▁aptalca	-14902
▁bırakıp	-14903
▁denedim	-14904
▁finanse	-14905
▁gelmesi	-14906
▁güvende	-14907
▁hastası	-14908
▁kurmaya	-14909
▁lecture	-14910
▁tarihte	-14911
▁tümüyle	-14912
conscious	-14913
▁Muhteşem	-14914
▁Philadel	-14915
▁confront	-14916
▁diabetes	-14917
▁fabulous	-14918
▁includes	-14919
▁kabullen	-14920
▁official	-14921
▁returned	-14922
▁seçimler	-14923
▁unbeliev	-14924
orestation	-14925
▁anlıyorum	-14926
▁dayanıyor	-14927
▁dünyasına	-14928
▁ediyordum	-14929
▁istiyordu	-14930
▁keşfettim	-14931
▁maliyetli	-14932
▁tekrardan	-14933
▁telephone	-14934
▁varlığını	-14935
▁başladığım	-14936
▁gerektirir	-14937
▁insanlarda	-14938
▁politikacı	-14939
▁ridiculous	-14940
▁demonstrate	-14941
abiliyorsunuz	-14942
▁birbirlerini	-14943
▁söyleyebilir	-14944
ıq	-14945
ado	-14946
bak	-14947
lax	-14948
uba	-14949
alel	-14950
aska	-14951
gıcı	-14952
lərə	-14953
sten	-14954
ürüz	-14955
▁Alp	-14956
▁Ana	-14957
▁Bos	-14958
▁Fed	-14959
▁Hin	-14960
▁Sel	-14961
▁Sus	-14962
▁irr	-14963
▁rez	-14964
▁tea	-14965
▁təb	-14966
▁təş	-14967
▁wed	-14968
▁yit	-14969
▁çığ	-14970
▁İşe	-14971
capes	-14972
enter	-14973
irdim	-14974
isted	-14975
licit	-14976
▁Coca	-14977
▁biyo	-14978
▁gang	-14979
▁hire	-14980
▁müte	-14981
▁nets	-14982
▁peer	-14983
▁suck	-14984
ashing	-14985
maktır	-14986
▁Human	-14987
▁Yoksa	-14988
▁almaz	-14989
▁array	-14990
▁aşama	-14991
▁digit	-14992
▁halkı	-14993
▁izlem	-14994
▁metin	-14995
▁mixed	-14996
▁odaya	-14997
▁olmaq	-14998
▁opens	-14999
▁orası	-15000
▁penis	-15001
▁yerli	-15002
▁Çevre	-15003
▁üyesi	-15004
ictions	-15005
miyordu	-15006
▁Egypti	-15007
▁Friday	-15008
▁Gandhi	-15009
▁Little	-15010
▁bother	-15011
▁conven	-15012
▁discon	-15013
▁doğada	-15014
▁duvara	-15015
▁ekstra	-15016
▁extend	-15017
▁facial	-15018
▁kuşlar	-15019
▁mağara	-15020
▁mesafe	-15021
▁parçal	-15022
▁powers	-15023
▁slides	-15024
▁sözlük	-15025
▁varken	-15026
▁victim	-15027
▁yönden	-15028
▁ülkeyi	-15029
▁advance	-15030
▁anthrop	-15031
▁ağaçlar	-15032
▁consume	-15033
▁diverse	-15034
▁etmeden	-15035
▁failing	-15036
▁işliyor	-15037
▁konuyla	-15038
▁sekilde	-15039
▁soruyor	-15040
▁tragedy	-15041
▁tsunami	-15042
▁yakalay	-15043
▁aircraft	-15044
▁altından	-15045
▁appeared	-15046
▁buldular	-15047
▁düzenlem	-15048
▁herşeyin	-15049
▁kusursuz	-15050
▁kırılgan	-15051
▁mikrofon	-15052
▁sayısını	-15053
▁seviyesi	-15054
▁shooting	-15055
▁textbook	-15056
▁translat	-15057
▁yapmadan	-15058
▁çekilmiş	-15059
▁Araştırma	-15060
▁forgotten	-15061
▁geliyoruz	-15062
▁inspiring	-15063
▁olanların	-15064
▁permanent	-15065
▁terrorist	-15066
▁boundaries	-15067
[...]
